<unk>	0
<s>	0
</s>	0
▁क	-0
▁स	-1
▁म	-2
▁प	-3
▁ह	-4
्र	-5
ार	-6
▁के	-7
ें	-8
▁न	-9
या	-10
▁ब	-11
▁ज	-12
ों	-13
▁व	-14
▁द	-15
▁में	-16
▁अ	-17
▁र	-18
ान	-19
▁है	-20
र्	-21
▁ल	-22
▁की	-23
▁को	-24
्य	-25
▁ग	-26
ने	-27
िक	-28
ता	-29
▁आ	-30
▁का	-31
▁कि	-32
▁से	-33
▁प्र	-34
▁ने	-35
▁उ	-36
▁कर	-37
▁भ	-38
▁इ	-39
स्	-40
▁पर	-41
ला	-42
ना	-43
▁श	-44
क्	-45
▁त	-46
ाल	-47
ित	-48
▁च	-49
▁ए	-50
▁औ	-51
▁और	-52
वा	-53
िय	-54
त्र	-55
हा	-56
ड़	-57
िया	-58
▁वि	-59
ंग	-60
ाम	-61
ेश	-62
िल	-63
▁इस	-64
▁स्	-65
ही	-66
▁हो	-67
िए	-68
ाज	-69
ुर	-70
▁य	-71
न्	-72
▁सं	-73
▁जा	-74
▁ख	-75
ारी	-76
▁हैं	-77
ति	-78
कर	-79
ंद	-80
क्ष	-81
▁फ	-82
के	-83
्या	-84
▁भी	-85
ले	-86
▁थ	-87
री	-88
ते	-89
वार	-90
ती	-91
▁सम	-92
▁बा	-93
गा	-94
▁सा	-95
टी	-96
▁लिए	-97
सी	-98
▁किया	-99
▁नि	-100
ियों	-101
ाय	-102
िस	-103
त्	-104
▁मु	-105
▁कार	-106
नी	-107
रा	-108
▁ड	-109
हीं	-110
ोग	-111
ां	-112
▁हु	-113
ली	-114
िला	-115
ट्र	-116
ार्	-117
ाने	-118
ंत्र	-119
ुल	-120
▁अध	-121
का	-122
से	-123
▁अप	-124
▁ले	-125
▁एक	-126
▁दे	-127
▁नहीं	-128
देश	-129
▁रह	-130
ंड	-131
कार	-132
भा	-133
▁सि	-134
ष्	-135
▁कहा	-136
िन	-137
▁पह	-138
▁गया	-139
▁करने	-140
न्ह	-141
मा	-142
▁राज	-143
रो	-144
ंच	-145
गी	-146
ास	-147
वि	-148
▁उन्ह	-149
▁रा	-150
्म	-151
की	-152
ओं	-153
▁पू	-154
ंत्री	-155
▁ही	-156
्ष	-157
▁सु	-158
स्थ	-159
▁अन	-160
▁साथ	-161
ढ़	-162
िव	-163
▁घ	-164
टर	-165
ल्	-166
▁सर	-167
पी	-168
दी	-169
▁कु	-170
ोज	-171
▁रहे	-172
▁छ	-173
▁मा	-174
द्	-175
तर	-176
क्र	-177
पा	-178
▁कार्य	-179
▁बाद	-180
▁मह	-181
सा	-182
गे	-183
दा	-184
▁वाल	-185
▁ट	-186
स्त	-187
गर	-188
िर	-189
पुर	-190
जी	-191
▁दिया	-192
▁उन	-193
श्	-194
▁सी	-195
कि	-196
ौर	-197
▁ध	-198
वी	-199
ोंने	-200
ंह	-201
ेल	-202
▁हुए	-203
▁पुल	-204
▁स्थ	-205
▁उन्होंने	-206
▁अधिक	-207
▁दो	-208
▁पुलिस	-209
धान	-210
▁या	-211
र्म	-212
्री	-213
शन	-214
्त	-215
्रे	-216
▁जाए	-217
▁था	-218
्यू	-219
▁हि	-220
▁दी	-221
▁सिंह	-222
ाह	-223
ाइ	-224
भी	-225
▁भार	-226
▁बी	-227
▁मिल	-228
ाना	-229
रे	-230
▁लोग	-231
▁यह	-232
▁बता	-233
जा	-234
▁निर्	-235
▁उप	-236
ाई	-237
मंत्री	-238
ंध	-239
▁सरकार	-240
▁मुख	-241
में	-242
▁चु	-243
ानी	-244
ीन	-245
▁बै	-246
स्ट	-247
▁गई	-248
र्व	-249
च्	-250
▁मो	-251
द्र	-252
▁रही	-253
▁मौ	-254
क्षा	-255
▁तो	-256
ाप	-257
मार	-258
िंग	-259
▁उत्	-260
▁क्ष	-261
वं	-262
हर	-263
र्ट	-264
नों	-265
ड़ी	-266
▁रहा	-267
▁पा	-268
▁द्	-269
कों	-270
ष्ट्र	-271
ंप	-272
▁प्रदेश	-273
्यक्ष	-274
▁मुख्य	-275
चार	-276
वे	-277
▁लेकर	-278
नि	-279
▁अपने	-280
ेत्र	-281
▁आय	-282
▁सक	-283
▁होने	-284
▁लगा	-285
क्त	-286
▁तक	-287
▁पहु	-288
▁बताया	-289
वारा	-290
एम	-291
टे	-292
▁वाले	-293
▁बि	-294
▁शिक	-295
▁पहुंच	-296
▁क्षेत्र	-297
बंध	-298
▁जो	-299
लय	-300
ड़ा	-301
हां	-302
ोक	-303
▁इसके	-304
कारी	-305
्रेस	-306
▁जिस	-307
▁बे	-308
बा	-309
▁लोगों	-310
▁माम	-311
▁पी	-312
▁कम	-313
▁दौर	-314
▁द्वारा	-315
▁मे	-316
▁एवं	-317
ूर	-318
िका	-319
▁प्रति	-320
▁सो	-321
ेंगे	-322
्स	-323
डी	-324
▁टी	-325
▁पार्	-326
▁परि	-327
▁गए	-328
▁अनु	-329
▁राज्य	-330
▁बार	-331
वर	-332
िम	-333
िप	-334
िल्	-335
एस	-336
▁व्य	-337
▁थी	-338
▁जान	-339
▁साम	-340
क्रम	-341
▁थे	-342
▁कांग	-343
बर	-344
द्ध	-345
▁सह	-346
ीय	-347
ूल	-348
ज़	-349
▁आप	-350
▁खिला	-351
िश	-352
▁उस	-353
ंस	-354
▁अभ	-355
▁बन	-356
▁जिला	-357
▁ट्र	-358
▁कांग्रेस	-359
▁ओ	-360
्यालय	-361
▁सभी	-362
▁पहले	-363
▁ग्र	-364
▁दु	-365
▁अम	-366
खा	-367
्ल	-368
▁इन	-369
▁वर्	-370
▁दौरान	-371
▁करते	-372
▁जी	-373
▁गां	-374
▁ला	-375
जन	-376
ोल	-377
ंदी	-378
▁अं	-379
वाल	-380
▁बढ़	-381
▁बना	-382
▁हा	-383
▁देश	-384
भाग	-385
▁जन	-386
ंद्र	-387
▁भारत	-388
ेट	-389
ड़े	-390
च्च	-391
▁दिन	-392
▁राष्ट्र	-393
ूप	-394
▁शुर	-395
▁विक	-396
▁गु	-397
▁अध्यक्ष	-398
▁हम	-399
नाव	-400
बी	-401
▁कै	-402
▁कुमार	-403
▁हुई	-404
स्प	-405
जे	-406
किन	-407
▁मै	-408
▁न्यू	-409
▁।	-410
टा	-411
▁आरो	-412
िल्ली	-413
▁अब	-414
वाई	-415
ोर	-416
▁चाह	-417
▁दिल्ली	-418
▁इं	-419
▁कई	-420
▁महिला	-421
▁मंत्री	-422
▁शाम	-423
ताल	-424
▁लेकिन	-425
▁वे	-426
ंक	-427
▁स्वा	-428
▁एस	-429
सर	-430
▁सू	-431
ानों	-432
को	-433
ारियों	-434
▁सुर	-435
▁बैठ	-436
तीय	-437
▁तर	-438
▁होगा	-439
▁पूर्व	-440
एं	-441
ताओं	-442
▁प्रधान	-443
दार	-444
▁स्थित	-445
▁मुख्यमंत्री	-446
▁शिक्ष	-447
▁महा	-448
▁अपनी	-449
▁हर	-450
▁बात	-451
र्स	-452
▁पार्टी	-453
वाद	-454
▁उनके	-455
र्थ	-456
जू	-457
▁छा	-458
आई	-459
शी	-460
▁विभाग	-461
ेर	-462
▁तै	-463
▁अव	-464
▁उन्हें	-465
▁दर्	-466
▁मांग	-467
ेंद्र	-468
▁लिया	-469
▁रख	-470
ेशन	-471
धी	-472
चा	-473
▁काम	-474
मान	-475
▁चुनाव	-476
▁खिलाफ	-477
धार	-478
ोट	-479
ायत	-480
प्	-481
▁जाने	-482
▁डॉ	-483
▁हिंदी	-484
पाल	-485
िट	-486
▁बु	-487
▁कोरो	-488
ाजपा	-489
▁सब	-490
▁शुरू	-491
▁चौ	-492
▁मामले	-493
ूस	-494
▁प्रद	-495
▁जाएगा	-496
▁भा	-497
▁यु	-498
हार	-499
ज्	-500
▁कोरोना	-501
▁प्रश	-502
▁चल	-503
स्था	-504
ीड	-505
हत	-506
▁कुछ	-507
▁भाजपा	-508
प्र	-509
ून	-510
▁शु	-511
्मी	-512
▁जु	-513
क्टर	-514
▁आयोज	-515
यर	-516
ैन	-517
जर	-518
दि	-519
धिक	-520
▁दि	-521
▁किस	-522
▁देख	-523
▁छात्र	-524
गत	-525
▁जानकारी	-526
▁हुआ	-527
था	-528
▁लग	-529
द्य	-530
▁ना	-531
▁कॉ	-532
मी	-533
श्व	-534
▁पु	-535
▁आरोप	-536
िता	-537
ूर्	-538
▁वह	-539
दे	-540
▁नाम	-541
ियां	-542
▁श्री	-543
वन	-544
▁रूप	-545
ये	-546
▁जब	-547
ोजना	-548
▁कार्यक्रम	-549
▁अन्य	-550
▁तीन	-551
न्न	-552
ोर्ट	-553
▁भारतीय	-554
भाव	-555
▁न्यूज़	-556
▁बह	-557
▁जर	-558
▁शामिल	-559
िले	-560
▁स्ट	-561
▁जारी	-562
▁कोई	-563
▁कर्म	-564
सभा	-565
ासन	-566
▁आई	-567
▁टीम	-568
▁स्क	-569
▁उत्तर	-570
▁अधिकारी	-571
▁समय	-572
ारा	-573
▁मान	-574
▁ग्राम	-575
▁करना	-576
▁फिल	-577
▁किसी	-578
▁जांच	-579
सार	-580
▁विध	-581
णा	-582
▁गो	-583
क्स	-584
▁संबंध	-585
▁राम	-586
▁निय	-587
▁बैठक	-588
मु	-589
▁सद	-590
▁क्र	-591
योग	-592
ब्	-593
वास	-594
लों	-595
▁फै	-596
▁खु	-597
▁किए	-598
▁मोदी	-599
टना	-600
▁आज	-601
▁केंद्र	-602
ृत	-603
ध्य	-604
▁गिर	-605
▁ठ	-606
▁बीच	-607
▁स्व	-608
▁तैय	-609
▁यहां	-610
कर्	-611
ुक्त	-612
ुरु	-613
▁देने	-614
▁व्यव	-615
▁अस्प	-616
▁रो	-617
▁निर्देश	-618
▁वा	-619
▁बच्च	-620
ूम	-621
्यों	-622
▁प्रत	-623
▁अस्पताल	-624
क्ति	-625
▁डी	-626
▁प्रधानमंत्री	-627
ंट	-628
▁ये	-629
▁वाली	-630
स्तान	-631
शे	-632
▁तरह	-633
▁करा	-634
▁विकास	-635
ग्र	-636
▁वै	-637
त्व	-638
▁गांव	-639
▁कंप	-640
जूद	-641
▁निक	-642
ंब	-643
▁प्रा	-644
▁कह	-645
र्ड	-646
▁होगी	-647
फी	-648
▁चाहिए	-649
्ड	-650
खंड	-651
धा	-652
द्यालय	-653
▁तथा	-654
च्छ	-655
▁पां	-656
फ्त	-657
ेज	-658
▁संग	-659
▁दोनों	-660
मिक	-661
माण	-662
▁सुरक्षा	-663
चना	-664
ोष	-665
▁कारण	-666
ीक्षा	-667
▁जिले	-668
स्थ्य	-669
▁योजना	-670
▁पत्र	-671
▁मन	-672
▁कार्र	-673
ष्ठ	-674
िज	-675
▁करें	-676
▁ता	-677
▁नई	-678
▁कार्रवाई	-679
▁जै	-680
▁बो	-681
▁दूस	-682
ुत	-683
▁रु	-684
निया	-685
▁स्वास्थ्य	-686
▁स्कूल	-687
ाली	-688
▁पास	-689
▁घर	-690
▁अधिकारियों	-691
▁विश्व	-692
▁नेता	-693
▁पद	-694
▁लि	-695
म्	-696
▁नगर	-697
▁पै	-698
ायक	-699
ेंट	-700
क्षण	-701
▁आर	-702
करण	-703
▁फिल्म	-704
दान	-705
▁बद	-706
▁उनकी	-707
ोध	-708
बाद	-709
जय	-710
▁यू	-711
▁मंद	-712
वान	-713
र्शन	-714
ेत	-715
▁पंच	-716
▁वहीं	-717
▁उम	-718
▁याद	-719
▁ओर	-720
▁जम	-721
▁साल	-722
▁लोक	-723
ष्ट	-724
▁पि	-725
त्रा	-726
ायर	-727
▁नी	-728
▁मंदिर	-729
्याप	-730
ंत	-731
आर	-732
चिव	-733
्ला	-734
▁दिए	-735
ार्थ	-736
▁इससे	-737
▁पाकि	-738
ेंस	-739
ंगल	-740
▁दर्ज	-741
▁मार्	-742
पति	-743
▁गिरफ्त	-744
ची	-745
रण	-746
▁राष्ट्रीय	-747
स्ता	-748
क्ट	-749
स्ट्र	-750
चित	-751
मुख	-752
▁ई	-753
▁इला	-754
ंगे	-755
शेष	-756
ालय	-757
▁रिप	-758
▁सदस	-759
ंज	-760
ियो	-761
त्म	-762
▁श्र	-763
गढ़	-764
स्क	-765
▁पढ़	-766
▁न्या	-767
्यादा	-768
ोड़	-769
▁मिले	-770
न्द्र	-771
▁सबसे	-772
▁विशेष	-773
शा	-774
▁योग	-775
▁करेंगे	-776
▁शहर	-777
▁सकता	-778
▁सम्म	-779
लेज	-780
▁अला	-781
तार	-782
▁प्रदर्शन	-783
▁दिव	-784
▁प्रशासन	-785
▁विरो	-786
िति	-787
▁शर्	-788
▁आदि	-789
पर	-790
वासी	-791
▁जाएगी	-792
▁अनुसार	-793
▁-	-794
▁इस्	-795
▁व्यवस्था	-796
▁चार	-797
ेन	-798
▁शिक्षा	-799
▁सफ	-800
▁अलावा	-801
▁अल	-802
ियर	-803
▁जाता	-804
ुक	-805
मेंट	-806
▁हों	-807
▁मौजूद	-808
▁रवि	-809
▁ज्यादा	-810
▁यादव	-811
नाथ	-812
▁ब्र	-813
▁हाला	-814
▁परीक्षा	-815
▁विधान	-816
▁थाना	-817
▁रिपोर्ट	-818
▁विधायक	-819
▁पूरी	-820
दन	-821
▁आए	-822
▁कान	-823
ेड	-824
लो	-825
▁डा	-826
▁चे	-827
▁पंचायत	-828
▁पुर	-829
▁घटना	-830
▁गुरु	-831
▁वर्ष	-832
▁ली	-833
▁उठ	-834
▁सहित	-835
▁पहुंचे	-836
▁इंड	-837
ोह	-838
▁आने	-839
▁बनाने	-840
▁मज	-841
▁फिर	-842
ंकि	-843
बाज	-844
▁सौ	-845
▁अपना	-846
▁शर्मा	-847
रि	-848
ग्	-849
▁मंत्र	-850
▁बिहार	-851
ीण	-852
▁करे	-853
▁सकते	-854
ेस	-855
पूर्	-856
▁कृ	-857
▁तहत	-858
▁पाकिस्तान	-859
▁गांधी	-860
ड़क	-861
▁परिवार	-862
▁पिछ	-863
तिक	-864
▁सामने	-865
▁दा	-866
▁सेवा	-867
▁सोम	-868
▁समाज	-869
र्चा	-870
▁टे	-871
▁ग्रामीण	-872
लाइ	-873
▁एन	-874
▁काफी	-875
▁अमेर	-876
फ्	-877
▁नर	-878
▁तैयार	-879
▁प्रमुख	-880
ख्या	-881
ियान	-882
्रा	-883
▁पांच	-884
▁प्रो	-885
ाइन	-886
▁इसमें	-887
वल	-888
▁शिव	-889
र्य	-890
▁कार्यकर्	-891
ाप्त	-892
▁मौके	-893
▁गिरफ्तार	-894
्रीय	-895
जार	-896
▁मीड	-897
▁मंगल	-898
▁निर्माण	-899
▁शुक्र	-900
▁विधानसभा	-901
भि	-902
▁बच्चों	-903
ताब	-904
र्क	-905
▁अफ	-906
▁आयोजित	-907
टन	-908
णी	-909
हम	-910
▁बंद	-911
▁मीडिया	-912
▁जग	-913
क्सी	-914
▁बारे	-915
ध्यक्ष	-916
स्थान	-917
▁व्याप	-918
▁शा	-919
▁सचिव	-920
▁विरोध	-921
ेम	-922
▁कप	-923
ित्	-924
पूर्ण	-925
▁सोमवार	-926
एन	-927
▁प्रभ	-928
श्य	-929
▁क्यों	-930
▁रेल	-931
▁अग	-932
तरा	-933
वेश	-934
▁पं	-935
प्ता	-936
बू	-937
▁स्प	-938
▁शुक्रवार	-939
▁सै	-940
▁बाज	-941
स्या	-942
▁किसानों	-943
डा	-944
▁उम्मी	-945
धि	-946
▁जिसमें	-947
▁उम्मीद	-948
▁बर	-949
▁कोर्ट	-950
▁अभियान	-951
▁बेह	-952
ूट	-953
▁आधार	-954
हन	-955
▁कार्यालय	-956
▁उसके	-957
▁कल	-958
चाल	-959
तन	-960
ियन	-961
▁होता	-962
िये	-963
▁सर्व	-964
त्या	-965
ंडल	-966
काल	-967
▁विभि	-968
▁आयोजन	-969
▁समिति	-970
शल	-971
ोन	-972
▁इसी	-973
▁मत	-974
▁फैस	-975
▁संघ	-976
रीज	-977
▁संगठ	-978
▁राजनी	-979
▁मंगलवार	-980
▁प्रया	-981
▁आत	-982
त्री	-983
विद्यालय	-984
ंबर	-985
▁खा	-986
ारे	-987
▁पड़	-988
गम	-989
▁एम	-990
▁समस्या	-991
▁शिकायत	-992
▁बुध	-993
▁हालांकि	-994
▁आम	-995
▁दिख	-996
▁केंद	-997
▁विभिन्न	-998
▁शनि	-999
दारी	-1000
काश	-1001
▁सूचना	-1002
लि	-1003
▁पाल	-1004
▁जहां	-1005
ांत	-1006
यी	-1007
▁खेल	-1008
▁कॉलेज	-1009
▁चिक	-1010
▁पो	-1011
▁बड़ी	-1012
कान	-1013
▁केंद्रीय	-1014
▁स्थिति	-1015
▁उनका	-1016
▁अर	-1017
यन	-1018
▁घोष	-1019
▁कंपनी	-1020
▁अभि	-1021
▁जल्	-1022
▁उपल	-1023
▁डि	-1024
डे	-1025
▁बहुत	-1026
▁संय	-1027
▁सांस	-1028
▁पिछले	-1029
▁प्रभाव	-1030
▁बुधवार	-1031
▁मद	-1032
▁सदस्य	-1033
ताबिक	-1034
▁मुताबिक	-1035
▁रोक	-1036
▁वाह	-1037
▁अच्छ	-1038
ंका	-1039
▁अस	-1040
▁सुब	-1041
▁आदेश	-1042
▁सरकारी	-1043
▁जय	-1044
ट्	-1045
न्द	-1046
▁शनिवार	-1047
▁भर	-1048
▁नौ	-1049
▁सम्मान	-1050
▁संक्रम	-1051
▁संख्या	-1052
▁वी	-1053
▁होंगे	-1054
वीर	-1055
ाइल	-1056
▁पे	-1057
वर्	-1058
▁कराया	-1059
▁हाल	-1060
िकल	-1061
ंगा	-1062
▁सहयोग	-1063
कर्म	-1064
दों	-1065
र्फ	-1066
▁समर्थ	-1067
▁रुप	-1068
▁महिलाओं	-1069
▁लगाया	-1070
धिकारी	-1071
▁युवा	-1072
▁सकती	-1073
ूरत	-1074
ार्ड	-1075
▁उपलब्	-1076
▁मिली	-1077
▁रविवार	-1078
▁वीड	-1079
▁मध्य	-1080
▁जनता	-1081
ूरी	-1082
ैंड	-1083
▁राष्ट्रपति	-1084
▁सीएम	-1085
▁माध्य	-1086
▁अति	-1087
एल	-1088
लाइन	-1089
▁युव	-1090
ियम	-1091
▁रि	-1092
▁होती	-1093
चारियों	-1094
▁मौत	-1095
▁संचाल	-1096
▁डे	-1097
▁दिनों	-1098
ार्ट	-1099
शि	-1100
▁चि	-1101
▁निवासी	-1102
ॉक	-1103
▁जागर	-1104
▁इसे	-1105
▁बैंक	-1106
▁लेने	-1107
क्षक	-1108
▁हाई	-1109
▁कराने	-1110
यान	-1111
▁किसान	-1112
ल्प	-1113
▁दर	-1114
▁मि	-1115
▁नरेंद्र	-1116
▁बॉ	-1117
▁बाजार	-1118
▁जे	-1119
▁प्राप्त	-1120
यू	-1121
▁उसे	-1122
▁प्रभारी	-1123
▁ज्	-1124
▁लाभ	-1125
स्थित	-1126
▁जैसे	-1127
▁यात्रा	-1128
▁शि	-1129
▁विद्य	-1130
▁भूम	-1131
▁राह	-1132
▁नजर	-1133
▁करी	-1134
▁अभी	-1135
्यान	-1136
▁मिलने	-1137
▁अंतर	-1138
▁जि	-1139
▁दूसरे	-1140
ुआ	-1141
▁समेत	-1142
▁कर्मचारियों	-1143
▁वीडियो	-1144
विधा	-1145
ल्ड	-1146
▁चला	-1147
द्योग	-1148
▁चर्चा	-1149
▁भे	-1150
▁क्या	-1151
▁जल्द	-1152
लिए	-1153
▁आद	-1154
हरा	-1155
▁धर्म	-1156
सि	-1157
▁भाग	-1158
▁उपलब्ध	-1159
▁कहना	-1160
ृह	-1161
हाय	-1162
▁प्रयास	-1163
▁जिम	-1164
▁सुबह	-1165
▁मिला	-1166
▁वायर	-1167
▁राय	-1168
षद	-1169
▁संवाद	-1170
▁अवसर	-1171
▁ढ	-1172
▁पूरा	-1173
▁बाल	-1174
▁आग	-1175
▁मदद	-1176
▁रे	-1177
▁रहने	-1178
▁बाहर	-1179
षि	-1180
▁स्तर	-1181
रिक	-1182
▁बस	-1183
▁गै	-1184
▁मामला	-1185
▁मार	-1186
▁आगे	-1187
बे	-1188
▁बल्	-1189
तों	-1190
▁ती	-1191
मारी	-1192
▁पूर्	-1193
िकी	-1194
▁विदेश	-1195
राज	-1196
▁नए	-1197
▁सुविधा	-1198
र्जी	-1199
राब	-1200
सं	-1201
▁सें	-1202
▁हिस्	-1203
▁जल	-1204
▁जिन	-1205
श्मी	-1206
ायल	-1207
▁व्यक्ति	-1208
▁रै	-1209
▁दल	-1210
ंदर	-1211
▁इसकी	-1212
हित	-1213
बंधन	-1214
▁संबंधित	-1215
▁लख	-1216
्मे	-1217
ंडी	-1218
▁क्रिक	-1219
▁वहां	-1220
▁इसका	-1221
रिया	-1222
▁न्याया	-1223
▁परेश	-1224
▁वित	-1225
▁लगातार	-1226
▁संप	-1227
▁हजार	-1228
एफ	-1229
▁लड़	-1230
▁महत्व	-1231
▁मरीज	-1232
▁बिज	-1233
क्ता	-1234
▁हत्या	-1235
▁सहाय	-1236
▁वरि	-1237
िक्ष	-1238
▁गुरुवार	-1239
▁प्रतिनि	-1240
▁लाख	-1241
▁जगह	-1242
ंभ	-1243
सल	-1244
▁रात	-1245
▁देते	-1246
▁विश्वविद्यालय	-1247
▁छात्रों	-1248
▁उच्च	-1249
▁मुद्	-1250
▁सड़क	-1251
▁इंटर	-1252
▁वरिष्ठ	-1253
षण	-1254
▁आस	-1255
जेपी	-1256
▁नियम	-1257
षा	-1258
▁आव	-1259
▁लाल	-1260
▁सांसद	-1261
िटी	-1262
▁सुन	-1263
▁बयान	-1264
क्ट्र	-1265
्रम	-1266
र्च	-1267
माल	-1268
▁सके	-1269
पक्ष	-1270
▁तस्	-1271
▁इसलिए	-1272
▁क्योंकि	-1273
ेंड	-1274
गार	-1275
श्यक	-1276
तम	-1277
▁हाथ	-1278
वेदन	-1279
▁जीवन	-1280
र्ष	-1281
▁एज	-1282
▁मेड	-1283
▁ध्यान	-1284
ोब	-1285
▁गं	-1286
▁करता	-1287
▁उत्तरा	-1288
कु	-1289
▁माल	-1290
▁नेताओं	-1291
▁अलग	-1292
▁बोर्ड	-1293
श्मीर	-1294
▁लगे	-1295
तृ	-1296
▁माह	-1297
ांस	-1298
▁राहुल	-1299
▁अगर	-1300
▁उठा	-1301
▁आतंक	-1302
▁विद्यालय	-1303
ूं	-1304
▁गा	-1305
वादी	-1306
▁पत्	-1307
▁शे	-1308
▁कोवि	-1309
▁बीजेपी	-1310
▁निरी	-1311
▁करीब	-1312
▁होते	-1313
▁चलते	-1314
▁मुला	-1315
▁पानी	-1316
ानीय	-1317
▁जिम्मे	-1318
ियोग	-1319
▁जबकि	-1320
वत	-1321
स्ताव	-1322
धन	-1323
▁बनाया	-1324
▁नार	-1325
▁पट	-1326
▁प्रस्ताव	-1327
▁शाह	-1328
▁बढ़ा	-1329
▁स्थानीय	-1330
▁जिसके	-1331
ुन	-1332
क्शन	-1333
▁मिश	-1334
▁खरी	-1335
श्च	-1336
▁जवा	-1337
▁जीत	-1338
▁शी	-1339
▁मंत्रालय	-1340
▁पेश	-1341
▁संगठन	-1342
▁माध्यम	-1343
हरी	-1344
▁सत	-1345
दाय	-1346
वाह	-1347
र्श	-1348
▁सोशल	-1349
ूक	-1350
चारी	-1351
▁दें	-1352
▁श्रद्ध	-1353
वरी	-1354
▁सफल	-1355
ोस	-1356
▁आवश्यक	-1357
जह	-1358
▁ट्	-1359
▁बल	-1360
▁निगम	-1361
उन	-1362
▁बजे	-1363
▁कुल	-1364
ेक	-1365
खिल	-1366
▁अर्	-1367
एच	-1368
फा	-1369
भीर	-1370
नगर	-1371
ष्ण	-1372
▁पूरे	-1373
▁भग	-1374
ांति	-1375
र्या	-1376
▁पार	-1377
▁कृषि	-1378
▁इंडिया	-1379
▁रखने	-1380
▁विचार	-1381
▁बने	-1382
▁अमेरिका	-1383
ुओं	-1384
इट	-1385
क्रिया	-1386
▁पहली	-1387
▁स्थान	-1388
ंबई	-1389
▁रेलवे	-1390
▁दिवस	-1391
▁दूर	-1392
▁कार्यकर्ताओं	-1393
▁अहम	-1394
▁आया	-1395
▁खान	-1396
▁मैं	-1397
ृति	-1398
▁गठ	-1399
▁वालों	-1400
▁मी	-1401
िकों	-1402
▁नव	-1403
त्ता	-1404
▁वो	-1405
▁पक्ष	-1406
▁बड़े	-1407
तेमाल	-1408
▁उत्तराखंड	-1409
दु	-1410
भर	-1411
▁इस्तेमाल	-1412
मो	-1413
▁दुर्	-1414
▁हमार	-1415
▁क्	-1416
▁खबर	-1417
▁धन	-1418
▁प्रक्रिया	-1419
▁मना	-1420
साद	-1421
ांड	-1422
स्टर	-1423
▁वजह	-1424
्यो	-1425
▁गंभीर	-1426
▁संयुक्त	-1427
िसर	-1428
▁आरोपी	-1429
नेट	-1430
▁नागर	-1431
▁भर्	-1432
▁मुक	-1433
▁सेना	-1434
मर	-1435
▁पक	-1436
▁दिल	-1437
▁बच	-1438
क्षित	-1439
▁जिससे	-1440
फर	-1441
▁जरूरत	-1442
▁पदा	-1443
घा	-1444
▁दुनिया	-1445
▁आपको	-1446
ोलन	-1447
▁निर्ण	-1448
सम	-1449
▁मुंबई	-1450
▁मही	-1451
गंज	-1452
जि	-1453
▁लखन	-1454
▁जाएंगे	-1455
▁फैसला	-1456
टेड	-1457
ापन	-1458
▁वाला	-1459
▁क्रिकेट	-1460
ानि	-1461
ष्ट्रीय	-1462
▁बड़ा	-1463
टक	-1464
▁लाइ	-1465
▁स्थाप	-1466
▁छो	-1467
स्कार	-1468
▁विवाद	-1469
िशा	-1470
▁कर्मचारी	-1471
▁खुद	-1472
▁यून	-1473
▁पूछ	-1474
▁पीएम	-1475
▁देव	-1476
▁संब	-1477
व्य	-1478
▁ची	-1479
तृत्व	-1480
▁कानून	-1481
ुरा	-1482
▁वाप	-1483
▁मार्ग	-1484
गू	-1485
ेश्	-1486
▁त्र	-1487
▁एक्स	-1488
▁तेज	-1489
धियों	-1490
▁कले	-1491
ॉल	-1492
ण्ड	-1493
इक	-1494
▁प्रतियोग	-1495
▁राजस्थान	-1496
▁जता	-1497
्प	-1498
ठी	-1499
तंत्र	-1500
फ़	-1501
ित्र	-1502
▁ब्ल	-1503
▁रोड	-1504
तरी	-1505
लाल	-1506
दम	-1507
▁सीट	-1508
▁नेतृत्व	-1509
▁लिख	-1510
▁समा	-1511
▁जाती	-1512
नर	-1513
▁होना	-1514
▁क्षेत्रों	-1515
▁भर्ती	-1516
लाई	-1517
▁उद्	-1518
श्वास	-1519
▁जाना	-1520
▁परिषद	-1521
▁बिजली	-1522
▁गृह	-1523
करी	-1524
दाता	-1525
▁कोविड	-1526
चान	-1527
▁आंद	-1528
▁आयोग	-1529
▁लगाने	-1530
नलाइन	-1531
थमिक	-1532
▁बेहतर	-1533
▁रोज	-1534
▁डॉक्टर	-1535
▁दुकान	-1536
▁उल्	-1537
▁पंजा	-1538
ारोह	-1539
▁रखा	-1540
तियों	-1541
ूह	-1542
▁प्राथमिक	-1543
▁उत्पा	-1544
▁प्रकाश	-1545
▁उपा	-1546
▁स्म	-1547
▁कंपन	-1548
▁भेज	-1549
▁बनाए	-1550
▁तौर	-1551
▁हे	-1552
▁उम्मीदवार	-1553
बाजी	-1554
▁उपस्थित	-1555
▁विद्यार्थ	-1556
▁कोश	-1557
▁परिव	-1558
▁निर्णय	-1559
▁सीमा	-1560
▁वन	-1561
▁सवाल	-1562
▁समारोह	-1563
दीप	-1564
प्री	-1565
▁अंत	-1566
▁निश	-1567
▁शुभ	-1568
ामा	-1569
▁करके	-1570
भव	-1571
मति	-1572
▁अग्र	-1573
▁नोट	-1574
▁दूसरी	-1575
▁संत	-1576
▁बिना	-1577
▁संक	-1578
ोरी	-1579
▁चीन	-1580
▁तत्	-1581
जनों	-1582
▁ट्रेन	-1583
मन	-1584
▁चुके	-1585
▁प्रभावित	-1586
▁न्याय	-1587
▁आंदोलन	-1588
यों	-1589
▁विजय	-1590
▁टेस्ट	-1591
▁रहेगा	-1592
ंटे	-1593
▁राजनीतिक	-1594
बल	-1595
हान	-1596
श्चित	-1597
ंकर	-1598
▁मेडिकल	-1599
▁एयर	-1600
शनल	-1601
▁स्टेशन	-1602
▁आर्थ	-1603
ुड	-1604
▁समर्थन	-1605
▁प्रसाद	-1606
नात	-1607
▁करती	-1608
▁प्रशिक्ष	-1609
त्ति	-1610
मता	-1611
▁ठा	-1612
▁कर्	-1613
▁छोड़	-1614
ूर्ति	-1615
▁दिखा	-1616
▁महत्वपूर्ण	-1617
▁मूल	-1618
▁जवाब	-1619
▁गि	-1620
▁तरफ	-1621
▁मैच	-1622
▁वैक्सी	-1623
कात	-1624
चर	-1625
सू	-1626
▁प्रकार	-1627
▁साह	-1628
▁तस्वीर	-1629
▁चै	-1630
▁निजी	-1631
▁परिसर	-1632
▁संक्रमण	-1633
कत	-1634
तिम	-1635
▁सामान	-1636
देशक	-1637
▁गुप्ता	-1638
ब्ल	-1639
▁पोस्ट	-1640
▁हरिया	-1641
धानी	-1642
▁ग्रामीणों	-1643
▁आर्थिक	-1644
▁सात	-1645
▁लक्ष	-1646
▁क्ल	-1647
चार्य	-1648
▁संभाव	-1649
ंव	-1650
▁वृ	-1651
▁मां	-1652
▁यूपी	-1653
▁एड	-1654
चल	-1655
▁अपरा	-1656
▁कोशिश	-1657
ील	-1658
▁ज़	-1659
▁पहुंची	-1660
ूत	-1661
श्चिम	-1662
▁खास	-1663
▁छात्रा	-1664
▁पंजाब	-1665
्ले	-1666
▁देखते	-1667
▁घोषणा	-1668
▁मुलाकात	-1669
▁देशों	-1670
▁सभा	-1671
▁भगवान	-1672
▁पॉ	-1673
▁फर	-1674
ग्री	-1675
▁कौ	-1676
▁तैयारी	-1677
▁करोड़	-1678
ंता	-1679
त्मक	-1680
▁चाल	-1681
▁अंतिम	-1682
▁गति	-1683
▁चा	-1684
ेंसी	-1685
ंदा	-1686
ंगी	-1687
▁अद	-1688
नियर	-1689
▁बंग	-1690
▁उसकी	-1691
मे	-1692
सिक	-1693
▁लिये	-1694
▁आवेदन	-1695
▁फी	-1696
▁फोट	-1697
▁सूत्र	-1698
▁जुड़े	-1699
साय	-1700
धर	-1701
▁थाने	-1702
चिका	-1703
▁वाहन	-1704
▁भो	-1705
ोधित	-1706
वाही	-1707
▁युवक	-1708
टल	-1709
▁दक्ष	-1710
▁बचा	-1711
▁एसडी	-1712
▁पीड़	-1713
▁सैन	-1714
▁जन्	-1715
ेश्वर	-1716
▁महीने	-1717
▁जरूरी	-1718
▁आश	-1719
▁शुरुआ	-1720
▁तरी	-1721
▁मजबू	-1722
▁मंडल	-1723
▁याचिका	-1724
▁चंद्र	-1725
कीय	-1726
▁दीप	-1727
▁पश्चिम	-1728
▁प्रवेश	-1729
ड़ियों	-1730
थि	-1731
▁देकर	-1732
▁ते	-1733
▁निरीक्षण	-1734
▁पूजा	-1735
ाजिक	-1736
▁होकर	-1737
▁राज्यों	-1738
▁अश	-1739
▁मिलेगा	-1740
▁हॉ	-1741
▁प्रतियोगिता	-1742
देव	-1743
▁हमला	-1744
▁हिस्सा	-1745
फे	-1746
▁गयी	-1747
▁विष	-1748
▁ट्रै	-1749
▁योगी	-1750
▁धर	-1751
▁तम	-1752
▁वायरस	-1753
▁मरीजों	-1754
्मू	-1755
▁उपयोग	-1756
▁महारा	-1757
▁जेल	-1758
▁मोब	-1759
▁राशि	-1760
ैया	-1761
▁शिक्षक	-1762
▁अधिकार	-1763
▁भूमिका	-1764
न्ना	-1765
▁शासन	-1766
▁तब	-1767
▁कश्मीर	-1768
ुट	-1769
पोर्ट	-1770
ित्य	-1771
सव	-1772
राम	-1773
▁पहुंचा	-1774
किंग	-1775
▁हमारे	-1776
▁चुन	-1777
▁तह	-1778
▁पर्य	-1779
▁हरियाणा	-1780
वरण	-1781
▁लौ	-1782
▁जम्मू	-1783
▁शांति	-1784
ल्स	-1785
▁ड्र	-1786
▁भारी	-1787
▁विज्	-1788
ष्य	-1789
▁छह	-1790
रल	-1791
▁प्रदान	-1792
▁इलाज	-1793
▁सेंटर	-1794
चीत	-1795
▁रिक	-1796
त्ती	-1797
▁भवन	-1798
वुड	-1799
▁पत्नी	-1800
गल	-1801
▁कला	-1802
▁करेगी	-1803
धरी	-1804
हाल	-1805
▁मं	-1806
▁बातचीत	-1807
▁रण	-1808
एसपी	-1809
प्ताह	-1810
▁सिर्फ	-1811
▁मश	-1812
▁अभिने	-1813
▁न्यायालय	-1814
अल	-1815
▁रुपये	-1816
▁पत्रकार	-1817
▁लगी	-1818
▁देवी	-1819
▁बज	-1820
▁गण	-1821
▁सुप्री	-1822
▁करेगा	-1823
▁लोकसभा	-1824
▁संस्था	-1825
▁भु	-1826
▁विस्त	-1827
▁कार्ड	-1828
▁स्वी	-1829
ारखंड	-1830
▁सर्	-1831
ड़ों	-1832
▁व्यक्त	-1833
जाम	-1834
ितों	-1835
▁सला	-1836
ेटी	-1837
▁पूर्ण	-1838
चन	-1839
ंसा	-1840
वाली	-1841
▁कट	-1842
रों	-1843
▁घायल	-1844
चे	-1845
▁उद्योग	-1846
▁संस	-1847
▁करवा	-1848
▁जाते	-1849
▁सामाजिक	-1850
▁दक्षि	-1851
▁मोबाइल	-1852
▁महाराष्ट्र	-1853
सान	-1854
▁प्रत्या	-1855
र्ग	-1856
वाने	-1857
▁प्रव	-1858
▁सदस्यों	-1859
जरी	-1860
▁बाव	-1861
▁चौधरी	-1862
▁पर्या	-1863
▁गौर	-1864
▁सुधार	-1865
ित्स	-1866
▁पाए	-1867
▁अदाल	-1868
▁कलेक्टर	-1869
▁गल	-1870
▁समु	-1871
▁कमेटी	-1872
▁कार्यकर्ता	-1873
फ्ट	-1874
▁पालन	-1875
▁हिंद	-1876
ोत्	-1877
द्धि	-1878
▁टिक	-1879
▁अमेरिकी	-1880
▁चिकित्	-1881
▁टीका	-1882
ूड	-1883
तिहा	-1884
ेंद	-1885
▁आत्म	-1886
रात	-1887
र्गत	-1888
▁भेजा	-1889
ोद	-1890
ौल	-1891
्याण	-1892
जीत	-1893
▁बनी	-1894
लीवुड	-1895
▁परेशान	-1896
▁केवल	-1897
▁पड़ा	-1898
ोप	-1899
ड्ड	-1900
▁स्वागत	-1901
ट्रोल	-1902
▁ताकि	-1903
▁संजय	-1904
▁नियंत्र	-1905
▁बावजूद	-1906
नीय	-1907
▁मॉ	-1908
▁लगाए	-1909
▁चिकित्स	-1910
▁इंद	-1911
म्प	-1912
▁तहसी	-1913
▁प्रिय	-1914
▁टै	-1915
▁फ़	-1916
▁वार्	-1917
▁तीस	-1918
कुर	-1919
▁मामलों	-1920
लब	-1921
राव	-1922
राह	-1923
▁मृत	-1924
▁चिकित्सा	-1925
▁एसपी	-1926
टने	-1927
▁अखिल	-1928
ष्टि	-1929
▁शिक्षकों	-1930
▁कमी	-1931
▁लागू	-1932
▁स्कूलों	-1933
▁केन्द्र	-1934
राष्ट्रीय	-1935
रु	-1936
केट	-1937
स्ती	-1938
▁वापस	-1939
▁एल	-1940
▁अवै	-1941
ांक	-1942
ंटी	-1943
▁कदम	-1944
फिक	-1945
▁घा	-1946
▁तहसील	-1947
▁निकाल	-1948
ियल	-1949
▁देर	-1950
▁यदि	-1951
▁डाल	-1952
▁कारोब	-1953
▁राजनीति	-1954
▁खे	-1955
▁जाय	-1956
▁रक्षा	-1957
▁शव	-1958
िब	-1959
▁जरिए	-1960
मत	-1961
▁फोटो	-1962
▁कंपनियों	-1963
▁जमा	-1964
▁रंग	-1965
▁अदालत	-1966
्व	-1967
▁सप्ताह	-1968
▁अवैध	-1969
उंड	-1970
वती	-1971
▁शुरुआत	-1972
सेना	-1973
▁भोपाल	-1974
बार	-1975
▁संबोधित	-1976
▁पता	-1977
▁डिज	-1978
▁हास	-1979
▁संवाददाता	-1980
▁ट्वी	-1981
▁परिजनों	-1982
▁पड़े	-1983
▁हमले	-1984
▁गौ	-1985
ारंभ	-1986
▁दिशा	-1987
▁जागरूक	-1988
▁प्रचार	-1989
▁दौ	-1990
▁पिता	-1991
▁बल्कि	-1992
त्रियों	-1993
▁राजधानी	-1994
▁बदला	-1995
▁बदल	-1996
▁वर्ग	-1997
▁प्रशिक्षण	-1998
काब	-1999
▁फ्र	-2000
त्तीस	-2001
▁खरीद	-2002
▁लिखा	-2003
िटल	-2004
्यु	-2005
रिक्त	-2006
सीसी	-2007
▁संर	-2008
▁कराई	-2009
▁चौहान	-2010
▁कल्याण	-2011
▁अतिरिक्त	-2012
डाउन	-2013
▁पाठ	-2014
ताप	-2015
▁ख़	-2016
ंकी	-2017
▁डीएम	-2018
ंडा	-2019
▁तय	-2020
▁सुप्रीम	-2021
▁साइ	-2022
▁लाइन	-2023
▁निवेश	-2024
▁दवा	-2025
शु	-2026
ैल	-2027
▁नंबर	-2028
▁एक्सप	-2029
स्तव	-2030
▁जमीन	-2031
▁विपक्ष	-2032
▁आठ	-2033
▁छत्तीस	-2034
▁संस्थान	-2035
▁अंतरराष्ट्रीय	-2036
▁खिलाड़ी	-2037
▁आइ	-2038
▁भीड़	-2039
▁कार्यों	-2040
लाश	-2041
▁प्ले	-2042
▁संभावना	-2043
शाला	-2044
▁थीं	-2045
▁अर्थ	-2046
▁चुकी	-2047
▁निदेशक	-2048
धे	-2049
सिंह	-2050
▁एंड	-2051
▁जन्म	-2052
▁प्रबंधन	-2053
▁बंगाल	-2054
▁प्रतिनिधि	-2055
ूब	-2056
शील	-2057
▁सिद्ध	-2058
वीं	-2059
▁मिश्रा	-2060
▁अमित	-2061
▁ट्वीट	-2062
र्न	-2063
िक्	-2064
▁पांडे	-2065
स्ट्रेल	-2066
▁वैक्सीन	-2067
▁व्यापार	-2068
कृत	-2069
ंघ	-2070
▁पढ़ें	-2071
▁छत्तीसगढ़	-2072
▁सुनवाई	-2073
न्हें	-2074
दुनिया	-2075
बि	-2076
▁चयन	-2077
▁रैली	-2078
▁सफाई	-2079
▁अधी	-2080
▁तत्काल	-2081
ुल्	-2082
ियोजना	-2083
▁लॉक	-2084
▁अग्रवाल	-2085
▁हासिल	-2086
▁इत	-2087
▁जाये	-2088
▁पटेल	-2089
डल	-2090
ड़ने	-2091
▁परियोजना	-2092
▁आन	-2093
प्त	-2094
बीआई	-2095
▁इलाके	-2096
▁ठाकुर	-2097
▁मजबूत	-2098
सत	-2099
▁सम्मानित	-2100
ौती	-2101
▁वेब	-2102
▁मतदान	-2103
▁देखने	-2104
▁दक्षिण	-2105
▁अध्यक्षता	-2106
छा	-2107
▁सूची	-2108
▁गुज	-2109
प्रदेश	-2110
िलों	-2111
▁तैनात	-2112
▁तिव	-2113
▁पहचान	-2114
▁तिवारी	-2115
▁जिम्मेदारी	-2116
▁विद्यार्थियों	-2117
▁कैसे	-2118
▁मैदान	-2119
▁अनुमति	-2120
▁पुरस्कार	-2121
ाव	-2122
स्कृत	-2123
▁शेयर	-2124
▁भाव	-2125
▁प्ला	-2126
▁जमकर	-2127
▁अगले	-2128
स्ट्रेलिया	-2129
िवर्स	-2130
▁डाय	-2131
▁मुख्यालय	-2132
थम	-2133
सचिव	-2134
िक्र	-2135
▁हमें	-2136
ामी	-2137
▁अच्छा	-2138
तीश	-2139
▁समीक्षा	-2140
कोर्ट	-2141
वनी	-2142
▁वार्ड	-2143
ियार	-2144
▁कही	-2145
▁प्रतिबंध	-2146
▁बॉलीवुड	-2147
फ्र	-2148
िवार	-2149
▁राज्यपाल	-2150
▁शराब	-2151
▁समूह	-2152
ायण	-2153
▁देना	-2154
▁पुत्र	-2155
▁बढ़ाने	-2156
▁नया	-2157
▁नुक	-2158
▁हूं	-2159
▁सुनि	-2160
▁लॉ	-2161
▁तकनी	-2162
▁रहेंगे	-2163
स्ल	-2164
▁चरण	-2165
▁इंत	-2166
▁आपके	-2167
▁आदित्य	-2168
पण	-2169
▁ति	-2170
▁रहेगी	-2171
▁प्रियंका	-2172
▁बनने	-2173
▁वर्मा	-2174
▁डिप	-2175
दाबाद	-2176
▁राहत	-2177
यं	-2178
▁अपील	-2179
जों	-2180
▁घंटे	-2181
▁मिलेगी	-2182
स्त्र	-2183
▁माना	-2184
▁उपाध्यक्ष	-2185
▁पौ	-2186
▁मुकाब	-2187
तु	-2188
▁निकल	-2189
तमान	-2190
▁प्रवक्ता	-2191
▁दोप	-2192
▁महामारी	-2193
धिकारियों	-2194
▁दू	-2195
ेलन	-2196
▁फॉ	-2197
▁अशोक	-2198
कल	-2199
▁भाई	-2200
खी	-2201
▁शो	-2202
▁अंतर्गत	-2203
▁सुनिश्चित	-2204
▁गतिवि	-2205
▁परी	-2206
▁चुना	-2207
▁प्रेम	-2208
शत	-2209
▁मजद	-2210
▁जागरण	-2211
ोजन	-2212
▁गर्	-2213
▁निर्वा	-2214
▁गये	-2215
▁मार्च	-2216
विंद	-2217
▁स्थल	-2218
▁बारिश	-2219
▁नागरिक	-2220
▁शादी	-2221
्यता	-2222
▁वीर	-2223
▁चाहते	-2224
धिकार	-2225
▁बेहद	-2226
▁भवि	-2227
▁प्रस्त	-2228
▁स्थापित	-2229
▁केस	-2230
▁सार्	-2231
▁नुकसान	-2232
भग	-2233
ट्री	-2234
▁तरीके	-2235
दारों	-2236
▁योजनाओं	-2237
जल	-2238
र्जा	-2239
▁सौं	-2240
▁प्रत्य	-2241
▁साफ	-2242
▁सामना	-2243
▁एसडीएम	-2244
▁भविष्य	-2245
▁भ्र	-2246
▁यूनिवर्स	-2247
छे	-2248
▁फाय	-2249
▁सलाह	-2250
▁सहायक	-2251
वाना	-2252
्तान	-2253
▁कभी	-2254
▁शरी	-2255
▁नाराज	-2256
▁शिवि	-2257
▁जोर	-2258
िग	-2259
ोसिए	-2260
▁उपाय	-2261
पास	-2262
▁कोत	-2263
▁स्वयं	-2264
▁बच्चे	-2265
▁श्रद्धाल	-2266
▁हाईकोर्ट	-2267
▁विषय	-2268
▁सां	-2269
ॉन	-2270
▁जैन	-2271
▁आवास	-2272
▁नीति	-2273
ूषण	-2274
्टी	-2275
▁स्वच्छ	-2276
ित्व	-2277
▁सत्र	-2278
▁प्रबंध	-2279
जु	-2280
▁सुरक्षित	-2281
कारा	-2282
▁सित	-2283
▁प्रखंड	-2284
▁सम्मेलन	-2285
ाइम	-2286
▁रोग	-2287
▁दोपहर	-2288
▁टिकट	-2289
ॉप	-2290
▁चुका	-2291
▁प्रयोग	-2292
▁कं	-2293
▁कड़ी	-2294
▁स्टे	-2295
▁रोजगार	-2296
▁लॉकडाउन	-2297
▁नो	-2298
कर्मियों	-2299
▁एसोसिए	-2300
▁पहल	-2301
▁मुद्दे	-2302
▁निर्धार	-2303
▁सूत्रों	-2304
▁कर्मियों	-2305
णाम	-2306
▁अंग	-2307
▁अली	-2308
▁रजि	-2309
▁पीछे	-2310
▁सुनी	-2311
ात	-2312
्रमण	-2313
▁आयु	-2314
▁गाय	-2315
▁आरोपियों	-2316
िली	-2317
▁जाकर	-2318
▁दावा	-2319
▁लगाई	-2320
▁सार्व	-2321
द्दी	-2322
▁लाप	-2323
▁इंजी	-2324
▁वर्तमान	-2325
ूबर	-2326
ग्रह	-2327
निर्	-2328
▁निर	-2329
▁शही	-2330
▁घोषित	-2331
श्क	-2332
▁गेंद	-2333
▁युवाओं	-2334
वधान	-2335
ध्या	-2336
स्लिम	-2337
▁सहायता	-2338
▁गोर	-2339
▁सही	-2340
▁संचालन	-2341
पुरा	-2342
▁अधीक्षक	-2343
▁पदाधिकारी	-2344
▁चौक	-2345
ख्	-2346
▁जाम	-2347
▁महासचिव	-2348
▁बर्	-2349
▁रोकने	-2350
▁यात्रियों	-2351
▁यूनिवर्सिटी	-2352
▁कोल	-2353
▁उसका	-2354
▁कां	-2355
वाला	-2356
ार्मिक	-2357
▁प्रथम	-2358
पे	-2359
▁सपा	-2360
▁हाद	-2361
▁खुला	-2362
▁लगभग	-2363
जनिक	-2364
▁मुह	-2365
▁उसने	-2366
▁खो	-2367
यात	-2368
▁ताल	-2369
▁पूछता	-2370
सीय	-2371
▁किये	-2372
▁नियंत्रण	-2373
▁आवा	-2374
▁मंच	-2375
▁आयुक्त	-2376
▁संबंधी	-2377
▁विस्तार	-2378
▁हट	-2379
▁अफसर	-2380
▁बदलाव	-2381
मैन	-2382
ेड़	-2383
वाइ	-2384
ेंगी	-2385
▁पूछताछ	-2386
▁धार्मिक	-2387
▁दस	-2388
▁खत्म	-2389
▁पढ़े	-2390
▁दिखाई	-2391
▁सार्वजनिक	-2392
▁अप्र	-2393
▁वाहनों	-2394
गीय	-2395
▁गुजरात	-2396
भार	-2397
▁जैसी	-2398
▁पहला	-2399
▁फैसले	-2400
अप	-2401
साथ	-2402
▁तेजी	-2403
▁सिटी	-2404
▁मुस्लिम	-2405
▁अभिय	-2406
▁वित्त	-2407
▁काल	-2408
▁आख	-2409
वासियों	-2410
▁देखा	-2411
गु	-2412
▁आल	-2413
▁वोट	-2414
▁खिलाड़ियों	-2415
▁हथ	-2416
ह्	-2417
▁विन	-2418
्ब	-2419
ार्ज	-2420
▁नोटिस	-2421
▁सामान्य	-2422
क़	-2423
▁एफ	-2424
▁अफग	-2425
▁लेख	-2426
▁हड़	-2427
▁शिविर	-2428
▁परिणाम	-2429
▁एजेंसी	-2430
▁वार	-2431
ुक्ति	-2432
▁एसोसिएशन	-2433
▁लै	-2434
स्टम	-2435
उस	-2436
▁मिलकर	-2437
▁इंजीनियर	-2438
ंख	-2439
गांव	-2440
▁कानू	-2441
स्ट्री	-2442
▁स्मार्ट	-2443
ेय	-2444
िक्स	-2445
▁संपर्क	-2446
सित	-2447
▁जून	-2448
▁मजदूर	-2449
न्या	-2450
▁इले	-2451
▁स्वतंत्र	-2452
▁फिलहाल	-2453
▁भूमि	-2454
▁कब्	-2455
▁भुगत	-2456
▁प्रत्याशी	-2457
्मद	-2458
▁हंग	-2459
▁फोन	-2460
पन	-2461
▁लंब	-2462
▁वितरण	-2463
टो	-2464
▁कालेज	-2465
▁शक्ति	-2466
ुप	-2467
▁विशेषज्	-2468
▁फा	-2469
▁चोरी	-2470
▁जिलों	-2471
मि	-2472
▁सफलता	-2473
ख्त	-2474
▁अजय	-2475
▁माता	-2476
सन	-2477
▁नक्स	-2478
ष्टा	-2479
▁मनाया	-2480
▁प्रत्येक	-2481
आइ	-2482
पीट	-2483
▁घु	-2484
▁कमल	-2485
▁पटना	-2486
वें	-2487
ुल्क	-2488
▁काउ	-2489
▁बाइक	-2490
▁व्या	-2491
स्तानी	-2492
▁आतंकवाद	-2493
ेंट्स	-2494
▁चेता	-2495
▁बल्ले	-2496
▁खूब	-2497
▁शास	-2498
बाल	-2499
▁अच्छी	-2500
▁ट्रांस	-2501
▁रहते	-2502
▁जिसे	-2503
▁त्रि	-2504
खे	-2505
ैक	-2506
▁लगाकर	-2507
▁किश	-2508
वस्था	-2509
▁मुश्क	-2510
▁टीकाकरण	-2511
देन	-2512
ामद	-2513
ेशा	-2514
▁तु	-2515
▁लो	-2516
▁असर	-2517
जरीवाल	-2518
पद	-2519
▁श्रे	-2520
▁समस्याओं	-2521
ायी	-2522
▁तेल	-2523
▁रिज	-2524
▁शान	-2525
▁गोली	-2526
▁नियमों	-2527
▁संक्रमित	-2528
ॉय	-2529
▁कहीं	-2530
▁मास्क	-2531
ानिस्तान	-2532
रम	-2533
ट्स	-2534
त्त	-2535
ॉर्ड	-2536
कृ	-2537
▁लेते	-2538
▁केजरीवाल	-2539
▁पुन	-2540
▁साब	-2541
▁शुक्	-2542
▁नेशनल	-2543
▁प्रेर	-2544
▁कोतवाली	-2545
▁अय	-2546
▁ठी	-2547
▁गुर	-2548
▁टिप	-2549
▁वक्त	-2550
साइट	-2551
ोधन	-2552
वानी	-2553
भाल	-2554
▁दृ	-2555
▁अंदर	-2556
▁संघर्ष	-2557
िड	-2558
पू	-2559
स्व	-2560
▁स्टूड	-2561
रान	-2562
▁धो	-2563
▁परेशानी	-2564
धीश	-2565
▁सच	-2566
र्तन	-2567
हम्मद	-2568
▁खराब	-2569
▁संस्थ	-2570
▁निशाना	-2571
▁दर्शन	-2572
शिप	-2573
▁अनिल	-2574
▁निभा	-2575
क्रिय	-2576
खर	-2577
ाइड	-2578
▁निप	-2579
▁इस्ती	-2580
▁मध्यप्रदेश	-2581
▁पाया	-2582
▁बहु	-2583
ंजन	-2584
▁यही	-2585
▁तीनों	-2586
▁एक्सप्रेस	-2587
पथ	-2588
▁समुदाय	-2589
लपुर	-2590
▁होम	-2591
▁निर्धारित	-2592
श्न	-2593
▁उद्देश	-2594
▁उतर	-2595
▁हिमा	-2596
▁ट्रंप	-2597
काउ	-2598
▁टा	-2599
▁गुण	-2600
▁गैर	-2601
▁मोह	-2602
▁हमारी	-2603
▁राक	-2604
▁नौकरी	-2605
माश	-2606
▁बिल	-2607
▁गोरख	-2608
▁नियुक्त	-2609
लाब	-2610
▁कोच	-2611
▁खुल	-2612
▁जित	-2613
▁खोल	-2614
▁कप्तान	-2615
▁समाधान	-2616
▁इस्ला	-2617
जिट	-2618
▁पस	-2619
▁दौरे	-2620
▁जिलाधिकारी	-2621
वेज	-2622
▁ठीक	-2623
▁प्रमाण	-2624
दिन	-2625
वानों	-2626
▁वायरल	-2627
▁सकेंगे	-2628
वित	-2629
▁हटा	-2630
▁दिग्	-2631
▁रुपए	-2632
ेन्द्र	-2633
वै	-2634
▁छाप	-2635
रीब	-2636
स्ते	-2637
▁बाबा	-2638
▁खंड	-2639
▁धरना	-2640
▁चिंता	-2641
वां	-2642
▁प्रताप	-2643
▁आदित्यनाथ	-2644
▁संकट	-2645
चु	-2646
नु	-2647
▁रखी	-2648
▁पर्व	-2649
ेक्ट	-2650
▁बनाई	-2651
▁मारपीट	-2652
काम	-2653
▁इनमें	-2654
▁नियुक्ति	-2655
अलग	-2656
रासत	-2657
▁आनंद	-2658
▁कॉन्	-2659
▁तोड़	-2660
▁बचाव	-2661
▁सुख	-2662
▁अपराध	-2663
सु	-2664
▁दिला	-2665
▁राजी	-2666
▁फर्जी	-2667
▁बरामद	-2668
ष्टाचार	-2669
ीर	-2670
सों	-2671
▁अखिलेश	-2672
▁पदाधिकारियों	-2673
▁चले	-2674
▁लाने	-2675
▁गिरफ्तारी	-2676
▁मुश्किल	-2677
टेन	-2678
ाइनल	-2679
▁पति	-2680
▁हिन्द	-2681
ग्ध	-2682
रोज	-2683
ग्राम	-2684
▁वेतन	-2685
▁स्वर	-2686
विल	-2687
▁मानव	-2688
▁देंगे	-2689
▁मंजू	-2690
▁बनाकर	-2691
▁लापर	-2692
▁जिलाध्यक्ष	-2693
▁कराए	-2694
▁प्रण	-2695
▁महार	-2696
▁हाउस	-2697
▁वार्ता	-2698
▁वेबसाइट	-2699
्राम	-2700
▁सिस्टम	-2701
▁गंगा	-2702
ल्ला	-2703
▁साध	-2704
▁प्रभा	-2705
▁शै	-2706
ार्म	-2707
▁नारे	-2708
▁रावत	-2709
▁हिमाचल	-2710
▁इंदौर	-2711
रीय	-2712
▁मैने	-2713
▁पहुंचने	-2714
▁स्थानों	-2715
▁भू	-2716
▁जताई	-2717
पत्र	-2718
▁तमाम	-2719
▁चेतावनी	-2720
लेख	-2721
▁प्ल	-2722
तिहास	-2723
▁हमेशा	-2724
घाटन	-2725
▁इंग	-2726
गरानी	-2727
▁उपचार	-2728
▁सत्ता	-2729
ंदन	-2730
ीप	-2731
ुण	-2732
▁सुपर	-2733
▁दरअ	-2734
▁बताते	-2735
▁हड़ताल	-2736
▁निगरानी	-2737
▁इतिहास	-2738
▁दिवसीय	-2739
त्य	-2740
▁बोल	-2741
▁कहते	-2742
▁दरअसल	-2743
▁बिक	-2744
▁उद	-2745
▁ज्यो	-2746
▁भुगतान	-2747
नपुर	-2748
▁सिल	-2749
▁संवि	-2750
▁पांडेय	-2751
▁आवश्यकता	-2752
▁फेस	-2753
▁हिंसा	-2754
▁मशीन	-2755
▁विश्वास	-2756
▁रू	-2757
▁मनी	-2758
इड	-2759
▁डो	-2760
▁आगामी	-2761
▁छोटे	-2762
▁मौका	-2763
▁पढ़ाई	-2764
▁राजेश	-2765
ठा	-2766
ंती	-2767
दमा	-2768
▁अतिथि	-2769
▁समाप्त	-2770
लेट	-2771
▁फीस	-2772
▁अधिव	-2773
▁उनसे	-2774
▁मनोज	-2775
▁उद्देश्य	-2776
कर्मी	-2777
▁वृद्धि	-2778
▁भ्रष्टाचार	-2779
▁एक्ट	-2780
▁कैंप	-2781
▁बेटी	-2782
▁हालत	-2783
▁इलाकों	-2784
▁पर्यावरण	-2785
▁निर्वाचन	-2786
▁दबा	-2787
▁संदेश	-2788
क्सीजन	-2789
▁प्रेस	-2790
▁चेयर	-2791
▁पंजी	-2792
▁सक्रिय	-2793
नल	-2794
▁कित	-2795
लर	-2796
▁रिश्	-2797
▁विवि	-2798
दर	-2799
ायकों	-2800
ांज	-2801
▁बाग	-2802
▁परिवहन	-2803
▁न्यायाधीश	-2804
▁धम	-2805
▁आतंकी	-2806
▁स्वामी	-2807
▁पाकिस्तानी	-2808
▁फ्ल	-2809
▁करनी	-2810
न्होंने	-2811
▁नदी	-2812
▁चुनौती	-2813
▁पीड़ित	-2814
ंतर	-2815
▁एच	-2816
ाइवे	-2817
▁रायपुर	-2818
▁क्षमता	-2819
▁हेत	-2820
▁शौ	-2821
ंथ	-2822
टिंग	-2823
▁अमर	-2824
▁अनुर	-2825
▁दुष्	-2826
▁आपूर्ति	-2827
▁कक्षा	-2828
▁हरि	-2829
▁राकेश	-2830
▁हथियार	-2831
ांकन	-2832
▁व्	-2833
्यूटी	-2834
▁सौंप	-2835
▁मुकदमा	-2836
▁पंड	-2837
▁सामग्री	-2838
▁मोहम्मद	-2839
▁रम	-2840
बिनेट	-2841
▁कपूर	-2842
फ्रेंस	-2843
▁श्रीवा	-2844
▁सीबीआई	-2845
▁एयरपोर्ट	-2846
▁खर्च	-2847
▁मोर्चा	-2848
▁क्षेत्रीय	-2849
हाद	-2850
▁साबित	-2851
▁संगठनों	-2852
▁मौसम	-2853
▁प्रोज	-2854
ेद	-2855
ोत्सव	-2856
▁संसद	-2857
▁कृष्ण	-2858
ब्र	-2859
▁दोष	-2860
ीत	-2861
बुक	-2862
क्कर	-2863
▁शीर्ष	-2864
▁अफगानिस्तान	-2865
न्स	-2866
▁उल्ल	-2867
▁इंग्ल	-2868
▁केंद्रों	-2869
न्व	-2870
▁ममता	-2871
▁श्रीवास्तव	-2872
दीय	-2873
▁शपथ	-2874
▁बदमाश	-2875
▁लापरवाही	-2876
▁अस्पतालों	-2877
▁भाषा	-2878
व्यवस्था	-2879
द्द	-2880
स्थिति	-2881
▁संचालित	-2882
▁नवा	-2883
▁मुज	-2884
दायिक	-2885
▁तलाश	-2886
▁स्पष्ट	-2887
▁हेतु	-2888
▁हिंदू	-2889
▁गोरखपुर	-2890
▁पार्क	-2891
ेंडर	-2892
कारों	-2893
▁सर्वे	-2894
▁उद्घाटन	-2895
नेस	-2896
▁गलत	-2897
पित	-2898
▁सजा	-2899
▁आसपास	-2900
▁चुनावी	-2901
ट्ट	-2902
▁तृ	-2903
िमंडल	-2904
▁कैबिनेट	-2905
▁ज्योति	-2906
▁पर्यटन	-2907
▁व्यवसाय	-2908
▁विधायकों	-2909
▁किर	-2910
▁सदर	-2911
▁अध्य	-2912
▁पुरु	-2913
▁सुना	-2914
▁प्रस्तुत	-2915
नेश	-2916
तरीय	-2917
▁रेड	-2918
▁बिल्	-2919
▁पल	-2920
▁उपभ	-2921
▁शानदार	-2922
▁हंगामा	-2923
▁सवार	-2924
ंघन	-2925
ोध्या	-2926
▁मंडी	-2927
▁शरीर	-2928
▁राजीव	-2929
▁विकसित	-2930
▁विदेशी	-2931
▁वैज्	-2932
▁दिस	-2933
▁स्टा	-2934
▁स्थापना	-2935
गो	-2936
फल	-2937
▁मंजूरी	-2938
▁स्तरीय	-2939
▁पहुंचकर	-2940
▁निल	-2941
▁बांग	-2942
▁शहीद	-2943
▁दस्ता	-2944
▁पेट्रोल	-2945
▁री	-2946
▁गरीब	-2947
▁अरविंद	-2948
निट	-2949
▁दब	-2950
▁मल	-2951
▁बुला	-2952
▁रवाना	-2953
▁इलेक्ट्र	-2954
▁बोले	-2955
स्कृति	-2956
्यास	-2957
▁सोन	-2958
षेक	-2959
▁विद	-2960
▁सड़	-2961
ुरी	-2962
▁बेच	-2963
▁रखें	-2964
▁उत्पादन	-2965
पात	-2966
घटना	-2967
▁प्रतिशत	-2968
ेंज	-2969
िस्ट	-2970
▁कोह	-2971
▁जयपुर	-2972
▁नीतीश	-2973
▁उल्लंघन	-2974
▁इन्	-2975
▁सुल	-2976
▁अगस्त	-2977
▁नामांकन	-2978
बीर	-2979
ौली	-2980
▁वाय	-2981
▁जुलाई	-2982
▁पुरुष	-2983
▁गांवों	-2984
▁विरोधी	-2985
क्सर	-2986
कुमार	-2987
▁चित्र	-2988
▁बीते	-2989
▁रणनी	-2990
रत	-2991
▁संदि	-2992
▁तारी	-2993
▁खुश	-2994
▁उल्लेख	-2995
ाजी	-2996
▁बध	-2997
▁ग्रह	-2998
▁न्यूज	-2999
ाब	-3000
ज्ज	-3001
▁फैल	-3002
▁बजट	-3003
▁जनपद	-3004
▁हवाई	-3005
▁जनवरी	-3006
▁अयोध्या	-3007
▁दलों	-3008
▁रहीं	-3009
▁मिश्र	-3010
▁दुर्घटना	-3011
▁पैदा	-3012
▁रखते	-3013
▁अनिवार	-3014
▁सहयोगी	-3015
र्द	-3016
▁रहती	-3017
▁स्वीकार	-3018
वाड़ा	-3019
▁ब्ला	-3020
▁सत्य	-3021
▁प्रोजेक्ट	-3022
▁अक्ट	-3023
▁ट्वि	-3024
▁डिजिटल	-3025
टफ	-3026
▁बेटे	-3027
▁संदिग्ध	-3028
▁रखे	-3029
▁बीमार	-3030
▁संस्कृति	-3031
▁प्रतिमा	-3032
ल्ल	-3033
▁बू	-3034
▁इमर	-3035
▁ग्राह	-3036
वेद	-3037
▁कठ	-3038
▁इका	-3039
▁खाद्य	-3040
▁ब्लॉक	-3041
▁विमान	-3042
▁बत	-3043
्याम	-3044
▁बिग	-3045
▁टिप्प	-3046
▁अक्टूबर	-3047
▁हल	-3048
एंगे	-3049
ांजलि	-3050
▁जनरल	-3051
▁मिशन	-3052
र्ण	-3053
▁नम	-3054
▁नै	-3055
पो	-3056
▁चढ़	-3057
्यूट	-3058
▁मुक्त	-3059
कम	-3060
ारण	-3061
▁कथ	-3062
▁उड़	-3063
▁होटल	-3064
कारात्मक	-3065
▁निर्म	-3066
▁गतिविधियों	-3067
▁आशी	-3068
लैंड	-3069
▁माहौल	-3070
▁श्रद्धालुओं	-3071
मोह	-3072
▁आजा	-3073
▁उपभो	-3074
▁चालक	-3075
▁खुलासा	-3076
▁लक्ष्य	-3077
वाय	-3078
ंदगी	-3079
वाले	-3080
▁चौकी	-3081
▁भक्त	-3082
▁गठबंधन	-3083
जीव	-3084
त्मा	-3085
त्रि	-3086
▁इनके	-3087
▁हालात	-3088
काता	-3089
▁संश	-3090
▁क्लब	-3091
▁निरा	-3092
▁महान	-3093
चक	-3094
▁लु	-3095
द्दीन	-3096
▁स्टाफ	-3097
▁आधारित	-3098
▁बांग्ला	-3099
▁अंब	-3100
▁संसा	-3101
▁उत्सा	-3102
▁सुनील	-3103
ोर्स	-3104
रेन्द्र	-3105
फिस	-3106
ईओ	-3107
▁आते	-3108
▁किन	-3109
▁रिट	-3110
▁जुड़ी	-3111
▁सिविल	-3112
▁सड़कों	-3113
▁अभिनेता	-3114
▁नग	-3115
निक	-3116
ल्ट	-3117
▁छु	-3118
वंबर	-3119
▁तुल	-3120
▁पें	-3121
▁दीपक	-3122
▁ब्रि	-3123
▁उठाया	-3124
▁परीक्षण	-3125
ॉर्म	-3126
▁महाराज	-3127
▁योगदान	-3128
▁सितंबर	-3129
कू	-3130
▁विवे	-3131
▁ग्रुप	-3132
▁ठे	-3133
ैनिक	-3134
▁मुद्दों	-3135
यम	-3136
णसी	-3137
ट्टी	-3138
▁शोध	-3139
▁आईपी	-3140
▁कोलकाता	-3141
▁तुर	-3142
ेक्टर	-3143
▁नागरिकों	-3144
ानु	-3145
▁पुस्त	-3146
▁शिवराज	-3147
▁संरक्षण	-3148
▁भरो	-3149
▁हार	-3150
▁बढ़े	-3151
▁सौंपा	-3152
▁स्टेड	-3153
▁विद्युत	-3154
▁व्यापारियों	-3155
▁उचित	-3156
▁नवंबर	-3157
▁जवानों	-3158
क्ताओं	-3159
▁महाविद्यालय	-3160
▁प्री	-3161
▁चलाया	-3162
▁जिम्मेदार	-3163
लोनी	-3164
▁निका	-3165
▁मांगी	-3166
फ्फर	-3167
▁घाट	-3168
▁आश्वास	-3169
▁हिरासत	-3170
▁परिवर्तन	-3171
▁स्टेडियम	-3172
क्रो	-3173
हारी	-3174
न्हा	-3175
▁मेर	-3176
▁हल्	-3177
▁वारा	-3178
▁महिलाएं	-3179
जूदा	-3180
▁गठन	-3181
▁अध्ययन	-3182
▁मद्	-3183
भागीय	-3184
▁निलंब	-3185
िरी	-3186
▁नेपाल	-3187
▁हादसे	-3188
▁इंतजार	-3189
▁आश्वासन	-3190
▁कारोबार	-3191
▁मुकाबले	-3192
▁पशु	-3193
कानों	-3194
श्विक	-3195
▁आपकी	-3196
▁दबाव	-3197
▁डायरे	-3198
▁पॉजिट	-3199
▁वाराणसी	-3200
तलब	-3201
▁वकी	-3202
▁बधाई	-3203
ोषण	-3204
▁जाति	-3205
लोड	-3206
▁मौजूदा	-3207
▁राजस्व	-3208
▁बीएस	-3209
▁फायदा	-3210
▁फेसबुक	-3211
मित	-3212
▁मध	-3213
▁वॉ	-3214
▁नाग	-3215
▁विभागों	-3216
▁ग्रे	-3217
▁सिंध	-3218
▁हमने	-3219
ाये	-3220
िलास	-3221
▁रिस	-3222
द्वार	-3223
▁घरों	-3224
ब्ल्यू	-3225
▁अच्छे	-3226
▁स्पेश	-3227
▁राज्यसभा	-3228
बंदी	-3229
कश्मीर	-3230
▁विवाह	-3231
▁राजकीय	-3232
▁समाजवादी	-3233
▁अने	-3234
▁प्रसार	-3235
गण	-3236
▁मोहन	-3237
▁वित्	-3238
▁मद्देन	-3239
▁इस्तीफा	-3240
▁जयंती	-3241
ाले	-3242
▁मनो	-3243
▁अर्ज	-3244
▁वैश्विक	-3245
घर	-3246
यल	-3247
र्मी	-3248
▁अमरी	-3249
▁भावना	-3250
▁युद्ध	-3251
▁चेयरमैन	-3252
▁पॉजिटिव	-3253
▁कार्यवाही	-3254
▁तनाव	-3255
▁शंकर	-3256
▁आरोपित	-3257
▁इंग्लैंड	-3258
▁बांग्लादेश	-3259
▁निर्मा	-3260
▁प्रशासनिक	-3261
▁हित	-3262
▁टीवी	-3263
▁ड्यूटी	-3264
▁मंड	-3265
▁स्क्र	-3266
लिंग	-3267
▁वित्तीय	-3268
वारी	-3269
ानिक	-3270
▁जायेगा	-3271
▁बढ़ावा	-3272
▁मानसिक	-3273
▁रिकॉर्ड	-3274
▁अभिनेत्री	-3275
फिया	-3276
▁ट्रे	-3277
▁निष्	-3278
▁इंस्प	-3279
ोई	-3280
▁सीधे	-3281
▁ट्विटर	-3282
वीन	-3283
सीटी	-3284
गति	-3285
▁फे	-3286
▁पसंद	-3287
▁कानपुर	-3288
▁शुभारंभ	-3289
काउंट	-3290
▁दूसरा	-3291
▁संतोष	-3292
▁नारायण	-3293
▁छात्राओं	-3294
ैर	-3295
▁होनी	-3296
▁नियमित	-3297
▁मुजफ्फर	-3298
कॉ	-3299
▁उसी	-3300
▁प्राइवे	-3301
्डी	-3302
पुरी	-3303
▁आकर्	-3304
▁सख्त	-3305
▁समाचार	-3306
▁खतर	-3307
▁लौट	-3308
▁फायर	-3309
▁प्रतिनिध	-3310
डर	-3311
डीए	-3312
हरे	-3313
▁मिस	-3314
▁विश	-3315
▁मिन	-3316
्यूटर	-3317
▁प्रतिष्ठ	-3318
स्टी	-3319
▁अपर	-3320
▁सैक	-3321
प्रति	-3322
्यूरो	-3323
▁अनिवार्य	-3324
▁स्वच्छता	-3325
▁तस्वीरें	-3326
▁अर्थव्यवस्था	-3327
ुनिक	-3328
▁पदों	-3329
दाताओं	-3330
▁अफसरों	-3331
▁गौरतलब	-3332
▁लिम	-3333
▁निधन	-3334
▁फरवरी	-3335
भाष	-3336
▁गेट	-3337
तायात	-3338
▁क्रम	-3339
▁जिसका	-3340
▁दिसंबर	-3341
▁मांगों	-3342
▁डॉक्टरों	-3343
▁दश	-3344
ब्लिक	-3345
▁तुरंत	-3346
▁अप्रैल	-3347
▁बैं	-3348
▁खुले	-3349
▁स्ट्र	-3350
▁चुनावों	-3351
▁स्टूडेंट्स	-3352
▁पाने	-3353
▁इन्हें	-3354
▁पुराने	-3355
▁एश	-3356
मंडल	-3357
▁गैस	-3358
▁सेक्टर	-3359
▁यातायात	-3360
▁बल्लेबाज	-3361
म्ब	-3362
▁बुल	-3363
▁दौरा	-3364
▁कोहली	-3365
स्कृतिक	-3366
नन	-3367
▁शुक्ला	-3368
▁स्वतंत्रता	-3369
ौन	-3370
बद्ध	-3371
▁बैठे	-3372
▁यानी	-3373
▁हजारों	-3374
्द	-3375
▁दाखिल	-3376
▁कार्यक्रमों	-3377
ोलॉ	-3378
▁थो	-3379
मार्ट	-3380
राबाद	-3381
▁प्रे	-3382
▁दुष्कर्म	-3383
▁जिन्होंने	-3384
▁श्रद्धांजलि	-3385
▁तालिब	-3386
▁डिग्री	-3387
▁मद्देनजर	-3388
ंटर	-3389
▁पुष्टि	-3390
रीन	-3391
▁हटाने	-3392
▁प्रारंभ	-3393
▁पहन	-3394
▁चक्र	-3395
▁पकड़	-3396
▁नक्सल	-3397
▁प्रकरण	-3398
▁प्राइवेट	-3399
▁प्रि	-3400
▁एक्ट्र	-3401
▁अहमद	-3402
▁पड़ी	-3403
▁होंगी	-3404
▁तकनीकी	-3405
▁दास	-3406
▁विरु	-3407
कुल	-3408
ांच	-3409
िरा	-3410
▁गईं	-3411
▁कथित	-3412
▁लाखों	-3413
▁बनर्जी	-3414
नाटक	-3415
▁हरी	-3416
िश्	-3417
▁पृ	-3418
▁बचाने	-3419
▁मात्रा	-3420
ियत	-3421
नेशन	-3422
दर्शन	-3423
▁काउंस	-3424
▁तीसरे	-3425
▁मार्केट	-3426
▁सिया	-3427
▁उम्मीदवारों	-3428
मंद	-3429
हित्य	-3430
▁सीरीज	-3431
▁अज	-3432
ांसी	-3433
▁एंटी	-3434
▁क्वार	-3435
▁प्रगति	-3436
उट	-3437
▁सिक	-3438
▁अनेक	-3439
▁जमान	-3440
▁निकाली	-3441
▁विकल्प	-3442
कोट	-3443
हरण	-3444
र्डर	-3445
▁रहता	-3446
िनी	-3447
▁भोजन	-3448
पाठी	-3449
▁संभव	-3450
▁स्टार	-3451
▁रजिस्ट्र	-3452
दास	-3453
पंच	-3454
मार्	-3455
▁गुणव	-3456
▁लेना	-3457
▁फाइनल	-3458
▁गे	-3459
▁एडी	-3460
▁सैन्य	-3461
▁टिप्पणी	-3462
टियों	-3463
▁चैंप	-3464
▁अथ	-3465
क्षर	-3466
बारी	-3467
▁द्वि	-3468
दल	-3469
िटेड	-3470
▁चंद	-3471
▁खड़े	-3472
▁साहित्य	-3473
▁सांस्कृतिक	-3474
ंगन	-3475
▁घे	-3476
▁लूट	-3477
▁जोशी	-3478
▁मंत्रियों	-3479
चि	-3480
▁दम	-3481
▁कैम	-3482
▁स्टेट	-3483
▁सिन्हा	-3484
घु	-3485
पान	-3486
▁इच्छ	-3487
▁चंडी	-3488
▁लंबे	-3489
▁शुल्क	-3490
▁व्यवहार	-3491
▁व्यापारी	-3492
▁रज	-3493
▁हनु	-3494
हाबाद	-3495
▁जताया	-3496
▁गुणवत्ता	-3497
र्ज	-3498
▁हिम	-3499
धिकरण	-3500
▁जरूर	-3501
▁सुरेश	-3502
कारियों	-3503
िक्रिया	-3504
▁कर्नाटक	-3505
स्कर	-3506
▁अंक	-3507
▁उर्फ	-3508
▁रहें	-3509
▁दिव्या	-3510
▁नईदुनिया	-3511
तक	-3512
वली	-3513
आईटी	-3514
▁जवान	-3515
▁देखकर	-3516
▁बढ़ती	-3517
▁बैंकों	-3518
▁त्रिपाठी	-3519
▁छि	-3520
▁माइ	-3521
▁समक्ष	-3522
▁प्रतिभा	-3523
▁पत्रकारों	-3524
कृति	-3525
▁पूजन	-3526
▁राशन	-3527
▁चाहती	-3528
▁उत्पाद	-3529
▁यात्री	-3530
▁संस्कार	-3531
ारिज	-3532
▁नेट	-3533
▁प्रदूषण	-3534
▁अतिक	-3535
▁सूर्य	-3536
दून	-3537
▁मेह	-3538
▁उक्त	-3539
▁खतरा	-3540
▁बढ़ने	-3541
▁प्रदर्श	-3542
▁इंस्पेक्टर	-3543
▁प्रतिक्रिया	-3544
पत	-3545
ख्य	-3546
▁सल	-3547
▁सब्	-3548
▁गाइड	-3549
▁आशंका	-3550
▁किशोर	-3551
▁दुकानों	-3552
▁विरुद्ध	-3553
▁प्राथमिकता	-3554
कर्ता	-3555
▁पुष्	-3556
▁जागरूकता	-3557
नान	-3558
▁जला	-3559
▁बंध	-3560
▁बरत	-3561
▁फरार	-3562
▁विजे	-3563
हरादून	-3564
▁इंडियन	-3565
▁पुरानी	-3566
▁एक्ट्रेस	-3567
क्षी	-3568
बारा	-3569
▁अनुभव	-3570
फोन	-3571
एमसी	-3572
▁अरुण	-3573
▁चीनी	-3574
▁दोस्त	-3575
▁कंट्रोल	-3576
▁जोन	-3577
▁लें	-3578
मार्टम	-3579
▁गोपाल	-3580
▁संविधान	-3581
हिर	-3582
ेलू	-3583
▁असम	-3584
▁हस्त	-3585
▁पड़ता	-3586
द्योगिक	-3587
▁पोस्टमार्टम	-3588
ट्रो	-3589
▁बें	-3590
▁ग्ल	-3591
▁माध्यमिक	-3592
▁जुट	-3593
▁इतना	-3594
▁अंग्रे	-3595
▁लिमिटेड	-3596
▁वर्षों	-3597
▁कने	-3598
मूर्ति	-3599
लान	-3600
▁कमज	-3601
▁घुस	-3602
▁अल्प	-3603
▁दूरी	-3604
▁बिक्री	-3605
ार्थियों	-3606
एसटी	-3607
▁ड्राइ	-3608
▁अभ्य	-3609
▁संकल्प	-3610
ंदाज	-3611
▁पोर्ट	-3612
▁तालिबान	-3613
▁कवि	-3614
▁भूप	-3615
▁पर्याप्त	-3616
▁विद्यार्थी	-3617
घ्र	-3618
▁क्ला	-3619
▁लड़ाई	-3620
▁शिवसेना	-3621
डु	-3622
▁ग्	-3623
शंकर	-3624
▁आंक	-3625
वर्ती	-3626
▁मेले	-3627
▁हाथों	-3628
▁पड़ेगा	-3629
कृष्ण	-3630
▁इंस्ट	-3631
▁लेंगे	-3632
▁अभियंता	-3633
डि	-3634
मेर	-3635
चानक	-3636
ड्डा	-3637
▁मकान	-3638
▁मनीष	-3639
▁लड़क	-3640
▁वायु	-3641
▁ग्रहण	-3642
▁निकाला	-3643
▁यूनियन	-3644
▁अचानक	-3645
▁दैनिक	-3646
▁आरक्षण	-3647
▁प्रबंधक	-3648
▁अतिक्रमण	-3649
▁लं	-3650
▁घरेलू	-3651
▁प्लेटफ	-3652
▁जू	-3653
▁मई	-3654
श्वर	-3655
▁दाय	-3656
▁अस्थ	-3657
▁कीमत	-3658
▁बीमारी	-3659
▁संसदीय	-3660
फेसर	-3661
▁आगरा	-3662
▁जिन्हें	-3663
▁देहरादून	-3664
▁टूर्	-3665
▁समान	-3666
टिव	-3667
▁कू	-3668
▁बाय	-3669
▁रां	-3670
▁ईरान	-3671
▁दिक्	-3672
नामेंट	-3673
▁संपत्ति	-3674
रोध	-3675
संग	-3676
▁सश	-3677
▁आदमी	-3678
▁जाएं	-3679
▁संभाल	-3680
▁रास्ते	-3681
घाट	-3682
▁खाली	-3683
▁नीचे	-3684
▁खारिज	-3685
▁जमानत	-3686
▁रणनीति	-3687
▁टूर्नामेंट	-3688
दियों	-3689
▁रमेश	-3690
▁सोनिया	-3691
▁स्पेशल	-3692
षिक	-3693
म्बर	-3694
▁कुश	-3695
▁संके	-3696
▁निरीक्षक	-3697
▁पुलिसकर्मियों	-3698
ॉट	-3699
▁एप	-3700
▁लहर	-3701
▁गणेश	-3702
▁टेक्	-3703
▁देता	-3704
▁जिसकी	-3705
▁बातें	-3706
त्सा	-3707
सेंस	-3708
▁गाड़ी	-3709
▁इंटरनेट	-3710
▁मेरे	-3711
▁लगने	-3712
गज	-3713
▁टू	-3714
▁विरा	-3715
▁मुकेश	-3716
धिकारिक	-3717
▁करवाया	-3718
▁सर्विस	-3719
▁सैकड़ों	-3720
▁प्राधिकरण	-3721
गाह	-3722
▁नज	-3723
▁साज	-3724
▁प्रोफेसर	-3725
▁शब्	-3726
▁मॉडल	-3727
▁लगाते	-3728
▁पालिका	-3729
▁सीनियर	-3730
▁निलंबित	-3731
▁ओम	-3732
▁क़	-3733
▁चैन	-3734
▁सीओ	-3735
धुनिक	-3736
▁अभिषेक	-3737
▁कानूनी	-3738
पीएफ	-3739
त्कार	-3740
▁अब्द	-3741
▁बढ़ते	-3742
▁संचालक	-3743
▁चंडीगढ़	-3744
▁महोत्सव	-3745
▁प्राचार्य	-3746
▁मस	-3747
▁गैंग	-3748
▁रद्द	-3749
▁जायजा	-3750
▁प्रमो	-3751
▁प्लान	-3752
नो	-3753
▁सम्	-3754
▁शासकीय	-3755
हल	-3756
▁फूल	-3757
छात्रा	-3758
प्रकाश	-3759
▁ट्रैक्टर	-3760
नाक	-3761
▁राव	-3762
▁करार	-3763
▁प्रती	-3764
▁सप	-3765
कांत	-3766
▁मेरठ	-3767
▁रखना	-3768
िस्ट्र	-3769
▁मुहैया	-3770
▁हिस्से	-3771
▁अधिवक्ता	-3772
▁आतंकवादी	-3773
▁नरेन्द्र	-3774
ढ़ी	-3775
हत्या	-3776
▁बाढ़	-3777
▁लगता	-3778
▁चैंपियन	-3779
▁नाराजगी	-3780
▁प्रधाना	-3781
▁आधिकारिक	-3782
▁नक	-3783
▁अफ्री	-3784
▁मान्यता	-3785
मती	-3786
श्त	-3787
ुति	-3788
▁उनको	-3789
▁ट्रक	-3790
▁उसमें	-3791
▁गेंदबाज	-3792
▁प्रोत्सा	-3793
ांश	-3794
▁सिर	-3795
▁मजदूरों	-3796
ल्थ	-3797
▁प्लांट	-3798
▁फिल्मों	-3799
▁डायरेक्टर	-3800
▁संस्थानों	-3801
धाम	-3802
्मण	-3803
िफिक	-3804
▁गौतम	-3805
तिहासिक	-3806
▁करवाने	-3807
▁हनुमान	-3808
जनक	-3809
▁फि	-3810
इकिल	-3811
▁अक्ष	-3812
▁व्यापक	-3813
बत	-3814
▁चलने	-3815
▁भीतर	-3816
▁चलाने	-3817
▁अध्याप	-3818
डीओ	-3819
▁मास	-3820
▁सोच	-3821
▁एशिया	-3822
▁पेंशन	-3823
▁रिश्ते	-3824
दर्	-3825
ल्टी	-3826
▁जबर	-3827
▁राजा	-3828
▁भरोसा	-3829
▁रांची	-3830
▁वेस्ट	-3831
▁एसएसपी	-3832
▁ध्व	-3833
▁उससे	-3834
▁शारी	-3835
क्षेत्र	-3836
▁प्रणाली	-3837
▁सैनिकों	-3838
ोजक	-3839
स्थल	-3840
स्वा	-3841
▁जस्ट	-3842
▁ब्रिटेन	-3843
लीय	-3844
▁सदन	-3845
स्टिक	-3846
▁परंप	-3847
▁शारीरिक	-3848
तला	-3849
मूल	-3850
लंका	-3851
िद	-3852
चंद	-3853
▁फल	-3854
▁कौशल	-3855
▁जेएन	-3856
▁दर्श	-3857
▁दर्जन	-3858
िलासपुर	-3859
▁अब्दुल	-3860
▁कोरिया	-3861
▁पहुंचाने	-3862
▁नही	-3863
▁प्रेरित	-3864
▁फुट	-3865
▁केन्द	-3866
▁तहसीलदार	-3867
▁नारेबाजी	-3868
▁प्रावधान	-3869
▁गह	-3870
िमला	-3871
▁धूम	-3872
▁आखिर	-3873
▁रक्त	-3874
▁दोबारा	-3875
▁विपक्षी	-3876
▁ओवर	-3877
▁सुंदर	-3878
▁कुलपति	-3879
▁ब्यूरो	-3880
सेज	-3881
▁मेला	-3882
▁उपकरण	-3883
▁शिकार	-3884
▁श्रमिक	-3885
▁सुविधाएं	-3886
मपुर	-3887
▁उन्	-3888
▁बांध	-3889
▁विनोद	-3890
पूत	-3891
वाया	-3892
▁कस्	-3893
▁शूट	-3894
▁शाखा	-3895
▁सामु	-3896
▁परंपरा	-3897
▁बग	-3898
▁धारा	-3899
▁प्रौ	-3900
▁शीघ्र	-3901
▁सीसीटी	-3902
▁अभ्यर्थ	-3903
पै	-3904
बु	-3905
▁फंड	-3906
ेमारी	-3907
▁खुशी	-3908
▁रानी	-3909
▁छोड़कर	-3910
▁औद्योगिक	-3911
▁श्रीलंका	-3912
राइ	-3913
ौरा	-3914
▁मच	-3915
इयों	-3916
▁गोल	-3917
▁पुण	-3918
▁ब्लाक	-3919
▁लक्ष्मी	-3920
▁छापेमारी	-3921
एसएस	-3922
ड़िया	-3923
▁धमकी	-3924
▁सचिन	-3925
▁भारती	-3926
▁मानना	-3927
▁वापसी	-3928
▁विराट	-3929
▁प्रश्न	-3930
▁महामंत्री	-3931
दिक	-3932
▁भि	-3933
▁दायर	-3934
▁दिये	-3935
▁अक्सर	-3936
▁अख	-3937
▁खी	-3938
भाषा	-3939
राया	-3940
सीबी	-3941
▁मगर	-3942
▁उठाए	-3943
▁दुर्गा	-3944
▁आतंकियों	-3945
▁बिलासपुर	-3946
▁पहा	-3947
▁शौच	-3948
सिद्ध	-3949
▁इकाई	-3950
▁कैप्	-3951
▁ग्वाल	-3952
▁लाइसेंस	-3953
पु	-3954
्यार	-3955
▁उधर	-3956
▁चीफ	-3957
▁हस्ता	-3958
▁निपटने	-3959
▁न्यायमूर्ति	-3960
यक	-3961
ंचल	-3962
्ति	-3963
▁कौन	-3964
▁धार	-3965
वितीय	-3966
▁रिली	-3967
▁अंजाम	-3968
▁दिनेश	-3969
▁मिलते	-3970
▁श्रेणी	-3971
▁संशोधन	-3972
▁छूट	-3973
▁आसान	-3974
▁वर्षीय	-3975
▁कमजोर	-3976
ेटर	-3977
ेडकर	-3978
▁हैद	-3979
▁गठित	-3980
▁कमिश्	-3981
▁टैक्स	-3982
▁पार्षद	-3983
नस	-3984
ौते	-3985
▁कमिश्नर	-3986
▁आत्महत्या	-3987
आईआर	-3988
▁मधु	-3989
▁राजपूत	-3990
▁संपन्न	-3991
▁सीसीटीवी	-3992
▁केन्द्रीय	-3993
▁जंग	-3994
कालीन	-3995
▁दिलाने	-3996
▁इंजीनियरिंग	-3997
▁दाम	-3998
▁अवगत	-3999
▁अभिभाव	-4000
▁स्क्रीन	-4001
▁चोर	-4002
▁व्हा	-4003
काद	-4004
संख्य	-4005
▁बेहत	-4006
▁आलो	-4007
▁नती	-4008
▁पाई	-4009
▁आंगन	-4010
▁नर्स	-4011
▁उनमें	-4012
▁सहमति	-4013
▁ज्यादातर	-4014
कां	-4015
सूस	-4016
रेली	-4017
जुर्ग	-4018
▁आपका	-4019
▁सामुदायिक	-4020
▁उतार	-4021
▁साहू	-4022
ंत्रित	-4023
▁मिलता	-4024
▁शिमला	-4025
्वी	-4026
िनियम	-4027
ुलेंस	-4028
▁सराह	-4029
▁निकाय	-4030
▁किनारे	-4031
▁उपायुक्त	-4032
▁मू	-4033
मोहन	-4034
स्तर	-4035
परेशन	-4036
बाड़ी	-4037
▁मुद्दा	-4038
▁ट्रैफिक	-4039
▁आह्	-4040
मानों	-4041
शियों	-4042
▁भागी	-4043
▁निकले	-4044
▁विकेट	-4045
▁सुभाष	-4046
▁समर्थकों	-4047
संघ	-4048
शाली	-4049
▁गंग	-4050
▁सुविधाओं	-4051
▁राजन	-4052
▁आएंगे	-4053
▁आदिवासी	-4054
ोत	-4055
▁ओल	-4056
▁धी	-4057
▁तमिल	-4058
स्त्री	-4059
▁कमांड	-4060
▁शहरों	-4061
▁आपत्ति	-4062
▁डिप्टी	-4063
▁सेवाएं	-4064
भूम	-4065
▁हमारा	-4066
▁ग्वालियर	-4067
ध्याय	-4068
▁बाकी	-4069
▁तालाब	-4070
▁संकेत	-4071
▁आह्वान	-4072
टका	-4073
युक्त	-4074
▁यूरो	-4075
▁अकाउंट	-4076
▁महेंद्र	-4077
▁उपस्थिति	-4078
▁हैदराबाद	-4079
प्रिय	-4080
▁जानिए	-4081
▁पंडित	-4082
▁सकेगा	-4083
▁उत्साह	-4084
▁जस्टिस	-4085
▁तहरी	-4086
▁युवती	-4087
▁करेंगी	-4088
▁विद्या	-4089
डिट	-4090
षित	-4091
▁पोल	-4092
▁पब्लिक	-4093
▁स्वरूप	-4094
▁लोकतंत्र	-4095
ंतु	-4096
एचसी	-4097
क्का	-4098
डिंग	-4099
▁मुठ	-4100
▁दावे	-4101
▁बढ़ी	-4102
नाम	-4103
▁सेल	-4104
नाल्ड	-4105
ोलॉजी	-4106
▁माया	-4107
▁जुर्म	-4108
▁बदमाशों	-4109
पल	-4110
▁हिस	-4111
▁इलाहाबाद	-4112
▁चिकित्सकों	-4113
मेट	-4114
▁कब	-4115
▁मित्र	-4116
▁मूल्य	-4117
▁अर्जुन	-4118
▁पीड़िता	-4119
▁बुजुर्ग	-4120
थे	-4121
▁इम	-4122
श्री	-4123
▁किलो	-4124
▁राजद	-4125
▁पुस्तक	-4126
▁चिकित्सक	-4127
▁तैयारियों	-4128
माने	-4129
क्रोश	-4130
▁आईटी	-4131
▁नवीन	-4132
▁सीटों	-4133
डब्ल्यू	-4134
गमन	-4135
▁इधर	-4136
▁पीठ	-4137
हादुर	-4138
▁मुठभ	-4139
▁कहानी	-4140
▁पकड़ा	-4141
▁प्रदीप	-4142
▁विभागीय	-4143
▁रन	-4144
▁दान	-4145
नेशनल	-4146
▁भाषण	-4147
▁चाहता	-4148
▁मांगा	-4149
▁मंदिरों	-4150
कट	-4151
▁गी	-4152
▁हफ्	-4153
▁छेड़	-4154
▁कब्जा	-4155
▁हिन्दू	-4156
▁गाज	-4157
▁गौरव	-4158
▁शहरी	-4159
▁कर्मी	-4160
▁खोलने	-4161
▁विधेय	-4162
▁कुमारी	-4163
थर	-4164
▁जिनमें	-4165
▁उल्लेखनीय	-4166
▁थानाध्यक्ष	-4167
▁श्रृ	-4168
▁समन्व	-4169
▁वास्तव	-4170
▁अधिकांश	-4171
ारों	-4172
▁एटी	-4173
▁मस्	-4174
पूर्व	-4175
▁वकील	-4176
▁स्टी	-4177
ग्रस्त	-4178
▁लिस्ट	-4179
▁राजेंद्र	-4180
▁विद्यालयों	-4181
▁ठेके	-4182
▁इमरान	-4183
▁क्षति	-4184
▁प्रजा	-4185
▁वारदा	-4186
▁मेट्रो	-4187
फोट	-4188
▁हेम	-4189
▁जैसा	-4190
▁जरिये	-4191
हो	-4192
▁घूम	-4193
▁चोट	-4194
▁आपदा	-4195
ोग्राम	-4196
▁मैंने	-4197
▁पूर्वी	-4198
द्योगिकी	-4199
▁तभी	-4200
ंकिंग	-4201
▁आग्रह	-4202
▁आक्रोश	-4203
▁अधिनियम	-4204
▁सकारात्मक	-4205
मेल	-4206
द्रा	-4207
▁खेती	-4208
▁बसपा	-4209
▁सलमान	-4210
▁पदार्थ	-4211
▁राजनाथ	-4212
▁रास्ता	-4213
गन	-4214
चीन	-4215
याल	-4216
▁खेत	-4217
▁खड़ा	-4218
▁खाने	-4219
▁पैसे	-4220
▁वस्त	-4221
▁गार्ड	-4222
हीन	-4223
वर्क	-4224
▁खोज	-4225
ार्पण	-4226
▁विधि	-4227
▁दिखाया	-4228
▁अल्पसंख्य	-4229
▁तला	-4230
▁ब्रे	-4231
▁आदर्श	-4232
▁अनुरोध	-4233
▁आशा	-4234
▁वसू	-4235
▁लाया	-4236
▁बालिका	-4237
▁संयोजक	-4238
▁कॉलेजों	-4239
▁कंपनियां	-4240
ाइज	-4241
▁आंख	-4242
▁चतु	-4243
▁केरल	-4244
▁हार्	-4245
▁उठाने	-4246
▁एजेंस	-4247
▁महसूस	-4248
▁संबंधों	-4249
▁ग्राहकों	-4250
ांतर	-4251
▁अरब	-4252
▁इरा	-4253
▁चेक	-4254
▁विप	-4255
▁सकें	-4256
▁तकनीक	-4257
▁लड़ने	-4258
▁सतर्क	-4259
▁हफ्ते	-4260
▁परिस्थित	-4261
एडा	-4262
▁आवाज	-4263
▁क्रे	-4264
▁तत्व	-4265
▁श्याम	-4266
▁मुखिया	-4267
▁संसाधन	-4268
▁उत	-4269
चुनाव	-4270
▁दुबे	-4271
▁मैनेज	-4272
▁दिग्गज	-4273
▁द्वितीय	-4274
▁परिवारों	-4275
वेयर	-4276
▁पदक	-4277
▁देखें	-4278
▁जबलपुर	-4279
▁इंडस्ट्री	-4280
िणी	-4281
ूली	-4282
नाएं	-4283
▁पेय	-4284
▁नवरा	-4285
▁लॉन्	-4286
▁चारों	-4287
▁बेहतरीन	-4288
▁प्रसिद्ध	-4289
्राष्ट्रीय	-4290
करे	-4291
यां	-4292
▁एग्	-4293
▁सागर	-4294
▁ट्रेनों	-4295
पंथ	-4296
▁उम्र	-4297
▁गोयल	-4298
▁सारे	-4299
▁समस्त	-4300
▁पश्चिमी	-4301
▁दिव्यांग	-4302
्रह	-4303
▁दह	-4304
▁सम्ब	-4305
▁किताब	-4306
▁मालिक	-4307
प्रतिनि	-4308
▁मुठभेड़	-4309
ंडर	-4310
गराज	-4311
▁उदा	-4312
▁फसल	-4313
▁काशी	-4314
▁सोनी	-4315
ढ़े	-4316
▁नेहर	-4317
▁महानि	-4318
▁विजेता	-4319
▁प्रकाशित	-4320
णि	-4321
▁बीमा	-4322
स्पिटल	-4323
रेट	-4324
▁गड़	-4325
▁मुआ	-4326
संधान	-4327
▁देगा	-4328
न्त	-4329
ाया	-4330
▁जोड़	-4331
▁मोटर	-4332
▁नोएडा	-4333
▁सेवाओं	-4334
▁व्यक्तियों	-4335
ंपिक	-4336
ट्रल	-4337
▁जानी	-4338
▁सिलस	-4339
▁तहरीर	-4340
▁प्रोड	-4341
▁मिलती	-4342
▁प्रार्थ	-4343
▁प्रौद्योगिकी	-4344
टों	-4345
▁लल	-4346
ूहिक	-4347
▁भरा	-4348
▁अनुश	-4349
▁टाइम	-4350
जात	-4351
▁गुस्	-4352
▁टक्कर	-4353
▁पाठ्य	-4354
▁इंस्टा	-4355
▁क्रिया	-4356
▁डिजाइन	-4357
▁ग्री	-4358
▁पैसा	-4359
▁मुरा	-4360
▁मुसल	-4361
▁होली	-4362
कर्ताओं	-4363
▁स्वस्थ	-4364
▁सामूहिक	-4365
▁सिंधिया	-4366
▁अनुसंधान	-4367
डेट	-4368
▁आवं	-4369
▁इनकी	-4370
▁काला	-4371
▁बलों	-4372
▁इनकार	-4373
▁हेल्थ	-4374
िको	-4375
कांड	-4376
▁अना	-4377
▁रूम	-4378
▁खूबस	-4379
▁रोहित	-4380
▁कॉलोनी	-4381
▁रिसर्च	-4382
▁प्रस्तावित	-4383
▁अज्	-4384
▁कम्प	-4385
▁इंस्टी	-4386
ष्णु	-4387
▁पंक	-4388
▁डाउन	-4389
▁जगहों	-4390
▁बनाना	-4391
▁युवकों	-4392
▁शौचालय	-4393
▁मुकाबला	-4394
▁मौजूदगी	-4395
▁उपाध्याय	-4396
▁अपराधियों	-4397
▁मेरी	-4398
▁जाएंगी	-4399
▁विधेयक	-4400
▁स्थलों	-4401
▁जन्मदिन	-4402
▁प्रभावी	-4403
▁श्रीनगर	-4404
▁मजिस्ट्र	-4405
धित	-4406
सेस	-4407
क्षे	-4408
▁कथा	-4409
▁घोट	-4410
▁टाइ	-4411
▁दौड़	-4412
▁परमाण	-4413
▁आलोचना	-4414
▁इंटरनेशनल	-4415
▁जनप्रतिनि	-4416
▁रजिस्ट्रेशन	-4417
इन	-4418
लोत	-4419
▁राठ	-4420
▁अंदाज	-4421
▁नाबाल	-4422
मीटर	-4423
ाउंड	-4424
▁नाथ	-4425
▁पैर	-4426
▁हर्ष	-4427
▁दृष्टि	-4428
▁कानूनों	-4429
▁दस्तावेज	-4430
बादी	-4431
स्वी	-4432
▁एंब	-4433
▁फें	-4434
▁गुजर	-4435
▁भेजे	-4436
यात्रा	-4437
▁तीर्थ	-4438
▁रिलीज	-4439
▁ट्रेनिंग	-4440
बंद	-4441
▁आती	-4442
▁बूथ	-4443
चंद्र	-4444
▁मारे	-4445
▁आरोपों	-4446
छात्राओं	-4447
▁अफ्रीका	-4448
ोली	-4449
▁शर	-4450
▁सॉ	-4451
▁कोर	-4452
▁मृतक	-4453
▁कोर्स	-4454
▁उपचुनाव	-4455
▁मंत्रिमंडल	-4456
थी	-4457
▁मर	-4458
वर्धन	-4459
▁माने	-4460
▁कब्जे	-4461
▁जाहिर	-4462
▁घटनाओं	-4463
▁कार्यकाल	-4464
वंत	-4465
प्टर	-4466
राहे	-4467
▁आकर	-4468
▁गढ़	-4469
▁वही	-4470
▁समीप	-4471
ज़ा	-4472
भूमि	-4473
ृत्य	-4474
▁तिर	-4475
तियां	-4476
हराया	-4477
▁साधा	-4478
▁फॉर्म	-4479
रस	-4480
▁पथ	-4481
एससी	-4482
▁काट	-4483
▁अनुप	-4484
▁स्पी	-4485
▁ब्लैक	-4486
▁लिखित	-4487
▁समापन	-4488
▁परमाणु	-4489
▁इंस्टाग्राम	-4490
▁जुल	-4491
▁अभिन	-4492
▁कैंस	-4493
▁जब्त	-4494
▁बजाय	-4495
▁श्रम	-4496
वेदनशील	-4497
▁दिक्कत	-4498
▁मृत्यु	-4499
▁शूटिंग	-4500
वक	-4501
स्पति	-4502
▁भेंट	-4503
▁लंबी	-4504
▁लिहा	-4505
▁जीतने	-4506
▁काउंसिल	-4507
▁प्रत्याशियों	-4508
पीठ	-4509
विक	-4510
स्टे	-4511
▁सप्	-4512
▁सिने	-4513
नई	-4514
लील	-4515
▁बौ	-4516
▁नित	-4517
▁जंगल	-4518
▁दोषी	-4519
▁तीसरी	-4520
▁पारित	-4521
▁संदीप	-4522
▁कंप्यूटर	-4523
▁लोकप्रिय	-4524
मक	-4525
ंजी	-4526
धीन	-4527
र्जर	-4528
वाणी	-4529
▁बरा	-4530
▁छोटी	-4531
▁क्रिकेटर	-4532
▁कार्यकारी	-4533
सद	-4534
▁जनस	-4535
▁जनजा	-4536
▁डेढ़	-4537
▁देती	-4538
▁सभाग	-4539
▁भेजने	-4540
ापक	-4541
▁डर	-4542
▁बघ	-4543
▁चली	-4544
▁नयी	-4545
कृतिक	-4546
▁अमृत	-4547
▁अवधि	-4548
▁तुलना	-4549
▁परिजन	-4550
▁बदलने	-4551
▁लड़की	-4552
▁एफआईआर	-4553
▁पक्षों	-4554
▁श्रीराम	-4555
ंडे	-4556
काज	-4557
ौता	-4558
▁त्या	-4559
▁कन्या	-4560
▁पेयजल	-4561
▁कॉन्फ्रेंस	-4562
▁मजिस्ट्रेट	-4563
ज़र	-4564
श्रे	-4565
▁एके	-4566
▁पंकज	-4567
▁शुभकाम	-4568
▁प्रयागराज	-4569
एसआई	-4570
पालन	-4571
▁डीसी	-4572
▁लागत	-4573
▁साथी	-4574
▁प्रार्थना	-4575
्ट	-4576
द्घ	-4577
▁अट	-4578
शांत	-4579
ानंद	-4580
▁भक्तों	-4581
▁सलाहकार	-4582
▁हरिद्वार	-4583
▁वैक्सीनेशन	-4584
ैट	-4585
िमा	-4586
▁उदय	-4587
ार्थी	-4588
▁गहलोत	-4589
▁मनोहर	-4590
▁वर्ल्ड	-4591
▁इंस्टीट	-4592
डि़	-4593
▁अगु	-4594
▁आउट	-4595
▁वर्क	-4596
▁नेहरू	-4597
▁आईपीएल	-4598
▁तमिलना	-4599
▁नाबालिग	-4600
▁अक	-4601
▁एं	-4602
▁पवन	-4603
शिष्ट	-4604
▁आचार्य	-4605
▁पोस्टर	-4606
▁अंग्रेजी	-4607
▁राजकुमार	-4608
▁अवि	-4609
▁मचा	-4610
▁खाते	-4611
▁रिया	-4612
▁वैसे	-4613
▁संगीत	-4614
▁संजीव	-4615
गित	-4616
▁कच	-4617
▁बड़	-4618
▁डाला	-4619
▁पायल	-4620
▁सिपा	-4621
▁इंतजाम	-4622
▁नेटवर्क	-4623
▁विस्तृत	-4624
▁गड	-4625
न्नई	-4626
▁मिट	-4627
▁अमिता	-4628
▁सालों	-4629
▁स्नात	-4630
▁हस्ताक्षर	-4631
▁अंतर्राष्ट्रीय	-4632
▁जाल	-4633
▁रूस	-4634
▁समर्	-4635
▁इंदिरा	-4636
▁भास्कर	-4637
▁गृहमंत्री	-4638
▁नक्सलियों	-4639
करा	-4640
▁गुल	-4641
ृत्ति	-4642
▁टेली	-4643
▁बेरोज	-4644
▁स्मृति	-4645
▁पहुंचाया	-4646
▁मुरादाबाद	-4647
फान	-4648
▁घट	-4649
▁पर्	-4650
▁मुर	-4651
▁गड़ब	-4652
▁आखिरी	-4653
▁फार्म	-4654
▁आधुनिक	-4655
्योर	-4656
▁ताप	-4657
▁भंड	-4658
▁बाबू	-4659
▁मुजफ्फरपुर	-4660
ंकन	-4661
स्म	-4662
बीएस	-4663
▁इसको	-4664
▁उत्प	-4665
▁देगी	-4666
▁भव्य	-4667
▁बेचने	-4668
श्रेष्ठ	-4669
▁मायावती	-4670
▁फं	-4671
ंचाई	-4672
विजय	-4673
चारिक	-4674
▁ट्रस्ट	-4675
▁मीटिंग	-4676
क्चर	-4677
▁चोप	-4678
▁रहना	-4679
▁सौंपी	-4680
▁वारदात	-4681
▁तैयारियां	-4682
णिज	-4683
▁अल्	-4684
▁फीसदी	-4685
▁बहादुर	-4686
▁गंभीरता	-4687
फार	-4688
▁गू	-4689
णिज्य	-4690
▁आर्य	-4691
▁महेश	-4692
▁राणा	-4693
▁विशाल	-4694
▁सभागार	-4695
▁हेड	-4696
▁ताकत	-4697
▁पूछा	-4698
▁साहिब	-4699
▁अर्पित	-4700
▁रिजर्व	-4701
मल	-4702
▁फिट	-4703
▁तमिलनाडु	-4704
▁इज	-4705
शिंग	-4706
▁खाद	-4707
▁डेट	-4708
▁दलित	-4709
▁पार्किंग	-4710
▁प्रयासों	-4711
िपल	-4712
बीसी	-4713
वानिव	-4714
▁काली	-4715
▁पात्र	-4716
▁सरपंच	-4717
▁जिंदगी	-4718
▁सेंट्रल	-4719
▁कार्यशाला	-4720
▁प्रोग्राम	-4721
ैक्ट	-4722
▁अंस	-4723
▁ओपन	-4724
▁रोम	-4725
▁अलर्ट	-4726
▁साइबर	-4727
▁चेन्नई	-4728
▁डोनाल्ड	-4729
▁मुखर्जी	-4730
▁पंचायतों	-4731
▁आतंकवादियों	-4732
ेदी	-4733
▁नाय	-4734
▁साव	-4735
▁सौर	-4736
▁आशीष	-4737
▁मेहन	-4738
सीसीआई	-4739
▁जीएसटी	-4740
▁पोर्टल	-4741
▁प्रांत	-4742
▁कनेक्शन	-4743
▁कारोबारी	-4744
बन	-4745
▁आजम	-4746
▁फ्री	-4747
▁फायदे	-4748
▁महात्मा	-4749
्मत	-4750
राहा	-4751
▁सका	-4752
▁दीपा	-4753
▁कैलाश	-4754
▁लड़कियों	-4755
▁संस्थाओं	-4756
रित	-4757
शिक	-4758
▁उद्य	-4759
▁करियर	-4760
▁द्वार	-4761
▁न्यायिक	-4762
▁प्राकृतिक	-4763
▁टेक्न	-4764
साइ	-4765
▁चू	-4766
क्ट्रेट	-4767
▁घोटाले	-4768
कड़	-4769
पेट	-4770
ाइट	-4771
ंखला	-4772
गणना	-4773
णमूल	-4774
▁अश्	-4775
▁ढां	-4776
▁बृह	-4777
▁विस्	-4778
जीलैंड	-4779
▁कामया	-4780
▁जिक्र	-4781
▁स्टैंड	-4782
▁निकालने	-4783
▁राज्यमंत्री	-4784
षक	-4785
नाती	-4786
वाहा	-4787
मार्ग	-4788
्योहार	-4789
▁एकत्र	-4790
▁मस्जि	-4791
▁स्मार्टफोन	-4792
तो	-4793
डीह	-4794
▁ज़र	-4795
▁पृथ	-4796
▁फते	-4797
▁सीईओ	-4798
स्वामी	-4799
▁उत्सव	-4800
▁डिस्ट	-4801
▁संभावित	-4802
▁परिस्थितियों	-4803
जीपी	-4804
▁जेट	-4805
▁नीर	-4806
▁लीग	-4807
क्रेट	-4808
▁क्ली	-4809
▁फायरिंग	-4810
आईए	-4811
स्य	-4812
▁आजाद	-4813
▁सतीश	-4814
▁निस्त	-4815
▁साढ़े	-4816
▁तृणमूल	-4817
▁वाणिज्य	-4818
▁उपभोक्ताओं	-4819
हूर	-4820
▁बहन	-4821
▁रुख	-4822
▁उज्ज	-4823
▁तिथि	-4824
▁पावर	-4825
▁बतौर	-4826
▁विवेक	-4827
▁शिक्षण	-4828
▁सर्वश्रेष्ठ	-4829
फाई	-4830
▁जस	-4831
▁आता	-4832
ेक्षा	-4833
▁दर्द	-4834
▁ठाकरे	-4835
▁फोर्स	-4836
▁सिफार	-4837
▁उत्पादों	-4838
ोला	-4839
▁कुर	-4840
क्ष्य	-4841
फ्तार	-4842
▁हेली	-4843
▁उत्पी	-4844
▁खेलने	-4845
▁सर्वो	-4846
नईदुनिया	-4847
▁त्योहार	-4848
▁बीमारियों	-4849
ीकरण	-4850
▁जहा	-4851
▁बघेल	-4852
▁सारी	-4853
ियाबाद	-4854
▁बेंगल	-4855
▁सैनिक	-4856
▁किरदार	-4857
▁सिफारिश	-4858
▁जुर्माना	-4859
जान	-4860
बाग	-4861
ोसी	-4862
▁मथ	-4863
▁खनन	-4864
▁रोह	-4865
▁शरण	-4866
▁कराना	-4867
▁जूनियर	-4868
▁पासवान	-4869
ार्टमेंट	-4870
ठे	-4871
नाइ	-4872
मंत्र	-4873
ाप्ति	-4874
▁दिखे	-4875
▁कस	-4876
▁रॉय	-4877
▁अनुक	-4878
▁कर्ज	-4879
▁रचना	-4880
▁अमिताभ	-4881
▁तैनाती	-4882
▁स्वर्ण	-4883
▁सेवानिव	-4884
▁निर्माता	-4885
▁श्रद्धालु	-4886
▁न्यूजीलैंड	-4887
बूर	-4888
सुर	-4889
सैन	-4890
▁इक	-4891
धारी	-4892
ब्दी	-4893
ोतरी	-4894
▁सिख	-4895
▁अक्षय	-4896
▁विस्फोट	-4897
▁सदस्यता	-4898
ंगना	-4899
▁जुटे	-4900
▁खरीदने	-4901
▁मैनेजर	-4902
▁समर्थक	-4903
्रत	-4904
रावट	-4905
▁डाक	-4906
▁धान	-4907
▁संज्	-4908
▁सम्प	-4909
▁कैमरे	-4910
▁तारीख	-4911
▁लॉन्च	-4912
▁देवेंद्र	-4913
▁सुरेंद्र	-4914
▁हॉस्पिटल	-4915
▁पाठ्यक्रम	-4916
▁प्रतिनिधियों	-4917
डिया	-4918
▁आएगी	-4919
▁खाना	-4920
▁मनोर	-4921
▁बुलाया	-4922
▁संग्रह	-4923
▁प्रवासी	-4924
▁मैनेजमेंट	-4925
टेज	-4926
श्म	-4927
साई	-4928
▁जॉ	-4929
▁शोक	-4930
▁कक्ष	-4931
▁नजदी	-4932
▁रेखा	-4933
▁फाउंड	-4934
▁व्याव	-4935
▁साजिश	-4936
▁गिरावट	-4937
▁स्थगित	-4938
▁कार्यरत	-4939
▁परीक्षाओं	-4940
▁पुलिसकर्मी	-4941
पट	-4942
रेशन	-4943
▁भोज	-4944
▁कुर्	-4945
▁लाइफ	-4946
▁त्रिव	-4947
▁मेहनत	-4948
▁हिंदु	-4949
▁सिनेमा	-4950
▁सियासी	-4951
▁एंबुलेंस	-4952
ड़न	-4953
▁अटल	-4954
▁हवा	-4955
▁बाला	-4956
▁लालू	-4957
▁लक्षण	-4958
▁सीमित	-4959
▁अमरीका	-4960
▁सैनिट	-4961
▁चोपड़ा	-4962
▁प्रतिदिन	-4963
▁संवेदनशील	-4964
दपुर	-4965
▁कोय	-4966
▁धोखा	-4967
▁निदेश	-4968
▁मशहूर	-4969
▁कैप्टन	-4970
▁करोड़ों	-4971
ंबा	-4972
टेक	-4973
सीआर	-4974
▁सार	-4975
▁सच्च	-4976
▁सीता	-4977
▁चार्ज	-4978
▁जानें	-4979
▁ओलंपिक	-4980
▁विष्णु	-4981
▁अहमदाबाद	-4982
वीय	-4983
▁यश	-4984
▁अंध	-4985
▁आये	-4986
▁सीख	-4987
▁आरटी	-4988
▁अनुरा	-4989
▁टीमों	-4990
▁पुनर्	-4991
▁प्यार	-4992
धारा	-4993
▁आइस	-4994
▁ओपी	-4995
▁वाज	-4996
▁आपात	-4997
▁उपरा	-4998
▁खड़ी	-4999
▁डांस	-5000
▁बताई	-5001
▁सेहत	-5002
▁बुनिया	-5003
बुल	-5004
न्दी	-5005
▁दूध	-5006
▁धाम	-5007
▁अत्य	-5008
पालिका	-5009
▁भ्रमण	-5010
▁विक्रम	-5011
▁दुकानें	-5012
▁बृहस्पति	-5013
म्भ	-5014
▁अह	-5015
ट्टा	-5016
स्टल	-5017
▁फोर	-5018
स्वती	-5019
▁जुटी	-5020
▁फ़िल	-5021
▁बसों	-5022
▁जिनके	-5023
▁पुष्प	-5024
एगा	-5025
▁टॉ	-5026
ख्ती	-5027
जारी	-5028
▁दफ्	-5029
▁मौल	-5030
▁निकट	-5031
▁पेपर	-5032
▁चेहरे	-5033
▁लिखकर	-5034
▁स्नान	-5035
▁परीक्ष	-5036
▁मास्टर	-5037
▁निश्चित	-5038
▁अधि	-5039
▁सूर	-5040
▁रोका	-5041
▁प्रको	-5042
▁हिसाब	-5043
▁अंसारी	-5044
दो	-5045
सीन	-5046
ह्म	-5047
▁घाय	-5048
▁पीजी	-5049
▁भेजी	-5050
्यांकन	-5051
लन	-5052
▁अत	-5053
छाड़	-5054
वरों	-5055
▁उजा	-5056
▁सत्	-5057
ारायण	-5058
्यवाद	-5059
▁अथवा	-5060
▁एकता	-5061
▁अनुसू	-5062
▁कैंसर	-5063
▁डेस्क	-5064
▁तारीफ	-5065
▁दफ्तर	-5066
▁कलाकारों	-5067
▁बीसीसीआई	-5068
▁इंस्टीट्यूट	-5069
ंगर	-5070
रेन	-5071
▁फु	-5072
▁रस	-5073
▁मंज	-5074
क्षेप	-5075
▁फ्ला	-5076
▁बदले	-5077
▁इंद्र	-5078
▁इच्छा	-5079
▁बिजनेस	-5080
▁प्रदर्शनकारियों	-5081
पाद	-5082
▁इंस	-5083
▁टाटा	-5084
▁धोनी	-5085
▁सुशील	-5086
▁निकलने	-5087
▁मतदाता	-5088
▁सरस्वती	-5089
▁कार्यकार	-5090
▁संस्थापक	-5091
▁आंगनबाड़ी	-5092
▁सिद्धार्थ	-5093
मिन	-5094
फोड़	-5095
▁अग्	-5096
▁कौर	-5097
▁फॉर	-5098
▁दुरु	-5099
स्तरीय	-5100
▁आसानी	-5101
▁बस्ती	-5102
▁मथुरा	-5103
▁कमलनाथ	-5104
ृज	-5105
नीत	-5106
वाज	-5107
डीसी	-5108
र्धा	-5109
्यूज	-5110
▁आंध	-5111
▁गोद	-5112
▁जगत	-5113
▁उल	-5114
न्नी	-5115
▁पाक	-5116
▁गुरू	-5117
ानिकों	-5118
▁निर्यात	-5119
▁बढ़ोतरी	-5120
▁वार्षिक	-5121
पिता	-5122
ाराम	-5123
▁मैन	-5124
▁संभ	-5125
▁सेन	-5126
▁मिनट	-5127
▁घायलों	-5128
▁परियोजनाओं	-5129
हे	-5130
िवि	-5131
क्षम	-5132
वार्ड	-5133
▁देरी	-5134
▁क्लास	-5135
▁पकड़े	-5136
▁नागरिकता	-5137
▁निर्देशित	-5138
ड्डे	-5139
▁परम	-5140
ष्कार	-5141
▁मुआव	-5142
▁बच्चन	-5143
▁शुरूआ	-5144
▁सीएमओ	-5145
▁प्राचीन	-5146
रक	-5147
▁आभार	-5148
▁आलोक	-5149
▁शांत	-5150
▁सख्ती	-5151
▁सप्लाई	-5152
ंदे	-5153
जुट	-5154
▁इश	-5155
▁सेक	-5156
▁माफी	-5157
▁रंजन	-5158
▁वसूली	-5159
▁फाउंडेशन	-5160
▁प्रतिनिधिमंडल	-5161
मानी	-5162
▁आर्ट	-5163
▁गवर्	-5164
▁भट्ट	-5165
▁मेरा	-5166
▁सुने	-5167
द्वारा	-5168
▁एरिया	-5169
▁क्राइम	-5170
▁डाक्टर	-5171
▁मुक्ति	-5172
▁वितरित	-5173
▁पंजीकरण	-5174
▁प्रेरणा	-5175
▁दिग्विजय	-5176
ह्न	-5177
▁दाख	-5178
▁नंद	-5179
▁मेल	-5180
▁बर्फ	-5181
▁हुईं	-5182
ंत्रिक	-5183
▁अखबार	-5184
▁बुलंद	-5185
▁प्रमोद	-5186
▁तत्कालीन	-5187
▁प्रदर्शनी	-5188
▁दुकानदारों	-5189
▁प्लेटफॉर्म	-5190
रेगा	-5191
▁कॉल	-5192
▁विज	-5193
▁गिरी	-5194
▁चिंत	-5195
▁पाठक	-5196
▁बायो	-5197
▁दिलीप	-5198
▁खूबसूरत	-5199
▁संस्कृत	-5200
▁किलोमीटर	-5201
▁समस्याएं	-5202
▁चिकित्सालय	-5203
▁जौ	-5204
▁मक	-5205
करार	-5206
मिशन	-5207
▁टूट	-5208
▁पिट	-5209
▁रघु	-5210
▁इतनी	-5211
▁एकजुट	-5212
▁निंदा	-5213
▁प्रतिभाग	-5214
▁प्रतिबद्ध	-5215
▁शुभकामनाएं	-5216
वट	-5217
ंपल	-5218
डोर	-5219
क्की	-5220
व्यू	-5221
▁केश	-5222
▁नामक	-5223
▁रेफर	-5224
क्षणिक	-5225
▁चिन्ह	-5226
▁बाहरी	-5227
▁ब्रांड	-5228
▁धन्यवाद	-5229
ौज	-5230
बॉल	-5231
आरसी	-5232
▁बनकर	-5233
िवारिक	-5234
▁कामकाज	-5235
▁सावधानी	-5236
नक	-5237
ंगाई	-5238
रानी	-5239
▁लैब	-5240
र्वाद	-5241
▁जल्दी	-5242
▁जुलूस	-5243
▁निरस्त	-5244
▁रामपुर	-5245
▁जितेंद्र	-5246
▁भागीदारी	-5247
▁मतदाताओं	-5248
वेल	-5249
▁हक	-5250
▁बीज	-5251
▁फांसी	-5252
▁बनेगा	-5253
▁मजबूर	-5254
▁अनुकूल	-5255
एक	-5256
दय	-5257
दर्श	-5258
पेयी	-5259
▁तार	-5260
तावरण	-5261
▁तोमर	-5262
▁करवाई	-5263
▁ट्रेड	-5264
▁सक्षम	-5265
▁ब्रह्म	-5266
▁सराहना	-5267
▁प्रशांत	-5268
▁फैक्ट्र	-5269
▁उपभोक्ता	-5270
लाम	-5271
▁द्र	-5272
धानिक	-5273
▁हड़क	-5274
▁अनुरूप	-5275
▁गोविंद	-5276
▁साइकिल	-5277
▁वातावरण	-5278
▁सांसदों	-5279
▁पार्टियों	-5280
▁कार्यकारिणी	-5281
ोड	-5282
▁बट	-5283
▁बम	-5284
ड़की	-5285
प्पा	-5286
भवती	-5287
्रेसी	-5288
▁अभिभावकों	-5289
▁पारिवारिक	-5290
ोबल	-5291
▁डु	-5292
टकों	-5293
सराय	-5294
र्वेद	-5295
▁उग्र	-5296
▁प्रस	-5297
▁बच्ची	-5298
▁कारणों	-5299
▁मुलायम	-5300
▁विषयों	-5301
▁नीतियों	-5302
▁एजेंसियों	-5303
डू	-5304
टिल	-5305
डीपी	-5306
ल्ले	-5307
▁आना	-5308
▁नृत्य	-5309
▁दीपिका	-5310
▁नक्सली	-5311
▁सुशांत	-5312
▁बाजारों	-5313
▁अनुसूचित	-5314
▁बढ	-5315
वार्	-5316
▁लुक	-5317
▁महाप	-5318
शिंगटन	-5319
▁आबादी	-5320
▁आश्रम	-5321
▁हुसैन	-5322
▁रफ्तार	-5323
▁गर्भवती	-5324
▁आरोपितों	-5325
रू	-5326
ंटा	-5327
रोह	-5328
ोगा	-5329
▁अदा	-5330
▁गेह	-5331
▁गर्म	-5332
▁बचने	-5333
▁बादल	-5334
▁भरने	-5335
▁बिहारी	-5336
▁सिद्धू	-5337
▁दर्शकों	-5338
▁स्वयंसे	-5339
▁व्यक्तिगत	-5340
▁प्रतिबंधित	-5341
▁ओब	-5342
▁पेट	-5343
▁हेल	-5344
मुख्य	-5345
▁खींच	-5346
पचारिक	-5347
▁आजादी	-5348
▁पड़ोसी	-5349
▁विवादित	-5350
▁विशिष्ट	-5351
▁उत्पीड़न	-5352
▁अल्पसंख्यक	-5353
जग	-5354
थाम	-5355
पूर	-5356
▁लिप	-5357
▁इनका	-5358
▁महत्	-5359
▁विश्	-5360
▁अत्या	-5361
▁कस्बे	-5362
▁निवास	-5363
वादियों	-5364
▁अधिकतर	-5365
▁एग्जाम	-5366
▁फ्रांस	-5367
▁बढ़ाया	-5368
▁शैक्षणिक	-5369
▁सर्वोच्च	-5370
▁मछ	-5371
▁कोट	-5372
▁कहां	-5373
▁घाटी	-5374
▁गोल्ड	-5375
▁जुड़ा	-5376
▁हाईवे	-5377
▁अलीगढ़	-5378
▁जेएनएन	-5379
▁बुनियादी	-5380
▁कांग्रेसी	-5381
▁ढंग	-5382
▁सील	-5383
▁मीटर	-5384
▁जोरदार	-5385
▁व्यस्त	-5386
▁उत्पन्न	-5387
▁हिस्सों	-5388
▁राजमार्ग	-5389
दाई	-5390
▁रॉ	-5391
्याज	-5392
▁नये	-5393
▁मनु	-5394
भाग्य	-5395
▁गायब	-5396
▁बांट	-5397
▁शुरु	-5398
▁सेवन	-5399
ायुक्त	-5400
▁कटौती	-5401
▁प्रिंस	-5402
▁रिजल्ट	-5403
▁शास्त्र	-5404
▁मूल्यांकन	-5405
यु	-5406
तौर	-5407
आईसी	-5408
दर्भ	-5409
वायर	-5410
▁भीम	-5411
▁चुनौ	-5412
▁चैनल	-5413
स्टेबल	-5414
▁संदर्भ	-5415
▁आयुर्वेद	-5416
▁आशीर्वाद	-5417
▁पठ	-5418
टाला	-5419
▁आधा	-5420
▁पैन	-5421
▁माय	-5422
▁लखी	-5423
▁सिम	-5424
▁बोला	-5425
▁मानस	-5426
▁प्रोट	-5427
▁गुस्सा	-5428
▁दीपावली	-5429
▁निस्तारण	-5430
▁वीरेंद्र	-5431
मै	-5432
एचओ	-5433
र्त	-5434
▁दुख	-5435
▁भगत	-5436
ोग्रा	-5437
▁कायम	-5438
▁जीता	-5439
▁स्पोर्ट	-5440
▁अधिकारों	-5441
फो	-5442
नीश	-5443
▁फू	-5444
श्चा	-5445
ायती	-5446
ोड़ा	-5447
▁बजा	-5448
▁जबरद	-5449
▁सहार	-5450
▁पत्थर	-5451
▁चौराहे	-5452
▁रोकथाम	-5453
▁शास्त्री	-5454
▁हत्याकांड	-5455
▁बृहस्पतिवार	-5456
▁आफ	-5457
▁जोख	-5458
▁रिम	-5459
ध्याप	-5460
▁सांप	-5461
▁तत्वा	-5462
▁प्रोफ	-5463
▁मिलेंगे	-5464
▁आमंत्रित	-5465
कला	-5466
▁शाय	-5467
▁मीणा	-5468
▁डालने	-5469
▁पाएंगे	-5470
▁हार्दिक	-5471
▁प्लास्टिक	-5472
र्ख	-5473
▁गत	-5474
जर्स	-5475
▁माध	-5476
▁आकाश	-5477
पक्षीय	-5478
▁हवाला	-5479
▁अनुराग	-5480
▁अर्चना	-5481
▁मस्जिद	-5482
▁महंगाई	-5483
▁छेड़छाड़	-5484
▁प्रस्तुति	-5485
सीपी	-5486
▁शिल	-5487
▁फतेह	-5488
▁शोभा	-5489
ानुसार	-5490
▁अवार्ड	-5491
▁हस्तक्षेप	-5492
▁चैंपियनशिप	-5493
वेदी	-5494
▁लंबित	-5495
▁तापमान	-5496
भूत	-5497
▁चर	-5498
▁जज	-5499
▁गेम	-5500
िकाओं	-5501
ोरेशन	-5502
▁रखकर	-5503
▁जापान	-5504
▁न्यून	-5505
▁पायलट	-5506
▁सब्जी	-5507
▁डिस्टेंस	-5508
ष्ठी	-5509
▁अकाद	-5510
▁ब्लड	-5511
▁मलिक	-5512
▁खेलों	-5513
▁जानते	-5514
▁मारने	-5515
▁योग्य	-5516
▁स्टोर	-5517
▁बॉर्डर	-5518
▁मनमोहन	-5519
▁सिपाही	-5520
सवाल	-5521
▁बहि	-5522
वाड़ी	-5523
▁परिच	-5524
▁पेड़	-5525
▁मुंह	-5526
▁जोखिम	-5527
▁मनाने	-5528
▁खुफिया	-5529
▁ज़्यादा	-5530
▁सरकारों	-5531
▁श्रमिकों	-5532
▁नॉ	-5533
त्तर	-5534
रियर	-5535
▁एक्	-5536
ग्रहण	-5537
▁अंडर	-5538
▁बिंद	-5539
▁स्थायी	-5540
▁न्यूनतम	-5541
▁गाजियाबाद	-5542
▁प्रधानाचार्य	-5543
▁जद	-5544
▁भौ	-5545
एनएस	-5546
भद्र	-5547
▁वें	-5548
ट्रिक	-5549
▁महंत	-5550
▁सेल्	-5551
▁अगुवाई	-5552
▁कलाकार	-5553
▁धर्मशाला	-5554
ंटन	-5555
शाह	-5556
चुअल	-5557
▁यहा	-5558
▁अगला	-5559
▁निधि	-5560
▁सीआर	-5561
▁तंत्र	-5562
▁देशभर	-5563
वाधिकार	-5564
▁छोड़ने	-5565
▁घटनास्थल	-5566
▁पव	-5567
करों	-5568
ाइजर	-5569
राधिक	-5570
▁जगदी	-5571
▁बताए	-5572
▁निकली	-5573
▁बरेली	-5574
▁सुर्ख	-5575
▁श्रृंखला	-5576
▁प्राथमिकी	-5577
▁महानिदेशक	-5578
मर्श	-5579
▁ससुर	-5580
▁साइट	-5581
▁लगाना	-5582
▁उत्तरी	-5583
▁जोड़ने	-5584
▁दिखाने	-5585
एएस	-5586
ूनी	-5587
्वर	-5588
▁तिल	-5589
▁उद्ध	-5590
▁जुड़	-5591
▁केदार	-5592
▁कुलदीप	-5593
▁सहारनपुर	-5594
खार	-5595
त्न	-5596
खण्ड	-5597
विंग	-5598
हिता	-5599
▁फर्	-5600
▁आवेद	-5601
▁गोवा	-5602
▁नोडल	-5603
▁फैंस	-5604
▁सोना	-5605
▁कपड़े	-5606
▁यूनिट	-5607
▁अभ्यास	-5608
▁उदाहरण	-5609
▁वास्तविक	-5610
▁मानवाधिकार	-5611
▁समृ	-5612
▁आपसी	-5613
▁काले	-5614
▁पॉलि	-5615
▁बैनर	-5616
▁कविता	-5617
▁सीएचसी	-5618
▁दुकानदार	-5619
▁गीत	-5620
▁गुम	-5621
▁फरी	-5622
▁यौन	-5623
▁सीजन	-5624
▁अपमान	-5625
▁एटीएम	-5626
▁गिरोह	-5627
▁मात्र	-5628
▁मूर्ति	-5629
▁संहिता	-5630
▁हिन्दी	-5631
▁व्यावसाय	-5632
वलप	-5633
▁खि	-5634
▁शरद	-5635
▁डाटा	-5636
▁देखी	-5637
▁मतलब	-5638
▁लंदन	-5639
▁पुण्य	-5640
▁मुफ्त	-5641
▁दिलाया	-5642
▁हड़कंप	-5643
▁आपराधिक	-5644
▁गड़बड़ी	-5645
▁गणतंत्र	-5646
▁तेजस्वी	-5647
▁इंटरव्यू	-5648
▁शिकायतों	-5649
िसू	-5650
काया	-5651
चर्स	-5652
पंथी	-5653
वाड़	-5654
▁दरवा	-5655
▁उड़ान	-5656
▁मतगणना	-5657
▁स्वीकृति	-5658
मुख्यमंत्री	-5659
▁अभ्यर्थियों	-5660
▁प्रोत्साहित	-5661
▁शह	-5662
अपने	-5663
ट्टर	-5664
▁आरा	-5665
▁विस	-5666
▁गेहूं	-5667
▁जगदीश	-5668
▁गेंदबाजी	-5669
▁इलेक्ट्रॉन	-5670
▁ठिक	-5671
▁विभ	-5672
▁विल	-5673
▁कोषा	-5674
▁हुये	-5675
▁एक्शन	-5676
▁जेटली	-5677
▁पदस्थ	-5678
▁शुक्ल	-5679
▁गरीबों	-5680
▁बहिष्कार	-5681
राद	-5682
टिया	-5683
द्दा	-5684
▁मिठ	-5685
▁एम्स	-5686
▁कपिल	-5687
▁खतरे	-5688
▁जर्म	-5689
▁सूरज	-5690
▁खबरों	-5691
▁पड़ने	-5692
▁मानते	-5693
▁निरंतर	-5694
▁ठेकेदार	-5695
▁गाइडलाइन	-5696
▁गोलीबारी	-5697
▁शांतिपूर्ण	-5698
पीय	-5699
रेज	-5700
तिथि	-5701
▁अमे	-5702
▁बेल	-5703
▁भरे	-5704
▁मिथ	-5705
▁रोल	-5706
▁लोह	-5707
▁सर्ट	-5708
ान्यास	-5709
▁कंगना	-5710
▁चक्कर	-5711
▁पढ़ने	-5712
▁सीतार	-5713
▁योग्यता	-5714
▁व्यावसायिक	-5715
कै	-5716
थन	-5717
▁धु	-5718
▁फेड	-5719
▁लेन	-5720
ेश्वरी	-5721
▁क्लिक	-5722
▁साइंस	-5723
▁छुट्टी	-5724
▁निर्भर	-5725
▁दस्तावे	-5726
▁द्विवेदी	-5727
▁शिलान्यास	-5728
तल	-5729
गरी	-5730
बीन	-5731
लेस	-5732
वों	-5733
ोगी	-5734
ष्णा	-5735
▁अके	-5736
▁भरी	-5737
▁मारा	-5738
▁अग्नि	-5739
▁दीवार	-5740
▁गुर्जर	-5741
▁मिट्टी	-5742
▁प्राप्ति	-5743
ुलर	-5744
▁नु	-5745
श्वत	-5746
▁खिल	-5747
▁शिर	-5748
ंद्रा	-5749
▁चाहे	-5750
▁बहाल	-5751
▁बाधा	-5752
▁रिहा	-5753
▁कितना	-5754
▁गुप्त	-5755
▁तृतीय	-5756
▁देखना	-5757
▁हवाले	-5758
▁निर्मित	-5759
इस	-5760
धीर	-5761
शेखर	-5762
▁नशे	-5763
▁मरा	-5764
▁यमु	-5765
▁रुक	-5766
▁साउ	-5767
▁इतने	-5768
▁अपलोड	-5769
्योरिटी	-5770
▁प्रतिपक्ष	-5771
सीए	-5772
ृत्त	-5773
▁अनि	-5774
▁आला	-5775
▁वेल	-5776
प्रीत	-5777
▁किंग	-5778
▁पाण्ड	-5779
▁हेल्प	-5780
▁एंट्री	-5781
▁सीरिया	-5782
▁मनोरंजन	-5783
ूंगा	-5784
▁पौध	-5785
▁हरा	-5786
▁चलता	-5787
▁उद्यम	-5788
▁जायेगी	-5789
▁सत्याप	-5790
▁स्टाइल	-5791
▁पत्रिका	-5792
देवी	-5793
्तिक	-5794
▁बेस	-5795
▁उतरे	-5796
▁दिलच	-5797
▁नीरज	-5798
▁नौकर	-5799
▁ललित	-5800
▁हमीर	-5801
जेक्शन	-5802
ाजीपुर	-5803
▁एसडीओ	-5804
▁गर्मी	-5805
▁डीएसपी	-5806
▁परिचाल	-5807
▁प्रोटोक	-5808
▁वाजपेयी	-5809
▁कांफ्रेंस	-5810
दलीय	-5811
नामा	-5812
जाबाद	-5813
▁जेपी	-5814
▁पवार	-5815
▁ब्राह	-5816
▁बरकरार	-5817
▁मांगने	-5818
चौ	-5819
न्ध	-5820
यंस	-5821
ोने	-5822
▁टॉप	-5823
▁बला	-5824
जेंसी	-5825
▁कांड	-5826
▁कोटा	-5827
▁नर्म	-5828
▁ओबामा	-5829
▁सर्वा	-5830
▁सशक्त	-5831
▁खतरनाक	-5832
▁चेकिंग	-5833
▁शुरूआत	-5834
▁पर्यटकों	-5835
शहर	-5836
ोंक	-5837
▁खाम	-5838
▁चीज	-5839
▁पलट	-5840
▁सकी	-5841
▁अभाव	-5842
▁गीता	-5843
▁व्रत	-5844
▁टीमें	-5845
▁ट्रैक	-5846
▁नितिन	-5847
▁दर्जनों	-5848
▁दीक्षित	-5849
▁फैक्ट्री	-5850
▁निर्देशों	-5851
कीम	-5852
ग्न	-5853
ख्यात	-5854
▁अजीत	-5855
▁रहकर	-5856
▁लिखी	-5857
▁अपडेट	-5858
▁कामना	-5859
▁ड्रेस	-5860
▁भरपूर	-5861
निर्देश	-5862
▁रात्रि	-5863
टेल	-5864
ाकर	-5865
बलों	-5866
ब्रे	-5867
▁रेट	-5868
▁आरती	-5869
▁शब्द	-5870
▁जिसने	-5871
▁पैमाने	-5872
▁समन्वय	-5873
ग़	-5874
टरी	-5875
▁फस	-5876
ार्क	-5877
▁जोध	-5878
न्नति	-5879
राज्य	-5880
▁एनएस	-5881
▁एसटी	-5882
▁खासकर	-5883
▁दवाओं	-5884
▁बरतने	-5885
▁ब्रिट	-5886
▁शिफ्ट	-5887
▁दायित्व	-5888
▁निर्देशन	-5889
▁सर्टिफिक	-5890
▁नियंत्रित	-5891
परे	-5892
▁शैल	-5893
▁आरंभ	-5894
▁ट्रॉ	-5895
▁शायद	-5896
▁बीडीओ	-5897
▁महानगर	-5898
▁जायसवाल	-5899
▁हमीरपुर	-5900
▁भले	-5901
▁महतो	-5902
▁मूर्	-5903
▁आस्था	-5904
▁किशोरी	-5905
▁चन्द्र	-5906
▁स्थानांतर	-5907
माइ	-5908
▁कमा	-5909
▁चेत	-5910
▁कुंभ	-5911
▁डीपी	-5912
▁समित	-5913
▁अपहरण	-5914
▁प्रभु	-5915
▁बातों	-5916
▁तस्करी	-5917
▁प्रतीक	-5918
▁हथियारों	-5919
▁बल्लेबाजी	-5920
एप	-5921
णु	-5922
देह	-5923
▁चिट	-5924
▁पंप	-5925
▁सफर	-5926
▁सिस	-5927
▁परेड	-5928
▁फैला	-5929
▁हरीश	-5930
▁मैचों	-5931
▁विविध	-5932
▁तत्वों	-5933
▁रिश्वत	-5934
▁क्रेडिट	-5935
▁समर्पित	-5936
▁सिक्योरिटी	-5937
स्को	-5938
▁सक्	-5939
न्वयन	-5940
▁कितने	-5941
▁लगेगा	-5942
▁सोसाय	-5943
▁उज्जैन	-5944
▁फैलाने	-5945
▁निदेशालय	-5946
डिय	-5947
▁तथ	-5948
▁सन	-5949
▁मरम	-5950
▁वाइ	-5951
▁मौर्य	-5952
▁स्थिर	-5953
▁पवित्र	-5954
▁बढ़ेगी	-5955
▁स्कूली	-5956
▁रिकार्ड	-5957
्टर	-5958
▁छवि	-5959
ियमित	-5960
▁पर्स	-5961
▁जोधपुर	-5962
वो	-5963
▁गर	-5964
▁वस	-5965
मतों	-5966
ॉर्ट	-5967
्याल	-5968
▁टेन	-5969
▁नील	-5970
▁मंग	-5971
वाइंट	-5972
▁जुटा	-5973
▁विनय	-5974
▁शिखर	-5975
▁सपना	-5976
▁दुर्ग	-5977
▁मांगे	-5978
▁जानकार	-5979
▁कार्तिक	-5980
▁सचिवालय	-5981
ॉड	-5982
्वे	-5983
सिया	-5984
▁ड्रग	-5985
▁फंसे	-5986
▁लाठी	-5987
▁लिखे	-5988
▁सीपी	-5989
निर्भर	-5990
▁आंखों	-5991
▁कोयला	-5992
▁ग्रीन	-5993
▁जवाहर	-5994
▁हेमंत	-5995
▁साक्षा	-5996
▁मार्गदर्शन	-5997
▁क्षतिग्रस्त	-5998
▁प्रतिनिधित्व	-5999
केज	-6000
वीण	-6001
कल्प	-6002
▁आईं	-6003
▁जॉन	-6004
ुकेशन	-6005
▁किरण	-6006
▁मारकर	-6007
▁मजबूती	-6008
▁डाउनलोड	-6009
▁तस्वीरों	-6010
बो	-6011
विड	-6012
▁तू	-6013
▁बृज	-6014
▁आएगा	-6015
▁साउथ	-6016
▁मनरेगा	-6017
▁अध्यापक	-6018
▁जबरदस्त	-6019
▁ड्राइवर	-6020
▁मुसलमानों	-6021
ड़का	-6022
ड्डी	-6023
▁नसी	-6024
▁बहस	-6025
ियर्स	-6026
▁कंटे	-6027
▁कमान	-6028
▁बारी	-6029
▁हैंड	-6030
▁पार्ट	-6031
▁अमरीकी	-6032
▁महादेव	-6033
▁वायुसेना	-6034
▁स्पोर्ट्स	-6035
▁सर्टिफिकेट	-6036
▁इट	-6037
▁आलम	-6038
▁गुट	-6039
▁दीन	-6040
ाइयों	-6041
▁खिता	-6042
▁मीना	-6043
▁भक्ति	-6044
▁सरदार	-6045
▁सॉफ्ट	-6046
▁चालकों	-6047
▁अंतरिक्ष	-6048
▁लोकार्पण	-6049
षमा	-6050
्रो	-6051
ंचित	-6052
िलाई	-6053
▁नाल	-6054
▁शिश	-6055
धियां	-6056
▁अश्व	-6057
▁धरने	-6058
▁मनाई	-6059
▁सर्क	-6060
निर्माण	-6061
▁महासभा	-6062
▁कुशवाहा	-6063
▁निवेशकों	-6064
▁कांस्टेबल	-6065
मय	-6066
रेख	-6067
▁अखा	-6068
▁चरम	-6069
▁हॉट	-6070
कृष्ट	-6071
▁एमपी	-6072
▁चुने	-6073
▁थोड़ी	-6074
▁प्रज्	-6075
▁बुलाई	-6076
▁मरम्मत	-6077
▁पीड़ितों	-6078
▁निभ	-6079
मात्र	-6080
्युनि	-6081
▁नज़र	-6082
▁पोषण	-6083
▁सोने	-6084
क्षकों	-6085
▁चयनित	-6086
▁दर्जा	-6087
▁पूंजी	-6088
▁बिगड़	-6089
▁संचार	-6090
▁सुषमा	-6091
▁कृष्णा	-6092
▁ब्रांच	-6093
▁महापौर	-6094
▁महीनों	-6095
▁मुद्रा	-6096
▁शहीदों	-6097
ंवर	-6098
ामक	-6099
▁धा	-6100
क्के	-6101
सागर	-6102
▁काग	-6103
▁बजर	-6104
▁भेद	-6105
▁अगली	-6106
▁मकसद	-6107
▁मेयर	-6108
▁अध्या	-6109
▁आंध्र	-6110
▁देखिए	-6111
▁पुतला	-6112
▁कीमतों	-6113
▁ट्रायल	-6114
▁तोड़ने	-6115
▁मिर्जा	-6116
▁एजुकेशन	-6117
▁बिल्कुल	-6118
▁डू	-6119
स्पी	-6120
▁पाइ	-6121
▁फाइ	-6122
गारों	-6123
ोलेशन	-6124
▁आईसी	-6125
▁कठिन	-6126
▁पैदल	-6127
▁सैंपल	-6128
▁अकादमी	-6129
▁अपराधी	-6130
▁डीजीपी	-6131
▁देखभाल	-6132
▁निशाने	-6133
▁दोषियों	-6134
▁ब्रिटिश	-6135
▁मदन	-6136
▁रवी	-6137
पोरेशन	-6138
▁अभद्र	-6139
▁आर्मी	-6140
▁करीबी	-6141
▁ख़िला	-6142
▁जनसभा	-6143
▁नाकाम	-6144
ाध्यक्ष	-6145
▁सहकारी	-6146
▁सावधान	-6147
तांत्रिक	-6148
▁औपचारिक	-6149
▁ग्राउंड	-6150
▁श्रद्धा	-6151
▁सर्वेक्षण	-6152
▁इलेक्ट्रिक	-6153
ंठ	-6154
नाई	-6155
पाई	-6156
▁जख	-6157
▁शख	-6158
आईएम	-6159
धनों	-6160
लीला	-6161
▁बिर	-6162
▁बेड	-6163
▁शेष	-6164
▁हिद	-6165
▁फार्	-6166
▁बरसा	-6167
▁भूपेश	-6168
▁मेहता	-6169
▁प्रवीण	-6170
▁सिंचाई	-6171
▁सोसायटी	-6172
ंसक	-6173
▁ओड	-6174
र्टी	-6175
▁धमा	-6176
चार्ज	-6177
▁कड़े	-6178
▁खरीदी	-6179
▁चलेगा	-6180
▁बलराम	-6181
▁उच्चतम	-6182
▁पूर्वा	-6183
▁फ़िल्म	-6184
▁बढ़ेगा	-6185
▁दस्तावेजों	-6186
▁जनप्रतिनिधियों	-6187
वायु	-6188
▁डिफ	-6189
▁रमन	-6190
▁हाइ	-6191
▁डेवलप	-6192
▁तरीका	-6193
▁बनाये	-6194
▁शिरकत	-6195
▁स्वराज	-6196
▁अपेक्षा	-6197
▁प्रजापति	-6198
▁द्विपक्षीय	-6199
म्न	-6200
जीवन	-6201
ुसार	-6202
▁पेर	-6203
▁रूट	-6204
▁अस्त	-6205
▁आचार	-6206
▁फाइन	-6207
▁लिंक	-6208
▁रुद्र	-6209
▁माफिया	-6210
▁प्रसन्न	-6211
▁व्हाट्स	-6212
▁शुरुआती	-6213
▁सदस्यीय	-6214
डीएस	-6215
भूषण	-6216
र्की	-6217
▁भूल	-6218
ानिया	-6219
▁कारा	-6220
▁खबरें	-6221
▁मुकदम	-6222
▁अनुमान	-6223
▁जलवायु	-6224
▁साथियों	-6225
▁औष	-6226
तिया	-6227
धड़ी	-6228
ियंस	-6229
▁कॉम	-6230
▁गिल	-6231
▁चाइ	-6232
▁जाट	-6233
खास्त	-6234
फॉर्म	-6235
▁गुना	-6236
▁चांद	-6237
▁रिक्त	-6238
स्ट्रेलियाई	-6239
▁तट	-6240
्यूल	-6241
▁मेघ	-6242
थियों	-6243
▁उमेश	-6244
▁किशन	-6245
▁खेला	-6246
▁पारी	-6247
▁राजू	-6248
▁शरीफ	-6249
▁सुनाई	-6250
▁स्नातक	-6251
▁नवरात्र	-6252
▁जरूरतमंद	-6253
▁ब्राह्मण	-6254
▁कारोबारियों	-6255
एगी	-6256
सला	-6257
▁सीए	-6258
ेशनों	-6259
▁इमार	-6260
▁गहरा	-6261
▁जमशे	-6262
▁नरेश	-6263
▁बगैर	-6264
▁बोली	-6265
▁लड़ा	-6266
▁सूबे	-6267
▁क्रिस	-6268
▁इस्लाम	-6269
▁विश्ले	-6270
▁समूहों	-6271
▁अंबेडकर	-6272
▁भागलपुर	-6273
▁विचारों	-6274
▁धर्मेंद्र	-6275
▁आत्मनिर्भर	-6276
▁एव	-6277
आरपी	-6278
धारण	-6279
▁गोप	-6280
▁फूड	-6281
▁मित	-6282
▁मेन	-6283
▁शेख	-6284
ंगाना	-6285
श्चात	-6286
स्करण	-6287
ियाना	-6288
▁अमरि	-6289
▁खोला	-6290
▁सूरत	-6291
▁ईश्वर	-6292
▁दर्शा	-6293
▁प्रीम	-6294
▁बौद्ध	-6295
▁धूमधाम	-6296
▁संविदा	-6297
नम	-6298
▁खर	-6299
▁भय	-6300
भारत	-6301
▁हॉल	-6302
▁चपेट	-6303
▁जाया	-6304
▁देवर	-6305
▁राधा	-6306
▁शर्म	-6307
▁सेमी	-6308
▁अड्डे	-6309
▁अधिसू	-6310
▁ओडिशा	-6311
▁कराकर	-6312
▁गन्ना	-6313
▁थोड़ा	-6314
▁निशान	-6315
▁सेक्स	-6316
▁हितों	-6317
▁रक्तदान	-6318
▁लखीमपुर	-6319
▁बर्खास्त	-6320
▁नकारात्मक	-6321
▁उपमुख्यमंत्री	-6322
जब	-6323
्रु	-6324
▁घो	-6325
डियो	-6326
पिंग	-6327
▁असल	-6328
▁किट	-6329
▁डेम	-6330
▁पटा	-6331
ंटाइन	-6332
▁कहने	-6333
▁तबाद	-6334
▁शिल्	-6335
▁अंकित	-6336
▁कितनी	-6337
▁जिनका	-6338
▁मल्टी	-6339
▁कोविंद	-6340
▁नर्मदा	-6341
▁हिन्दु	-6342
▁संपूर्ण	-6343
▁धोखाधड़ी	-6344
▁तत्वावधान	-6345
▁परीक्षाएं	-6346
▁प्रत्यक्ष	-6347
षी	-6348
दूस	-6349
▁टो	-6350
▁वर	-6351
साइड	-6352
▁बीए	-6353
नमेंट	-6354
स्टार	-6355
▁कच्च	-6356
▁चलाई	-6357
▁सैनी	-6358
▁दरबार	-6359
▁पिटाई	-6360
▁भागवत	-6361
▁मोर्च	-6362
▁म्यूज	-6363
▁प्रेमी	-6364
▁ख़िलाफ़	-6365
▁बैंकिंग	-6366
▁उद्योगों	-6367
▁केंद्रित	-6368
▁पूर्णिमा	-6369
मस	-6370
शर	-6371
हू	-6372
रुख	-6373
▁हृ	-6374
काने	-6375
द्धा	-6376
▁भरत	-6377
▁शेर	-6378
▁निया	-6379
▁नैनी	-6380
▁लाइव	-6381
▁शत्र	-6382
▁स्कीम	-6383
▁स्पिन	-6384
▁कोचिंग	-6385
▁गायत्री	-6386
▁प्रसारण	-6387
▁तेलंगाना	-6388
▁निर्देशक	-6389
▁अब्दुल्ला	-6390
▁राजेन्द्र	-6391
▁सेवानिवृत्त	-6392
नाश	-6393
कतों	-6394
बाला	-6395
र्जन	-6396
▁यज्	-6397
खेड़ा	-6398
▁कवाय	-6399
▁केयर	-6400
▁नायक	-6401
▁पूछे	-6402
▁मप्र	-6403
▁मानी	-6404
▁लाइट	-6405
▁शख्स	-6406
▁हॉकी	-6407
▁चोरों	-6408
▁तीसरा	-6409
▁फसलों	-6410
▁सुनने	-6411
त्तियों	-6412
▁रोडवेज	-6413
▁निराकरण	-6414
▁सत्यापन	-6415
▁जमशेदपुर	-6416
▁फट	-6417
ंटों	-6418
िकोण	-6419
▁इंच	-6420
▁रिव	-6421
▁अन्न	-6422
▁कर्फ	-6423
▁खाता	-6424
▁फेंक	-6425
▁राठौर	-6426
▁संपाद	-6427
▁शाहरुख	-6428
▁अनियमित	-6429
▁प्रतिस्प	-6430
किट	-6431
पाट	-6432
ाइक	-6433
क्यू	-6434
▁शार	-6435
▁ताजा	-6436
▁सिंघ	-6437
▁सीधा	-6438
▁कराएं	-6439
▁प्रार	-6440
▁बाधित	-6441
▁ट्रांसफर	-6442
▁बलात्कार	-6443
▁सुरक्षाबलों	-6444
भवन	-6445
दूसरे	-6446
▁अधीन	-6447
▁बाइड	-6448
▁रिला	-6449
▁प्रता	-6450
▁बेसिक	-6451
▁मैसेज	-6452
▁अनुदान	-6453
▁रहेंगी	-6454
▁लिहाजा	-6455
▁पाण्डेय	-6456
▁केन्द्रों	-6457
ंश	-6458
ॉस	-6459
द्व	-6460
बरा	-6461
प्ति	-6462
▁ढाई	-6463
▁हसन	-6464
टरिंग	-6465
▁जदयू	-6466
▁रोशन	-6467
कॉप्टर	-6468
▁वंचित	-6469
▁ग्राहक	-6470
▁देखरेख	-6471
▁आकर्षित	-6472
▁एकमात्र	-6473
▁रोगियों	-6474
▁लक्ष्मण	-6475
▁श्रीमती	-6476
▁टेक्नोलॉजी	-6477
▁प्रोत्साहन	-6478
▁डिपार्टमेंट	-6479
इंग	-6480
चरण	-6481
दयाल	-6482
लिस्ट	-6483
▁आईजी	-6484
▁आरके	-6485
▁खेले	-6486
▁चालू	-6487
▁डीजल	-6488
▁कवायद	-6489
▁जोड़ा	-6490
▁दृष्ट	-6491
▁परंतु	-6492
▁हादसा	-6493
▁असिस्ट	-6494
▁पुराना	-6495
▁सवालों	-6496
▁बिल्डिंग	-6497
▁ज्योतिराद	-6498
▁प्रारंभिक	-6499
ंगत	-6500
ड्र	-6501
ौड़	-6502
▁चम	-6503
ैतिक	-6504
▁लघु	-6505
▁लीड	-6506
▁सैल	-6507
ंपरिक	-6508
वायरस	-6509
▁वादा	-6510
▁चालान	-6511
▁जानने	-6512
▁दिलाई	-6513
▁वस्तु	-6514
▁सहारा	-6515
▁पर्यवे	-6516
▁स्ट्री	-6517
▁मोहल्ला	-6518
▁आइसोलेशन	-6519
▁संसाधनों	-6520
▁सीआरपीएफ	-6521
्न	-6522
रियल	-6523
श्यप	-6524
▁नहर	-6525
ंतरिक	-6526
वालों	-6527
▁धीरे	-6528
▁निपट	-6529
▁अवकाश	-6530
▁उद्धव	-6531
▁कैंपस	-6532
▁जताते	-6533
▁नजदीक	-6534
▁सकेगी	-6535
▁प्रभात	-6536
▁इमरजेंसी	-6537
▁निष्पक्ष	-6538
▁शिकायतें	-6539
▁स्टेशनों	-6540
▁छात्रावास	-6541
▁डिस्टेंसिंग	-6542
▁ज्योतिरादित्य	-6543
्ढ	-6544
धेश	-6545
ौरी	-6546
▁ग़	-6547
एमएस	-6548
वर्ड	-6549
वाकर	-6550
▁टोल	-6551
माबाद	-6552
▁उड़ा	-6553
▁चौथे	-6554
▁टीके	-6555
▁पाटी	-6556
▁बुरी	-6557
क्टर्स	-6558
▁खिताब	-6559
▁निभाई	-6560
▁विक्रे	-6561
▁समाजसे	-6562
▁कर्फ्यू	-6563
भू	-6564
▁रथ	-6565
▁लू	-6566
न्दर	-6567
वीएम	-6568
सरों	-6569
▁मानक	-6570
▁न्यूय	-6571
▁बैठकर	-6572
▁आंतरिक	-6573
▁घटनाएं	-6574
▁वाशिंगटन	-6575
▁सर्वाधिक	-6576
▁क्वारंटाइन	-6577
▁साक्षात्कार	-6578
णे	-6579
▁ठप	-6580
▁ढा	-6581
▁तल	-6582
डिय़	-6583
वंशी	-6584
▁अरो	-6585
▁फंस	-6586
▁फार	-6587
▁अनदे	-6588
▁इजाज	-6589
ड़ियां	-6590
▁एक्टर	-6591
▁गंदगी	-6592
▁पिछली	-6593
▁बहुमत	-6594
▁मानें	-6595
▁स्मार	-6596
▁रोजाना	-6597
▁दोस्तों	-6598
▁रिलायंस	-6599
▁सक्सेना	-6600
▁पारंपरिक	-6601
▁टि	-6602
ेंजर	-6603
▁सोल	-6604
ुल्ला	-6605
▁रेंज	-6606
▁जनहित	-6607
▁संभाग	-6608
▁आकर्षक	-6609
▁गतिविधियां	-6610
ज़ी	-6611
सेन	-6612
▁अपन	-6613
▁बताने	-6614
▁बेस्ट	-6615
▁वर्षा	-6616
▁आईसीसी	-6617
▁तोड़फोड़	-6618
▁प्रदर्शित	-6619
▁कलेक्ट्रेट	-6620
गठ	-6621
रीत	-6622
्लो	-6623
रोधक	-6624
▁ठोस	-6625
▁खोले	-6626
▁गर्ग	-6627
▁टेनिस	-6628
▁प्राय	-6629
▁बनाते	-6630
▁मध्यम	-6631
▁संतुल	-6632
▁परिचालन	-6633
▁यूरोपीय	-6634
तें	-6635
वीप	-6636
आईपी	-6637
ष्टी	-6638
▁जमी	-6639
▁रेस	-6640
▁शोर	-6641
ष्मान	-6642
▁ईमान	-6643
▁तेंद	-6644
▁मोड़	-6645
फ्रेंड	-6646
▁शासित	-6647
▁कमांडर	-6648
▁प्रशंसा	-6649
▁उत्कृष्ट	-6650
▁व्याख्या	-6651
ेलर	-6652
गुरु	-6653
▁कैप	-6654
▁डेब	-6655
▁लाई	-6656
▁हाज	-6657
दाश्त	-6658
▁अनंत	-6659
▁आगमन	-6660
▁शाही	-6661
▁सुधीर	-6662
▁मिलाकर	-6663
▁लगवाने	-6664
▁आयुष्मान	-6665
▁लोकतांत्रिक	-6666
कश	-6667
लै	-6668
कॉम	-6669
▁उपज	-6670
▁चाय	-6671
▁दबो	-6672
▁फेल	-6673
▁लोन	-6674
वासीय	-6675
वेस्ट	-6676
▁खुली	-6677
▁गूगल	-6678
▁फाइल	-6679
▁राजे	-6680
▁लगते	-6681
▁शोषण	-6682
▁एएसपी	-6683
▁तुलसी	-6684
▁पृथ्वी	-6685
▁मुआवजा	-6686
▁सत्तार	-6687
▁ओमप्रकाश	-6688
▁चक्रवर्ती	-6689
लेन	-6690
वर्ष	-6691
▁एसओ	-6692
▁घेर	-6693
▁त्व	-6694
▁बुक	-6695
▁होश	-6696
▁पीने	-6697
▁गुहार	-6698
▁घेराव	-6699
▁नायडू	-6700
▁पकड़ने	-6701
▁फिटनेस	-6702
▁वर्चुअल	-6703
▁गाड़ियों	-6704
▁चंद्रशेखर	-6705
▁व्यवस्थाओं	-6706
ामे	-6707
ुरू	-6708
▁लव	-6709
ण्डल	-6710
▁टूर	-6711
▁पंत	-6712
▁मेक	-6713
द्रोह	-6714
▁डॉलर	-6715
रात्रि	-6716
▁परिचय	-6717
▁विवरण	-6718
▁संवेद	-6719
▁सोरेन	-6720
▁अश्लील	-6721
▁पहाड़ी	-6722
▁बनेंगे	-6723
▁महाप्र	-6724
▁सेक्सी	-6725
▁भारतीयों	-6726
▁कार्यालयों	-6727
ीयत	-6728
ोपण	-6729
▁ख्	-6730
लाइट	-6731
▁एबी	-6732
▁ढेर	-6733
▁बंट	-6734
▁बैड	-6735
पूर्वक	-6736
▁अफवाह	-6737
▁पृष्ठ	-6738
▁सीटें	-6739
▁हमलों	-6740
▁फतेहपुर	-6741
▁योजनाएं	-6742
▁विवादों	-6743
▁विचारधारा	-6744
णवी	-6745
▁आब	-6746
गारी	-6747
त्ते	-6748
राशि	-6749
िप्त	-6750
ूर्व	-6751
▁टकर	-6752
▁दंप	-6753
▁बैक	-6754
▁जीते	-6755
▁पराम	-6756
▁पीयू	-6757
▁सस्प	-6758
▁फ्रंट	-6759
▁प्रभार	-6760
▁मोटरसा	-6761
▁सिलसिले	-6762
णिक	-6763
रेप	-6764
▁पन	-6765
ख्ता	-6766
जहां	-6767
ड़के	-6768
फिसर	-6769
▁खाल	-6770
▁ताज	-6771
▁मदर	-6772
गेटिव	-6773
न्यास	-6774
▁कड़ा	-6775
▁प्रॉ	-6776
▁बालक	-6777
▁लेखक	-6778
▁वनडे	-6779
▁त्वचा	-6780
▁निकला	-6781
▁आवागमन	-6782
▁ग्लोबल	-6783
▁श्रीकृष्ण	-6784
▁हेलीकॉप्टर	-6785
दृ	-6786
कूट	-6787
टित	-6788
पैठ	-6789
▁आड	-6790
▁डिम	-6791
▁राइ	-6792
▁इंजन	-6793
▁रुचि	-6794
▁वरीय	-6795
▁एडीएम	-6796
▁तलाशी	-6797
▁प्रकट	-6798
▁लौटने	-6799
▁एडमिशन	-6800
▁कालोनी	-6801
▁स्वदेश	-6802
थल	-6803
कता	-6804
टरों	-6805
▁जेई	-6806
▁डिव	-6807
▁फीड	-6808
▁हंस	-6809
ेदारी	-6810
ोत्तर	-6811
▁पहना	-6812
▁पाली	-6813
▁माला	-6814
▁काटने	-6815
▁जोड़ी	-6816
▁बनेगी	-6817
▁यमुना	-6818
▁कामयाब	-6819
▁जागरुक	-6820
▁प्रवर्	-6821
▁विपरीत	-6822
▁अमरिंदर	-6823
▁नोटबंदी	-6824
▁पंचायती	-6825
▁अनिश्चित	-6826
▁कोषाध्यक्ष	-6827
▁विश्वविद्यालयों	-6828
खल	-6829
ैग	-6830
खों	-6831
राए	-6832
ौदा	-6833
ंटीन	-6834
फार्	-6835
लिटी	-6836
सम्म	-6837
▁फिज	-6838
▁वाई	-6839
फाइनल	-6840
▁डीआई	-6841
▁नाटक	-6842
▁मुना	-6843
▁डालकर	-6844
▁आवासीय	-6845
▁दिखाकर	-6846
▁पड़ताल	-6847
▁पॉलिसी	-6848
▁महासंघ	-6849
▁मिसाइल	-6850
▁सीबीएस	-6851
▁प्रकृति	-6852
▁फिल्में	-6853
▁सिलसिला	-6854
▁अभ्यर्थी	-6855
▁ष	-6856
तान	-6857
दरी	-6858
▁पश	-6859
ंगों	-6860
ंडीज	-6861
रिटी	-6862
वामा	-6863
▁एसी	-6864
▁फुल	-6865
▁बाई	-6866
▁छापा	-6867
▁पद्म	-6868
▁साहब	-6869
▁निराश	-6870
▁फेस्ट	-6871
▁बनाएं	-6872
▁आरएसएस	-6873
▁अधिग्रहण	-6874
▁संचालकों	-6875
▁चुनौतियों	-6876
बस	-6877
मण	-6878
बली	-6879
्हा	-6880
ोजित	-6881
▁फोक	-6882
▁भजन	-6883
▁रोष	-6884
गोपाल	-6885
▁अन्त	-6886
▁कमरे	-6887
ध्यापक	-6888
▁कश्यप	-6889
▁पैकेज	-6890
▁घुसपैठ	-6891
▁पुजारी	-6892
▁यूजर्स	-6893
▁रामदेव	-6894
▁हिदायत	-6895
▁संरक्षक	-6896
▁सिद्धांत	-6897
▁इस्लामाबाद	-6898
▁हिस्सेदारी	-6899
ुष	-6900
ौत	-6901
एसी	-6902
ड़प	-6903
बिल	-6904
प्शन	-6905
्यूब	-6906
▁अफ़	-6907
▁दां	-6908
▁दुब	-6909
▁काबू	-6910
▁डेटा	-6911
▁देनी	-6912
▁पौधे	-6913
▁बनार	-6914
▁लैंड	-6915
▁हरकत	-6916
▁इंकार	-6917
▁चीजों	-6918
्रदायिक	-6919
▁व्हाइट	-6920
▁परामर्श	-6921
▁बेटियों	-6922
▁असिस्टेंट	-6923
▁प्रोटोकॉल	-6924
▁प्लेटफार्म	-6925
▁सृ	-6926
जिकल	-6927
दिया	-6928
श्ती	-6929
स्वर	-6930
▁एकल	-6931
▁कैश	-6932
▁जयर	-6933
▁टोक	-6934
▁एकेड	-6935
▁जिम्	-6936
▁ईरानी	-6937
▁मुहिम	-6938
▁शत्रु	-6939
▁आईआईटी	-6940
▁सतर्कता	-6941
▁पासपोर्ट	-6942
▁सांप्रदायिक	-6943
तू	-6944
हि	-6945
टीन	-6946
न्ट	-6947
फ़ी	-6948
शान	-6949
वाहक	-6950
▁रेप	-6951
▁आईडी	-6952
▁एमडी	-6953
▁गौरी	-6954
▁पीएच	-6955
▁मेडल	-6956
▁वन्य	-6957
▁चिह्न	-6958
▁सुनकर	-6959
▁अनुशासन	-6960
▁फरीदाबाद	-6961
▁गुरुद्वारा	-6962
▁परेशानियों	-6963
कुश	-6964
्लू	-6965
लिया	-6966
ष्ठा	-6967
▁दशक	-6968
▁परा	-6969
▁बुर	-6970
▁एसएस	-6971
▁गलती	-6972
▁डेमो	-6973
▁ब्रज	-6974
▁भूषण	-6975
▁ड्रोन	-6976
विश्वास	-6977
▁अधिकतम	-6978
▁आडवाणी	-6979
▁रखेंगे	-6980
▁संध्या	-6981
▁सर्जरी	-6982
अर्	-6983
वंश	-6984
ासा	-6985
ंगिक	-6986
कांग	-6987
▁एडम	-6988
▁गार	-6989
▁लाह	-6990
▁दत्त	-6991
▁लौटे	-6992
▁इंसान	-6993
▁दुश्म	-6994
▁सर्जन	-6995
▁एशियाई	-6996
▁दिवाली	-6997
▁भेदभाव	-6998
▁निकालकर	-6999
▁प्रताड़	-7000
▁सिलेंडर	-7001
▁क्रियान्वयन	-7002
गाव	-7003
गीर	-7004
समय	-7005
िकरण	-7006
्तार	-7007
▁इजा	-7008
▁कना	-7009
▁जीव	-7010
▁वाम	-7011
▁नष्ट	-7012
▁पेशे	-7013
▁सेंट	-7014
▁हृदय	-7015
▁जिनकी	-7016
▁बॉक्स	-7017
▁मिलना	-7018
▁हटाया	-7019
वैधानिक	-7020
▁चौराहा	-7021
▁दूसरों	-7022
▁रेड्डी	-7023
▁वकीलों	-7024
▁शब्दों	-7025
▁ससुराल	-7026
▁पुरुषों	-7027
▁पुलवामा	-7028
▁वस्तुओं	-7029
▁सीबीएसई	-7030
▁बर्दाश्त	-7031
▁सुर्खियों	-7032
ढ़ा	-7033
▁शत	-7034
कक्ष	-7035
जाही	-7036
डेंट	-7037
पीएस	-7038
▁ठंड	-7039
▁अनशन	-7040
▁पीटा	-7041
▁विफल	-7042
▁सिक्	-7043
▁हत्य	-7044
▁क्वाल	-7045
▁चेहरा	-7046
▁मार्क	-7047
▁दिवंगत	-7048
▁उन्होने	-7049
▁कम्युनि	-7050
▁क्रांति	-7051
▁निर्मला	-7052
▁रामलीला	-7053
▁सेमीफाइनल	-7054
▁प्रतिष्ठित	-7055
लक	-7056
ूद	-7057
ईडी	-7058
पुल	-7059
लोक	-7060
ूढ़	-7061
▁एथ	-7062
ोषित	-7063
▁अन्	-7064
▁पॉल	-7065
▁शशि	-7066
▁शेड	-7067
▁गिरि	-7068
▁ताला	-7069
▁सारा	-7070
▁सुमन	-7071
क्तूबर	-7072
▁जिंदा	-7073
▁बुद्ध	-7074
▁गवर्नर	-7075
▁चिंतित	-7076
▁सपोर्ट	-7077
▁अधिसूचना	-7078
▁प्रतिभागियों	-7079
फिश	-7080
संच	-7081
▁कुप	-7082
▁गों	-7083
त्मिक	-7084
▁आश्र	-7085
▁पारा	-7086
▁लोगो	-7087
▁अवश्य	-7088
▁जख्मी	-7089
▁दायरे	-7090
▁पीडि़	-7091
▁विहार	-7092
▁आवंटित	-7093
▁धनराशि	-7094
▁फुटबॉल	-7095
▁सुल्तान	-7096
▁इस्लामिक	-7097
▁विकासखंड	-7098
▁सॉफ्टवेयर	-7099
▁शोभायात्रा	-7100
नव	-7101
ैं	-7102
जगह	-7103
साम	-7104
▁गज	-7105
सीएल	-7106
हाना	-7107
ेंगू	-7108
▁तलब	-7109
▁वसु	-7110
▁कर्त	-7111
▁देखे	-7112
▁पाइप	-7113
▁आवंटन	-7114
▁डिवाइ	-7115
▁बढ़ाई	-7116
▁बैठने	-7117
▁मासूम	-7118
िफिकेशन	-7119
▁पार्टन	-7120
▁प्रिंट	-7121
▁रामनाथ	-7122
▁अक्तूबर	-7123
▁प्रिंसिपल	-7124
▁पेट्रोलियम	-7125
दाद	-7126
ुली	-7127
ोर्	-7128
फ्रा	-7129
▁सेव	-7130
स्कूल	-7131
▁पढ़ा	-7132
▁फोकस	-7133
अर्चना	-7134
मेंट्स	-7135
िस्तान	-7136
▁अजमेर	-7137
▁गडकरी	-7138
▁गेस्ट	-7139
▁जयराम	-7140
▁धनबाद	-7141
▁इच्छुक	-7142
▁उद्यान	-7143
▁नर्सिंग	-7144
▁पंजीकृत	-7145
▁स्वीकृत	-7146
▁मुजफ्फरनगर	-7147
धना	-7148
बाई	-7149
ैली	-7150
▁भव	-7151
विजन	-7152
▁एप्	-7153
▁डोज	-7154
▁वेद	-7155
शक्ति	-7156
िताओं	-7157
▁एससी	-7158
▁कतार	-7159
▁कांव	-7160
▁पुणे	-7161
▁बवाल	-7162
▁इजाजत	-7163
▁बजरंग	-7164
▁बिष्ट	-7165
▁आजमगढ़	-7166
▁प्राइम	-7167
▁अभियुक्त	-7168
▁आक्रोशित	-7169
▁पुरस्कृत	-7170
▁निर्वाचित	-7171
▁संवैधानिक	-7172
भु	-7173
हु	-7174
ंची	-7175
कलन	-7176
क्ल	-7177
शीट	-7178
न्तु	-7179
ांशु	-7180
ीनगर	-7181
▁माओ	-7182
भिषेक	-7183
▁आसार	-7184
▁जश्न	-7185
▁सर्च	-7186
नारायण	-7187
▁एनडीए	-7188
▁घंटों	-7189
▁चैम्प	-7190
▁नतीजे	-7191
▁फटकार	-7192
▁युक्त	-7193
▁सूचित	-7194
▁शिवपाल	-7195
▁आवाजाही	-7196
▁इंचार्ज	-7197
▁खरीदारी	-7198
▁स्टार्ट	-7199
▁प्रशिक्षित	-7200
देही	-7201
ष्का	-7202
िएंट	-7203
ॉर्क	-7204
▁गाने	-7205
▁शिशु	-7206
▁कार्म	-7207
▁डेंगू	-7208
▁जर्मनी	-7209
▁गैंगरेप	-7210
▁उत्साहित	-7211
▁एक्सपर्ट	-7212
▁बर्फबारी	-7213
▁बेंगलुरु	-7214
▁समितियों	-7215
परि	-7216
माव	-7217
शनी	-7218
ोदय	-7219
▁मय	-7220
न्नत	-7221
षदों	-7222
▁करण	-7223
▁रकम	-7224
▁रित	-7225
ष्टमी	-7226
▁एनएच	-7227
▁दस्त	-7228
▁पीटी	-7229
▁लगती	-7230
▁कराते	-7231
▁नगरीय	-7232
▁बकाया	-7233
▁यूरोप	-7234
▁स्टील	-7235
▁इन्हीं	-7236
▁चतुर्थ	-7237
▁धाराओं	-7238
▁पश्चात	-7239
▁घटनाक्रम	-7240
▁गुरुग्राम	-7241
ुणा	-7242
▁पत	-7243
▁लह	-7244
ंगार	-7245
रोधी	-7246
लेक्स	-7247
▁गर्ल	-7248
▁चौबे	-7249
▁छोटा	-7250
▁डाली	-7251
▁पैनल	-7252
▁बेटा	-7253
▁मांस	-7254
ंगाबाद	-7255
नेश्वर	-7256
▁आईएएस	-7257
▁लेफ्ट	-7258
▁पुख्ता	-7259
▁मौलाना	-7260
▁स्मारक	-7261
▁आपत्तिजनक	-7262
▁प्रतिष्ठा	-7263
▁उत्तरप्रदेश	-7264
मह	-7265
कपा	-7266
ड्स	-7267
▁छठ	-7268
एमयू	-7269
▁कलश	-7270
▁खां	-7271
▁खून	-7272
▁नमू	-7273
▁कुशल	-7274
▁नगरी	-7275
▁श्वे	-7276
▁ढांचे	-7277
▁बोलने	-7278
▁अनुबंध	-7279
▁आरपीएफ	-7280
▁काउंटर	-7281
▁टाइम्स	-7282
▁त्यागी	-7283
▁मुकदमे	-7284
▁गाजीपुर	-7285
▁इंजेक्शन	-7286
▁उपलब्धता	-7287
▁प्रकोष्ठ	-7288
▁बुलंदशहर	-7289
कन	-7290
तोड़	-7291
▁एएन	-7292
▁चित	-7293
▁राउ	-7294
कर्मा	-7295
तावास	-7296
▁कन्ह	-7297
▁केशव	-7298
▁कॉर्	-7299
▁लेवल	-7300
▁शिवा	-7301
रीक्षक	-7302
▁त्याग	-7303
▁थानों	-7304
▁निम्न	-7305
▁निवार	-7306
▁अनदेखी	-7307
▁मानसून	-7308
▁वेस्टइ	-7309
▁दक्षिणी	-7310
▁संयंत्र	-7311
▁प्रोडक्ट	-7312
▁लाभार्थियों	-7313
▁कार्यक्षेत्र	-7314
▁प्रदेशाध्यक्ष	-7315
फरी	-7316
ुलकर	-7317
▁बचे	-7318
▁लाए	-7319
▁लैस	-7320
▁सबको	-7321
▁बराबर	-7322
▁सुमित	-7323
किस्तान	-7324
▁आनलाइन	-7325
▁इसीलिए	-7326
▁दूतावास	-7327
▁नैनीताल	-7328
▁चित्रकूट	-7329
▁पदार्थों	-7330
▁स्टूडेंट	-7331
▁कोरोनावायरस	-7332
▁इलेक्ट्रॉनिक	-7333
जिए	-7334
ंडों	-7335
विज्	-7336
▁कोष	-7337
▁चैल	-7338
▁चलाए	-7339
▁जबरन	-7340
▁दिखी	-7341
▁बनना	-7342
▁वसूल	-7343
▁अधिशा	-7344
▁कमलेश	-7345
▁उदयपुर	-7346
▁ठहराया	-7347
▁पूर्ति	-7348
▁मार्गों	-7349
िकर	-7350
पुरम	-7351
व्या	-7352
ार्स	-7353
▁दीं	-7354
▁भटक	-7355
▁वास	-7356
षिकेश	-7357
▁कठोर	-7358
▁जनसं	-7359
▁डिली	-7360
क्रामक	-7361
गठबंधन	-7362
▁मिठाई	-7363
▁विक्र	-7364
ष्ट्रपति	-7365
▁दुरुस्त	-7366
▁रजिस्टर	-7367
▁प्रदेशों	-7368
▁दुर्भाग्य	-7369
▁सत्तारूढ़	-7370
▁जानकारियां	-7371
▁संवाददाताओं	-7372
मणि	-7373
िवल	-7374
जाने	-7375
बंधक	-7376
बर्ट	-7377
सफाई	-7378
ायदा	-7379
▁महि	-7380
▁वंद	-7381
▁सैय	-7382
िडेंट	-7383
ूर्वक	-7384
▁आकलन	-7385
▁तलाक	-7386
▁माइक	-7387
▁लांच	-7388
▁वाटर	-7389
र्वेदी	-7390
स्वरूप	-7391
▁आध्या	-7392
▁लगाएं	-7393
▁लापता	-7394
▁अंबानी	-7395
▁अमृतसर	-7396
▁महावीर	-7397
▁एकत्रित	-7398
▁प्रैक्ट	-7399
मंत्रियों	-7400
▁ट्रांसपोर्ट	-7401
ंसी	-7402
पीओ	-7403
ाइश	-7404
▁छू	-7405
जीसी	-7406
नामी	-7407
▁धीर	-7408
▁फेर	-7409
▁मकर	-7410
▁मजा	-7411
▁वरु	-7412
▁सेट	-7413
क्षिक	-7414
मिंटन	-7415
र्चित	-7416
ोदिया	-7417
▁एजें	-7418
▁फैशन	-7419
▁बंदी	-7420
▁भड़क	-7421
▁सोनू	-7422
ताब्दी	-7423
▁कश्मी	-7424
▁बच्चा	-7425
▁भागने	-7426
▁विधिक	-7427
▁शुद्ध	-7428
▁सेनेट	-7429
▁नागपुर	-7430
▁मनमानी	-7431
▁राजभवन	-7432
▁उपलब्धि	-7433
▁भूपेंद्र	-7434
▁चतुर्वेदी	-7435
▁प्रमाणपत्र	-7436
याम	-7437
▁प्	-7438
▁हौ	-7439
आरटी	-7440
्यां	-7441
णियों	-7442
▁रत्न	-7443
▁खुलने	-7444
▁पशुओं	-7445
▁पेशकश	-7446
▁उपकरणों	-7447
▁रैंकिंग	-7448
▁अतिथियों	-7449
▁केदारनाथ	-7450
माग	-7451
विन	-7452
ांट	-7453
ग्रे	-7454
पानी	-7455
िज्म	-7456
ुतोष	-7457
वियों	-7458
▁अंचल	-7459
▁अनूप	-7460
▁अल्म	-7461
▁दहशत	-7462
▁पठान	-7463
▁सब्ज	-7464
ुद्दीन	-7465
▁फुटेज	-7466
▁बढ़ता	-7467
▁गोपनीय	-7468
▁टीएमसी	-7469
▁प्रशास	-7470
▁रिटर्न	-7471
▁वस्त्र	-7472
▁पहुंचते	-7473
▁विवेकान	-7474
डो	-7475
नै	-7476
िथ	-7477
डनी	-7478
स्ड	-7479
▁चक	-7480
भागा	-7481
मुखी	-7482
र्ति	-7483
लामी	-7484
▁साई	-7485
ल्पना	-7486
▁उठाई	-7487
▁एमएल	-7488
▁कैंड	-7489
▁क्यू	-7490
▁चर्च	-7491
▁पटरी	-7492
▁मारी	-7493
▁व्ही	-7494
▁सिल्	-7495
▁सौरभ	-7496
▁अन्ना	-7497
▁पट्टी	-7498
▁पथराव	-7499
▁भाग्य	-7500
रोजाबाद	-7501
▁अत्यंत	-7502
▁संबोधन	-7503
▁संरचना	-7504
▁अपराधों	-7505
▁आखिरकार	-7506
▁निर्दलीय	-7507
▁नगरपालिका	-7508
▁महागठबंधन	-7509
▁स्क्रीनिंग	-7510
ंगण	-7511
लास	-7512
ूला	-7513
प्पी	-7514
फेयर	-7515
▁तले	-7516
▁रतन	-7517
▁एनजी	-7518
▁छाया	-7519
▁तर्ज	-7520
▁कारगर	-7521
▁बस्तर	-7522
▁भौतिक	-7523
▁उन्हीं	-7524
▁उपायों	-7525
▁तुर्की	-7526
▁बुकिंग	-7527
▁रविंद्र	-7528
▁विश्वनाथ	-7529
▁व्यवसायी	-7530
▁पत्रकारिता	-7531
▁पूर्वोत्तर	-7532
▁मोटरसाइकिल	-7533
▁विश्वकर्मा	-7534
शासन	-7535
द्वाज	-7536
ोरेंस	-7537
▁आयकर	-7538
▁केके	-7539
▁थर्म	-7540
▁सबूत	-7541
द्वानी	-7542
▁दिखने	-7543
▁ब्याज	-7544
▁वंदना	-7545
मानुसार	-7546
▁कार्यो	-7547
▁बेरोजगारी	-7548
जद	-7549
टू	-7550
मीन	-7551
ोंग	-7552
▁कंस	-7553
▁डूब	-7554
स्थाप	-7555
▁जरुर	-7556
▁पाकर	-7557
वृत्ति	-7558
▁उत्तम	-7559
▁आशुतोष	-7560
▁आंकड़ों	-7561
▁कन्हैया	-7562
▁पार्टनर	-7563
▁समन्वयक	-7564
▁नवरात्रि	-7565
▁वेस्टइंडीज	-7566
बै	-7567
हिया	-7568
ानगर	-7569
▁चिद	-7570
▁पीट	-7571
▁बेन	-7572
▁हरद	-7573
िविटी	-7574
▁कन्न	-7575
▁किस्	-7576
▁क्रय	-7577
▁डीआर	-7578
▁दुबई	-7579
▁पांड	-7580
▁यहीं	-7581
▁यानि	-7582
गूसराय	-7583
▁अंकुश	-7584
▁अवतार	-7585
▁इजाफा	-7586
▁काबुल	-7587
▁टाइगर	-7588
▁नड्डा	-7589
▁रोशनी	-7590
▁संदेह	-7591
▁स्पीकर	-7592
▁इस्लामी	-7593
▁डब्ल्यू	-7594
▁प्रतिद्व	-7595
▁सुप्रीमो	-7596
▁दृष्टिकोण	-7597
जो	-7598
वाए	-7599
▁उभर	-7600
▁कैद	-7601
▁जाग	-7602
▁नाज	-7603
▁नान	-7604
▁बैग	-7605
▁बोर	-7606
▁मॉड	-7607
▁सनस	-7608
▁चलती	-7609
▁बारह	-7610
▁बिजन	-7611
▁वर्ण	-7612
▁सौंद	-7613
पूर्ति	-7614
लेरिया	-7615
▁टेंडर	-7616
▁बुखार	-7617
▁उपरांत	-7618
▁रिटायर	-7619
▁इस्तीफे	-7620
▁फेडरेशन	-7621
▁कांग्रेसियों	-7622
तिर	-7623
दिव	-7624
भीत	-7625
शोर	-7626
टीपी	-7627
णवीस	-7628
बर्ग	-7629
वड़ा	-7630
▁आर्	-7631
ारिया	-7632
▁एमबी	-7633
▁ख़बर	-7634
▁तर्क	-7635
▁सिखा	-7636
▁आत्मा	-7637
▁कट्टर	-7638
▁दिनभर	-7639
ष्टीकरण	-7640
▁उन्नाव	-7641
▁तिरंगा	-7642
▁रुड़की	-7643
▁कश्मीरी	-7644
▁गुरूवार	-7645
▁प्रांगण	-7646
▁अल्मोड़ा	-7647
▁बैडमिंटन	-7648
▁हल्द्वानी	-7649
▁नियमानुसार	-7650
ोम	-7651
ंजा	-7652
▁आति	-7653
▁छिप	-7654
▁दार	-7655
▁यूथ	-7656
▁सरा	-7657
गार्ड	-7658
ायर्ड	-7659
▁पद्ध	-7660
▁बनता	-7661
▁सीएस	-7662
▁पहनने	-7663
▁भेजकर	-7664
▁राजने	-7665
▁पंजीयन	-7666
▁पटवारी	-7667
▁पर्यटक	-7668
▁फार्मा	-7669
▁सिद्दी	-7670
▁व्याप्त	-7671
▁गोस्वामी	-7672
▁हाईस्कूल	-7673
▁न्यूयॉर्क	-7674
ूठे	-7675
द्री	-7676
ल्ली	-7677
▁अजी	-7678
▁पिथ	-7679
▁मिड	-7680
▁विट	-7681
▁सैम	-7682
▁हां	-7683
बरेली	-7684
▁चावल	-7685
▁पेंट	-7686
कारिता	-7687
▁अभिनय	-7688
▁उठाते	-7689
▁बनारस	-7690
▁ब्रेक	-7691
▁हैरान	-7692
▁अग्रिम	-7693
▁निभाने	-7694
▁विरासत	-7695
▁सुधारने	-7696
▁बेगूसराय	-7697
▁व्हाट्सएप	-7698
रन	-7699
ूण	-7700
ॉग	-7701
ौला	-7702
▁यो	-7703
र्मा	-7704
स्थी	-7705
▁संल	-7706
क्कड़	-7707
नियों	-7708
िनेंट	-7709
▁गर्भ	-7710
▁नकली	-7711
▁मुहर	-7712
▁लीला	-7713
▁सब्स	-7714
▁चीजें	-7715
▁बहाने	-7716
▁बोलते	-7717
▁मालूम	-7718
▁सनसनी	-7719
▁सलामी	-7720
▁दाखिला	-7721
▁बीएसएफ	-7722
श्योरेंस	-7723
▁अनुष्का	-7724
▁मोहल्ले	-7725
▁दुनियाभर	-7726
▁अध्यापकों	-7727
▁डेवलपमेंट	-7728
घन	-7729
जोत	-7730
मंड	-7731
ेंच	-7732
▁जं	-7733
ेशनल	-7734
▁पदो	-7735
▁पैस	-7736
्वरित	-7737
▁एकाद	-7738
▁एसके	-7739
▁ट्री	-7740
प्रताप	-7741
▁इत्या	-7742
▁ईवीएम	-7743
▁ख्याल	-7744
▁चलाकर	-7745
▁पड़ती	-7746
▁आंकड़े	-7747
▁आकर्षण	-7748
▁एक्टिव	-7749
▁ट्रम्प	-7750
▁ट्रॉफी	-7751
▁त्वरित	-7752
▁सेकेंड	-7753
▁समाजसेवी	-7754
ंजय	-7755
गें	-7756
विद	-7757
▁रच	-7758
धीरे	-7759
▁कोड	-7760
▁छान	-7761
▁शेट	-7762
पेक्ष	-7763
▁पहने	-7764
▁स्कू	-7765
▁रेस्ट	-7766
▁सिंगा	-7767
▁अंबिका	-7768
▁आईएसआई	-7769
▁आरबीआई	-7770
▁संबद्ध	-7771
▁शाहजहां	-7772
▁भारद्वाज	-7773
▁कम्प्यूटर	-7774
▁रिश्तेदार	-7775
बान	-7776
ष्म	-7777
▁पच	-7778
▁फड	-7779
▁रौ	-7780
इयां	-7781
डीयू	-7782
▁त्य	-7783
▁बया	-7784
द्दाख	-7785
▁दहेज	-7786
▁बंधक	-7787
ियुक्त	-7788
▁वृद्ध	-7789
▁अरोड़ा	-7790
▁नदियों	-7791
▁भाइयों	-7792
▁मोर्चे	-7793
▁इत्यादि	-7794
▁चिन्हित	-7795
▁रविशंकर	-7796
▁विमानों	-7797
▁सस्पेंड	-7798
▁सौंदर्य	-7799
▁फायदेमंद	-7800
▁आदिवासियों	-7801
▁आध्यात्मिक	-7802
जुए	-7803
ीजन	-7804
टर्न	-7805
वैसी	-7806
िराज	-7807
▁उमा	-7808
▁टाल	-7809
▁अतुल	-7810
▁आहार	-7811
▁उपनि	-7812
▁उर्व	-7813
▁कैंट	-7814
▁चंदन	-7815
▁पुरा	-7816
▁बाबत	-7817
▁हीरा	-7818
▁खेतों	-7819
▁गिरने	-7820
▁भवनों	-7821
▁आबकारी	-7822
▁कलक्टर	-7823
▁नौसेना	-7824
▁निशुल्क	-7825
▁संभालने	-7826
▁पार्षदों	-7827
▁राजनैतिक	-7828
▁सिद्दीकी	-7829
ंडन	-7830
गान	-7831
सास	-7832
दायक	-7833
▁अंज	-7834
▁अभय	-7835
▁कॉर	-7836
▁निच	-7837
▁बाघ	-7838
▁बॉय	-7839
▁राघ	-7840
▁सद्	-7841
वाकां	-7842
▁अम्ब	-7843
▁देहा	-7844
▁पीपी	-7845
▁बजाए	-7846
▁बॉडी	-7847
▁वरुण	-7848
▁हीरो	-7849
▁उतारा	-7850
▁तब्दी	-7851
▁एनसीसी	-7852
▁समुद्र	-7853
▁सियासत	-7854
▁हंगामे	-7855
▁पाटीदार	-7856
▁डेमोक्रेट	-7857
▁उपराष्ट्रपति	-7858
ओसी	-7859
क्य	-7860
राग	-7861
सीम	-7862
ैशी	-7863
▁डै	-7864
▁उमर	-7865
▁काफ	-7866
▁मेम	-7867
संचार	-7868
▁एमएस	-7869
▁कचरा	-7870
▁संतु	-7871
▁सेमे	-7872
▁स्वि	-7873
नाइटेड	-7874
▁अलगाव	-7875
▁करायी	-7876
▁छोड़ा	-7877
▁नेत्र	-7878
▁पाटिल	-7879
▁फील्ड	-7880
▁अधिकृत	-7881
▁जनजाति	-7882
▁निवारण	-7883
▁पहलवान	-7884
▁पिछड़ा	-7885
▁ठिकानों	-7886
▁शैक्षिक	-7887
▁सीतारमण	-7888
▁इन्होंने	-7889
▁चैम्पियन	-7890
▁पुण्यतिथि	-7891
▁याचिकाकर्ता	-7892
ंधे	-7893
शिव	-7894
िशन	-7895
्ठी	-7896
▁ईद	-7897
ग्रा	-7898
जेशन	-7899
ाजित	-7900
▁वेट	-7901
निवास	-7902
मुक्त	-7903
साइटी	-7904
▁पीसी	-7905
▁शक्त	-7906
फार्मर	-7907
▁उजागर	-7908
▁खन्ना	-7909
▁घूमने	-7910
▁प्रां	-7911
▁म्यां	-7912
▁संतान	-7913
▁सुचार	-7914
▁भावनाओं	-7915
▁भोजपुरी	-7916
▁शताब्दी	-7917
▁सेमेस्टर	-7918
▁पहुंचेंगे	-7919
▁प्रतिस्पर्धा	-7920
▁परीक्षार्थियों	-7921
ख़	-7922
लभ	-7923
वण	-7924
वृ	-7925
ंबल	-7926
नाल	-7927
प्रे	-7928
लांग	-7929
हारा	-7930
▁चौर	-7931
▁छुट	-7932
▁बलि	-7933
▁रास	-7934
मान्य	-7935
▁अनिय	-7936
▁एसआई	-7937
▁क्री	-7938
▁गवाह	-7939
▁देशभ	-7940
▁नेगी	-7941
▁पीली	-7942
▁मोती	-7943
ौरागढ़	-7944
▁उजाला	-7945
▁ओवैसी	-7946
▁फैलने	-7947
▁बलिया	-7948
▁रणवीर	-7949
▁हिंसक	-7950
▁एकेडमी	-7951
▁कीर्ति	-7952
▁चैलेंज	-7953
▁फ्लाइट	-7954
▁माइक्र	-7955
▁लद्दाख	-7956
▁हॉलीवुड	-7957
▁अन्तर्गत	-7958
▁छात्रसंघ	-7959
▁प्रतियोगिताओं	-7960
आउट	-7961
गेट	-7962
गोल	-7963
बरी	-7964
▁इर	-7965
रेखा	-7966
▁वां	-7967
विंदर	-7968
▁गर्व	-7969
▁राखी	-7970
▁संगम	-7971
पतियों	-7972
▁ओपीडी	-7973
▁कमीशन	-7974
▁कैमरा	-7975
▁ग्रंथ	-7976
▁प्लेस	-7977
▁बागपत	-7978
▁बालों	-7979
▁हरदोई	-7980
▁हैंडल	-7981
▁एसटीएफ	-7982
▁डेब्यू	-7983
▁शेट्टी	-7984
▁ट्रेनें	-7985
▁उपलक्ष्य	-7986
▁सिंगापुर	-7987
वॉ	-7988
गाम	-7989
बिन	-7990
कड़ी	-7991
वराज	-7992
▁आपस	-7993
णाधीन	-7994
्यूशन	-7995
▁आकार	-7996
▁टर्म	-7997
▁डेरा	-7998
▁भिड़	-7999
▁सेलि	-8000
वर्गीय	-8001
▁कर्नल	-8002
▁किराए	-8003
▁लिहाज	-8004
▁विदाई	-8005
▁उपयोगी	-8006
▁तोड़कर	-8007
▁फडणवीस	-8008
▁समुचित	-8009
▁दीनदयाल	-8010
▁सोसाइटी	-8011
▁फेस्टिवल	-8012
▁सहकारिता	-8013
▁सिसोदिया	-8014
▁मिर्जापुर	-8015
▁मुश्किलें	-8016
▁महाप्रबंधक	-8017
कोण	-8018
सरत	-8019
िडी	-8020
्रोत	-8021
लियों	-8022
ोत्तम	-8023
▁अर्ध	-8024
▁असफल	-8025
▁असली	-8026
▁तुम्	-8027
▁विद्	-8028
▁शाला	-8029
▁स्क्	-8030
▁वृक्ष	-8031
दर्शिता	-8032
▁अपनाने	-8033
▁पड़ेगी	-8034
▁पुत्री	-8035
▁मानकों	-8036
▁रिटायर्ड	-8037
▁लड़कियां	-8038
▁हेल्पलाइन	-8039
कीन	-8040
तिन	-8041
यना	-8042
ियस	-8043
▁अंश	-8044
▁अमल	-8045
▁छीन	-8046
▁पला	-8047
▁सना	-8048
▁पाते	-8049
▁बीपी	-8050
▁मेजब	-8051
धारकों	-8052
▁अमेठी	-8053
▁गुलाब	-8054
▁डेविड	-8055
▁सौंपे	-8056
▁हार्ट	-8057
▁कुरैशी	-8058
▁मनुष्य	-8059
▁राजदूत	-8060
▁रेडियो	-8061
▁सम्बंध	-8062
▁अभिभावक	-8063
▁प्रमोशन	-8064
▁बलरामपुर	-8065
▁पूर्वांचल	-8066
▁निर्माणाधीन	-8067
▁ट्रांसफार्मर	-8068
देय	-8069
भाई	-8070
ेशर	-8071
ंबरम	-8072
नीता	-8073
▁अमन	-8074
▁आयी	-8075
▁नकल	-8076
▁मात	-8077
▁लीक	-8078
▁सरल	-8079
भाजपा	-8080
शुल्क	-8081
ांतिक	-8082
▁इंडो	-8083
▁बुरा	-8084
व्यापी	-8085
▁अकेले	-8086
▁मंजूर	-8087
▁मुरली	-8088
▁हाथरस	-8089
शास्त्र	-8090
▁जेएनयू	-8091
▁तब्दील	-8092
▁निकाले	-8093
▁पीएचडी	-8094
▁देवरिया	-8095
▁रिश्तों	-8096
▁स्पर्धा	-8097
▁जनसंख्या	-8098
▁दूरसंचार	-8099
▁प्रवर्तन	-8100
▁म्यांमार	-8101
▁विवेकानंद	-8102
▁शाहजहांपुर	-8103
पार	-8104
ामु	-8105
▁हद	-8106
केशन	-8107
ख्तर	-8108
▁अटक	-8109
▁कास	-8110
▁महज	-8111
▁आपने	-8112
▁आमजन	-8113
▁गायक	-8114
▁पाये	-8115
▁फर्म	-8116
▁क्लीन	-8117
▁गोदाम	-8118
▁तबीयत	-8119
▁प्रका	-8120
▁मुस्त	-8121
▁विटाम	-8122
▁कुल्लू	-8123
▁ट्रेलर	-8124
▁दोस्ती	-8125
▁कामयाबी	-8126
▁मालिकों	-8127
▁अस्तित्व	-8128
▁फोटोग्रा	-8129
▁रायबरेली	-8130
▁फिरोजाबाद	-8131
▁इंश्योरेंस	-8132
खड़	-8133
▁भद	-8134
नायक	-8135
श्रम	-8136
ालों	-8137
▁टेक	-8138
▁डील	-8139
▁सरो	-8140
▁हज़	-8141
दर्शी	-8142
ूरिया	-8143
▁आयुष	-8144
▁बचाओ	-8145
▁मसले	-8146
▁एंड्र	-8147
▁एजेंट	-8148
▁नैतिक	-8149
▁पुरोह	-8150
▁छानबीन	-8151
▁बुद्धि	-8152
▁रामगढ़	-8153
▁अधिशासी	-8154
▁चिदंबरम	-8155
▁रणनीतिक	-8156
▁स्पष्टीकरण	-8157
वला	-8158
हेल	-8159
▁कन	-8160
ंधरा	-8161
ड्रा	-8162
भंगा	-8163
▁काे	-8164
▁युग	-8165
▁गणित	-8166
▁चंबा	-8167
▁नारी	-8168
▁पादु	-8169
▁पॉली	-8170
▁बीएच	-8171
▁सैयद	-8172
प्ताहिक	-8173
▁अवॉर्ड	-8174
▁निर्मल	-8175
▁हुड्डा	-8176
▁सैनिटाइज	-8177
▁अनियंत्रित	-8178
ॉफ	-8179
ंसल	-8180
ट्ठा	-8181
माला	-8182
ेंशन	-8183
▁आंस	-8184
▁ताइ	-8185
▁भंग	-8186
▁भती	-8187
▁भूक	-8188
▁मोर	-8189
ंपर्क	-8190
▁एम्ब	-8191
▁कमाई	-8192
▁गड्ढ	-8193
▁गांग	-8194
▁परिष	-8195
▁पूनम	-8196
▁उच्चा	-8197
▁उतरने	-8198
▁कपड़ा	-8199
▁बोल्ड	-8200
▁मण्डल	-8201
▁मानने	-8202
▁माल्य	-8203
▁हराया	-8204
▁डिफेंस	-8205
▁बिजनौर	-8206
▁लेखपाल	-8207
▁वैकल्प	-8208
▁हिमालय	-8209
प्रदर्शन	-8210
▁लाइब्रे	-8211
▁पिथौरागढ़	-8212
ाग	-8213
एमओ	-8214
थान	-8215
िप्	-8216
ाइजी	-8217
▁गले	-8218
▁बैन	-8219
▁वजन	-8220
▁कप्त	-8221
▁कॉपी	-8222
▁गिरा	-8223
▁चौंक	-8224
▁मेजर	-8225
▁चूंकि	-8226
▁तूफान	-8227
▁थर्मल	-8228
▁पार्थ	-8229
▁मासिक	-8230
▁स्पेस	-8231
▁बयानों	-8232
▁हॉस्टल	-8233
▁आक्सीजन	-8234
▁प्रकाशन	-8235
▁रिपोर्ट्स	-8236
▁सुपरस्टार	-8237
आरओ	-8238
बैक	-8239
▁घन	-8240
▁हू	-8241
डीएफ	-8242
▁मणि	-8243
▁मतभ	-8244
▁मोन	-8245
▁लुध	-8246
▁टीचर	-8247
▁नमाज	-8248
▁नवाज	-8249
▁सिरे	-8250
▁घुसकर	-8251
▁देहात	-8252
▁बरसात	-8253
▁डिमांड	-8254
▁सर्किट	-8255
▁अस्थायी	-8256
▁वैकल्पिक	-8257
▁क्वारंटीन	-8258
▁सैनिटाइजर	-8259
▁स्वयंसेवक	-8260
▁आत्मविश्वास	-8261
▁छात्रवृत्ति	-8262
आम	-8263
ेब	-8264
ंधा	-8265
फेल	-8266
िनल	-8267
पयोग	-8268
फ्टी	-8269
सनीय	-8270
ायूं	-8271
▁औचक	-8272
▁कलर	-8273
▁कवर	-8274
▁गली	-8275
▁ढूं	-8276
▁नक्	-8277
▁पेज	-8278
▁फ़ै	-8279
▁मत्	-8280
▁शॉप	-8281
भावना	-8282
ोरियल	-8283
▁आयात	-8284
▁किमी	-8285
▁नाइट	-8286
▁सिले	-8287
▁सेवक	-8288
▁हाइड	-8289
▁नामों	-8290
▁बहाली	-8291
▁ब्राज	-8292
▁अवस्था	-8293
▁एसआईटी	-8294
▁घोटाला	-8295
▁डीआईजी	-8296
▁प्रतिक	-8297
▁गतिविधि	-8298
▁माइक्रो	-8299
▁सशस्त्र	-8300
▁अनियमितता	-8301
▁परिस्थिति	-8302
▁नोटिफिकेशन	-8303
▁संक्रमितों	-8304
रथ	-8305
ंधर	-8306
▁फो	-8307
आईएस	-8308
▁उठे	-8309
▁बहर	-8310
▁भीषण	-8311
▁मंथन	-8312
▁विरू	-8313
▁इराक़	-8314
▁घाटों	-8315
▁पीढ़ी	-8316
▁व्यास	-8317
▁किराया	-8318
▁डिप्लो	-8319
▁दलितों	-8320
▁देशमुख	-8321
▁नियामक	-8322
▁प्रकोप	-8323
▁मददगार	-8324
▁वोटिंग	-8325
▁इकाइयों	-8326
▁दिलचस्प	-8327
▁विसर्जन	-8328
▁महत्वाकां	-8329
▁साप्ताहिक	-8330
▁माल्यार्पण	-8331
▁आस्ट्रेलिया	-8332
▁प्रतिबद्धता	-8333
बनी	-8334
रोहा	-8335
वारे	-8336
▁दिश	-8337
▁पिक	-8338
▁बिन	-8339
▁शाल	-8340
▁सटे	-8341
्मीकि	-8342
▁चढ़ा	-8343
▁लाना	-8344
▁सराय	-8345
कोत्तर	-8346
▁डिस्प	-8347
▁निगाह	-8348
▁प्रसव	-8349
▁श्रेय	-8350
▁समग्र	-8351
▁उपयुक्त	-8352
▁क्रिसमस	-8353
▁वसुंधरा	-8354
▁संस्करण	-8355
▁निर्धारण	-8356
▁शिक्षिका	-8357
▁परीक्षार्थी	-8358
▁प्रदर्शनकारी	-8359
ुम	-8360
गेड	-8361
बड़	-8362
ैना	-8363
रोपण	-8364
वेंट	-8365
ासना	-8366
ुराम	-8367
▁डोर	-8368
पोरेट	-8369
ॉरिटी	-8370
▁अनाज	-8371
▁आश्व	-8372
▁नेहा	-8373
▁सचेत	-8374
▁अख्तर	-8375
▁अर्जी	-8376
▁कैम्प	-8377
▁योगेश	-8378
▁स्मिथ	-8379
▁आईपीएस	-8380
▁कुर्सी	-8381
▁कोतवाल	-8382
▁गोष्ठी	-8383
▁चिट्ठी	-8384
▁ध्वस्त	-8385
▁पत्रों	-8386
▁प्रशंस	-8387
▁सम्बन्	-8388
▁पूर्णिया	-8389
▁गेंदबाजों	-8390
▁उपलब्धियों	-8391
▁जनप्रतिनिधि	-8392
केल	-8393
प्प	-8394
लिख	-8395
▁रं	-8396
टेक्	-8397
लेवा	-8398
ून्य	-8399
▁टैग	-8400
▁दोग	-8401
▁भूख	-8402
▁स्ल	-8403
हतिया	-8404
▁एलान	-8405
▁गश्त	-8406
▁टाउन	-8407
▁फॉलो	-8408
▁मुंग	-8409
▁लेती	-8410
▁सिग्	-8411
फिशियल	-8412
▁अकाली	-8413
▁काटकर	-8414
▁कूड़ा	-8415
▁छुट्ट	-8416
▁दिखाए	-8417
▁ब्रिज	-8418
▁सर्दी	-8419
▁स्थाई	-8420
▁अमरोहा	-8421
▁पाबंदी	-8422
▁सुनीता	-8423
▁जायेंगे	-8424
▁पहुंचीं	-8425
▁श्रेष्ठ	-8426
▁संवेदना	-8427
▁समृद्धि	-8428
▁हिंदुस्तान	-8429
▁मुख्यमंत्रियों	-8430
गना	-8431
बदल	-8432
यूआई	-8433
▁करो	-8434
▁चेन	-8435
▁ठगी	-8436
▁भोग	-8437
रिडोर	-8438
र्देश	-8439
▁उसको	-8440
▁गुड़	-8441
▁फीचर	-8442
▁बचें	-8443
▁बरती	-8444
▁रखता	-8445
ुरप्पा	-8446
▁टिप्स	-8447
▁दिव्य	-8448
▁प्रॉप	-8449
▁वैष्ण	-8450
ंदवाड़ा	-8451
वेन्द्र	-8452
▁चाहिये	-8453
▁मुन्ना	-8454
▁श्वेता	-8455
▁प्वाइंट	-8456
▁मित्रों	-8457
▁विदेशों	-8458
▁डॉक्टर्स	-8459
▁रामेश्वर	-8460
▁कार्यवाहक	-8461
▁सीमावर्ती	-8462
▁प्रतिद्वंद	-8463
▁विजयवर्गीय	-8464
▁हिन्दुस्तान	-8465
अर	-8466
पि	-8467
फै	-8468
लल	-8469
्तल	-8470
ट्टे	-8471
र्पण	-8472
▁अनो	-8473
▁बीस	-8474
▁मज़	-8475
▁मोड	-8476
▁हरे	-8477
प्रया	-8478
▁आमने	-8479
▁नाला	-8480
▁रसोई	-8481
▁लैपट	-8482
▁व्यय	-8483
ाचार्य	-8484
▁अफगान	-8485
▁चरणों	-8486
▁मान्य	-8487
▁मैक्स	-8488
▁संप्र	-8489
▁सेल्स	-8490
▁स्किन	-8491
▁हाइवे	-8492
▁गारंटी	-8493
▁बुलाकर	-8494
▁मामूली	-8495
▁पादुकोण	-8496
▁विश्राम	-8497
▁अत्याचार	-8498
▁त्रिवेदी	-8499
▁व्यापारिक	-8500
▁सहयोगियों	-8501
▁अधिवक्ताओं	-8502
दू	-8503
ंचा	-8504
दायी	-8505
पाली	-8506
म्बे	-8507
वीपी	-8508
हाली	-8509
▁आधे	-8510
▁चमक	-8511
▁महक	-8512
चित्र	-8513
स्टेट	-8514
▁एडवो	-8515
▁कुंड	-8516
▁ठहरा	-8517
▁दबिश	-8518
▁बंसल	-8519
▁ब्रा	-8520
▁मछली	-8521
▁रूसी	-8522
▁साधन	-8523
▁कनाडा	-8524
▁कौशिक	-8525
▁जितना	-8526
▁शाहिद	-8527
▁स्टडी	-8528
▁तरीकों	-8529
▁रामनगर	-8530
▁रिमांड	-8531
▁वाड्रा	-8532
▁हालिया	-8533
▁हेलमेट	-8534
▁अनुमंडल	-8535
▁कर्तव्य	-8536
▁गांगुली	-8537
▁डिलीवरी	-8538
▁क्वालिटी	-8539
▁रिपब्लिक	-8540
▁रुद्रपुर	-8541
▁पारदर्शिता	-8542
▁व्यक्तित्व	-8543
▁व्यवस्थाएं	-8544
▁स्थानांतरित	-8545
खु	-8546
चढ़	-8547
यिक	-8548
ाजन	-8549
ोहण	-8550
निंग	-8551
र्षि	-8552
वरेज	-8553
िक्ट	-8554
▁अद्	-8555
▁एंज	-8556
▁नमन	-8557
ौरिया	-8558
▁अंधे	-8559
▁आमिर	-8560
▁उत्स	-8561
▁गहरी	-8562
▁धरती	-8563
▁पुरी	-8564
▁बैंड	-8565
▁बैठा	-8566
▁मंशा	-8567
▁रजनी	-8568
▁सफेद	-8569
▁सावन	-8570
▁उपहार	-8571
▁दशहरा	-8572
▁नतीजा	-8573
▁पहनकर	-8574
▁बहुजन	-8575
▁रोगों	-8576
▁कार्या	-8577
▁दरभंगा	-8578
▁सुनाया	-8579
▁हमलावर	-8580
▁विटामिन	-8581
▁कार्यभार	-8582
▁प्रतापगढ़	-8583
▁प्रयोगशाला	-8584
ैत	-8585
ंडो	-8586
यरी	-8587
ूर्त	-8588
▁इको	-8589
▁ख़ु	-8590
▁रजत	-8591
▁हिल	-8592
नपुरी	-8593
विन्द	-8594
हरिया	-8595
▁जियो	-8596
▁दरों	-8597
▁प्लस	-8598
▁फ्लू	-8599
▁मिलि	-8600
▁लिंग	-8601
▁इंटेल	-8602
▁चांदी	-8603
▁ट्रीट	-8604
▁पीयूष	-8605
▁राफेल	-8606
▁साधते	-8607
▁हल्की	-8608
▁अवस्थी	-8609
▁डिवीजन	-8610
▁डिस्ट्र	-8611
स्ट्रक्चर	-8612
▁जनसंपर्क	-8613
▁तेंदुलकर	-8614
▁लुधियाना	-8615
▁कलक्ट्रेट	-8616
▁प्रवासियों	-8617
▁रजिस्ट्रार	-8618
हट	-8619
ोश	-8620
पेश	-8621
िएट	-8622
कीपर	-8623
नेटर	-8624
न्ने	-8625
भूति	-8626
▁पिप	-8627
रिएंट	-8628
▁कैमर	-8629
▁बीबी	-8630
▁शर्त	-8631
▁संभल	-8632
▁सौगा	-8633
▁आएंगी	-8634
▁भूकंप	-8635
▁कबड्डी	-8636
▁जुटाने	-8637
▁जौनपुर	-8638
▁बदायूं	-8639
▁राठौड़	-8640
▁रायगढ़	-8641
▁विमर्श	-8642
तापूर्वक	-8643
▁एडवोकेट	-8644
▁चौरसिया	-8645
▁पशुपालन	-8646
▁मुसलमान	-8647
▁वार्डों	-8648
▁बागेश्वर	-8649
▁प्रॉपर्टी	-8650
▁संभावनाएं	-8651
व्	-8652
ब्ब	-8653
लीम	-8654
्यम	-8655
्शा	-8656
िटीज	-8657
ेंदु	-8658
▁एपी	-8659
▁कंड	-8660
▁भुव	-8661
▁अकबर	-8662
▁आराम	-8663
▁कमाल	-8664
▁चौथी	-8665
▁दलील	-8666
▁नकदी	-8667
▁बचपन	-8668
▁विपिन	-8669
▁शून्य	-8670
▁जिम्मा	-8671
▁दिखाते	-8672
▁दिशानि	-8673
▁फ्रेंच	-8674
▁बनवाने	-8675
▁बीबीसी	-8676
▁मुंगेर	-8677
▁संपादक	-8678
▁अत्यधिक	-8679
▁ब्रिगेड	-8680
▁रवींद्र	-8681
▁सराहनीय	-8682
▁साक्ष्य	-8683
▁लोकायुक्त	-8684
▁संग्रहालय	-8685
▁पर्यवेक्षक	-8686
▁लेफ्टिनेंट	-8687
▁दिशानिर्देश	-8688
एनए	-8689
यें	-8690
▁आक	-8691
गांठ	-8692
फ्ती	-8693
स्पद	-8694
िडेट	-8695
्वित	-8696
▁आधी	-8697
▁चां	-8698
▁जाव	-8699
▁बाइ	-8700
▁कमला	-8701
▁मवेश	-8702
▁मिनी	-8703
▁मिलन	-8704
डिय़ों	-8705
▁आलिया	-8706
▁एडमिट	-8707
▁खाद्या	-8708
▁मांगें	-8709
▁कक्षाओं	-8710
▁कुशीनगर	-8711
▁छुटकारा	-8712
▁पौधरोपण	-8713
▁दुरुपयोग	-8714
▁पदोन्नति	-8715
▁प्रीमियर	-8716
▁रामचंद्र	-8717
▁बल्लेबाजों	-8718
▁शोधकर्ताओं	-8719
▁स्नातकोत्तर	-8720
छो	-8721
परा	-8722
ांध	-8723
्की	-8724
▁भै	-8725
▁रव	-8726
▁शम	-8727
पालक	-8728
प्पू	-8729
ब्बत	-8730
साथी	-8731
▁आंब	-8732
▁गहन	-8733
▁दहन	-8734
▁रेत	-8735
रेस्ट	-8736
लाइंस	-8737
▁अभिव	-8738
▁दीर्	-8739
▁बसें	-8740
▁रसाय	-8741
▁सबका	-8742
▁अरुणा	-8743
▁एडीजी	-8744
▁कस्बा	-8745
▁खुलकर	-8746
▁ट्रां	-8747
▁दोहरा	-8748
▁महंगा	-8749
▁विराम	-8750
▁साधना	-8751
▁सेमिन	-8752
▁स्कैन	-8753
▁स्टॉक	-8754
▁अररिया	-8755
▁पंजाबी	-8756
▁युवराज	-8757
▁सेल्फी	-8758
▁स्त्री	-8759
▁जानलेवा	-8760
▁महत्त्व	-8761
▁सम्पन्न	-8762
▁हिंदुओं	-8763
▁श्रीकांत	-8764
▁अंबिकापुर	-8765
▁ड्राइविंग	-8766
▁संभावनाओं	-8767
उड	-8768
छित	-8769
नाग	-8770
ूठी	-8771
ोजी	-8772
निटी	-8773
विदा	-8774
शैली	-8775
▁ईडी	-8776
▁कन्	-8777
▁डीए	-8778
▁मोट	-8779
▁वहा	-8780
▁हवन	-8781
जिस्ट	-8782
▁असाम	-8783
▁एंटर	-8784
▁कोटे	-8785
▁नवाब	-8786
▁शवों	-8787
▁सीधी	-8788
▁सेशन	-8789
वार्ता	-8790
▁उठाना	-8791
▁कार्ब	-8792
▁नवजोत	-8793
▁पर्दा	-8794
▁बाध्य	-8795
▁वारंट	-8796
▁स्रोत	-8797
▁हराकर	-8798
▁कल्पना	-8799
▁खंडपीठ	-8800
▁चर्चित	-8801
▁दाखिले	-8802
▁प्रतिन	-8803
▁मित्तल	-8804
▁सीतापुर	-8805
▁अध्यादेश	-8806
▁विवाहिता	-8807
▁अनुपस्थित	-8808
▁कंटेनमेंट	-8809
▁प्रगतिशील	-8810
ठन	-8811
़ी	-8812
णों	-8813
तीत	-8814
बेन	-8815
म्र	-8816
ियू	-8817
ोही	-8818
तलाम	-8819
▁खड़	-8820
▁बसे	-8821
▁बिस	-8822
▁रेम	-8823
कालिक	-8824
वाड़े	-8825
ष्ठान	-8826
▁नींद	-8827
▁बांस	-8828
▁मुर्	-8829
▁ढांचा	-8830
▁फरिया	-8831
▁विधिव	-8832
▁श्राव	-8833
▁कुश्ती	-8834
▁जंक्शन	-8835
▁तालमेल	-8836
▁बर्बाद	-8837
▁मालवीय	-8838
▁लोहिया	-8839
▁साध्वी	-8840
▁सोलंकी	-8841
▁गोलियां	-8842
▁संग्राम	-8843
▁समुद्री	-8844
▁ईमानदारी	-8845
▁डाक्टरों	-8846
▁प्रांतीय	-8847
▁होमगार्ड	-8848
▁उद्यमियों	-8849
▁पार्टियां	-8850
▁मार्केटिंग	-8851
यत	-8852
भवी	-8853
विध	-8854
िंट	-8855
गड़ा	-8856
मिंग	-8857
▁अवर	-8858
▁कहर	-8859
▁कहे	-8860
▁जॉब	-8861
▁नशा	-8862
निष्ठ	-8863
योजना	-8864
िम्मे	-8865
▁अराज	-8866
▁देसी	-8867
▁दोगु	-8868
▁बेंच	-8869
▁ब्यो	-8870
▁मजाक	-8871
▁रियल	-8872
▁शुगर	-8873
▁किन्न	-8874
▁छापाम	-8875
▁जावेद	-8876
▁डेयरी	-8877
▁नवजात	-8878
▁परमार	-8879
▁बांदा	-8880
▁मंडला	-8881
▁खासतौर	-8882
▁दरवाजे	-8883
▁नीलामी	-8884
▁मानवीय	-8885
▁सड़कें	-8886
राज्यपाल	-8887
▁कॉरिडोर	-8888
▁चिह्नित	-8889
▁सब्सिडी	-8890
▁रचनात्मक	-8891
▁रजिस्ट्री	-8892
▁अत्याधुनिक	-8893
इंट	-8894
खाव	-8895
राई	-8896
शाम	-8897
कमान	-8898
▁दशा	-8899
▁रिफ	-8900
▁स्त	-8901
ंताओं	-8902
किशोर	-8903
श्याम	-8904
▁जर्न	-8905
▁हाथी	-8906
▁तोड़ा	-8907
▁रंजीत	-8908
▁रतलाम	-8909
▁स्पीड	-8910
श्वर्या	-8911
▁अविनाश	-8912
▁एकादशी	-8913
▁बीएचयू	-8914
▁मजदूरी	-8915
▁समृद्ध	-8916
▁अनुपालन	-8917
▁कप्तानी	-8918
▁पीलीभीत	-8919
▁वीरभद्र	-8920
▁स्ट्रीट	-8921
▁कामगारों	-8922
▁प्रसारित	-8923
▁बेरोजगार	-8924
▁स्ट्राइक	-8925
▁खाद्यान्न	-8926
▁कम्युनिस्ट	-8927
फ्रास्ट्रक्चर	-8928
षभ	-8929
ैव	-8930
ंचे	-8931
प्ट	-8932
वहन	-8933
ज्जा	-8934
बानी	-8935
माया	-8936
शिला	-8937
ियाल	-8938
▁इक्	-8939
▁जमु	-8940
▁दंड	-8941
▁नवी	-8942
▁बोस	-8943
▁मल्	-8944
▁रंज	-8945
कायदा	-8946
फोर्स	-8947
बाजार	-8948
▁इटली	-8949
▁खासा	-8950
▁डाले	-8951
▁फोरम	-8952
▁रॉयल	-8953
▁लगाम	-8954
▁संगी	-8955
▁सृजन	-8956
निर्वा	-8957
▁कामों	-8958
▁दिमाग	-8959
▁प्रणब	-8960
▁प्लेट	-8961
▁भरोसे	-8962
▁महाजन	-8963
▁रणबीर	-8964
▁राउंड	-8965
▁सवारी	-8966
▁अन्यथा	-8967
▁ग्रेटर	-8968
▁कैदियों	-8969
▁गणमान्य	-8970
▁मैनपुरी	-8971
▁संशोधित	-8972
▁काउंसलिंग	-8973
▁पुस्तकालय	-8974
कूद	-8975
न्म	-8976
पुट	-8977
ष्क	-8978
▁खज	-8979
▁चट	-8980
▁थर	-8981
▁सई	-8982
घरों	-8983
▁कड़	-8984
▁वैध	-8985
वाहिक	-8986
▁अव्य	-8987
▁ग्रो	-8988
▁दुल्	-8989
▁मुसी	-8990
▁मूवी	-8991
▁रखती	-8992
▁लौटा	-8993
▁विंग	-8994
▁हायर	-8995
प्रसाद	-8996
▁आमतौर	-8997
▁चलाते	-8998
▁धमाके	-8999
▁वैदिक	-9000
▁स्वाम	-9001
▁अंतरिम	-9002
▁जयशंकर	-9003
▁बांटने	-9004
▁बैठकों	-9005
▁आंबेडकर	-9006
▁स्वदेशी	-9007
▁जन्मभूमि	-9008
▁जीवनसाथी	-9009
▁लाइब्रेरी	-9010
▁आयुर्वेदिक	-9011
▁प्रावधानों	-9012
खू	-9013
दगी	-9014
▁षड	-9015
मिया	-9016
ल्चर	-9017
▁कमर	-9018
▁खुर	-9019
▁बैल	-9020
▁मीन	-9021
▁सवा	-9022
ेशिया	-9023
▁आईएस	-9024
▁एनडी	-9025
▁कुमा	-9026
▁खुरा	-9027
▁जोनल	-9028
▁डीलर	-9029
▁परिस	-9030
▁पांव	-9031
▁बालू	-9032
▁बिता	-9033
▁योगा	-9034
▁लोकल	-9035
▁विलय	-9036
▁सरोज	-9037
▁साधु	-9038
धारोपण	-9039
▁अफ़ग़	-9040
▁खातों	-9041
▁गुलाम	-9042
▁जितनी	-9043
▁दसवीं	-9044
▁नामजद	-9045
▁फूंका	-9046
▁बांटे	-9047
▁लगेगी	-9048
▁आदेशों	-9049
▁चौटाला	-9050
▁पद्धति	-9051
▁महाकाल	-9052
▁मानदेय	-9053
▁सातवें	-9054
▁स्पिनर	-9055
▁अथॉरिटी	-9056
▁इंटेलिज	-9057
▁मूल्यों	-9058
▁विशेषकर	-9059
▁वेलफेयर	-9060
▁सेमिनार	-9061
▁कैंडिडेट	-9062
▁डिप्लोमा	-9063
▁यूनाइटेड	-9064
प्स	-9065
हाट	-9066
काशी	-9067
टीसी	-9068
स्तु	-9069
ार्द	-9070
▁बिछ	-9071
▁येद	-9072
▁रोट	-9073
▁शीत	-9074
तीकरण	-9075
▁कारख	-9076
▁डिस्	-9077
▁बनते	-9078
▁मच्छ	-9079
प्रयाग	-9080
▁जीतकर	-9081
▁दवाएं	-9082
▁पेरिस	-9083
▁विराज	-9084
▁संकाय	-9085
▁हार्ड	-9086
▁अग्रणी	-9087
▁चरित्र	-9088
▁पेमेंट	-9089
▁रोहिंग	-9090
▁विधिवत	-9091
▁शिल्पा	-9092
▁सचिवों	-9093
▁सम्मिल	-9094
▁टेस्टिंग	-9095
▁निर्णायक	-9096
▁पौधारोपण	-9097
▁बुजुर्गों	-9098
▁प्रभावशाली	-9099
▁डेमोक्रेटिक	-9100
बिर	-9101
हिप	-9102
क्टी	-9103
राइच	-9104
▁आमद	-9105
▁जड़	-9106
▁धूप	-9107
▁वाद	-9108
पुरुष	-9109
रलैंड	-9110
ांकित	-9111
▁उप्र	-9112
▁ढूंढ	-9113
▁लेनी	-9114
▁विवा	-9115
▁संगो	-9116
▁सबके	-9117
रोजगार	-9118
▁आवेदक	-9119
▁अनुभवी	-9120
▁पीएचसी	-9121
▁मुफ्ती	-9122
▁अभद्रता	-9123
▁सेक्रेट	-9124
▁क्वार्टर	-9125
▁हिस्ट्री	-9126
▁लाठीचार्ज	-9127
यो	-9128
टोम	-9129
ॉर्	-9130
कर्ष	-9131
▁दून	-9132
▁बेव	-9133
▁सहर	-9134
▁हलफ	-9135
न्नाथ	-9136
ोरेंट	-9137
▁इमाम	-9138
▁क्वि	-9139
▁ध्रु	-9140
▁माधव	-9141
▁रोहत	-9142
▁जमीनी	-9143
▁जलाने	-9144
▁विजयी	-9145
▁किंग्स	-9146
▁जीआरपी	-9147
▁डिवाइस	-9148
▁पलटवार	-9149
▁संतुलन	-9150
▁आक्रामक	-9151
▁ब्राजील	-9152
▁म्यूजिक	-9153
▁संतुष्ट	-9154
▁पुनर्वास	-9155
▁निर्देशानुसार	-9156
ौनी	-9157
▁छत	-9158
▁पख	-9159
केला	-9160
ार्ग	-9161
▁खरा	-9162
▁जहर	-9163
▁मैथ	-9164
▁रवै	-9165
कार्ड	-9166
न्दिर	-9167
▁कहकर	-9168
▁चाकू	-9169
▁तथ्य	-9170
▁दंडा	-9171
▁यूएस	-9172
▁लेखा	-9173
▁शैली	-9174
▁सीएए	-9175
▁ह्यू	-9176
प्रसार	-9177
▁जिसमे	-9178
▁जोड़े	-9179
▁फिरोज	-9180
▁शॉर्ट	-9181
▁सार्थ	-9182
▁अभिव्य	-9183
▁अश्विन	-9184
▁आराधना	-9185
▁कनेक्ट	-9186
▁नेताजी	-9187
▁पर्सनल	-9188
▁सच्चाई	-9189
▁सौंपने	-9190
▁जगन्नाथ	-9191
▁प्रारूप	-9192
▁विक्रेता	-9193
▁सम्मिलित	-9194
▁रोहिंग्या	-9195
▁प्रभारियों	-9196
िफ	-9197
निज	-9198
फुल	-9199
वैल	-9200
शीद	-9201
ुड़	-9202
रीबी	-9203
▁जगद	-9204
▁तंज	-9205
▁भिज	-9206
▁लाय	-9207
ब्रिज	-9208
ोर्टर	-9209
▁उमड़	-9210
▁कांस	-9211
▁कुरु	-9212
▁कृपा	-9213
▁तारा	-9214
▁धारण	-9215
▁बनीं	-9216
▁महबू	-9217
▁मेधा	-9218
▁सेले	-9219
▁स्टो	-9220
▁दत्ता	-9221
▁रिहाई	-9222
▁सीडीओ	-9223
▁उपक्रम	-9224
▁एहतिया	-9225
▁निलंबन	-9226
▁प्रिया	-9227
▁योद्धा	-9228
▁वर्गों	-9229
▁साक्षी	-9230
ियुरप्पा	-9231
▁कांगड़ा	-9232
▁दावेदार	-9233
▁मध्यस्थ	-9234
▁रूपरेखा	-9235
▁हिमांशु	-9236
▁प्राइमरी	-9237
▁वाल्मीकि	-9238
▁विश्लेषण	-9239
▁सत्येंद्र	-9240
▁इंडस्ट्रीज	-9241
ंशी	-9242
एआई	-9243
पावत	-9244
रोगा	-9245
साइज	-9246
▁एडि	-9247
▁कैल	-9248
▁ईस्ट	-9249
▁गाली	-9250
▁चार्	-9251
▁जहरी	-9252
▁जासं	-9253
▁त्यौ	-9254
▁दांव	-9255
▁बुंद	-9256
▁रुके	-9257
▁रोगी	-9258
▁समीर	-9259
केंद्र	-9260
▁अवधेश	-9261
▁उठाकर	-9262
▁एक्सच	-9263
▁कैडेट	-9264
▁कोरबा	-9265
▁जैविक	-9266
▁पाएगा	-9267
▁फ्लैट	-9268
▁बताकर	-9269
स्तीपुर	-9270
▁पकड़कर	-9271
▁लैपटॉप	-9272
▁शिवाजी	-9273
▁साधारण	-9274
▁स्वभाव	-9275
▁आश्वस्त	-9276
▁मुख्तार	-9277
▁मेमोरियल	-9278
▁अल्पसंख्यकों	-9279
गढ	-9280
जरत	-9281
दीन	-9282
भान	-9283
रिस	-9284
िना	-9285
ॉयड	-9286
ौलत	-9287
एनएल	-9288
त्थे	-9289
▁आएं	-9290
▁कीं	-9291
▁जोश	-9292
▁डेन	-9293
▁नाह	-9294
▁भूत	-9295
▁आजकल	-9296
▁आजीव	-9297
▁खासी	-9298
▁बटाल	-9299
▁भ्रम	-9300
▁मातृ	-9301
▁विगत	-9302
ुल्लाह	-9303
▁केमिक	-9304
▁खेलते	-9305
▁चौपाल	-9306
▁जलाकर	-9307
▁पर्चा	-9308
▁पहाड़	-9309
▁मिथुन	-9310
▁रवैया	-9311
▁लिखने	-9312
▁सहारे	-9313
▁अल्ट्र	-9314
▁कीर्तन	-9315
▁खेलकूद	-9316
▁गार्डन	-9317
▁जालंधर	-9318
▁टीचर्स	-9319
▁नजदीकी	-9320
▁प्रीति	-9321
▁सुसाइड	-9322
▁सेनानी	-9323
▁आरक्षित	-9324
▁जानवरों	-9325
▁पांचवें	-9326
▁विरूद्ध	-9327
▁प्रतियोगी	-9328
▁उपराज्यपाल	-9329
▁प्रतिष्ठान	-9330
धव	-9331
चुर	-9332
दूर	-9333
बूत	-9334
▁आह	-9335
क्कत	-9336
दानी	-9337
बीटी	-9338
वहार	-9339
▁रेन	-9340
विचार	-9341
िंग्स	-9342
ियाला	-9343
▁ताना	-9344
▁तिलक	-9345
▁मिनि	-9346
▁रनौत	-9347
▁वेंट	-9348
▁किल्ल	-9349
▁खेलना	-9350
▁दीर्घ	-9351
▁निजात	-9352
▁सत्या	-9353
▁चाइल्ड	-9354
▁टैक्सी	-9355
▁तबादला	-9356
▁प्रवास	-9357
▁बीएसपी	-9358
▁निकायों	-9359
▁विविधता	-9360
▁सर्जिकल	-9361
▁सोनभद्र	-9362
निर्वाचित	-9363
▁हमलावरों	-9364
▁छिंदवाड़ा	-9365
▁विश्वसनीय	-9366
▁हर्षवर्धन	-9367
खन	-9368
डन	-9369
महल	-9370
▁थम	-9371
ड्डू	-9372
रखाव	-9373
शाही	-9374
▁खेम	-9375
▁घिर	-9376
▁टुक	-9377
▁ठहर	-9378
▁मिज	-9379
▁यथा	-9380
▁होट	-9381
▁आरपी	-9382
▁आश्च	-9383
▁एकड़	-9384
▁औषधि	-9385
▁कबीर	-9386
▁कहती	-9387
▁खीरी	-9388
▁गूंज	-9389
▁टंडन	-9390
▁ठेका	-9391
▁धीमी	-9392
▁फंसा	-9393
▁बनाम	-9394
▁युगल	-9395
▁लाकर	-9396
फिकेशन	-9397
विमर्श	-9398
▁अनुमो	-9399
▁ग्रेड	-9400
▁धक्का	-9401
▁मुंडा	-9402
▁सुप्र	-9403
टेनमेंट	-9404
ियोग्रा	-9405
▁किल्लत	-9406
▁जोड़कर	-9407
▁डॉक्यू	-9408
▁बढ़ाना	-9409
▁मुसीबत	-9410
▁सभापति	-9411
▁समर्पण	-9412
▁समीकरण	-9413
▁सुचारू	-9414
▁अभिनंदन	-9415
▁पार्थिव	-9416
▁बाबूलाल	-9417
▁स्थिरता	-9418
▁टेलीविजन	-9419
▁दिलचस्पी	-9420
▁संगोष्ठी	-9421
▁सम्पूर्ण	-9422
▁डिस्ट्रिक्ट	-9423
▁उच्चाधिकारियों	-9424
महा	-9425
रां	-9426
लीन	-9427
▁खट	-9428
बिया	-9429
शियल	-9430
▁कटा	-9431
▁जोग	-9432
▁रेग	-9433
▁सईद	-9434
▁सुक	-9435
▁असंत	-9436
▁आगाज	-9437
▁इनसे	-9438
▁क़ान	-9439
▁प्रह	-9440
▁वाइस	-9441
▁सांग	-9442
जारोहण	-9443
नेशिया	-9444
िक्रमा	-9445
▁गेम्स	-9446
▁गोमती	-9447
▁तलवार	-9448
▁दरोगा	-9449
▁देवास	-9450
▁पप्पू	-9451
▁प्याज	-9452
▁मिसाल	-9453
▁सनातन	-9454
▁स्कोर	-9455
क्रांति	-9456
▁इकट्ठा	-9457
▁छिड़का	-9458
▁टोक्यो	-9459
▁नरसिंह	-9460
▁मन्दिर	-9461
▁शेयरों	-9462
▁आश्चर्य	-9463
▁निगेटिव	-9464
▁परफॉर्म	-9465
▁संभागीय	-9466
▁एनएसयूआई	-9467
▁छात्राएं	-9468
▁परंपरागत	-9469
▁प्लानिंग	-9470
▁रिपोर्टर	-9471
▁शैलेंद्र	-9472
▁संरक्षित	-9473
▁प्रशंसकों	-9474
▁भुवनेश्वर	-9475
▁सेक्रेटरी	-9476
▁रिश्तेदारों	-9477
ौफ	-9478
च्छा	-9479
प्रो	-9480
भाला	-9481
मोचन	-9482
राइल	-9483
रेटर	-9484
स्सी	-9485
▁आइए	-9486
▁कूद	-9487
▁गिन	-9488
▁पित	-9489
▁मीट	-9490
क्ष्म	-9491
ललिता	-9492
▁लंबा	-9493
▁शेखर	-9494
▁सौदे	-9495
▁देवता	-9496
▁नामित	-9497
▁पड़ोस	-9498
▁भवानी	-9499
▁सिंगर	-9500
▁सौगात	-9501
▁स्किल	-9502
▁स्पॉट	-9503
▁गिराया	-9504
▁ब्योरा	-9505
▁समकक्ष	-9506
▁कालाबाज	-9507
▁जयललिता	-9508
▁परिक्रमा	-9509
▁श्रीनिवास	-9510
मीड	-9511
▁हज	-9512
जेडी	-9513
डीएम	-9514
वांस	-9515
विनी	-9516
सीना	-9517
स्ति	-9518
ांपा	-9519
▁पाय	-9520
▁फाल	-9521
▁यूं	-9522
▁शतक	-9523
टेस्ट	-9524
वाइजर	-9525
ोरिया	-9526
▁जौहर	-9527
▁ध्वज	-9528
▁रामा	-9529
▁वीवी	-9530
▁स्पा	-9531
काउंटर	-9532
▁करवाए	-9533
▁चलेगी	-9534
▁टिकैत	-9535
▁तड़के	-9536
▁बाइडन	-9537
▁बीएसए	-9538
▁लगाये	-9539
▁श्रीम	-9540
▁एनर्जी	-9541
▁कन्नौज	-9542
▁दरवाजा	-9543
▁निराशा	-9544
▁फ्रेंड	-9545
▁बहराइच	-9546
▁मशक्कत	-9547
▁ज्योतिष	-9548
▁व्यायाम	-9549
डब्ल्यूडी	-9550
▁बालिकाओं	-9551
▁योगेंद्र	-9552
▁सत्ताधारी	-9553
▁समस्तीपुर	-9554
▁स्वरोजगार	-9555
▁इंटेलिजेंस	-9556
▁स्थानांतरण	-9557
▁नवनिर्वाचित	-9558
▁प्रधानाध्यापक	-9559
वश	-9560
है	-9561
ोव	-9562
ईटी	-9563
घ्न	-9564
पत्	-9565
परी	-9566
रिय	-9567
साफ	-9568
ूठा	-9569
▁छी	-9570
▁चिर	-9571
▁धवन	-9572
▁पोष	-9573
▁राल	-9574
▁लाश	-9575
▁सुध	-9576
▁हनी	-9577
निप्र	-9578
▁अब्ब	-9579
▁पाना	-9580
▁पैरा	-9581
▁बराक	-9582
▁बर्थ	-9583
▁लेता	-9584
▁सोलर	-9585
▁इवेंट	-9586
▁एक्सी	-9587
▁जन्मा	-9588
▁टकराव	-9589
▁पकड़ी	-9590
▁भंडार	-9591
▁मेडिस	-9592
▁साड़ी	-9593
▁नवम्बर	-9594
▁बुंदेल	-9595
▁महर्षि	-9596
▁निजीकरण	-9597
▁निर्वहन	-9598
▁एजेंसियां	-9599
▁मुस्लिमों	-9600
ूज	-9601
गाई	-9602
तीन	-9603
लें	-9604
ुका	-9605
आइटी	-9606
तकों	-9607
लेटर	-9608
ॉफ्ट	-9609
▁उज्	-9610
▁एआई	-9611
▁हाफ	-9612
▁गोला	-9613
▁घेरे	-9614
▁टेबल	-9615
▁बनती	-9616
▁बाजी	-9617
▁मंदी	-9618
▁लेखन	-9619
▁वीसी	-9620
ब्यूरो	-9621
स्टाइल	-9622
▁इमारत	-9623
▁इशारा	-9624
▁तस्कर	-9625
▁बनाता	-9626
▁अब्बास	-9627
▁करवाना	-9628
▁पीटीआई	-9629
▁पेशेवर	-9630
▁फीचर्स	-9631
▁बीजिंग	-9632
▁विभागा	-9633
▁कक्षाएं	-9634
▁ग्रेजुए	-9635
▁चौंकाने	-9636
▁ज़िम्मे	-9637
▁पठानकोट	-9638
▁मलेरिया	-9639
▁मांसपेश	-9640
▁देशभक्ति	-9641
▁सक्रियता	-9642
▁कार्यपालक	-9643
▁ट्रीटमेंट	-9644
▁त्रिवेंद्र	-9645
▁येदियुरप्पा	-9646
▁कॉन्फ्रेंसिंग	-9647
गृह	-9648
तृक	-9649
पने	-9650
मीत	-9651
शूट	-9652
ान्	-9653
आरएस	-9654
ल्हा	-9655
▁चहल	-9656
▁बख्	-9657
▁माफ	-9658
▁मौन	-9659
▁वीक	-9660
श्नोई	-9661
सामने	-9662
ार्गव	-9663
▁इस्र	-9664
▁कॉमन	-9665
▁जासू	-9666
▁नायब	-9667
▁मीरा	-9668
▁वादे	-9669
प्रधान	-9670
ोत्तरी	-9671
▁अभिले	-9672
▁आरटीओ	-9673
▁कच्चे	-9674
▁क्रॉस	-9675
▁घेराब	-9676
▁चिराग	-9677
▁जिसको	-9678
▁टास्क	-9679
▁दशकों	-9680
▁दुष्य	-9681
▁नॉर्थ	-9682
▁पैतृक	-9683
▁महंगी	-9684
▁मेरिट	-9685
▁मोहित	-9686
▁सहरसा	-9687
▁हवाईअ	-9688
नावश्यक	-9689
▁एसबीआई	-9690
▁तरक्की	-9691
▁निरंजन	-9692
▁पूर्वक	-9693
▁फर्स्ट	-9694
▁फेरबदल	-9695
▁भार्गव	-9696
▁मशीनों	-9697
▁रामायण	-9698
▁अरुणाचल	-9699
▁आजीविका	-9700
▁उपेक्षा	-9701
▁किताबें	-9702
▁छिड़काव	-9703
▁पैसेंजर	-9704
▁प्रोटीन	-9705
▁बटालियन	-9706
▁मुहूर्त	-9707
▁समर्थित	-9708
▁सरकारें	-9709
▁गैंगस्टर	-9710
▁त्रिपुरा	-9711
▁नवदुनिया	-9712
▁महेन्द्र	-9713
▁ध्वजारोहण	-9714
▁निवासियों	-9715
▁जरूरतमंदों	-9716
▁रेस्टोरेंट	-9717
▁शंकराचार्य	-9718
▁दुर्भाग्यपूर्ण	-9719
गर्	-9720
टीक	-9721
पाक	-9722
▁ओं	-9723
▁मृ	-9724
त्सव	-9725
पर्स	-9726
लोकन	-9727
ांकी	-9728
िमान	-9729
▁किम	-9730
▁खरे	-9731
▁चिप	-9732
▁नोक	-9733
▁पेन	-9734
▁फेम	-9735
▁हाप	-9736
▁हिर	-9737
च्चार	-9738
टरीना	-9739
बुद्ध	-9740
लिखित	-9741
वमेंट	-9742
▁खण्ड	-9743
▁बढ़त	-9744
▁लगवा	-9745
▁वोटर	-9746
पंचायत	-9747
▁अभिया	-9748
▁इकबाल	-9749
▁किंतु	-9750
▁जवाबी	-9751
▁दृश्य	-9752
▁बरतें	-9753
▁रूपये	-9754
▁वर्दी	-9755
▁सजाया	-9756
▁अवलोकन	-9757
▁गढ़वाल	-9758
▁निकासी	-9759
▁बलिदान	-9760
▁संभाला	-9761
▁सैमसंग	-9762
▁अधिवेशन	-9763
▁एकजुटता	-9764
▁तस्करों	-9765
▁भदौरिया	-9766
▁संन्यास	-9767
▁दिक्कतों	-9768
▁पहुंचेगी	-9769
▁सम्बोधित	-9770
▁प्रैक्टिस	-9771
▁प्रोडक्शन	-9772
▁,	-9773
ंते	-9774
रीफ	-9775
लीट	-9776
सेल	-9777
सौर	-9778
िकॉ	-9779
▁उभ	-9780
▁मठ	-9781
बाबू	-9782
▁असा	-9783
▁आहत	-9784
▁कृत	-9785
▁गुड	-9786
▁जना	-9787
▁डिट	-9788
▁नीम	-9789
▁शमी	-9790
▁सीज	-9791
▁सौह	-9792
स्तों	-9793
ांतरण	-9794
▁अमाव	-9795
▁कहान	-9796
▁चिल्	-9797
▁जीएम	-9798
▁डीएस	-9799
▁ताले	-9800
▁तिमा	-9801
▁यूजर	-9802
▁हटाए	-9803
▁एग्री	-9804
▁खुराक	-9805
▁जर्जर	-9806
▁तादाद	-9807
▁धर्मन	-9808
▁सीखने	-9809
▁सुबोध	-9810
▁अखाड़ा	-9811
▁एमएलसी	-9812
▁करूंगा	-9813
▁जासूसी	-9814
▁जेडीयू	-9815
▁ज्वाला	-9816
▁निर्वि	-9817
▁निष्का	-9818
▁पिछड़े	-9819
▁बहरहाल	-9820
▁लेनदेन	-9821
▁शस्त्र	-9822
▁कैटरीना	-9823
▁खुलेंगे	-9824
▁त्यौहार	-9825
▁दुष्यंत	-9826
▁पुरोहित	-9827
▁युवतियों	-9828
▁स्टाइलिश	-9829
▁विनिर्माण	-9830
▁निर्माताओं	-9831
▁प्रतिबंधों	-9832
▁विभागाध्यक्ष	-9833
टके	-9834
लीफ	-9835
्यर	-9836
अमेर	-9837
किया	-9838
षकों	-9839
▁चम्	-9840
▁हता	-9841
िनेशन	-9842
▁आईएम	-9843
▁इसने	-9844
▁जोगी	-9845
▁बंदर	-9846
▁मल्ल	-9847
▁मॉनि	-9848
▁लोहा	-9849
▁वीजा	-9850
▁सपने	-9851
▁स्पे	-9852
▁उमड़ी	-9853
▁गीतों	-9854
▁पन्ना	-9855
▁पुतिन	-9856
▁भिलाई	-9857
▁मनाली	-9858
▁रसायन	-9859
▁स्लाइ	-9860
▁हल्के	-9861
▁चक्रवा	-9862
▁तथ्यों	-9863
▁नतीजों	-9864
▁परिचित	-9865
▁विमानन	-9866
▁विलियम	-9867
▁गिरिराज	-9868
▁घनश्याम	-9869
▁परिवर्त	-9870
▁पाठशाला	-9871
▁अनावश्यक	-9872
▁विस्फोटक	-9873
▁हिंदुत्व	-9874
▁स्वामित्व	-9875
▁कार्ययोजना	-9876
▁कालाबाजारी	-9877
सो	-9878
सले	-9879
ंजलि	-9880
कूला	-9881
्राज	-9882
▁इजर	-9883
▁गें	-9884
▁जेन	-9885
▁जैक	-9886
▁दाल	-9887
▁बेर	-9888
▁वाक	-9889
कानेर	-9890
परेटर	-9891
िलेटर	-9892
ेंसिक	-9893
▁यूएन	-9894
▁राइट	-9895
▁राउत	-9896
▁लेगी	-9897
▁वीके	-9898
▁स्ने	-9899
▁हजरत	-9900
होत्री	-9901
▁उपद्र	-9902
▁लकड़ी	-9903
▁साहेब	-9904
ामंत्री	-9905
▁कम्पनी	-9906
▁दुश्मन	-9907
▁पुष्कर	-9908
▁भंडारी	-9909
▁मानवता	-9910
▁इंग्लिश	-9911
▁उड़ानों	-9912
▁संलिप्त	-9913
▁क्षेत्रा	-9914
▁गाड़ियां	-9915
▁घेराबंदी	-9916
▁जागरुकता	-9917
▁प्रकरणों	-9918
▁एम्बुलेंस	-9919
▁रक्षाबंधन	-9920
▁विरोधियों	-9921
नॉ	-9922
ूठ	-9923
गिल	-9924
न्ड	-9925
पणन	-9926
ल्फ	-9927
सूद	-9928
वलित	-9929
ांसा	-9930
ाजनक	-9931
ान्त	-9932
िवेश	-9933
▁आनन	-9934
▁चुप	-9935
▁दखल	-9936
▁दया	-9937
▁बिख	-9938
▁रिल	-9939
गाड़ी	-9940
द्धार	-9941
यानंद	-9942
हियों	-9943
▁आरएस	-9944
▁उतना	-9945
▁छापे	-9946
▁जाधव	-9947
▁टकरा	-9948
▁नाले	-9949
▁मधुर	-9950
▁मरने	-9951
▁राघव	-9952
▁सहमत	-9953
होत्रा	-9954
▁उन्हे	-9955
▁एएसआई	-9956
▁नजारा	-9957
▁मतभेद	-9958
▁मुस्क	-9959
▁श्रवण	-9960
▁संतों	-9961
▁सन्ना	-9962
▁पीडि़त	-9963
▁बाइडेन	-9964
▁भाटिया	-9965
▁मृतकों	-9966
▁रिश्ता	-9967
▁हापुड़	-9968
कांग्रेस	-9969
▁कराएंगे	-9970
▁क्लीनिक	-9971
▁बनाएंगे	-9972
▁बिंदुओं	-9973
▁ब्लास्ट	-9974
▁शिवपुरी	-9975
▁सूक्ष्म	-9976
पाकिस्तान	-9977
▁प्रताड़ित	-9978
▁लोकप्रियता	-9979
रोल	-9980
िसा	-9981
▁पढ	-9982
▁लड	-9983
कियू	-9984
खानी	-9985
ण्डा	-9986
्यून	-9987
▁एका	-9988
▁एटा	-9989
▁गला	-9990
▁जेम	-9991
▁परश	-9992
▁महम	-9993
▁सास	-9994
जेक्ट	-9995
निर्म	-9996
मार्क	-9997
स्मिक	-9998
्रिकर	-9999
▁टोला	-10000
▁बाली	-10001
▁मुक़	-10002
▁रीवा	-10003
▁लुटे	-10004
▁साइड	-10005
कल्याण	-10006
▁अनीता	-10007
▁गुटों	-10008
▁जानबू	-10009
▁द्वीप	-10010
▁पौधों	-10011
▁बदलकर	-10012
▁होल्ड	-10013
▁अमरनाथ	-10014
▁सार्थक	-10015
▁सिग्नल	-10016
▁शेड्यूल	-10017
▁एनकाउंटर	-10018
▁प्रतिकूल	-10019
▁महिंद्रा	-10020
▁सर्विसेज	-10021
▁आपातकालीन	-10022
▁अभिव्यक्ति	-10023
▁चिकित्साधिकारी	-10024
ूष	-10025
वेट	-10026
सिस	-10027
ोरम	-10028
▁आं	-10029
▁सड	-10030
णाली	-10031
दिनी	-10032
ोसिस	-10033
▁डकै	-10034
▁नूर	-10035
▁मची	-10036
▁रेज	-10037
▁सहज	-10038
▁सेठ	-10039
▁हकी	-10040
ट्यूब	-10041
फेक्ट	-10042
शिक्ष	-10043
▁कचरे	-10044
▁किले	-10045
▁जयंत	-10046
▁डीजी	-10047
▁प्रम	-10048
▁बीएड	-10049
▁मानद	-10050
▁सुधा	-10051
क्षत्र	-10052
मंत्रण	-10053
र्निंग	-10054
▁इलेवन	-10055
▁एनआईए	-10056
▁खुदरा	-10057
▁छावनी	-10058
▁रवैये	-10059
▁राहगी	-10060
प्लेक्स	-10061
▁उपजिला	-10062
▁चैनलों	-10063
▁ज़रूरत	-10064
▁जेसीबी	-10065
▁पिस्टल	-10066
▁फुटबाल	-10067
▁शिकंजा	-10068
▁एबीवीपी	-10069
▁बीकानेर	-10070
▁सौभाग्य	-10071
▁स्वास्थ	-10072
▁एक्सचेंज	-10073
▁निमंत्रण	-10074
▁प्रोफाइल	-10075
▁बयानबाजी	-10076
▁समुदायों	-10077
▁पृष्ठभूमि	-10078
▁माहेश्वरी	-10079
▁जन्माष्टमी	-10080
किम	-10081
▁शक	-10082
िहार	-10083
अंदाज	-10084
तीर्ण	-10085
▁आंसू	-10086
▁काटा	-10087
▁गोपी	-10088
▁घेरा	-10089
▁डायब	-10090
▁पाता	-10091
▁पीके	-10092
▁प्रय	-10093
▁बीएल	-10094
▁सौदा	-10095
▁कराये	-10096
▁कारों	-10097
▁पलायन	-10098
▁भतीजे	-10099
▁विपणन	-10100
▁हटाकर	-10101
▁गुमराह	-10102
▁जंगलों	-10103
▁दारोगा	-10104
▁बुलाने	-10105
▁भीमराव	-10106
▁मुक्के	-10107
▁सेफ्टी	-10108
वनियुक्त	-10109
▁अश्विनी	-10110
▁रंगदारी	-10111
▁शिक्षित	-10112
▁सीताराम	-10113
▁हरियाली	-10114
▁अमावस्या	-10115
▁सब्जियों	-10116
▁बुंदेलखंड	-10117
▁सशक्तिकरण	-10118
▁देशवासियों	-10119
▁माओवादियों	-10120
▁साहित्यकार	-10121
▁अफ़ग़ानिस्तान	-10122
धु	-10123
धू	-10124
इंड	-10125
खला	-10126
हमी	-10127
ारक	-10128
माता	-10129
वकों	-10130
सीएस	-10131
हराम	-10132
ूबरू	-10133
▁ओला	-10134
▁डबल	-10135
▁नौज	-10136
▁पिच	-10137
▁बीत	-10138
▁बॉल	-10139
▁ब्य	-10140
▁सन्	-10141
र्व्य	-10142
▁अजित	-10143
▁अनुज	-10144
▁अमान	-10145
▁ईमेल	-10146
▁किला	-10147
▁छिपा	-10148
▁दयाल	-10149
▁बीती	-10150
▁मेगा	-10151
▁लड़े	-10152
▁सोलन	-10153
▁दीक्ष	-10154
▁प्रात	-10155
▁बचाया	-10156
▁बढ़कर	-10157
▁बहनों	-10158
▁भावुक	-10159
▁मौलिक	-10160
▁रूबरू	-10161
▁गर्ल्स	-10162
▁ग्रैंड	-10163
▁ट्रेंड	-10164
▁मुख्या	-10165
▁सीमाओं	-10166
▁कालेजों	-10167
▁जलाभिषेक	-10168
▁मानसिकता	-10169
▁सर्वसम्म	-10170
▁नवनियुक्त	-10171
▁इंडोनेशिया	-10172
एई	-10173
जै	-10174
दीव	-10175
ोरा	-10176
▁एह	-10177
ंगला	-10178
कारो	-10179
टावा	-10180
पादन	-10181
▁अमी	-10182
▁पान	-10183
▁प्य	-10184
▁बान	-10185
▁बुम	-10186
▁भां	-10187
जापुर	-10188
धीनगर	-10189
ासनगर	-10190
▁अखंड	-10191
▁कष्ट	-10192
▁सदैव	-10193
▁सेंध	-10194
डि़यों	-10195
▁काव्य	-10196
▁दबोचा	-10197
▁देंगी	-10198
▁परम्प	-10199
▁फूलों	-10200
▁ब्रह्	-10201
▁लड़के	-10202
▁स्वर्	-10203
िरपेक्ष	-10204
▁अंबाला	-10205
▁अर्जित	-10206
▁कांवड़	-10207
▁कागजात	-10208
▁कुपोषण	-10209
▁ड्रग्स	-10210
▁भाकियू	-10211
▁मत्स्य	-10212
▁महबूबा	-10213
▁विमोचन	-10214
▁पंचकूला	-10215
▁गांधीनगर	-10216
▁चार्जशीट	-10217
▁प्रोफेशनल	-10218
▁व्याख्यान	-10219
▁कल्याणकारी	-10220
▁सुल्तानपुर	-10221
▁राष्ट्रवादी	-10222
बॉ	-10223
मुक	-10224
शंस	-10225
ांग	-10226
ाहि	-10227
▁तप	-10228
आरएफ	-10229
पारा	-10230
यर्स	-10231
िनार	-10232
▁कसा	-10233
▁गोग	-10234
▁थीम	-10235
▁सबक	-10236
द्वीप	-10237
समिति	-10238
ोरियम	-10239
▁कलाम	-10240
▁जटिल	-10241
▁भोले	-10242
▁मुनि	-10243
▁मुल्	-10244
▁रावण	-10245
▁रिंग	-10246
▁सीबी	-10247
कुमारी	-10248
▁अनुपम	-10249
▁आक्रम	-10250
▁आसमान	-10251
▁उन्नत	-10252
▁ओबीसी	-10253
▁टैंकर	-10254
▁बदलते	-10255
▁बूथों	-10256
▁शामली	-10257
▁शारदा	-10258
प्रणाली	-10259
▁आंकड़ा	-10260
▁आईटीआई	-10261
▁आरक्षक	-10262
▁उदासीन	-10263
▁कांस्य	-10264
▁पढ़ाने	-10265
▁प्रसंग	-10266
▁लोकेशन	-10267
▁श्रद्घ	-10268
▁आकस्मिक	-10269
▁परशुराम	-10270
▁वक्ताओं	-10271
▁सेलिब्र	-10272
▁उत्तीर्ण	-10273
▁प्रेमिका	-10274
▁राहगीरों	-10275
▁विभिन्ना	-10276
▁अव्यवस्था	-10277
▁त्योहारों	-10278
▁स्टार्टअप	-10279
▁गर्लफ्रेंड	-10280
▁कुरुक्षेत्र	-10281
इं	-10282
एड	-10283
फ़ा	-10284
व्र	-10285
फाइल	-10286
बड़े	-10287
सिटी	-10288
ूटनी	-10289
▁ईयर	-10290
▁कंट	-10291
▁गोक	-10292
▁चूक	-10293
▁तुम	-10294
▁मीर	-10295
▁वैन	-10296
▁सतत	-10297
▁समर	-10298
▁सुप	-10299
▁अमीर	-10300
▁अलवर	-10301
▁आकां	-10302
▁आन्द	-10303
▁कारी	-10304
▁कार्	-10305
▁कॉम्	-10306
▁खदान	-10307
▁घंटा	-10308
▁दांत	-10309
▁आभूषण	-10310
▁ग्यार	-10311
▁चेतना	-10312
▁पंडाल	-10313
▁पीड़ा	-10314
▁प्रसं	-10315
▁प्राण	-10316
▁यंत्र	-10317
▁राजभर	-10318
▁शातिर	-10319
▁होर्ड	-10320
आईएएनएस	-10321
▁अस्थाई	-10322
▁उत्थान	-10323
▁एकाउंट	-10324
▁किन्तु	-10325
▁दुल्हन	-10326
▁नियोजन	-10327
▁नेपाली	-10328
▁फिल्मी	-10329
▁भाषाओं	-10330
▁मेहमान	-10331
▁वाहिनी	-10332
▁उपेंद्र	-10333
▁जरूरतों	-10334
▁दिसम्बर	-10335
▁दुष्प्र	-10336
▁परम्परा	-10337
▁प्रचारक	-10338
▁प्रशासक	-10339
▁प्रोसेस	-10340
▁राजनेता	-10341
▁शिविरों	-10342
▁सम्बन्ध	-10343
▁विजेताओं	-10344
▁वाणिज्यिक	-10345
▁शक्तिशाली	-10346
▁संपत्तियों	-10347
डम	-10348
हद	-10349
ज्ड	-10350
ब्स	-10351
िकन	-10352
▁नू	-10353
गड़ी	-10354
चिंग	-10355
र्ता	-10356
हानि	-10357
▁अधू	-10358
▁काय	-10359
▁कों	-10360
▁घटा	-10361
▁नपा	-10362
▁पॉप	-10363
▁फेफ	-10364
▁बचत	-10365
▁मंस	-10366
▁लाक	-10367
▁वान	-10368
त्तों	-10369
राउंड	-10370
▁ईसाई	-10371
▁उड़ी	-10372
▁गाना	-10373
▁गौड़	-10374
▁दवाई	-10375
▁फ्रे	-10376
▁बागी	-10377
▁इलाका	-10378
▁एडमिन	-10379
▁गरीबी	-10380
▁जॉर्ज	-10381
▁ज्वैल	-10382
▁तकलीफ	-10383
▁प्रश्	-10384
▁फास्ट	-10385
▁बुलेट	-10386
▁रोहतक	-10387
▁सिंगल	-10388
प्रशासन	-10389
▁एनसीपी	-10390
▁किराये	-10391
▁गुजरने	-10392
▁निवेशक	-10393
▁महाशिव	-10394
▁मेघवाल	-10395
▁वीरवार	-10396
▁होटलों	-10397
▁दुर्व्य	-10398
▁पेंटिंग	-10399
▁मुहम्मद	-10400
▁पक्षियों	-10401
▁हस्तियों	-10402
▁गुरुद्वार	-10403
▁अग्निहोत्री	-10404
▁अनिश्चितकालीन	-10405
ण्	-10406
ंके	-10407
ओएस	-10408
गों	-10409
मनी	-10410
ाईल	-10411
ैनी	-10412
ॉलर	-10413
ौजी	-10414
▁पड	-10415
खोरी	-10416
दराज	-10417
ूरती	-10418
ोरेट	-10419
▁पोख	-10420
▁बहा	-10421
▁माथ	-10422
▁सनी	-10423
▁सैफ	-10424
गुड़ी	-10425
ग्रेस	-10426
विधान	-10427
▁अटैक	-10428
▁एसिड	-10429
▁तिरु	-10430
▁प्रब	-10431
▁शैले	-10432
▁सुपु	-10433
▁सुहा	-10434
▁खंडवा	-10435
▁गुजरा	-10436
▁जरुरत	-10437
▁तत्पर	-10438
▁दस्तक	-10439
▁निर्भ	-10440
▁यूपीए	-10441
▁रंगों	-10442
▁रैकेट	-10443
▁उतारने	-10444
▁कपड़ों	-10445
▁करवाकर	-10446
▁जुड़ने	-10447
▁निष्ठा	-10448
▁प्रेशर	-10449
▁बुमराह	-10450
▁मुनाफा	-10451
▁मूलभूत	-10452
▁संगीता	-10453
▁कटारिया	-10454
▁पर्रिकर	-10455
▁फोटोशूट	-10456
▁मलेशिया	-10457
▁शिवलिंग	-10458
▁परिणामों	-10459
▁पारदर्शी	-10460
▁मल्होत्रा	-10461
▁विकेटकीपर	-10462
▁सर्वसम्मति	-10463
▁पीडब्ल्यूडी	-10464
▁सफलतापूर्वक	-10465
▁कार्यप्रणाली	-10466
ंधन	-10467
बिज	-10468
बेर	-10469
भुत	-10470
सिन	-10471
▁शू	-10472
क़ात	-10473
ज्मा	-10474
ायें	-10475
ीकृत	-10476
ोग्य	-10477
ौड़ा	-10478
▁अव्	-10479
▁सीम	-10480
▁होल	-10481
धारणा	-10482
विलास	-10483
िस्ती	-10484
▁खनिज	-10485
▁गुला	-10486
▁ग्रा	-10487
▁चलकर	-10488
▁चुनि	-10489
▁छत्र	-10490
▁जीरो	-10491
▁डिपो	-10492
▁ड्रा	-10493
▁तिहा	-10494
▁बैठी	-10495
▁रेणु	-10496
▁लीटर	-10497
▁लीडर	-10498
▁वेंक	-10499
क्ष्मी	-10500
▁इलाक़	-10501
▁उपवास	-10502
▁खट्टर	-10503
▁ताबड़	-10504
▁धनंजय	-10505
▁प्रबल	-10506
▁बैरिक	-10507
▁रोमां	-10508
टेक्निक	-10509
निर्मित	-10510
▁आईसीयू	-10511
▁आरटीआई	-10512
▁एनएसएस	-10513
▁प्लाजा	-10514
▁भाईचार	-10515
▁मणिपुर	-10516
▁यूजीसी	-10517
▁शर्तों	-10518
▁हिम्मत	-10519
▁एसडीपीओ	-10520
▁महाराजा	-10521
▁विद्रोह	-10522
▁सुब्रमण	-10523
▁दीक्षांत	-10524
▁विकासनगर	-10525
▁स्वर्गीय	-10526
▁उत्तरकाशी	-10527
▁रिपब्लिकन	-10528
▁वेंटिलेटर	-10529
▁अपार्टमेंट	-10530
रिज	-10531
षाद	-10532
▁अड	-10533
▁ईओ	-10534
▁उक	-10535
कुशी	-10536
द्मा	-10537
धर्म	-10538
बड़ी	-10539
म्बई	-10540
र्मू	-10541
ारोप	-10542
▁जनप	-10543
▁डंप	-10544
▁नाई	-10545
▁बहू	-10546
▁बेट	-10547
▁मॉल	-10548
▁रीड	-10549
▁सूद	-10550
▁इसपर	-10551
▁पचास	-10552
▁फीसद	-10553
▁शिरो	-10554
▁सेतु	-10555
▁सोनम	-10556
▁स्वे	-10557
ंदगांव	-10558
भागिता	-10559
विरोधी	-10560
ान्वित	-10561
ेंशियल	-10562
▁अवशेष	-10563
▁आमदनी	-10564
▁ओंकार	-10565
▁कचहरी	-10566
▁गिफ्ट	-10567
▁ज्वाइ	-10568
▁न्यास	-10569
▁बंदूक	-10570
▁ब्रॉड	-10571
▁रहमान	-10572
▁रितेश	-10573
▁लाहौर	-10574
▁स्टाल	-10575
▁हल्का	-10576
मेंट्री	-10577
▁एस्टेट	-10578
▁क्वाली	-10579
▁चंद्रा	-10580
▁चुप्पी	-10581
▁निकलते	-10582
▁पहलुओं	-10583
▁मधुबनी	-10584
▁मालदीव	-10585
▁रखरखाव	-10586
▁रेटिंग	-10587
▁लूटपाट	-10588
▁शॉपिंग	-10589
▁काशीपुर	-10590
▁जनजातीय	-10591
▁पटियाला	-10592
▁हाथियों	-10593
▁अविश्वास	-10594
▁श्रृंगार	-10595
▁देवेन्द्र	-10596
▁संदिग्धों	-10597
▁प्रेसिडेंट	-10598
▁कुमारस्वामी	-10599
▁सुरक्षाकर्मियों	-10600
दक	-10601
ैश	-10602
केर	-10603
क्क	-10604
घात	-10605
तूस	-10606
लिन	-10607
सिम	-10608
ाड़	-10609
तराज	-10610
ताएं	-10611
रेपी	-10612
ल्लू	-10613
श्कर	-10614
हादत	-10615
िप्र	-10616
ूराम	-10617
▁डुब	-10618
▁तोह	-10619
▁पाउ	-10620
▁पुज	-10621
▁रेख	-10622
▁लटक	-10623
▁सघन	-10624
▁हैक	-10625
खाबाद	-10626
रक्षा	-10627
▁काया	-10628
▁चारा	-10629
▁भानु	-10630
▁संजी	-10631
▁हेयर	-10632
▁एनजीओ	-10633
▁करनाल	-10634
▁कुंवर	-10635
▁जितने	-10636
▁निषाद	-10637
▁बढ़ाए	-10638
▁महराज	-10639
▁मेकअप	-10640
▁सिरसा	-10641
▁सैलान	-10642
▁हकीकत	-10643
धेश्याम	-10644
▁अपनाया	-10645
▁अर्थात	-10646
▁केमिकल	-10647
▁कोहराम	-10648
▁नालंदा	-10649
▁पांचों	-10650
▁हादसों	-10651
▁आन्दोलन	-10652
▁कार्मिक	-10653
▁नक्षत्र	-10654
▁सुधारों	-10655
▁छेड़खानी	-10656
▁मुलाक़ात	-10657
▁संक्रांति	-10658
▁उत्तराखण्ड	-10659
▁महाशिवरात्रि	-10660
▁महत्वाकांक्षी	-10661
णाल	-10662
म्स	-10663
सेट	-10664
आरआई	-10665
डेगा	-10666
ण्डी	-10667
रीज़	-10668
र्गे	-10669
ल्लभ	-10670
ाबुआ	-10671
ैर्य	-10672
▁खंग	-10673
▁घमा	-10674
▁जनक	-10675
▁टेल	-10676
▁नाक	-10677
▁पाट	-10678
▁बैत	-10679
▁वैल	-10680
▁वॉल	-10681
राहों	-10682
वार्थ	-10683
िश्मा	-10684
▁आतिश	-10685
▁इनाम	-10686
▁जमात	-10687
▁बदली	-10688
▁बनें	-10689
▁बसंत	-10690
▁बाज़	-10691
▁रुका	-10692
▁लायक	-10693
▁विमल	-10694
▁समाय	-10695
▁हानि	-10696
कानूनी	-10697
▁अय्यर	-10698
▁जानना	-10699
▁दर्शक	-10700
▁फैन्स	-10701
▁बांटा	-10702
▁बारात	-10703
▁बाराब	-10704
▁मुबार	-10705
▁वक्ता	-10706
▁मुआवजे	-10707
▁इंडियंस	-10708
▁करिश्मा	-10709
▁किताबों	-10710
▁खिलवाड़	-10711
▁खुदकुशी	-10712
▁थानेदार	-10713
▁पहुंचना	-10714
▁बिगड़ने	-10715
▁मेजबानी	-10716
▁मेडिसिन	-10717
▁वर्कर्स	-10718
▁वामपंथी	-10719
▁सम्पर्क	-10720
▁सौहार्द	-10721
▁प्रीमियम	-10722
▁ताबड़तोड़	-10723
▁महापंचायत	-10724
▁राधेश्याम	-10725
▁सैलानियों	-10726
▁दंडाधिकारी	-10727
▁विक्रेताओं	-10728
▁महत्त्वपूर्ण	-10729
टकी	-10730
फाश	-10731
भगत	-10732
ायन	-10733
▁तन	-10734
कुंड	-10735
प्ला	-10736
मोली	-10737
र्दू	-10738
विटी	-10739
▁छतर	-10740
▁डॉट	-10741
▁देह	-10742
▁पिल	-10743
▁भाज	-10744
▁मैक	-10745
▁वंश	-10746
▁सदा	-10747
▁सीन	-10748
बाजों	-10749
मेटिक	-10750
सोर्स	-10751
स्क्र	-10752
▁एमजी	-10753
▁केसी	-10754
▁खुर्	-10755
▁दादा	-10756
▁पीएस	-10757
▁ब्लू	-10758
फेक्शन	-10759
▁अंकों	-10760
▁अभिनव	-10761
▁एटीएस	-10762
▁गिनती	-10763
▁छोड़ी	-10764
▁टूटने	-10765
▁नमूने	-10766
▁बाउंड	-10767
▁मस्ती	-10768
▁मुकुल	-10769
▁वोटों	-10770
▁हजारी	-10771
▁आरजेडी	-10772
▁उच्चतर	-10773
▁एनआरसी	-10774
▁कारतूस	-10775
▁जलस्तर	-10776
▁मुरैना	-10777
▁मुर्मू	-10778
▁विभाजन	-10779
▁अभियोजन	-10780
▁आपातकाल	-10781
▁गोवर्धन	-10782
▁ब्रह्मा	-10783
▁विस्थाप	-10784
▁बाराबंकी	-10785
▁प्रसन्नता	-10786
▁चैम्पियनशिप	-10787
इया	-10788
जिन	-10789
दोष	-10790
ेला	-10791
क्या	-10792
गपुर	-10793
गिरी	-10794
रांव	-10795
सीआई	-10796
सीएच	-10797
्लाद	-10798
▁गाव	-10799
▁डॉन	-10800
▁थाई	-10801
▁नकद	-10802
▁माउ	-10803
▁लता	-10804
▁सजग	-10805
च्छेद	-10806
सैनिक	-10807
▁इराक	-10808
▁कैटे	-10809
▁चाचा	-10810
▁तकरी	-10811
▁तरुण	-10812
▁देवा	-10813
▁बताओ	-10814
▁बिगा	-10815
▁मापद	-10816
▁रक्ष	-10817
▁शीतल	-10818
▁सिरम	-10819
▁हटने	-10820
द्रोही	-10821
▁अव्वल	-10822
▁एलईडी	-10823
▁गिरीश	-10824
▁गुजार	-10825
▁ट्रिब	-10826
▁दामों	-10827
▁धैर्य	-10828
▁पंवार	-10829
▁प्रथा	-10830
▁बिंदु	-10831
▁राजना	-10832
▁रेस्त	-10833
▁विहिप	-10834
▁उपमंडल	-10835
▁एजेंडा	-10836
▁कैमरों	-10837
▁पुलिया	-10838
▁प्रवाह	-10839
▁बंगाली	-10840
▁मुबारक	-10841
▁सरेंडर	-10842
▁स्टोरी	-10843
▁अवधारणा	-10844
▁कारावास	-10845
▁दवाइयां	-10846
▁फाइनेंस	-10847
▁बंटवारे	-10848
▁सितम्बर	-10849
▁अम्बेडकर	-10850
▁औरंगाबाद	-10851
▁जल्दबाजी	-10852
▁जवाहरलाल	-10853
▁प्रधानों	-10854
▁प्लाज्मा	-10855
▁रामविलास	-10856
▁व्यवसायिक	-10857
▁सुरेन्द्र	-10858
▁न्यायपालिका	-10859
▁पाठ्यक्रमों	-10860
▁वित्तमंत्री	-10861
▁शिकायतकर्ता	-10862
ेने	-10863
▁सज	-10864
▁सभ	-10865
आरडी	-10866
न्यू	-10867
ाहिम	-10868
▁कैफ	-10869
▁खदे	-10870
▁जीन	-10871
▁टॉय	-10872
▁हेर	-10873
▁कस्ट	-10874
▁टावर	-10875
▁टैंक	-10876
▁देशी	-10877
▁नारा	-10878
▁फर्क	-10879
▁फैली	-10880
▁बंधन	-10881
▁भावी	-10882
▁रश्म	-10883
▁लेगा	-10884
▁सूचक	-10885
दिल्ली	-10886
र्निया	-10887
लीकेशन	-10888
▁नम्बर	-10889
▁पर्दे	-10890
▁बनाती	-10891
▁माकपा	-10892
▁मायने	-10893
▁रिस्प	-10894
▁रोकना	-10895
▁स्काउ	-10896
▁उर्वरक	-10897
▁एनसीआर	-10898
▁किस्मत	-10899
▁ख़बरें	-10900
▁खुलासे	-10901
▁डीडीसी	-10902
▁तिमाही	-10903
▁बोकारो	-10904
▁मंदसौर	-10905
▁मेदिनी	-10906
▁रंगोली	-10907
▁सिल्वर	-10908
▁अफ्रीकी	-10909
▁क्रिस्ट	-10910
▁चुनिंदा	-10911
▁पात्रता	-10912
▁राजनयिक	-10913
▁लड़ेंगे	-10914
▁उम्मीदें	-10915
▁खूबसूरती	-10916
▁जयप्रकाश	-10917
▁नजरअंदाज	-10918
▁पुस्तकों	-10919
▁प्रोड्यू	-10920
▁रविन्द्र	-10921
▁निर्विरोध	-10922
▁निष्कासित	-10923
▁सुपरवाइजर	-10924
▁दुर्व्यवहार	-10925
▁धर्मनिरपेक्ष	-10926
▁प्रतिष्ठानों	-10927
ंछ	-10928
आप	-10929
्ह	-10930
ज़न	-10931
ब्ध	-10932
याव	-10933
लीज	-10934
लेम	-10935
शमन	-10936
सलर	-10937
ौना	-10938
ब्बे	-10939
भारी	-10940
विड़	-10941
ारंग	-10942
▁गम्	-10943
▁डिस	-10944
▁ढोल	-10945
▁नाट	-10946
▁बाह	-10947
▁बेम	-10948
▁महल	-10949
नियां	-10950
ल्लों	-10951
▁आड़े	-10952
▁आफिस	-10953
▁उतरी	-10954
▁कंवर	-10955
▁कब्र	-10956
▁कर्ण	-10957
▁टीबी	-10958
▁डीईओ	-10959
▁तीखी	-10960
▁तेलु	-10961
▁दोनो	-10962
▁नंदी	-10963
▁पहलू	-10964
▁भरकर	-10965
▁लियो	-10966
▁वाणी	-10967
▁श्या	-10968
▁सीएन	-10969
▁सुखद	-10970
▁सुगम	-10971
दिवसीय	-10972
ेक्षित	-10973
▁दमदार	-10974
▁निचले	-10975
▁पौड़ी	-10976
▁फ्लोर	-10977
▁बंगले	-10978
▁बृजेश	-10979
▁भड़का	-10980
▁मर्या	-10981
▁रिटेल	-10982
▁सस्ते	-10983
▁स्टीव	-10984
▁कटिहार	-10985
▁गोशाला	-10986
▁घमासान	-10987
▁बैठकें	-10988
▁अनुशंसा	-10989
▁डिजाइनर	-10990
▁दवाइयों	-10991
▁महाभारत	-10992
▁सन्नाटा	-10993
▁प्रारम्भ	-10994
▁बाउंड्री	-10995
▁माइक्रोस	-10996
▁सर्दियों	-10997
▁सहभागिता	-10998
▁अध्यक्षों	-10999
▁प्रवृत्ति	-11000
▁दुर्घटनाओं	-11001
▁प्रतिद्वंद्वी	-11002
गिन	-11003
गिर	-11004
त्स	-11005
फिल	-11006
वाण	-11007
ॉजी	-11008
कालत	-11009
गड़े	-11010
जोड़	-11011
दत्त	-11012
ब्लू	-11013
मेंस	-11014
सीमा	-11015
▁डीन	-11016
▁दबद	-11017
▁बबल	-11018
▁मेष	-11019
▁लाठ	-11020
▁हाट	-11021
फार्म	-11022
मंदिर	-11023
▁केजी	-11024
▁चुरा	-11025
▁जहाज	-11026
▁रैंक	-11027
▁शशिक	-11028
▁गिरफ़	-11029
▁जिनसे	-11030
▁दावों	-11031
▁पसंदी	-11032
▁बदनाम	-11033
▁बनायी	-11034
▁भट्टा	-11035
▁वर्कश	-11036
▁सेल्फ	-11037
▁हौसला	-11038
प्रतिशत	-11039
बुद्दीन	-11040
▁अखाड़े	-11041
▁असंतोष	-11042
▁एसएमएस	-11043
▁नवाचार	-11044
▁परिहार	-11045
▁प्रहार	-11046
▁बिस्तर	-11047
▁बैक्टी	-11048
▁भरतपुर	-11049
▁कलेक्शन	-11050
▁कारागार	-11051
▁परिश्रम	-11052
▁विवेचना	-11053
▁गोपालगंज	-11054
▁डायरेक्ट	-11055
▁कार्यपालन	-11056
▁पुनर्विचार	-11057
▁राजनांदगांव	-11058
▁उद्योगपतियों	-11059
किर	-11060
खलन	-11061
दहा	-11062
मेन	-11063
म्म	-11064
वटी	-11065
िलो	-11066
ेगा	-11067
▁ब्	-11068
एमआर	-11069
गरेट	-11070
डीजल	-11071
ुद्ध	-11072
▁अड़	-11073
▁आड़	-11074
▁नशी	-11075
▁बलू	-11076
कार्य	-11077
खेड़ी	-11078
ग्राह	-11079
नीकरण	-11080
मानना	-11081
ल्लाह	-11082
हीनता	-11083
िलेरी	-11084
ुनवाई	-11085
▁असदु	-11086
▁एनपी	-11087
▁कुचल	-11088
▁क्रि	-11089
▁तुला	-11090
▁दंते	-11091
▁बचना	-11092
▁बहुल	-11093
▁बाड़	-11094
▁बाहु	-11095
▁शेखा	-11096
▁संयम	-11097
▁सेरे	-11098
दास्पद	-11099
▁अनुया	-11100
▁एएनएम	-11101
▁निश्च	-11102
▁पहिया	-11103
▁पैकेट	-11104
▁मनोबल	-11105
▁रघुवर	-11106
▁रणदीप	-11107
▁रहस्य	-11108
▁विनीत	-11109
▁सस्ती	-11110
▁हाजिर	-11111
▁इस्पात	-11112
▁एडवांस	-11113
▁गुस्से	-11114
▁जामिया	-11115
▁पूर्णत	-11116
▁मुम्बई	-11117
▁मैन्यु	-11118
▁संगठित	-11119
▁समानता	-11120
▁साक्षर	-11121
▁सालाना	-11122
▁एक्टिंग	-11123
▁परिषदीय	-11124
▁पसंदीदा	-11125
▁मार्क्स	-11126
▁संतुलित	-11127
▁सीएमएचओ	-11128
▁सेंटरों	-11129
▁निष्कर्ष	-11130
▁मीनाक्षी	-11131
▁मुताबिक़	-11132
▁शक्तियों	-11133
▁शिवकुमार	-11134
▁सेकेंडरी	-11135
▁चुनौतियां	-11136
▁प्रतिरोधक	-11137
▁लाभान्वित	-11138
▁काउंसिलिंग	-11139
काई	-11140
जनल	-11141
पिन	-11142
बोट	-11143
विप	-11144
शाख	-11145
शाद	-11146
श्र	-11147
हरि	-11148
▁खग	-11149
ंकार	-11150
गुणा	-11151
ब्बर	-11152
▁उबर	-11153
▁कंज	-11154
▁खेर	-11155
▁पाप	-11156
▁बॉस	-11157
▁मील	-11158
▁मैस	-11159
▁रैप	-11160
▁शंख	-11161
▁साय	-11162
▁आगाह	-11163
▁काटे	-11164
▁कैसा	-11165
▁खेली	-11166
▁जिया	-11167
▁जीती	-11168
▁डायल	-11169
▁डिटे	-11170
▁पीटर	-11171
▁श्यो	-11172
▁हलचल	-11173
धीक्षक	-11174
वाहाटी	-11175
▁अड्डा	-11176
▁इटावा	-11177
▁उर्दू	-11178
▁कूड़े	-11179
▁जेम्स	-11180
▁डुबकी	-11181
▁धर्मा	-11182
▁पर्वत	-11183
▁फ्लैग	-11184
▁बार्ड	-11185
▁भड़के	-11186
▁मचाया	-11187
▁माथुर	-11188
▁मेंबर	-11189
▁लश्कर	-11190
▁वकालत	-11191
▁संभवत	-11192
▁सारंग	-11193
▁कैप्शन	-11194
▁खुलेआम	-11195
▁गंगवार	-11196
▁फीडबैक	-11197
▁फेंकने	-11198
▁बढ़ाकर	-11199
▁भुगतना	-11200
▁रॉबर्ट	-11201
▁वास्तु	-11202
▁अनुमोदन	-11203
▁अवमानना	-11204
▁गजेंद्र	-11205
▁चौकीदार	-11206
▁प्रेग्न	-11207
▁रंगारंग	-11208
▁लाभदायक	-11209
▁विकलांग	-11210
▁नौकरियों	-11211
▁प्रतिनिय	-11212
▁शुक्रिया	-11213
▁प्रताड़ना	-11214
▁सिपाहियों	-11215
▁विवादास्पद	-11216
▁मांसपेशियों	-11217
▁इलेक्ट्रॉनिक्स	-11218
फन	-11219
जीर	-11220
बाय	-11221
मका	-11222
लोग	-11223
होर	-11224
ूकी	-11225
किता	-11226
डेजा	-11227
तरफा	-11228
रिमा	-11229
वर्स	-11230
संभव	-11231
्वॉय	-11232
▁अवध	-11233
▁आंत	-11234
▁केक	-11235
▁थाम	-11236
▁देन	-11237
▁फौज	-11238
▁बुन	-11239
▁यूज	-11240
▁रजा	-11241
कार्ट	-11242
भ्यास	-11243
सिस्ट	-11244
▁ईंधन	-11245
▁कैलि	-11246
▁घड़ी	-11247
▁चौथा	-11248
▁टीआई	-11249
▁फैले	-11250
▁बारा	-11251
▁बेचे	-11252
▁रंगे	-11253
▁रोके	-11254
▁लोधी	-11255
▁सटीक	-11256
▁सीटी	-11257
टेलाइट	-11258
नात्मक	-11259
फैक्चर	-11260
▁कॉम्प	-11261
▁कोल्ड	-11262
▁जीर्ण	-11263
▁निदान	-11264
▁पाबंद	-11265
▁पीपुल	-11266
▁बांटी	-11267
▁मर्डर	-11268
▁रोटरी	-11269
▁रोहता	-11270
▁लोकेश	-11271
▁साकार	-11272
▁सुराग	-11273
नाइजेशन	-11274
▁कराएगी	-11275
▁खामिया	-11276
▁खुराना	-11277
▁गलियों	-11278
▁ताइवान	-11279
▁भ्रष्ट	-11280
▁वांछित	-11281
▁कुख्यात	-11282
▁खुशियां	-11283
▁गुस्साए	-11284
▁चम्पावत	-11285
▁ज्वाइंट	-11286
▁बंदियों	-11287
ग्राहियों	-11288
▁अग्निशमन	-11289
▁अनुष्ठान	-11290
▁क्रांतिक	-11291
▁प्रमुखता	-11292
▁प्रश्नों	-11293
▁शत्रुघ्न	-11294
▁उद्योगपति	-11295
▁गैरकानूनी	-11296
▁प्लेसमेंट	-11297
▁मॉनिटरिंग	-11298
▁महाविद्यालयों	-11299
▁इंफ्रास्ट्रक्चर	-11300
किग	-11301
खोर	-11302
जनी	-11303
डेस	-11304
रूप	-11305
लाद	-11306
वाड	-11307
संत	-11308
गुजा	-11309
चलित	-11310
फानन	-11311
▁नाव	-11312
▁नास	-11313
▁बेश	-11314
▁भूट	-11315
▁रौन	-11316
ंत्रण	-11317
कियों	-11318
ड़ेकर	-11319
त्रिम	-11320
शिष्ठ	-11321
▁आपसे	-11322
▁ग्लै	-11323
▁जांज	-11324
▁जीएस	-11325
▁टीएस	-11326
▁थरूर	-11327
▁पाती	-11328
▁पिंक	-11329
▁बापू	-11330
▁बेनी	-11331
▁मोति	-11332
▁इरफान	-11333
▁कस्टम	-11334
▁गोंडा	-11335
▁नवाजा	-11336
▁नसीहत	-11337
▁पद्मा	-11338
▁पैरों	-11339
▁ब्वॉय	-11340
▁मध्या	-11341
▁शहादत	-11342
▁सिडनी	-11343
पंथियों	-11344
▁अनावरण	-11345
▁आरोग्य	-11346
▁उद्यमी	-11347
▁गायिका	-11348
▁नेटवर्	-11349
▁मुआयना	-11350
▁मुस्तै	-11351
▁विदिशा	-11352
▁सर्किल	-11353
▁सिरमौर	-11354
▁अखबारों	-11355
▁खुर्शीद	-11356
▁पार्वती	-11357
▁बहुगुणा	-11358
▁यूट्यूब	-11359
▁सितारों	-11360
▁जनसुनवाई	-11361
▁दिक्कतें	-11362
▁रेस्तरां	-11363
▁असदुद्दीन	-11364
▁दंतेवाड़ा	-11365
▁दावेदारों	-11366
▁व्यवस्थित	-11367
▁अनिवार्यता	-11368
▁निम्नलिखित	-11369
▁हितग्राहियों	-11370
केन	-11371
डे़	-11372
मेह	-11373
लता	-11374
ेतन	-11375
ोटी	-11376
गृति	-11377
नामे	-11378
फायर	-11379
शियन	-11380
सीडी	-11381
ांता	-11382
िंदर	-11383
▁इंप	-11384
▁नॉन	-11385
▁बिश	-11386
▁भील	-11387
▁रमा	-11388
▁शिप	-11389
न्त्र	-11390
न्याय	-11391
फोर्ड	-11392
▁आचरण	-11393
▁आज़ा	-11394
▁इब्र	-11395
▁एकदम	-11396
▁करंट	-11397
▁केसर	-11398
▁ख़ास	-11399
▁गुंज	-11400
▁पीठा	-11401
▁बर्ड	-11402
▁बेबी	-11403
▁मेहर	-11404
▁राइड	-11405
▁रैना	-11406
▁लटका	-11407
▁संगत	-11408
▁हेल्	-11409
्युनिक	-11410
▁उज्ज्	-11411
▁करतार	-11412
▁कार्प	-11413
▁किडनी	-11414
▁तीव्र	-11415
▁दंपती	-11416
▁देवघर	-11417
▁पदभार	-11418
▁पीएसी	-11419
▁पुरूष	-11420
▁पैराम	-11421
▁फर्रु	-11422
▁बेल्ट	-11423
▁लिप्त	-11424
▁वृंदा	-11425
▁शौर्य	-11426
▁सर्रा	-11427
▁स्पेन	-11428
▁अंकिता	-11429
▁उन्नति	-11430
▁एकीकृत	-11431
▁ग्यारह	-11432
▁चेताया	-11433
▁ज़रूरी	-11434
▁तकरीबन	-11435
▁निभाया	-11436
▁परिधान	-11437
▁फिजिकल	-11438
▁बढ़िया	-11439
▁बिल्डर	-11440
▁रजिस्ट	-11441
▁लगेंगे	-11442
▁वीआईपी	-11443
छात्राएं	-11444
नवदुनिया	-11445
▁द्रविड़	-11446
▁विख्यात	-11447
▁शिरोमणि	-11448
▁इंडस्ट्र	-11449
▁इन्वेस्ट	-11450
▁एयरफोर्स	-11451
▁डायबिटीज	-11452
▁पदयात्रा	-11453
▁विकल्पों	-11454
▁शीतकालीन	-11455
▁उच्चस्तरीय	-11456
▁कांफ्रेंसिंग	-11457
▁सुरक्षाकर्मी	-11458
▁क्षेत्राधिकारी	-11459
ेध	-11460
खेज	-11461
समु	-11462
सेफ	-11463
ेली	-11464
ोबा	-11465
▁आउ	-11466
एक्स	-11467
टीएम	-11468
न्नू	-11469
मढ़ी	-11470
विता	-11471
श्ता	-11472
सेवा	-11473
▁आलू	-11474
▁कैट	-11475
▁कोठ	-11476
▁घुट	-11477
▁घोर	-11478
▁टें	-11479
▁धरो	-11480
▁धूल	-11481
▁नरो	-11482
▁फैम	-11483
▁वृह	-11484
दानों	-11485
पुत्र	-11486
भाविक	-11487
राणिक	-11488
रोक्त	-11489
्रेशन	-11490
▁असुर	-11491
▁इनकम	-11492
▁क्लि	-11493
▁चेतन	-11494
▁डाइट	-11495
▁धांध	-11496
▁रोधी	-11497
▁लेटर	-11498
▁षड्य	-11499
▁साइन	-11500
▁सिरो	-11501
▁सुदृ	-11502
▁अगुआई	-11503
▁करीना	-11504
▁कीजिए	-11505
▁कूटनी	-11506
▁खरीदा	-11507
▁खुदाई	-11508
▁गणपति	-11509
▁चुनने	-11510
▁जडेजा	-11511
▁जमाने	-11512
▁जहाना	-11513
▁डिस्क	-11514
▁पहनना	-11515
▁फ्रां	-11516
▁बैटरी	-11517
▁मंजिल	-11518
▁रोककर	-11519
▁संयोग	-11520
▁सिंधु	-11521
▁अद्भुत	-11522
▁कासगंज	-11523
▁किराना	-11524
▁कॉमर्स	-11525
▁जातकों	-11526
▁जापानी	-11527
▁परिक्ष	-11528
▁बीएससी	-11529
▁भिड़ंत	-11530
▁मकानों	-11531
▁माल्या	-11532
▁हेलिकॉ	-11533
▁आवेदकों	-11534
▁टर्मिनल	-11535
▁टूरिज्म	-11536
▁दर्शाता	-11537
▁दोहराया	-11538
▁पांड्या	-11539
▁पौराणिक	-11540
▁मिलीभगत	-11541
▁शर्मनाक	-11542
स्ट्रक्शन	-11543
▁करनेवाले	-11544
▁जानकारों	-11545
▁दावेदारी	-11546
▁बच्चियों	-11547
▁महराजगंज	-11548
▁मोतिहारी	-11549
▁रामगोपाल	-11550
▁लाभार्थी	-11551
▁कारपोरेशन	-11552
▁सम्बन्धित	-11553
▁दिव्यांगों	-11554
▁प्रस्तावों	-11555
▁मुख्यातिथि	-11556
▁महानिरीक्षक	-11557
▁माइक्रोसॉफ्ट	-11558
तेज	-11559
शित	-11560
ूले	-11561
▁ठु	-11562
क्रा	-11563
पांच	-11564
र्डि	-11565
सुनी	-11566
ासित	-11567
िटिव	-11568
्क्ष	-11569
▁चंप	-11570
▁जिप	-11571
▁जेब	-11572
▁टार	-11573
▁राग	-11574
▁वक़	-11575
विदेश	-11576
स्खलन	-11577
▁कहला	-11578
▁ख्या	-11579
▁गायन	-11580
▁जजों	-11581
▁दबोच	-11582
▁नाली	-11583
▁पारस	-11584
▁पावन	-11585
▁पौधा	-11586
▁बोतल	-11587
▁मयंक	-11588
▁यूके	-11589
▁रीति	-11590
▁शीला	-11591
▁सुधर	-11592
राउंडर	-11593
▁अन्तर	-11594
▁गरिमा	-11595
▁जीवित	-11596
▁फरमान	-11597
▁भिन्न	-11598
▁मोक्ष	-11599
▁रजनीश	-11600
▁वर्णन	-11601
चिस्तान	-11602
▁अंदाजा	-11603
▁अनुचित	-11604
▁छतरपुर	-11605
▁तबादले	-11606
▁निभाते	-11607
▁पानीपत	-11608
▁लड़कों	-11609
▁लड़ाकू	-11610
▁उपरोक्त	-11611
▁कुलसचिव	-11612
▁कैलेंडर	-11613
▁बेटियां	-11614
▁बैरिकेड	-11615
▁मूवमेंट	-11616
▁वेतनमान	-11617
▁आउटसोर्स	-11618
▁आतिशबाजी	-11619
▁गुवाहाटी	-11620
▁हस्तांतर	-11621
▁कॉरपोरेशन	-11622
▁उपलब्धियां	-11623
▁डब्ल्यूएचओ	-11624
▁पुरुषोत्तम	-11625
▁प्रसंस्करण	-11626
▁लाइफस्टाइल	-11627
▁सुब्रमण्यम	-11628
▁प्रतिनियुक्ति	-11629
बह	-11630
खान	-11631
दित	-11632
धिव	-11633
▁उछ	-11634
▁गम	-11635
▁शृ	-11636
प्रा	-11637
शुदा	-11638
ुहान	-11639
▁अबू	-11640
▁डैम	-11641
▁थोक	-11642
▁नाइ	-11643
प्पड़	-11644
ामुमो	-11645
▁अजहर	-11646
▁अरूण	-11647
▁इंटी	-11648
▁उदार	-11649
▁कर्क	-11650
▁डीएल	-11651
▁डीके	-11652
▁धामी	-11653
▁नाते	-11654
▁बस्त	-11655
▁भंडा	-11656
▁भगवा	-11657
▁मैरा	-11658
▁यूनि	-11659
▁सलीम	-11660
▁साहस	-11661
▁हांग	-11662
मोत्सव	-11663
▁चमोली	-11664
▁जंगली	-11665
▁डालें	-11666
▁दंपति	-11667
▁धरोहर	-11668
▁नवादा	-11669
▁पर्ची	-11670
▁बंगला	-11671
▁मनाते	-11672
▁विलंब	-11673
▁वैद्य	-11674
▁शुभार	-11675
▁सुविध	-11676
▁हिसार	-11677
ग्राउंड	-11678
▁आक्रमण	-11679
▁कुत्ते	-11680
▁पहनाकर	-11681
▁प्रतीत	-11682
▁प्रीतम	-11683
▁बालाजी	-11684
▁ब्यूटी	-11685
▁मारुति	-11686
▁रामपाल	-11687
▁रेमडेस	-11688
▁स्कॉलर	-11689
▁हाइड्र	-11690
▁हिलेरी	-11691
▁अरविन्द	-11692
▁कृत्रिम	-11693
▁पासवर्ड	-11694
▁पीपुल्स	-11695
▁मर्यादा	-11696
▁वन्यजीव	-11697
▁वेंकैया	-11698
▁वेबिनार	-11699
▁सामानों	-11700
▁सुपुर्द	-11701
▁खामियाजा	-11702
▁जावड़ेकर	-11703
▁पर्दाफाश	-11704
▁रजनीकांत	-11705
▁वॉशिंगटन	-11706
▁श्रीदेवी	-11707
▁षड्यंत्र	-11708
▁कार्यशैली	-11709
▁ठेकेदारों	-11710
▁परिवर्तित	-11711
▁प्रतिवर्ष	-11712
▁बढ़ोत्तरी	-11713
▁भावनात्मक	-11714
▁सत्याग्रह	-11715
▁खिलाडिय़ों	-11716
▁राष्ट्रगान	-11717
▁न्यायाधीशों	-11718
शक	-11719
ैच	-11720
ईसी	-11721
▁नल	-11722
ंदरी	-11723
छोटे	-11724
पीजी	-11725
फोटो	-11726
▁ज़ि	-11727
▁डां	-11728
▁नबी	-11729
▁बैर	-11730
▁राख	-11731
▁लाम	-11732
▁शंभ	-11733
▁सौम	-11734
ालिया	-11735
िकेशन	-11736
▁अनवर	-11737
▁उनपर	-11738
▁टायर	-11739
▁दबंग	-11740
▁नानक	-11741
▁नीलम	-11742
▁पोषक	-11743
▁मिल्	-11744
▁मैग्	-11745
▁राजग	-11746
▁रामल	-11747
▁रियो	-11748
▁शिया	-11749
▁शिवम	-11750
▁समिट	-11751
परेटिव	-11752
ेंटाइन	-11753
▁अमेजन	-11754
▁कमेंट	-11755
▁जर्मन	-11756
▁जॉनसन	-11757
▁डिटेल	-11758
▁दबदबा	-11759
▁ध्वनि	-11760
▁नाजुक	-11761
▁निबंध	-11762
▁पड़ाव	-11763
▁पाएगी	-11764
▁फ्लिप	-11765
▁भत्ता	-11766
▁मच्छर	-11767
▁महमूद	-11768
▁माइकल	-11769
▁विधवा	-11770
▁शाहीन	-11771
▁सपनों	-11772
▁सरगना	-11773
▁सेकंड	-11774
धारियों	-11775
ियारपुर	-11776
▁ग्लैमर	-11777
▁तिराहे	-11778
▁परन्तु	-11779
▁बाज़ार	-11780
▁ब्यौरा	-11781
▁माननीय	-11782
▁मार्शल	-11783
▁मोनिका	-11784
▁सीमेंट	-11785
▁हरसंभव	-11786
▁चाहेंगे	-11787
▁जांजगीर	-11788
▁लाभकारी	-11789
▁अनुच्छेद	-11790
▁आकांक्षा	-11791
▁उपकेंद्र	-11792
▁विराजमान	-11793
▁सोनाक्षी	-11794
▁कार्मिकों	-11795
▁मध्यस्थता	-11796
▁उपनिरीक्षक	-11797
मं	-11798
रर	-11799
कुछ	-11800
क्व	-11801
मरी	-11802
राय	-11803
वाग	-11804
त्तम	-11805
दोही	-11806
पियो	-11807
▁किल	-11808
▁खैर	-11809
लियां	-11810
िलिटी	-11811
िलेंस	-11812
▁एसयू	-11813
▁ग्ला	-11814
▁चंदा	-11815
▁नकवी	-11816
▁नींव	-11817
▁पीएल	-11818
▁फ़्र	-11819
▁स्वत	-11820
माशंकर	-11821
ेंटेशन	-11822
▁आठवीं	-11823
▁आर्यन	-11824
▁एडवाइ	-11825
▁एशियन	-11826
▁कीटना	-11827
▁गायों	-11828
▁गुंडा	-11829
▁ज़िले	-11830
▁दादरी	-11831
▁दीवान	-11832
▁पटाखे	-11833
▁फोटोज	-11834
▁बताना	-11835
ट्रैक्ट	-11836
वर्तमान	-11837
▁अनुवाद	-11838
▁काफिले	-11839
▁गौशाला	-11840
▁चक्रधर	-11841
▁जनपदों	-11842
▁दीक्षा	-11843
▁लोकपाल	-11844
▁वसूलने	-11845
▁सरगुजा	-11846
▁आयोजनों	-11847
▁प्राचार	-11848
▁सूत्रीय	-11849
▁सूरजपुर	-11850
▁असामाजिक	-11851
▁इब्राहिम	-11852
▁गर्मियों	-11853
▁गुड़गांव	-11854
▁बीएसएनएल	-11855
▁मिलिट्री	-11856
▁याचिकाओं	-11857
▁बीमारियां	-11858
▁क्रिकेटरों	-11859
▁त्रिस्तरीय	-11860
▁फर्रुखाबाद	-11861
▁हेलिकॉप्टर	-11862
▁दुर्घटनाग्रस्त	-11863
ंन	-11864
ॉम	-11865
प्ल	-11866
लेव	-11867
▁खै	-11868
क्री	-11869
ठिया	-11870
िविर	-11871
ेक्स	-11872
▁अहि	-11873
▁चप्	-11874
▁जया	-11875
▁परच	-11876
▁फैन	-11877
▁मजे	-11878
▁लां	-11879
ंबाकू	-11880
ंसाली	-11881
्यूमर	-11882
▁अभूत	-11883
▁आईबी	-11884
▁आदान	-11885
▁उठने	-11886
▁जूते	-11887
▁जेईई	-11888
▁दुखी	-11889
▁पीएन	-11890
▁फ्यू	-11891
▁श्रा	-11892
▁सिंग	-11893
पश्चिम	-11894
▁आजीवन	-11895
▁काफ़ी	-11896
▁क्रूर	-11897
▁चन्नी	-11898
▁टिहरी	-11899
▁ट्रोल	-11900
▁डालते	-11901
▁निजाम	-11902
▁पराली	-11903
▁पूछने	-11904
▁बदहाल	-11905
▁मौतों	-11906
▁रश्मि	-11907
▁वल्लभ	-11908
▁सराहा	-11909
▁सेंसर	-11910
▁आपरेशन	-11911
▁क़ानून	-11912
▁गोल्डन	-11913
▁चटर्जी	-11914
▁डीआरएम	-11915
▁दुर्लभ	-11916
▁निरोधक	-11917
▁पीजीआई	-11918
▁पैटर्न	-11919
▁फोरलेन	-11920
▁बनाएगी	-11921
▁शेखावत	-11922
▁कोशिशों	-11923
▁जगदलपुर	-11924
▁जिनपिंग	-11925
▁देखेंगे	-11926
▁बौद्धिक	-11927
▁विद्वान	-11928
▁हाउसिंग	-11929
▁अल्ट्रास	-11930
▁पद्मश्री	-11931
▁शौचालयों	-11932
▁सनसनीखेज	-11933
▁सर्वदलीय	-11934
▁साक्षरता	-11935
▁जितेन्द्र	-11936
▁प्रतिभागी	-11937
▁रजिस्टर्ड	-11938
▁मंडलायुक्त	-11939
▁राष्ट्रवाद	-11940
▁एडमिनिस्ट्र	-11941
▁उपजिलाधिकारी	-11942
गि	-11943
दाह	-11944
पों	-11945
स्स	-11946
ानू	-11947
ितर	-11948
ोकर	-11949
▁अच	-11950
खीरी	-11951
बाही	-11952
वैज्	-11953
िएशन	-11954
▁एल्	-11955
▁बटन	-11956
▁वाट	-11957
कास्ट	-11958
ड्डों	-11959
फील्ड	-11960
मिक्स	-11961
▁उतनी	-11962
▁चलें	-11963
▁जमुई	-11964
▁धज्ज	-11965
▁धीरज	-11966
▁पिक्	-11967
▁म्यू	-11968
लाबारी	-11969
▁एक्सर	-11970
▁एथलेट	-11971
▁करारा	-11972
▁क्रमश	-11973
▁गोवंश	-11974
▁चार्ट	-11975
▁चैंबर	-11976
▁जरुरी	-11977
▁धारणा	-11978
▁पैसों	-11979
▁बेहोश	-11980
▁मार्ट	-11981
▁मिलीं	-11982
▁रखेगा	-11983
▁रणजीत	-11984
▁वक़्त	-11985
▁वसूला	-11986
▁संसार	-11987
▁सुजान	-11988
▁स्टेज	-11989
▁स्टॉफ	-11990
▁अर्द्ध	-11991
▁उपासना	-11992
▁एजेंडे	-11993
▁एडिशनल	-11994
▁एस्ट्र	-11995
▁कंटेंट	-11996
▁खुलेगा	-11997
▁गंवाने	-11998
▁चांसलर	-11999
▁जनजीवन	-12000
▁धांधली	-12001
▁पराजित	-12002
▁पोलिंग	-12003
▁बर्थडे	-12004
▁भाजपाई	-12005
▁मुखबिर	-12006
▁रिलेशन	-12007
▁सत्संग	-12008
▁समावेश	-12009
▁सिद्धि	-12010
▁सोनीपत	-12011
▁स्काउट	-12012
फोर्निया	-12013
▁अधीनस्थ	-12014
▁आधारभूत	-12015
▁क्रमांक	-12016
▁खगड़िया	-12017
▁निर्दोष	-12018
▁निर्भया	-12019
▁नुक्कड़	-12020
▁बाहुबली	-12021
▁महासागर	-12022
▁श्रीमद्	-12023
▁गोलाबारी	-12024
▁जनकल्याण	-12025
▁पुस्तकें	-12026
▁बेंगलुरू	-12027
▁मिनिस्टर	-12028
▁लक्ष्यों	-12029
▁कार्यस्थल	-12030
▁भाजपाइयों	-12031
▁हवाईअड्डे	-12032
▁होशंगाबाद	-12033
कर्मचारियों	-12034
▁कार्यसमिति	-12035
▁गुरुद्वारे	-12036
▁पुरस्कारों	-12037
अभ	-12038
चड़	-12039
टीय	-12040
फ़्	-12041
ब्ज	-12042
वरा	-12043
आरती	-12044
चेरी	-12045
बीपी	-12046
ब्बल	-12047
भराव	-12048
हाउस	-12049
▁खौफ	-12050
▁चुर	-12051
▁छठे	-12052
▁निष	-12053
▁फिन	-12054
▁बरस	-12055
▁सिह	-12056
बोर्ड	-12057
योग्य	-12058
▁खिंच	-12059
▁घातक	-12060
▁घिरे	-12061
▁चाली	-12062
▁जमाल	-12063
▁दिना	-12064
▁दृढ़	-12065
▁धंधे	-12066
▁फिल्	-12067
▁मंचन	-12068
▁मोटी	-12069
▁लाते	-12070
▁सतना	-12071
▁हैदर	-12072
टीपीसी	-12073
स्क्यू	-12074
▁आनंदी	-12075
▁एहसास	-12076
▁कार्ट	-12077
▁खरीदे	-12078
▁टेक्स	-12079
▁निपटा	-12080
▁बताएं	-12081
▁बदौलत	-12082
▁बैतूल	-12083
▁भगवती	-12084
▁भाकपा	-12085
▁यशवंत	-12086
▁राइफल	-12087
▁सस्ता	-12088
▁अन्याय	-12089
▁अर्थशा	-12090
▁उड़ाने	-12091
▁जीर्णो	-12092
▁ड्रामा	-12093
▁तंबाकू	-12094
▁थप्पड़	-12095
▁पटनायक	-12096
▁पीसीसी	-12097
▁पूनिया	-12098
▁प्रोटे	-12099
▁बार्डर	-12100
▁बिगड़ी	-12101
▁रविदास	-12102
▁विक्रय	-12103
▁नेगेटिव	-12104
▁राकांपा	-12105
▁श्योपुर	-12106
▁स्वजनों	-12107
▁एकदिवसीय	-12108
▁जहानाबाद	-12109
▁टेक्निकल	-12110
▁रेखांकित	-12111
▁अभूतपूर्व	-12112
▁गवर्नमेंट	-12113
▁जन्मोत्सव	-12114
▁वीरेन्द्र	-12115
▁फर्जीवाड़ा	-12116
▁फ्लिपकार्ट	-12117
तई	-12118
भ्	-12119
सह	-12120
ुस	-12121
गरा	-12122
न्ग	-12123
माई	-12124
वाब	-12125
▁उध	-12126
गिंग	-12127
स्पर	-12128
्राट	-12129
▁नैन	-12130
▁फिस	-12131
▁लेट	-12132
▁वीं	-12133
▁सदी	-12134
▁सरे	-12135
तिष्क	-12136
पाड़ा	-12137
प्रथम	-12138
मताओं	-12139
▁अविल	-12140
▁आरसी	-12141
▁कागज	-12142
▁कान्	-12143
▁कारक	-12144
▁कोवै	-12145
▁थर्ड	-12146
▁पिला	-12147
▁पेशी	-12148
▁फ्रै	-12149
▁बगहा	-12150
▁रूपा	-12151
▁रोज़	-12152
▁वर्च	-12153
▁सबकी	-12154
▁समाह	-12155
▁सीजे	-12156
जेवाला	-12157
▁असमंज	-12158
▁आवारा	-12159
▁एसएचओ	-12160
▁कच्ची	-12161
▁ज़रिए	-12162
▁पढ़िए	-12163
▁बिल्ड	-12164
▁बोलीं	-12165
▁भाजयु	-12166
▁महोबा	-12167
▁रहाणे	-12168
▁लिफ्ट	-12169
▁वर्कर	-12170
▁सहवाग	-12171
▁सादगी	-12172
▁स्वाद	-12173
▁अंधेरे	-12174
▁एयरटेल	-12175
▁कराएगा	-12176
▁चंदौली	-12177
▁जलभराव	-12178
▁जोड़ों	-12179
▁बांधकर	-12180
▁बैरियर	-12181
▁मधुमेह	-12182
▁सितारे	-12183
▁सीरियल	-12184
▁क्लिंटन	-12185
▁गोरखनाथ	-12186
▁महाराणा	-12187
▁रास्तों	-12188
▁रैलियों	-12189
▁साम्राज	-12190
▁गोपनीयता	-12191
▁नियंत्रक	-12192
▁भंडाफोड़	-12193
▁मवेशियों	-12194
▁शुभारम्भ	-12195
▁हांगकांग	-12196
▁प्रतीक्षा	-12197
▁मेदिनीपुर	-12198
▁भविष्यवाणी	-12199
▁कनेक्टिविटी	-12200
ूफ	-12201
कोर	-12202
ृता	-12203
्बा	-12204
▁बक	-12205
▁रद	-12206
अपनी	-12207
एफआई	-12208
गंगा	-12209
जन्म	-12210
तेरस	-12211
मेडी	-12212
लबली	-12213
स्पा	-12214
▁टिम	-12215
▁नमक	-12216
▁फीट	-12217
▁बची	-12218
▁मधे	-12219
यंत्र	-12220
ांटिक	-12221
ारोपण	-12222
ेडिकल	-12223
▁अजीब	-12224
▁आइटी	-12225
▁आर्म	-12226
▁कपाट	-12227
▁केपी	-12228
▁खाकर	-12229
▁टूटी	-12230
▁डीजे	-12231
▁तेवर	-12232
▁फोड़	-12233
▁फ्ले	-12234
▁बीएम	-12235
▁मसूद	-12236
▁लहरा	-12237
परिवार	-12238
ासंगिक	-12239
▁आश्रय	-12240
▁इनामी	-12241
▁किस्म	-12242
▁खलबली	-12243
▁तबाही	-12244
▁दुमका	-12245
▁दोहरे	-12246
▁बक्सर	-12247
▁बेस्ड	-12248
▁मेहरा	-12249
▁रमजान	-12250
▁लूटने	-12251
▁विसंग	-12252
▁सराफा	-12253
▁सीनेट	-12254
▁सुनते	-12255
▁स्त्र	-12256
त्याशित	-12257
▁अश्वनी	-12258
▁असमंजस	-12259
▁जनगणना	-12260
▁टारगेट	-12261
▁डीसीपी	-12262
▁दक्षता	-12263
▁पेड़ों	-12264
▁फैमिली	-12265
▁भंसाली	-12266
▁मैदानी	-12267
▁राजपुर	-12268
▁रिक्शा	-12269
▁सौंपकर	-12270
▁इंटरमीड	-12271
▁कैटेगरी	-12272
▁गिरिडीह	-12273
▁महामंडल	-12274
▁मानहानि	-12275
▁लाकडाउन	-12276
▁वृंदावन	-12277
▁स्टार्स	-12278
▁एनटीपीसी	-12279
▁जवाबदेही	-12280
▁परंपराओं	-12281
▁रेस्क्यू	-12282
▁सेनेटाइज	-12283
▁हिन्दुओं	-12284
▁छुट्टियों	-12285
▁स्थितियों	-12286
▁अभियुक्तों	-12287
▁कैंडिडेट्स	-12288
▁परफॉर्मेंस	-12289
▁प्रदर्शनों	-12290
▁अप्रत्याशित	-12291
▁फार्मासिस्ट	-12292
--	-12293
शय	-12294
जूम	-12295
डोल	-12296
थिन	-12297
िमन	-12298
ेयर	-12299
ोगन	-12300
्ये	-12301
▁टच	-12302
▁टु	-12303
ग्गी	-12304
जीवी	-12305
र्वे	-12306
लामू	-12307
वर्ग	-12308
शरीफ	-12309
समैन	-12310
▁कया	-12311
▁जुआ	-12312
▁बीर	-12313
▁भैर	-12314
▁शकु	-12315
क्स्ट	-12316
पुरवा	-12317
व्यों	-12318
िलिंग	-12319
▁अबतक	-12320
▁अमला	-12321
▁आइसो	-12322
▁एसएन	-12323
▁केएल	-12324
▁कोर्	-12325
▁ख़ान	-12326
▁खुशख	-12327
▁गोचर	-12328
▁चिन्	-12329
▁जेवर	-12330
▁दलाल	-12331
▁नामी	-12332
▁फूंक	-12333
▁बकरी	-12334
▁बनवा	-12335
▁रहीम	-12336
▁वसीम	-12337
▁वेरि	-12338
▁सहूल	-12339
▁हुनर	-12340
▁अहसास	-12341
▁इकोनॉ	-12342
▁कदमों	-12343
▁चोटें	-12344
▁जानवर	-12345
▁भागों	-12346
▁मिशेल	-12347
▁रखेगी	-12348
▁रैपिड	-12349
▁लेंगी	-12350
▁सिंघल	-12351
▁स्वजन	-12352
दारियों	-12353
भावस्था	-12354
ोग्राफी	-12355
▁अस्थिर	-12356
▁इजरायल	-12357
▁ओवरलोड	-12358
▁कार्बन	-12359
▁ड्राइव	-12360
▁निकलकर	-12361
▁बोलेरो	-12362
▁मरांडी	-12363
▁मेहंदी	-12364
▁मैराथन	-12365
▁सम्राट	-12366
▁सुखदेव	-12367
▁हाजिरी	-12368
▁कोरियाई	-12369
▁तीर्थया	-12370
▁दर्दनाक	-12371
▁पर्वतीय	-12372
▁प्रक्षे	-12373
▁फैजाबाद	-12374
▁बाड़मेर	-12375
▁वर्कशॉप	-12376
▁ओवरब्रिज	-12377
▁प्रख्यात	-12378
▁मस्तिष्क	-12379
▁रोमांटिक	-12380
▁वर्षगांठ	-12381
▁विजिलेंस	-12382
▁सीतामढ़ी	-12383
▁सेल्सियस	-12384
▁एक्सीडेंट	-12385
▁एप्लीकेशन	-12386
▁सुरजेवाला	-12387
▁स्वाभाविक	-12388
▁गर्भावस्था	-12389
▁बैक्टीरिया	-12390
▁सिद्धांतों	-12391
जिक	-12392
दड़	-12393
निश	-12394
नें	-12395
फोल	-12396
बेट	-12397
ेंग	-12398
ेसी	-12399
ोजर	-12400
▁नस	-12401
ईओवर	-12402
निधि	-12403
फेरी	-12404
मानस	-12405
म्बा	-12406
ांडा	-12407
ाधीन	-12408
ुर्र	-12409
▁उठी	-12410
▁एन्	-12411
▁एमओ	-12412
▁एसई	-12413
▁जैव	-12414
▁डाइ	-12415
▁तीर	-12416
▁मता	-12417
▁मूड	-12418
▁मेस	-12419
▁रत्	-12420
▁शहा	-12421
ल्लास	-12422
सलमेर	-12423
हेलना	-12424
ौलिया	-12425
▁चुनी	-12426
▁नस्ल	-12427
▁पृथक	-12428
▁भागे	-12429
▁रूपए	-12430
▁शिना	-12431
▁सरयू	-12432
▁आंशिक	-12433
▁उपाधि	-12434
▁कमिटी	-12435
▁क्लिप	-12436
▁खाड़ी	-12437
▁घटिया	-12438
▁चावला	-12439
▁दस्ते	-12440
▁परिदृ	-12441
▁पैरवी	-12442
▁फिक्स	-12443
▁फेंका	-12444
▁बेवजह	-12445
▁मदरसा	-12446
▁महकमे	-12447
▁लाइंस	-12448
▁लिपिक	-12449
▁सेनान	-12450
▁हल्दी	-12451
▁हानिक	-12452
त्तियां	-12453
लोनियों	-12454
▁कीमतें	-12455
▁कुशवाह	-12456
▁कैपिटल	-12457
▁गतिरोध	-12458
▁दिवाकर	-12459
▁बढ़ाते	-12460
▁बनाएगा	-12461
▁मंत्रो	-12462
▁मेधावी	-12463
▁सुखबीर	-12464
▁सेक्शन	-12465
▁अधीक्षण	-12466
▁अफवाहों	-12467
▁इमारतों	-12468
▁नरोत्तम	-12469
▁निगाहें	-12470
▁प्रेषित	-12471
▁प्रॉब्ल	-12472
▁महारानी	-12473
▁मिश्रित	-12474
▁रोमांचक	-12475
▁सिक्किम	-12476
▁आधारशिला	-12477
▁एमबीबीएस	-12478
▁कायाकल्प	-12479
▁जनजागृति	-12480
▁धज्जियां	-12481
▁संस्थाएं	-12482
▁हानिकारक	-12483
▁निशानदेही	-12484
▁निष्क्रिय	-12485
▁सिफारिशों	-12486
▁अनुपस्थिति	-12487
▁प्राध्यापक	-12488
▁लखीमपुरखीरी	-12489
▁सौंदर्यीकरण	-12490
िं	-12491
ंगस	-12492
एपी	-12493
एमई	-12494
चाप	-12495
नीज	-12496
पैड	-12497
लिक	-12498
समी	-12499
िंक	-12500
ोलो	-12501
▁उर	-12502
▁हब	-12503
गंबर	-12504
घाती	-12505
ल्हे	-12506
ुकों	-12507
ेलनी	-12508
ोजपा	-12509
्लाई	-12510
▁अख़	-12511
▁औसत	-12512
▁कसर	-12513
▁गाल	-12514
▁चाण	-12515
▁चौथ	-12516
▁धड़	-12517
▁सुग	-12518
िलांस	-12519
▁अगवा	-12520
▁उड्ड	-12521
▁एड्स	-12522
▁गणना	-12523
▁घबरा	-12524
▁जीने	-12525
▁जोकि	-12526
▁नगला	-12527
▁नाईक	-12528
▁फेयर	-12529
▁बुरे	-12530
▁भाटी	-12531
▁मादक	-12532
▁यूएई	-12533
▁रूचि	-12534
▁सीआई	-12535
▁सूखे	-12536
▁कड़ाई	-12537
▁कृत्य	-12538
▁चौंका	-12539
▁जातीय	-12540
▁तोहफा	-12541
▁पक्षी	-12542
▁पीपीई	-12543
▁पैलेस	-12544
▁प्रसू	-12545
▁शुमार	-12546
▁सतपाल	-12547
▁सभासद	-12548
▁सावंत	-12549
विभागीय	-12550
▁गुजरना	-12551
▁ग्रोवर	-12552
▁टॉयलेट	-12553
▁प्रमोट	-12554
▁फ़ैसला	-12555
▁रुद्रा	-12556
▁विक्की	-12557
▁संयोजन	-12558
▁उत्पादक	-12559
▁एहतियात	-12560
▁परिभाषा	-12561
▁बंदरगाह	-12562
▁ललितपुर	-12563
▁लैंडिंग	-12564
▁वर्चस्व	-12565
▁वैवाहिक	-12566
ियोग्राफी	-12567
▁एडवाइजरी	-12568
▁प्रमुखों	-12569
▁श्रद्घाल	-12570
▁सूचीबद्ध	-12571
▁अंग्रेजों	-12572
▁प्रतिवेदन	-12573
▁शैलेन्द्र	-12574
▁आवश्यकताओं	-12575
▁प्रोडक्ट्स	-12576
▁शरणार्थियों	-12577
▁अल्ट्रासाउंड	-12578
अन	-12579
कप	-12580
ंटू	-12581
एटी	-12582
गड़	-12583
गला	-12584
थिक	-12585
बेस	-12586
यज्	-12587
लॉक	-12588
▁भट	-12589
खूबी	-12590
नीचर	-12591
ापार	-12592
ामाद	-12593
िएटर	-12594
ूर्ण	-12595
ॉक्स	-12596
▁अंच	-12597
▁आरओ	-12598
▁केन	-12599
▁कौल	-12600
▁छोट	-12601
▁डेड	-12602
▁दुआ	-12603
▁निज	-12604
▁पंज	-12605
▁फैक	-12606
▁लाज	-12607
▁हाम	-12608
क्सीन	-12609
गमेंट	-12610
च्छिक	-12611
धिकृत	-12612
न्वित	-12613
पत्नी	-12614
पर्सन	-12615
र्जित	-12616
लाइका	-12617
िशंकर	-12618
▁आंधी	-12619
▁एचडी	-12620
▁कसने	-12621
▁कैडर	-12622
▁खादी	-12623
▁चलना	-12624
▁चीज़	-12625
▁ड्री	-12626
▁पीवी	-12627
▁फौजी	-12628
▁बबलू	-12629
▁रौनक	-12630
▁लुत्	-12631
▁वरना	-12632
▁वेणु	-12633
▁सैंप	-12634
▁सौरव	-12635
▁स्वै	-12636
कॉमर्स	-12637
त्यक्ष	-12638
बहादुर	-12639
्यूटिव	-12640
▁ट्यूब	-12641
▁ट्राई	-12642
▁पाउडर	-12643
▁बद्री	-12644
▁बिलों	-12645
▁भांति	-12646
▁मनीषा	-12647
▁मिलान	-12648
▁रोबोट	-12649
▁वैश्य	-12650
▁शिल्प	-12651
▁स्वाय	-12652
▁अवसरों	-12653
▁असमर्थ	-12654
▁कारगिल	-12655
▁कॉमेडी	-12656
▁चाणक्य	-12657
▁ठिकाने	-12658
▁पटाखों	-12659
▁पढ़ाया	-12660
▁परिसंप	-12661
▁प्रवचन	-12662
▁बादशाह	-12663
▁बिलकुल	-12664
▁मनोनीत	-12665
▁विद्यु	-12666
▁श्यामा	-12667
▁सूर्या	-12668
▁अदालतों	-12669
▁अवहेलना	-12670
▁ईमानदार	-12671
▁उपन्यास	-12672
▁फर्नीचर	-12673
▁फैकल्टी	-12674
▁रोनाल्ड	-12675
▁लगाएंगे	-12676
▁सूचनाएं	-12677
▁एयरलाइंस	-12678
▁ट्रेडिंग	-12679
▁प्रतिरोध	-12680
▁प्रदेशभर	-12681
▁प्रशस्ति	-12682
▁प्रेमचंद	-12683
▁बस्तियों	-12684
▁अलगाववादी	-12685
▁सर्विलांस	-12686
▁इंजीनियरों	-12687
▁बेरोजगारों	-12688
▁कंस्ट्रक्शन	-12689
▁जीर्णोद्धार	-12690
▁थानाक्षेत्र	-12691
▁कैलिफोर्निया	-12692
आज	-12693
चू	-12694
धक	-12695
लत	-12696
गया	-12697
जिम	-12698
डों	-12699
नाह	-12700
ारो	-12701
ुआर	-12702
ूजन	-12703
्बी	-12704
▁गन	-12705
▁घी	-12706
एंगी	-12707
खाना	-12708
ज्जर	-12709
रियन	-12710
ल्टा	-12711
ांडू	-12712
▁एजे	-12713
▁ओली	-12714
▁कमि	-12715
▁कैथ	-12716
▁जैश	-12717
▁डोन	-12718
▁धनु	-12719
▁बैज	-12720
▁रिच	-12721
▁वॉर	-12722
▁सहन	-12723
▁सिं	-12724
▁हर्	-12725
चर्या	-12726
िटल्स	-12727
ोलिया	-12728
▁अड़े	-12729
▁आईआर	-12730
▁आजकी	-12731
▁आयाम	-12732
▁इनको	-12733
▁एलएल	-12734
▁कोले	-12735
▁जलाश	-12736
▁टंकी	-12737
▁डिज़	-12738
▁दुखद	-12739
▁नाहन	-12740
▁पुंछ	-12741
▁पॉवर	-12742
▁फिरा	-12743
▁रोचक	-12744
▁लगीं	-12745
▁सडक़	-12746
▁सानि	-12747
▁सेन्	-12748
जरलैंड	-12749
दासपुर	-12750
र्विज्	-12751
▁अमृता	-12752
▁कमरों	-12753
▁खुर्द	-12754
▁गोगोई	-12755
▁जर्नल	-12756
▁जानकर	-12757
▁धमतरी	-12758
▁ध्रुव	-12759
▁परवेज	-12760
▁पॉलिट	-12761
▁प्रेज	-12762
▁फैक्ट	-12763
▁बखूबी	-12764
▁भदोही	-12765
▁महंगे	-12766
▁रंजिश	-12767
▁राशिद	-12768
▁रुकने	-12769
▁सैलरी	-12770
▁सोनकर	-12771
लराउंडर	-12772
▁आवासों	-12773
▁उड्डयन	-12774
▁कैरियर	-12775
▁धनतेरस	-12776
▁पीडीपी	-12777
▁राजगढ़	-12778
▁सानिया	-12779
▁कुत्तों	-12780
▁खुशहाली	-12781
▁पदस्थाप	-12782
▁फरियादी	-12783
▁वासियों	-12784
▁वेरिएंट	-12785
▁सभाकक्ष	-12786
स्वास्थ्य	-12787
▁आईएसआईएस	-12788
▁करतारपुर	-12789
▁देशद्रोह	-12790
▁फ्लाईओवर	-12791
▁सम्बंधित	-12792
▁आयुर्विज्	-12793
▁नवनिर्मित	-12794
▁मूर्तियां	-12795
▁मूर्तियों	-12796
▁परेशानियां	-12797
▁बलूचिस्तान	-12798
▁रेमडेसिविर	-12799
▁सत्यनारायण	-12800
▁चुनौतीपूर्ण	-12801
▁रुद्रप्रयाग	-12802
▁स्वयंसेवकों	-12803
▁महामंडलेश्वर	-12804
दह	-12805
सस	-12806
थ्य	-12807
ाला	-12808
ैंण	-12809
▁ढी	-12810
चुरी	-12811
टीना	-12812
वरकर	-12813
ानाथ	-12814
ूंगी	-12815
▁घटक	-12816
▁जले	-12817
▁टैब	-12818
▁थान	-12819
▁रचा	-12820
▁लोड	-12821
▁वेश	-12822
▁सृज	-12823
ंजस्य	-12824
शील्ड	-12825
श्चिक	-12826
सेक्स	-12827
्यूनल	-12828
▁कस्त	-12829
▁जादू	-12830
▁टोंक	-12831
▁दामन	-12832
▁नकार	-12833
▁पीछा	-12834
▁लेडी	-12835
▁लेबर	-12836
▁वृहद	-12837
▁सीडी	-12838
▁हिना	-12839
चन्द्र	-12840
वित्री	-12841
▁अस्वी	-12842
▁आंखें	-12843
▁कोलंब	-12844
▁गड्ढे	-12845
▁चैत्र	-12846
▁जिहाद	-12847
▁दौड़ा	-12848
▁प्लेन	-12849
▁बैंगल	-12850
▁मराठी	-12851
▁रक्षक	-12852
▁लावार	-12853
▁विक्ष	-12854
▁सुकमा	-12855
▁हर्षो	-12856
ंत्रिकी	-12857
▁एनजीटी	-12858
▁एसयूवी	-12859
▁कार्यक	-12860
▁गम्भीर	-12861
▁ग्रस्त	-12862
▁ज्वाइन	-12863
▁ताकतों	-12864
▁तिब्बत	-12865
▁दिखाना	-12866
▁मज़बूत	-12867
▁महाधिव	-12868
▁मिजोरम	-12869
▁राशिफल	-12870
▁सुलतान	-12871
▁कैडेट्स	-12872
▁बेंगलूर	-12873
▁महाआरती	-12874
▁मैट्रिक	-12875
निर्देशों	-12876
फैक्चरिंग	-12877
▁कम्युनिक	-12878
▁क्षमताओं	-12879
▁परिदृश्य	-12880
▁पूर्वानु	-12881
▁प्रमाणित	-12882
▁म्यूजियम	-12883
▁शुभकामना	-12884
▁संस्थागत	-12885
▁सब्जियां	-12886
▁सामंजस्य	-12887
▁एक्सरसाइज	-12888
▁निवर्तमान	-12889
▁प्रशिक्षक	-12890
▁मुश्किलों	-12891
▁साहित्यिक	-12892
▁अप्रत्यक्ष	-12893
▁इंटरमीडिएट	-12894
▁कब्रिस्तान	-12895
▁जानकारियों	-12896
▁नेटवर्किंग	-12897
▁इंडस्ट्रियल	-12898
▁मंत्रोच्चार	-12899
▁राष्ट्रपिता	-12900
▁प्रतियोगिताएं	-12901
पच	-12902
खने	-12903
चंड	-12904
डार	-12905
संर	-12906
िनर	-12907
ेगी	-12908
ोनी	-12909
ोले	-12910
जिंग	-12911
ब्वे	-12912
रपुर	-12913
स्टा	-12914
ारसी	-12915
िसोड	-12916
ेदार	-12917
▁अतर	-12918
▁आईए	-12919
▁उषा	-12920
▁औषध	-12921
▁कंध	-12922
▁कटे	-12923
▁करत	-12924
▁जरा	-12925
▁नोब	-12926
▁परो	-12927
▁पीड	-12928
▁फेक	-12929
▁फेज	-12930
▁बगल	-12931
▁बगा	-12932
▁रेश	-12933
▁लग्	-12934
▁वॉक	-12935
▁समी	-12936
सेप्ट	-12937
ापनों	-12938
्युलर	-12939
▁गहरे	-12940
▁गिना	-12941
▁जलवा	-12942
▁जेने	-12943
▁ड्रे	-12944
▁नाका	-12945
▁फंगस	-12946
▁फंसी	-12947
▁बदसल	-12948
▁बीके	-12949
▁बेगम	-12950
▁बोनस	-12951
▁मद्र	-12952
▁रोटी	-12953
▁संतक	-12954
▁साईं	-12955
▁सूखा	-12956
▁सोया	-12957
▁हाजी	-12958
्रोतों	-12959
▁इशारे	-12960
▁कल्चर	-12961
▁कुणाल	-12962
▁खोलकर	-12963
▁चौड़ी	-12964
▁डीएवी	-12965
▁डोभाल	-12966
▁त्रुट	-12967
▁दरगाह	-12968
▁दामाद	-12969
▁निहित	-12970
▁पक्का	-12971
▁पलामू	-12972
▁प्रदू	-12973
▁भिड़े	-12974
▁भूटान	-12975
▁मृतका	-12976
▁वर्षो	-12977
▁वादों	-12978
▁शोरूम	-12979
▁साबुन	-12980
▁आत्मसम	-12981
▁उज्जवल	-12982
▁चढ़ाने	-12983
▁तलाशने	-12984
▁निविदा	-12985
▁प्राणी	-12986
▁फैसलों	-12987
▁ब्रजेश	-12988
▁मजबूरी	-12989
▁मलाइका	-12990
▁मशीनें	-12991
▁यूरिया	-12992
▁वोटरों	-12993
▁सीवरेज	-12994
▁सुन्दर	-12995
डिटोरियम	-12996
▁चिंताओं	-12997
▁चौकियों	-12998
▁चौराहों	-12999
▁प्रभाकर	-13000
▁प्रहलाद	-13001
▁बालाघाट	-13002
▁लक्षणों	-13003
▁सहूलियत	-13004
▁सिंहदेव	-13005
▁सूबेदार	-13006
▁आत्मघाती	-13007
▁हत्यारों	-13008
▁आंगनवाड़ी	-13009
▁छुट्टियां	-13010
▁तेजप्रताप	-13011
▁प्रासंगिक	-13012
▁राजनेताओं	-13013
▁मंत्रालयों	-13014
▁परिणामस्वरूप	-13015
टु	-13016
ोभ	-13017
उंस	-13018
कथा	-13019
कील	-13020
गोन	-13021
जेट	-13022
मला	-13023
शमी	-13024
▁जत	-13025
▁यथ	-13026
शिल्	-13027
सैंण	-13028
ेशंस	-13029
ोपुर	-13030
▁आली	-13031
▁आसि	-13032
▁एएस	-13033
▁कठि	-13034
▁खपत	-13035
▁खूं	-13036
▁गंज	-13037
▁तीज	-13038
▁पैथ	-13039
▁बंज	-13040
▁मसी	-13041
▁सान	-13042
क्लेव	-13043
दानंद	-13044
वरिया	-13045
विराम	-13046
सूत्र	-13047
▁अपार	-13048
▁इंटे	-13049
▁कृषक	-13050
▁घोषण	-13051
▁जिंद	-13052
▁जीवा	-13053
▁टिका	-13054
▁टूटा	-13055
▁ढाका	-13056
▁बीईओ	-13057
▁भंवर	-13058
▁भैंस	-13059
▁माले	-13060
▁लाउड	-13061
▁लौटी	-13062
▁वैभव	-13063
▁सप्त	-13064
▁सेबी	-13065
▁हरित	-13066
क्साइड	-13067
ेंडेंट	-13068
▁करानी	-13069
▁करारी	-13070
▁कास्ट	-13071
▁घटाने	-13072
▁छोड़े	-13073
▁जसवंत	-13074
▁डकैती	-13075
▁नक्शा	-13076
▁पक्की	-13077
▁महिमा	-13078
▁रालोद	-13079
▁लड़ना	-13080
▁लौटना	-13081
▁सभाओं	-13082
▁समाधि	-13083
▁सर्वर	-13084
▁साजिद	-13085
▁सिवनी	-13086
▁हाफिज	-13087
▁उत्सुक	-13088
▁एपिसोड	-13089
▁छोड़ना	-13090
▁पुनर्ग	-13091
▁मिलावट	-13092
▁रॉयल्स	-13093
▁वरीयता	-13094
▁वैशाली	-13095
▁शिवालय	-13096
▁हावड़ा	-13097
र्डिनेटर	-13098
ोलॉजिस्ट	-13099
▁आइसोलेट	-13100
▁जैसलमेर	-13101
▁पहुंचाई	-13102
▁बदसलूकी	-13103
▁भागीदार	-13104
▁भाजयुमो	-13105
▁मंडियों	-13106
▁वैचारिक	-13107
▁संवर्धन	-13108
▁अभियानों	-13109
▁कॉरपोरेट	-13110
▁चिंताजनक	-13111
▁प्रयासरत	-13112
▁संतोषजनक	-13113
▁कॉन्ग्रेस	-13114
▁धर्मांतरण	-13115
▁शास्त्रीय	-13116
▁उद्देश्यों	-13117
▁सिनेमाघरों	-13118
▁बांग्लादेशी	-13119
▁सेवानिवृत्ति	-13120
पक	-13121
गंग	-13122
चने	-13123
जित	-13124
माद	-13125
हड़	-13126
ोज़	-13127
एफसी	-13128
गढ़ी	-13129
नवाज	-13130
फिंग	-13131
मेसी	-13132
योगी	-13133
सहाय	-13134
ूतों	-13135
ोकाम	-13136
्राह	-13137
▁आभा	-13138
▁ईंट	-13139
▁उगा	-13140
▁चिन	-13141
▁चैट	-13142
▁पहच	-13143
▁बरी	-13144
▁रिए	-13145
ट्सएप	-13146
स्थली	-13147
हारिक	-13148
ापत्र	-13149
ायनिक	-13150
ेरिया	-13151
▁गलिय	-13152
▁घुसे	-13153
▁चिकन	-13154
▁छिपे	-13155
▁टॉपर	-13156
▁दमकल	-13157
▁न्यो	-13158
▁परचम	-13159
▁भैया	-13160
▁रीता	-13161
▁विजन	-13162
▁शासक	-13163
▁शिला	-13164
दहाड़े	-13165
सम्मान	-13166
▁अवनीश	-13167
▁आयोजक	-13168
▁औरैया	-13169
▁कांटे	-13170
▁ख़त्म	-13171
▁गन्ने	-13172
▁घुसने	-13173
▁चलाना	-13174
▁तेंदु	-13175
▁देसाई	-13176
▁निषेध	-13177
▁पंचमी	-13178
▁पालना	-13179
▁ब्रेन	-13180
▁सीहोर	-13181
▁स्टेन	-13182
▁अनुप्र	-13183
▁आइडिया	-13184
▁एसएसबी	-13185
▁कांकेर	-13186
▁गुरमीत	-13187
▁ताजमहल	-13188
▁धारदार	-13189
▁फंडिंग	-13190
▁फहराया	-13191
▁बाईपास	-13192
▁बैलेंस	-13193
▁बॉम्बे	-13194
▁मद्रास	-13195
▁माधुरी	-13196
▁रामलला	-13197
▁रिकवरी	-13198
▁सोमनाथ	-13199
▁अग्रसेन	-13200
▁अनंतनाग	-13201
▁आमंत्रण	-13202
▁इलेक्शन	-13203
▁खुशखबरी	-13204
▁चतुर्थी	-13205
▁देवताओं	-13206
▁माओवादी	-13207
▁लावारिस	-13208
▁लेटेस्ट	-13209
▁वृश्चिक	-13210
▁शिनाख्त	-13211
▁हलफनामा	-13212
▁धीरेंद्र	-13213
▁प्रखंडों	-13214
▁रासायनिक	-13215
▁चेयरपर्सन	-13216
▁चैलेंजर्स	-13217
▁पड़ोसियों	-13218
▁प्रतिभाओं	-13219
▁विद्यापीठ	-13220
▁सर्वप्रथम	-13221
▁आत्मसमर्पण	-13222
▁कॉर्पोरेशन	-13223
▁भट्टाचार्य	-13224
▁रक्षामंत्री	-13225
▁मानवाधिकारों	-13226
और	-13227
तह	-13228
चिक	-13229
जीन	-13230
पंप	-13231
बों	-13232
ौरन	-13233
▁उइ	-13234
▁खत	-13235
ंहार	-13236
आइआर	-13237
कुंभ	-13238
क्लो	-13239
खारी	-13240
बसपा	-13241
बेरी	-13242
भाषण	-13243
वियर	-13244
▁असु	-13245
▁एलो	-13246
▁कतर	-13247
▁कौश	-13248
▁चाक	-13249
▁बैच	-13250
▁मर्	-13251
▁रजक	-13252
▁रिय	-13253
▁समू	-13254
गोलिक	-13255
शीलता	-13256
ाइयां	-13257
▁इसरो	-13258
▁एण्ड	-13259
▁करुण	-13260
▁काजल	-13261
▁कैसी	-13262
▁डेली	-13263
▁नंदन	-13264
▁नदार	-13265
▁पसरा	-13266
▁बिठा	-13267
▁मुशर	-13268
▁रोकी	-13269
▁श्रो	-13270
▁स्तन	-13271
▁आगजनी	-13272
▁एएमयू	-13273
▁एथलीट	-13274
▁एसीबी	-13275
▁खतरों	-13276
▁चित्त	-13277
▁दबाने	-13278
▁धाकड़	-13279
▁परिणी	-13280
▁पुरात	-13281
▁भूमिप	-13282
▁मराठा	-13283
▁मानकर	-13284
▁लुत्फ	-13285
▁लोजपा	-13286
▁सफारी	-13287
▁सबकुछ	-13288
▁हवाओं	-13289
▁हार्म	-13290
स्क्रीन	-13291
▁अहमियत	-13292
▁एनसीबी	-13293
▁कलेक्ट	-13294
▁कैंपेन	-13295
▁नारियल	-13296
▁नौजवान	-13297
▁परिवेश	-13298
▁मशीनरी	-13299
▁मुक़ाब	-13300
▁सेनाओं	-13301
▁स्वाइन	-13302
▁हेल्दी	-13303
▁आयोजकों	-13304
▁इंडेक्स	-13305
▁क्रीड़ा	-13306
▁क्लस्टर	-13307
▁खींचतान	-13308
▁चंद्रमा	-13309
▁छापामार	-13310
▁जमावड़ा	-13311
▁जातियों	-13312
▁द्वारका	-13313
▁प्रजाति	-13314
▁भौगोलिक	-13315
▁मंत्रिप	-13316
▁विश्नोई	-13317
▁वैरिएंट	-13318
▁संतकबीर	-13319
▁सानिध्य	-13320
▁डिस्प्ले	-13321
▁पोर्टफोल	-13322
▁सुमित्रा	-13323
▁स्वयंसेवी	-13324
▁फ्रेंचाइजी	-13325
▁नियुक्तियां	-13326
▁प्रक्रियाओं	-13327
उल	-13328
भन	-13329
एफओ	-13330
विच	-13331
सुन	-13332
िसे	-13333
▁ओप	-13334
▁रघ	-13335
एमएल	-13336
क्टे	-13337
डीआई	-13338
लिये	-13339
ल्टर	-13340
स्वत	-13341
ान्य	-13342
िप्ट	-13343
ैटिक	-13344
▁इतर	-13345
▁इम्	-13346
▁एंट	-13347
▁ओटी	-13348
▁खटख	-13349
▁चुक	-13350
▁जगा	-13351
▁जीप	-13352
▁दमन	-13353
▁फूट	-13354
▁बडी	-13355
▁मसल	-13356
▁सॉल	-13357
▁हनन	-13358
▁हवल	-13359
ग्रेड	-13360
णियां	-13361
दिष्ट	-13362
पोस्ट	-13363
प्रती	-13364
बत्ती	-13365
रोख्त	-13366
▁अभिर	-13367
▁आम्र	-13368
▁एमएम	-13369
▁कहता	-13370
▁कैदी	-13371
▁कोठी	-13372
▁दंगा	-13373
▁भिंड	-13374
▁महाभ	-13375
▁मॉनी	-13376
▁यकीन	-13377
▁वॉटर	-13378
▁शुभम	-13379
▁स्टै	-13380
▁स्या	-13381
▁होड़	-13382
ामित्र	-13383
▁असंतु	-13384
▁गुणों	-13385
▁जोरों	-13386
▁ज्वेल	-13387
▁नमूना	-13388
▁निखिल	-13389
▁फर्ना	-13390
▁ब्लॉग	-13391
▁भेजना	-13392
▁संकुल	-13393
▁हामिद	-13394
ानुभूति	-13395
्यूनिटी	-13396
▁अविलंब	-13397
▁इन्द्र	-13398
▁कमजोरी	-13399
▁गिराने	-13400
▁गुड्डू	-13401
▁निवेदन	-13402
▁मनोकाम	-13403
▁मुशर्र	-13404
▁राजपाल	-13405
▁रेडक्र	-13406
▁शिकस्त	-13407
▁स्वाति	-13408
▁आवेदनों	-13409
▁कहासुनी	-13410
▁कीटनाशक	-13411
▁चरमपंथी	-13412
▁चर्चाओं	-13413
▁जसप्रीत	-13414
▁ड्राफ्ट	-13415
▁थाईलैंड	-13416
▁बेसहारा	-13417
▁भूस्खलन	-13418
▁मधेपुरा	-13419
▁मिलेंगी	-13420
▁सूचनाओं	-13421
▁हाईकमान	-13422
▁कोटद्वार	-13423
▁छापामारी	-13424
▁ब्लैकमेल	-13425
▁भूमिपूजन	-13426
▁यूपीएससी	-13427
▁वारदातों	-13428
▁सावित्री	-13429
▁स्वायत्त	-13430
▁कट्टरपंथी	-13431
▁विचाराधीन	-13432
▁संभालेंगे	-13433
▁स्पेक्ट्र	-13434
▁खिलाडि़यों	-13435
▁जिम्मेवारी	-13436
▁धर्मेन्द्र	-13437
▁हर्षोल्लास	-13438
▁एंटरटेनमेंट	-13439
▁सैनिटाइजेशन	-13440
तै	-13441
फू	-13442
कभी	-13443
टिक	-13444
ल्व	-13445
सुम	-13446
ारू	-13447
ेरी	-13448
▁दय	-13449
▁मग	-13450
▁मण	-13451
ंदों	-13452
पूजन	-13453
व्हा	-13454
▁अभा	-13455
▁एमए	-13456
▁करन	-13457
▁काठ	-13458
▁छठी	-13459
▁छोड	-13460
▁जर्	-13461
▁तोड	-13462
▁दला	-13463
▁धुर	-13464
▁पैड	-13465
▁पोट	-13466
▁बोध	-13467
▁भिव	-13468
▁सुस	-13469
पट्टी	-13470
फलाइन	-13471
मित्र	-13472
▁अंतत	-13473
▁कांप	-13474
▁चादर	-13475
▁दूबे	-13476
▁नाइक	-13477
▁पायी	-13478
▁पूरक	-13479
▁पेंड	-13480
▁फलों	-13481
▁फेरी	-13482
▁बदरी	-13483
▁ब्री	-13484
▁भुला	-13485
▁माकन	-13486
▁मुकु	-13487
▁मैरी	-13488
▁लंगर	-13489
▁समलै	-13490
▁सीसी	-13491
द्दावर	-13492
वृष्टि	-13493
▁इनपुट	-13494
▁कराता	-13495
▁किसने	-13496
▁कुंदन	-13497
▁खराबी	-13498
▁गोकुल	-13499
▁चाइना	-13500
▁जानकी	-13501
▁ड्राई	-13502
▁दंगों	-13503
▁दुग्ध	-13504
▁धमाका	-13505
▁फाइबर	-13506
▁मिडिल	-13507
▁वर्जन	-13508
▁विनाश	-13509
▁संस्त	-13510
क्षिप्त	-13511
जुद्दीन	-13512
टोमेटिक	-13513
▁अर्धशत	-13514
▁खानपान	-13515
▁गठजोड़	-13516
▁ट्रकों	-13517
▁ट्राली	-13518
▁बीएमसी	-13519
▁भूरिया	-13520
▁मजेदार	-13521
▁महासमु	-13522
▁रिव्यू	-13523
▁लहरिया	-13524
▁शाखाओं	-13525
▁शाहपुर	-13526
▁शीर्षक	-13527
▁सद्भाव	-13528
▁सामरिक	-13529
▁सिखाया	-13530
▁सृष्टि	-13531
▁स्तरों	-13532
▁स्विट्	-13533
▁हवलदार	-13534
▁होम्यो	-13535
▁असुविधा	-13536
▁इक्विटी	-13537
▁कद्दावर	-13538
▁पांचवीं	-13539
▁बारहवीं	-13540
▁लापरवाह	-13541
▁वक्तव्य	-13542
▁विशेषता	-13543
▁समाप्ति	-13544
▁सुदर्शन	-13545
▁हालातों	-13546
▁चार्जिंग	-13547
▁पुरातत्व	-13548
▁प्रभावों	-13549
▁फिल्मकार	-13550
▁मस्जिदों	-13551
▁महापुरुष	-13552
▁माध्यमों	-13553
▁रथयात्रा	-13554
▁दिनदहाड़े	-13555
▁उच्चायुक्त	-13556
▁ट्रिब्यूनल	-13557
▁क्रांतिकारी	-13558
▁पोर्टफोलियो	-13559
▁राष्ट्रमंडल	-13560
▁शिक्षामित्र	-13561
▁दिशानिर्देशों	-13562
ंभव	-13563
धिप	-13564
निग	-13565
बाह	-13566
रोन	-13567
हेज	-13568
ाजल	-13569
▁एट	-13570
▁नप	-13571
▁शश	-13572
▁शॉ	-13573
क्वा	-13574
टेबल	-13575
तनगर	-13576
बड़ा	-13577
मंडी	-13578
र्नर	-13579
ाहार	-13580
ेटेड	-13581
ोदरा	-13582
▁एलि	-13583
▁कलह	-13584
▁कूल	-13585
▁गगन	-13586
▁घों	-13587
▁छाए	-13588
▁डटे	-13589
▁तंग	-13590
▁थ्र	-13591
▁पुत	-13592
▁पैक	-13593
▁बिच	-13594
▁माई	-13595
▁मूक	-13596
▁लिट	-13597
▁हमी	-13598
▁होन	-13599
िप्टो	-13600
ोबाइल	-13601
▁अमले	-13602
▁किसे	-13603
▁केमि	-13604
▁कैरे	-13605
▁गिरे	-13606
▁चेंज	-13607
▁टिकी	-13608
▁तीरथ	-13609
▁तेज़	-13610
▁नाता	-13611
▁निरु	-13612
▁बन्द	-13613
▁बीना	-13614
▁मुखा	-13615
▁मेहम	-13616
▁लालच	-13617
▁लाला	-13618
▁स्ली	-13619
▁हावी	-13620
एनसीआर	-13621
कीर्तन	-13622
पीसीआर	-13623
पूर्णा	-13624
शाम्बी	-13625
स्थानी	-13626
▁अंतरा	-13627
▁एमबीए	-13628
▁खोजने	-13629
▁चस्पा	-13630
▁चिंतन	-13631
▁चोटिल	-13632
▁जतायी	-13633
▁टैगोर	-13634
▁नोबेल	-13635
▁पुराण	-13636
▁पोर्न	-13637
▁फिराक	-13638
▁बंदोब	-13639
▁मनमोह	-13640
▁यशपाल	-13641
▁शासना	-13642
▁संघीय	-13643
▁सिलाई	-13644
देवताओं	-13645
▁एफआइआर	-13646
▁कनिष्ठ	-13647
▁तिराहा	-13648
▁बीपीएल	-13649
▁मौर्या	-13650
▁यादगार	-13651
▁वाटिका	-13652
▁विडियो	-13653
▁वेटिंग	-13654
▁वैष्णव	-13655
▁व्यतीत	-13656
▁सावरकर	-13657
▁सुदृढ़	-13658
▁सूत्री	-13659
▁सेटिंग	-13660
▁स्ट्रे	-13661
▁खामियां	-13662
▁तालाबों	-13663
▁लाठियां	-13664
▁सिमडेगा	-13665
▁स्रोतों	-13666
▁क्रिप्टो	-13667
▁पहुंचेगा	-13668
▁प्रदूषित	-13669
▁रोनाल्डो	-13670
▁उपाधीक्षक	-13671
▁घोषणापत्र	-13672
▁चक्रधरपुर	-13673
▁प्राधिकार	-13674
▁मुख्यधारा	-13675
▁साम्राज्य	-13676
▁अनुविभागीय	-13677
▁चिकित्सकीय	-13678
▁थानाधिकारी	-13679
▁दुष्प्रभाव	-13680
लट	-13681
अली	-13682
ठित	-13683
ड़ो	-13684
धुन	-13685
पोल	-13686
र्भ	-13687
हीर	-13688
▁डल	-13689
एसएल	-13690
ज़ार	-13691
न्हे	-13692
मैया	-13693
र्णा	-13694
वादन	-13695
ियोज	-13696
्यूम	-13697
▁आदत	-13698
▁आैर	-13699
▁कूच	-13700
▁गूं	-13701
▁घटी	-13702
▁जज्	-13703
▁टॉस	-13704
▁पों	-13705
▁यूस	-13706
▁लिव	-13707
▁श्म	-13708
▁सुद	-13709
▁सूट	-13710
▁हबी	-13711
ंद्रह	-13712
कियां	-13713
द्दार	-13714
मानंद	-13715
मावली	-13716
राबरी	-13717
ियारी	-13718
▁अंधा	-13719
▁आयरन	-13720
▁उछाल	-13721
▁एसआर	-13722
▁कहें	-13723
▁कुम्	-13724
▁क्रा	-13725
▁गोले	-13726
▁टूटे	-13727
▁निशा	-13728
▁बेल्	-13729
▁मतों	-13730
▁माली	-13731
▁रस्त	-13732
▁सवाई	-13733
▁सिली	-13734
▁हेमा	-13735
आईएसएफ	-13736
रातफरी	-13737
सीटीसी	-13738
ार्जुन	-13739
▁कवरेज	-13740
▁कुंडा	-13741
▁क्रास	-13742
▁क्रोध	-13743
▁क्लिन	-13744
▁घेरने	-13745
▁चढ़कर	-13746
▁डीएनए	-13747
▁नदारद	-13748
▁पटवार	-13749
▁पीरिय	-13750
▁प्रणव	-13751
▁बिन्द	-13752
▁मियां	-13753
▁रिम्स	-13754
▁रॉकेट	-13755
▁लौटते	-13756
▁सरसों	-13757
▁साउंड	-13758
▁साधने	-13759
▁हजारे	-13760
▁हड्डी	-13761
▁हत्थे	-13762
▁हास्य	-13763
▁आसाराम	-13764
▁क्षत्र	-13765
▁खरीदार	-13766
▁नववर्ष	-13767
▁निकेतन	-13768
▁नीतिगत	-13769
▁भंडारण	-13770
▁रोमांस	-13771
▁लगवाया	-13772
▁वीकेंड	-13773
▁सिर्फ़	-13774
▁सिलेबस	-13775
▁स्कूटी	-13776
▁अभिभाषण	-13777
▁अराजकता	-13778
▁गंगापार	-13779
▁ग्रीष्म	-13780
▁निपटारा	-13781
▁निराधार	-13782
▁परिणीति	-13783
▁परिवारी	-13784
▁प्रचलित	-13785
▁मुरलीधर	-13786
▁सर्कुलर	-13787
▁हाजीपुर	-13788
▁अफरातफरी	-13789
▁असंतुष्ट	-13790
▁आश्रितों	-13791
▁कोशिकाओं	-13792
▁ग्रेजुएट	-13793
▁दृष्टिगत	-13794
▁पुस्तिका	-13795
▁प्रयुक्त	-13796
▁माफियाओं	-13797
▁योद्धाओं	-13798
▁संप्रदाय	-13799
▁होम्योपै	-13800
▁होर्डिंग	-13801
▁राजस्थानी	-13802
▁रिपोर्टों	-13803
▁वेणुगोपाल	-13804
▁शिवरात्रि	-13805
▁सेनेटाइजर	-13806
▁कांवड़ियों	-13807
▁प्रैक्टिकल	-13808
▁व्यावहारिक	-13809
ि्	-13810
ईएन	-13811
चाई	-13812
जाद	-13813
थित	-13814
न्थ	-13815
मना	-13816
लिस	-13817
सरा	-13818
ाजा	-13819
ौसी	-13820
▁ठग	-13821
▁बड	-13822
▁यी	-13823
घाटी	-13824
ताही	-13825
द्घि	-13826
न्दा	-13827
प्ले	-13828
बैंड	-13829
बॉडी	-13830
विया	-13831
सिंग	-13832
स्की	-13833
ाहिर	-13834
▁अनौ	-13835
▁गेल	-13836
▁ढील	-13837
▁दाह	-13838
▁परे	-13839
▁पेड	-13840
▁भगा	-13841
▁मॉक	-13842
▁सकल	-13843
▁सरफ	-13844
▁हिट	-13845
केतिक	-13846
क्टिव	-13847
परिषद	-13848
वाहित	-13849
स्केट	-13850
▁अहिर	-13851
▁आजमा	-13852
▁उत्ख	-13853
▁एसबी	-13854
▁कटनी	-13855
▁केबल	-13856
▁कोमल	-13857
▁ख़ुद	-13858
▁जींद	-13859
▁डीडी	-13860
▁नाना	-13861
▁पीपल	-13862
▁फौरन	-13863
▁बंगल	-13864
▁बजाज	-13865
▁मंगा	-13866
▁रखनी	-13867
▁रहित	-13868
▁राइस	-13869
▁सुलभ	-13870
▁हड्ड	-13871
आईसीआई	-13872
उद्दीन	-13873
प्रदान	-13874
भारतीय	-13875
र्शियल	-13876
▁अनोखा	-13877
▁आवाज़	-13878
▁खत्री	-13879
▁खालिद	-13880
▁जाकिर	-13881
▁डूबने	-13882
▁तीमार	-13883
▁नक्शे	-13884
▁नवनीत	-13885
▁बलदेव	-13886
▁बिपिन	-13887
▁बेटों	-13888
▁भरपाई	-13889
▁मानती	-13890
▁वरदान	-13891
▁हताहत	-13892
▁हैरिस	-13893
क्राफ्ट	-13894
जेन्द्र	-13895
▁अयोग्य	-13896
▁अरेस्ट	-13897
▁काफिला	-13898
▁कारीगर	-13899
▁दांतों	-13900
▁धारकों	-13901
▁परिषद्	-13902
▁प्रचंड	-13903
▁मिलियन	-13904
▁मुजाहि	-13905
▁रघुनाथ	-13906
▁वृद्धा	-13907
▁व्हीकल	-13908
▁सिरोही	-13909
▁सीएमएस	-13910
▁स्वावल	-13911
▁ह्यूमन	-13912
ध्यापकों	-13913
▁अमेरिकन	-13914
▁अस्थाना	-13915
▁उमाशंकर	-13916
▁खड़गपुर	-13917
▁गावस्कर	-13918
▁टेलीकॉम	-13919
▁दीवारों	-13920
▁पोखरिया	-13921
▁बताएंगे	-13922
▁ब्रिक्स	-13923
▁भड़काने	-13924
▁कौशाम्बी	-13925
▁डिप्रेशन	-13926
▁प्रॉब्लम	-13927
▁रामकृष्ण	-13928
▁एथलेटिक्स	-13929
▁दायित्वों	-13930
▁प्रबंधकों	-13931
▁श्रीलंकाई	-13932
▁संक्षिप्त	-13933
▁सहानुभूति	-13934
▁परिक्षेत्र	-13935
▁परियोजनाएं	-13936
▁प्रधानाचार	-13937
▁एक्सप्रेसवे	-13938
▁प्रेग्नेंसी	-13939
▁आंदोलनकारियों	-13940
▁एडमिनिस्ट्रेशन	-13941
डॉ	-13942
ैप	-13943
अनु	-13944
कुम	-13945
जाब	-13946
जाल	-13947
बीच	-13948
मंच	-13949
लाह	-13950
सां	-13951
ुअल	-13952
▁अघ	-13953
▁थै	-13954
▁वड	-13955
क्सो	-13956
ड़कर	-13957
ताली	-13958
दर्द	-13959
प्रद	-13960
भाड़	-13961
मूलन	-13962
य्या	-13963
राइट	-13964
स्टन	-13965
ांड़	-13966
िंगर	-13967
ेंटल	-13968
ेसडर	-13969
▁कंच	-13970
▁कतई	-13971
▁कबा	-13972
▁काज	-13973
▁गनी	-13974
▁टूल	-13975
▁दाग	-13976
▁निब	-13977
▁पूर	-13978
▁बसा	-13979
▁सरग	-13980
दर्शक	-13981
द्रिक	-13982
नापुर	-13983
ानिधि	-13984
▁एचपी	-13985
▁कलां	-13986
▁जालस	-13987
▁जीतू	-13988
▁डस्ट	-13989
▁धारक	-13990
▁नंदा	-13991
▁रस्म	-13992
▁लोहे	-13993
▁वासु	-13994
▁सिंड	-13995
ग्राही	-13996
स्थापक	-13997
▁आर्टि	-13998
▁इरादे	-13999
▁कोहरे	-14000
▁खातिर	-14001
▁घूमते	-14002
▁तांता	-14003
▁पिकअप	-14004
▁प्राइ	-14005
▁बताता	-14006
▁बाजवा	-14007
▁बिरला	-14008
▁भड़की	-14009
▁मवेशी	-14010
▁मिस्र	-14011
▁लिखते	-14012
▁सनराइ	-14013
▁सविता	-14014
▁सुस्त	-14015
अमेरिका	-14016
ग्रियों	-14017
मुद्दीन	-14018
▁इंटर्न	-14019
▁उत्खनन	-14020
▁उपग्रह	-14021
▁कमांडो	-14022
▁कमियां	-14023
▁गिलानी	-14024
▁ग्रसित	-14025
▁जिन्ना	-14026
▁जिलेभर	-14027
▁दयानंद	-14028
▁पंद्रह	-14029
▁पतंजलि	-14030
▁पेटीएम	-14031
▁बनवाया	-14032
▁मिश्रण	-14033
▁लग्जरी	-14034
▁संभाली	-14035
▁सकेंगी	-14036
▁सर्वेश	-14037
▁सिब्बल	-14038
▁सुन्नी	-14039
▁अंदरूनी	-14040
▁आलाकमान	-14041
▁कारखाने	-14042
▁ग्लैमरस	-14043
▁छत्रपति	-14044
▁लखीसराय	-14045
▁विभाजित	-14046
▁कहानियां	-14047
▁केजीएमयू	-14048
▁चित्रकला	-14049
▁दिनचर्या	-14050
▁धमाकेदार	-14051
▁निभाएंगे	-14052
▁पहुंचाना	-14053
▁भीलवाड़ा	-14054
▁महासमुंद	-14055
▁रामकुमार	-14056
▁वेस्टर्न	-14057
▁शक्तिपीठ	-14058
▁समलैंगिक	-14059
▁हास्पिटल	-14060
▁अनौपचारिक	-14061
▁अभियंताओं	-14062
▁प्रतिमाओं	-14063
▁मान्यताओं	-14064
▁रिलेशनशिप	-14065
▁विस्थापित	-14066
▁सेनानियों	-14067
▁रिटायरमेंट	-14068
▁रिपोर्टिंग	-14069
▁स्पेक्ट्रम	-14070
▁अर्थशास्त्र	-14071
▁पूर्वानुमान	-14072
▁जिम्मेदारियों	-14073
ौग	-14074
कने	-14075
ज़्	-14076
ताव	-14077
पाठ	-14078
बास	-14079
मास	-14080
लाव	-14081
▁एय	-14082
▁ढ़	-14083
ंगली	-14084
जियम	-14085
जैसे	-14086
ट्टू	-14087
भक्त	-14088
माटर	-14089
म्पर	-14090
रीना	-14091
िसिस	-14092
▁अंप	-14093
▁इकल	-14094
▁खफा	-14095
▁चंग	-14096
▁चॉक	-14097
▁दुर	-14098
▁पूज	-14099
▁भड़	-14100
▁लम्	-14101
▁विर	-14102
▁शीट	-14103
▁शौक	-14104
ंतव्य	-14105
करणीय	-14106
चढ़ाव	-14107
भिमान	-14108
शाखाप	-14109
ेलवाल	-14110
▁इण्ड	-14111
▁कृति	-14112
▁केवी	-14113
▁कोने	-14114
▁जामा	-14115
▁डिजी	-14116
▁तंगी	-14117
▁तंवर	-14118
▁तख्त	-14119
▁निश्	-14120
▁पाचन	-14121
▁फेमस	-14122
▁बरसे	-14123
▁ब्लॉ	-14124
▁भयाव	-14125
▁मधुम	-14126
▁मेनन	-14127
▁मोटा	-14128
▁वॉली	-14129
▁संधि	-14130
▁हफ्त	-14131
▁हिला	-14132
कात्मक	-14133
दरलैंड	-14134
रिक्शा	-14135
▁अल्टी	-14136
▁एएनआई	-14137
▁कांति	-14138
▁कोयले	-14139
▁खरगोन	-14140
▁खस्ता	-14141
▁थिएटर	-14142
▁दिग्ग	-14143
▁दोहरी	-14144
▁बांका	-14145
▁बेकार	-14146
▁वर्गी	-14147
▁विंडो	-14148
▁शिंदे	-14149
▁सेनिट	-14150
▁स्टॉल	-14151
▁स्मरण	-14152
▁हॉस्प	-14153
▁अनन्या	-14154
▁अहिंसा	-14155
▁आतिथ्य	-14156
▁इसलिये	-14157
▁उत्पात	-14158
▁एकतरफा	-14159
▁कोताही	-14160
▁ख्याति	-14161
▁तेंदुए	-14162
▁दोगुनी	-14163
▁निकलना	-14164
▁प्लेयर	-14165
▁बराबरी	-14166
▁भ्रामक	-14167
▁मनमोहक	-14168
▁महायज्	-14169
▁मोटर्स	-14170
▁रोस्टर	-14171
▁वशिष्ठ	-14172
▁वैष्णो	-14173
▁शान्ति	-14174
▁शारदीय	-14175
▁अर्धशतक	-14176
▁अशोकनगर	-14177
▁आईएएनएस	-14178
▁प्रमंडल	-14179
▁बरामदगी	-14180
▁बांद्रा	-14181
▁बीजापुर	-14182
▁मनोवैज्	-14183
▁मुस्कान	-14184
▁मुस्तैद	-14185
▁रघुवंशी	-14186
▁रस्तोगी	-14187
▁लुटेरों	-14188
▁श्राद्ध	-14189
▁सुंदरता	-14190
▁सेंटर्स	-14191
▁अपेक्षित	-14192
▁उम्मीदों	-14193
▁चंद्राकर	-14194
▁मिस्त्री	-14195
▁सम्बन्धी	-14196
▁गुरदासपुर	-14197
▁डिस्चार्ज	-14198
▁फ्रांसीसी	-14199
▁मंत्रिपरि	-14200
▁राधाकृष्ण	-14201
▁स्वैच्छिक	-14202
▁आईसीआईसीआई	-14203
▁फाइनेंशियल	-14204
▁फोटोग्राफी	-14205
▁महाधिवक्ता	-14206
▁शहरवासियों	-14207
▁ट्रांजेक्शन	-14208
ंग्	-14209
ंबू	-14210
किस	-14211
कोल	-14212
गली	-14213
घोष	-14214
बाध	-14215
भजन	-14216
रीश	-14217
शाक	-14218
सीद	-14219
िगो	-14220
िलर	-14221
ोदर	-14222
▁कछ	-14223
▁गृ	-14224
कलां	-14225
कुड़	-14226
केयर	-14227
ज्जन	-14228
बिंद	-14229
राइड	-14230
र्चन	-14231
हरों	-14232
ेटिक	-14233
▁अचल	-14234
▁आढ़	-14235
▁एम्	-14236
▁किय	-14237
▁डेव	-14238
▁धनी	-14239
▁पाज	-14240
▁पूल	-14241
▁पोज	-14242
▁भोर	-14243
▁मसा	-14244
▁लॉस	-14245
दियां	-14246
▁अंशु	-14247
▁अमीन	-14248
▁आसिफ	-14249
▁इमेज	-14250
▁एप्ल	-14251
▁कैल्	-14252
▁खेमे	-14253
▁गोबर	-14254
▁थमने	-14255
▁फाल्	-14256
▁फीता	-14257
▁भैरव	-14258
▁महुआ	-14259
▁शरार	-14260
▁सलाम	-14261
▁सशक्	-14262
▁सीरम	-14263
▁सूजन	-14264
▁हाथा	-14265
डीएफसी	-14266
ढ़ियों	-14267
नीशियन	-14268
▁अंकुर	-14269
▁आनन्द	-14270
▁कमाने	-14271
▁खेड़ा	-14272
▁घुटने	-14273
▁छुड़ा	-14274
▁तारों	-14275
▁दिखती	-14276
▁धनखड़	-14277
▁नाइजी	-14278
▁निकाह	-14279
▁परहेज	-14280
▁फुटपा	-14281
▁बगावत	-14282
▁बताती	-14283
▁मानता	-14284
▁मिलनी	-14285
▁सच्चा	-14286
▁स्टॉप	-14287
▁हसीना	-14288
क्यूटिव	-14289
▁अनुपात	-14290
▁अर्जें	-14291
▁उल्लास	-14292
▁चलेंगी	-14293
▁जीडीपी	-14294
▁दीवाली	-14295
▁पात्रा	-14296
▁फूलपुर	-14297
▁बीडीसी	-14298
▁मल्लिक	-14299
▁व्यर्थ	-14300
▁सभ्यता	-14301
दर्शियों	-14302
प्रदायिक	-14303
▁उन्मूलन	-14304
▁किशनगंज	-14305
▁खुशियों	-14306
▁दिखेंगे	-14307
▁नेक्स्ट	-14308
▁बढ़ेंगे	-14309
▁मांगलिक	-14310
▁व्यवधान	-14311
▁शुरूआती	-14312
▁स्वार्थ	-14313
▁अल्टीमेट	-14314
▁तत्वाधान	-14315
▁नौकरियां	-14316
▁पाइपलाइन	-14317
▁भर्तियां	-14318
▁मेहमानों	-14319
▁स्टूडियो	-14320
▁हजारीबाग	-14321
▁हनुमानजी	-14322
▁तनावपूर्ण	-14323
▁नरसिंहपुर	-14324
▁शास्त्रों	-14325
▁सुर्खियां	-14326
▁स्टैंडर्ड	-14327
▁ज्वालामुखी	-14328
▁पेट्रोलिंग	-14329
▁प्रतिस्पर्	-14330
▁शिवराजसिंह	-14331
▁प्रेसवार्ता	-14332
▁अभिनेत्रियों	-14333
आन	-14334
ैम	-14335
एसई	-14336
क्फ	-14337
जोर	-14338
मोल	-14339
सपा	-14340
ुमा	-14341
ोवा	-14342
▁एे	-14343
▁फ्	-14344
जन्य	-14345
नेता	-14346
ब्री	-14347
रीदी	-14348
वाडा	-14349
ोपिक	-14350
्वीर	-14351
▁जेड	-14352
▁दुध	-14353
▁धरम	-14354
▁नफर	-14355
▁पीओ	-14356
▁पेस	-14357
▁लीज	-14358
▁सुम	-14359
ंदाजी	-14360
कत्ता	-14361
ठगांठ	-14362
पाउंड	-14363
व्हाण	-14364
ष्टिक	-14365
िसिपल	-14366
ोवेशन	-14367
ोहारी	-14368
▁अमूल	-14369
▁असंग	-14370
▁कंधे	-14371
▁कटाई	-14372
▁कैरी	-14373
▁खोली	-14374
▁गैले	-14375
▁छपरा	-14376
▁जेके	-14377
▁तटीय	-14378
▁तबाह	-14379
▁नीमच	-14380
▁पेशा	-14381
▁प्या	-14382
▁भरना	-14383
▁मंडा	-14384
▁राठी	-14385
▁रोहन	-14386
▁विवश	-14387
▁साइक	-14388
टेरियल	-14389
मेंद्र	-14390
वेंद्र	-14391
▁अधूरे	-14392
▁अभिमन	-14393
▁काबिज	-14394
▁जुटाए	-14395
▁जैकेट	-14396
▁ड्रीम	-14397
▁थोड़े	-14398
▁दूषित	-14399
▁निचली	-14400
▁पत्रा	-14401
▁बनानी	-14402
▁बीटेक	-14403
▁महीना	-14404
▁मोस्ट	-14405
▁शैलेश	-14406
▁सत्यम	-14407
▁हरदीप	-14408
▁अख़बार	-14409
▁आरक्षी	-14410
▁इटारसी	-14411
▁गुलजार	-14412
▁चंपारण	-14413
▁चव्हाण	-14414
▁ट्रामा	-14415
▁तिहाड़	-14416
▁तेलुगू	-14417
▁दोगुना	-14418
▁भूमिगत	-14419
▁भोजपुर	-14420
▁मेघालय	-14421
▁राजघाट	-14422
▁रामदास	-14423
▁रेणुका	-14424
▁स्कूटर	-14425
▁हफ्तों	-14426
▁इंस्टिट	-14427
▁उठाएंगे	-14428
▁कुपोषित	-14429
▁निकालना	-14430
▁प्रद्यु	-14431
▁भाईचारे	-14432
▁लाभुकों	-14433
▁हार्मोन	-14434
▁हैंडपंप	-14435
▁अपमानजनक	-14436
▁इंद्रजीत	-14437
▁उपप्रधान	-14438
▁एचडीएफसी	-14439
▁कूटनीतिक	-14440
▁दिग्गजों	-14441
▁नवीनीकरण	-14442
▁लालकृष्ण	-14443
▁सम्पत्ति	-14444
▁सुंदरनगर	-14445
▁कम्युनिटी	-14446
▁जलापूर्ति	-14447
▁देशव्यापी	-14448
▁हिस्ट्रीशी	-14449
▁आउटसोर्सिंग	-14450
▁कॉम्प्लेक्स	-14451
▁नियुक्तियों	-14452
▁प्रोजेक्ट्स	-14453
▁मंत्रिपरिषद	-14454
▁जिम्मेदारियां	-14455
ुफ	-14456
इस्	-14457
खरी	-14458
टलर	-14459
थिल	-14460
फ़े	-14461
मैं	-14462
सोन	-14463
हें	-14464
ाते	-14465
ीयू	-14466
▁खल	-14467
▁छे	-14468
तराम	-14469
दिवस	-14470
पत्य	-14471
बर्स	-14472
बासा	-14473
हानी	-14474
ारित	-14475
ुकूल	-14476
ेंदर	-14477
▁अवा	-14478
▁अशर	-14479
▁आशय	-14480
▁आसन	-14481
▁उपन	-14482
▁एनि	-14483
▁एनी	-14484
▁एवज	-14485
▁कबू	-14486
▁कैर	-14487
▁कोआ	-14488
▁खेप	-14489
▁डॉग	-14490
▁तूल	-14491
▁दंत	-14492
▁बोट	-14493
▁मजी	-14494
▁मोम	-14495
▁शॉल	-14496
किनार	-14497
जेंडर	-14498
निहाल	-14499
माइंड	-14500
शिल्प	-14501
हराने	-14502
िएटिव	-14503
ेसिंग	-14504
्रपान	-14505
▁असीम	-14506
▁इज्ज	-14507
▁इन्फ	-14508
▁एचएस	-14509
▁कंबल	-14510
▁काजी	-14511
▁किचन	-14512
▁गरबा	-14513
▁जाटव	-14514
▁ज्यू	-14515
▁ट्रा	-14516
▁डूबे	-14517
▁दंगे	-14518
▁दुरा	-14519
▁नीरव	-14520
▁पत्थ	-14521
▁बंशी	-14522
▁मसलन	-14523
▁मोहर	-14524
▁रिसे	-14525
▁रेजी	-14526
▁शंभू	-14527
▁सीकर	-14528
▁सेंस	-14529
्वीराज	-14530
▁अकेला	-14531
▁अक्षर	-14532
▁अनिता	-14533
▁आर्या	-14534
▁एंजेल	-14535
▁एंट्र	-14536
▁कराची	-14537
▁कराती	-14538
▁कीमती	-14539
▁चक्का	-14540
▁जिनको	-14541
▁टमाटर	-14542
▁ठहरने	-14543
▁ताम्र	-14544
▁तोड़े	-14545
▁पड़ते	-14546
▁पढ़कर	-14547
▁पीएमओ	-14548
▁पैक्स	-14549
▁प्लाट	-14550
▁बर्तन	-14551
▁बर्बर	-14552
▁बल्लभ	-14553
▁भयावह	-14554
▁माउंट	-14555
▁मुकाम	-14556
▁वायदा	-14557
▁शकुंत	-14558
▁शशांक	-14559
▁सट्टे	-14560
▁हज़ार	-14561
राष्ट्र	-14562
▁अंतराल	-14563
▁अंपायर	-14564
▁अटकलों	-14565
▁अपनाएं	-14566
▁इन्कार	-14567
▁एक्सेस	-14568
▁गंगाजल	-14569
▁डायमंड	-14570
▁पायदान	-14571
▁पार्सल	-14572
▁पुष्पा	-14573
▁बैठाकर	-14574
▁मालिनी	-14575
▁लक्ष्म	-14576
▁लेक्चर	-14577
▁सेवकों	-14578
▁हेलीका	-14579
टोमोबाइल	-14580
▁गैरसैंण	-14581
▁चिड़िया	-14582
▁दफ्तरों	-14583
▁दरकिनार	-14584
▁नीतियां	-14585
▁नौकरशाह	-14586
▁पालमपुर	-14587
▁पॉलीथिन	-14588
▁प्रशंसक	-14589
▁प्रशस्त	-14590
▁भावनाएं	-14591
▁रैलियां	-14592
▁विशाखाप	-14593
▁व्यापमं	-14594
▁हलफनामे	-14595
▁हाथापाई	-14596
▁अभिमन्यु	-14597
▁आनंदीबेन	-14598
▁एनडीआरएफ	-14599
▁कमांडेंट	-14600
▁धर्मगुरु	-14601
▁धूम्रपान	-14602
▁नीदरलैंड	-14603
▁पोखरियाल	-14604
▁प्रस्थान	-14605
▁फिरोजपुर	-14606
▁विक्रांत	-14607
▁शरणार्थी	-14608
▁शासनादेश	-14609
▁सैटेलाइट	-14610
▁हस्तियां	-14611
▁चंद्रबाबू	-14612
▁धारावाहिक	-14613
▁प्रेमियों	-14614
▁भूपेन्द्र	-14615
▁मॉनीटरिंग	-14616
▁राजनीतिज्	-14617
▁श्रावस्ती	-14618
▁हस्तांतरण	-14619
▁कार्यान्वयन	-14620
▁प्रतिभाशाली	-14621
▁शांतिपूर्वक	-14622
▁मीडियाकर्मियों	-14623
छी	-14624
ैड	-14625
खाल	-14626
घरे	-14627
लने	-14628
हना	-14629
ायु	-14630
ुशल	-14631
ेबल	-14632
ोशी	-14633
्ढा	-14634
▁मट	-14635
▁श्	-14636
काजी	-14637
नाला	-14638
पार्	-14639
बेटी	-14640
वर्ट	-14641
वीसी	-14642
शियम	-14643
िराम	-14644
▁अंद	-14645
▁कैच	-14646
▁गजर	-14647
▁जिद	-14648
▁डों	-14649
▁पठन	-14650
▁बीट	-14651
▁मूस	-14652
▁रमण	-14653
▁शहद	-14654
▁समन	-14655
खेड़े	-14656
डाफोन	-14657
वेंचर	-14658
ह्नवी	-14659
▁आरिफ	-14660
▁गुफा	-14661
▁टाइप	-14662
▁ठंडे	-14663
▁थ्री	-14664
▁नफरत	-14665
▁नासा	-14666
▁पिंड	-14667
▁पितृ	-14668
▁पीएफ	-14669
▁प्रप	-14670
▁भोला	-14671
▁मंडप	-14672
▁मांड	-14673
▁मुगल	-14674
▁मेें	-14675
▁वक्फ	-14676
▁वांग	-14677
▁वेंड	-14678
▁वेयर	-14679
▁साइं	-14680
▁साम्	-14681
▁सुले	-14682
▁सोचा	-14683
▁स्नै	-14684
बिलिटी	-14685
ष्णुता	-14686
ालियों	-14687
▁अपोलो	-14688
▁उरांव	-14689
▁कैंडल	-14690
▁क्लेम	-14691
▁खटखटा	-14692
▁चौकसी	-14693
▁जीवों	-14694
▁परवाह	-14695
▁बख्शा	-14696
▁बांके	-14697
▁बोहरा	-14698
▁मायके	-14699
▁रुपया	-14700
▁लायंस	-14701
▁लालजी	-14702
▁सिंधी	-14703
▁सुपौल	-14704
▁सुरंग	-14705
▁अभिलेख	-14706
▁इंद्रा	-14707
▁कठिनाई	-14708
▁क्लर्क	-14709
▁खींचने	-14710
▁चरणजीत	-14711
▁चारधाम	-14712
▁डेल्टा	-14713
▁त्रिवे	-14714
▁दिखेगा	-14715
▁परस्पर	-14716
▁प्रफुल	-14717
▁बदहाली	-14718
▁मंडलों	-14719
▁मित्रा	-14720
▁मिलाया	-14721
▁मेजबान	-14722
▁राजौरी	-14723
▁रामलाल	-14724
▁रिचर्ड	-14725
▁लाइनों	-14726
▁विनायक	-14727
▁साइट्स	-14728
▁सिगरेट	-14729
▁सुश्री	-14730
▁स्लाइड	-14731
▁अपमानित	-14732
▁इस्राईल	-14733
▁जाह्नवी	-14734
▁टूरिस्ट	-14735
▁बंटवारा	-14736
▁बदरीनाथ	-14737
▁बायोटेक	-14738
▁वर्करों	-14739
▁वस्तुएं	-14740
▁सूचकांक	-14741
▁सेगमेंट	-14742
▁उदासीनता	-14743
▁कार्यवाह	-14744
▁चक्रवाती	-14745
▁तानाशाही	-14746
▁दिखाएंगे	-14747
▁परिचर्चा	-14748
▁पुनर्गठन	-14749
▁फार्मेसी	-14750
▁संस्तुति	-14751
▁एप्लिकेशन	-14752
▁किलोग्राम	-14753
▁कोवैक्सीन	-14754
▁पृथ्वीराज	-14755
▁प्रशिक्षु	-14756
▁श्रेणियों	-14757
▁सर्वोत्तम	-14758
▁सिलीगुड़ी	-14759
▁अन्नपूर्णा	-14760
▁अर्जेंटीना	-14761
▁ज़िम्मेदार	-14762
▁पूर्ववर्ती	-14763
▁पैरामेडिकल	-14764
▁कम्युनिकेशन	-14765
▁ज़िम्मेदारी	-14766
▁संवेदनशीलता	-14767
▁अलगाववादियों	-14768
▁पुनर्निर्माण	-14769
▁स्विट्जरलैंड	-14770
▁गुणवत्तापूर्ण	-14771
इए	-14772
ईस	-14773
ंकू	-14774
ओवर	-14775
खेत	-14776
घ्य	-14777
टीए	-14778
दरा	-14779
दशा	-14780
नेड	-14781
नेल	-14782
पड़	-14783
फिट	-14784
ुला	-14785
्रस	-14786
▁दै	-14787
ंघाई	-14788
ड़ला	-14789
धुंध	-14790
नसून	-14791
पीसी	-14792
लेंट	-14793
वर्ण	-14794
स्फी	-14795
▁असह	-14796
▁इंट	-14797
▁खिस	-14798
▁चोक	-14799
▁जाप	-14800
▁न्य	-14801
▁पीर	-14802
▁बंप	-14803
▁बित	-14804
▁माघ	-14805
▁यमन	-14806
▁राध	-14807
▁रैन	-14808
▁शोप	-14809
त्वना	-14810
न्हुआ	-14811
भाषित	-14812
लोगों	-14813
शासित	-14814
ोत्री	-14815
▁उकसा	-14816
▁उर्म	-14817
▁कटरा	-14818
▁काठम	-14819
▁खंडन	-14820
▁खाका	-14821
▁गंदा	-14822
▁छुड़	-14823
▁जलकर	-14824
▁तीखा	-14825
▁तेजस	-14826
▁दमोह	-14827
▁दरें	-14828
▁धड़क	-14829
▁बटोर	-14830
▁बीसी	-14831
▁बेरी	-14832
▁मुखर	-14833
▁मेवा	-14834
▁यूनी	-14835
▁वसंत	-14836
▁शूटर	-14837
▁सीखा	-14838
▁हबीब	-14839
▁हरदा	-14840
्यानंद	-14841
▁अनलॉक	-14842
▁इंजीन	-14843
▁इरादा	-14844
▁उपमहा	-14845
▁उर्जा	-14846
▁कालीन	-14847
▁खंगाल	-14848
▁गांजा	-14849
▁चंदेल	-14850
▁ज़मीन	-14851
▁ट्राइ	-14852
▁डाकघर	-14853
▁तिब्ब	-14854
▁दतिया	-14855
▁दर्जे	-14856
▁परमिट	-14857
▁पोम्प	-14858
▁पोशाक	-14859
▁बुलाए	-14860
▁वेंकट	-14861
▁व्हील	-14862
▁सुजीत	-14863
▁स्तंभ	-14864
▁हराने	-14865
▁अड्डों	-14866
▁अप्लाई	-14867
▁अमरजीत	-14868
▁अलविदा	-14869
▁आईआईएम	-14870
▁इजराइल	-14871
▁कस्तूर	-14872
▁काउंटी	-14873
▁गवाहों	-14874
▁गोड्डा	-14875
▁चॉकलेट	-14876
▁जीपीएस	-14877
▁जोड़ना	-14878
▁ट्रिपल	-14879
▁ट्रैवल	-14880
▁डीएमके	-14881
▁नर्सों	-14882
▁न्योता	-14883
▁पुनिया	-14884
▁फ्यूचर	-14885
▁मोहाली	-14886
▁श्मशान	-14887
▁सीबीआइ	-14888
▁स्कार्	-14889
▁हाईटेक	-14890
▁हैरानी	-14891
▁होनहार	-14892
ासनात्मक	-14893
▁अपग्रेड	-14894
▁इंस्ट्र	-14895
▁कलकत्ता	-14896
▁कोशिशें	-14897
▁खेलेंगे	-14898
▁गर्भपात	-14899
▁गलियारे	-14900
▁दुर्गेश	-14901
▁निपटाने	-14902
▁पराक्रम	-14903
▁पर्वतार	-14904
▁बागवानी	-14905
▁बैंगलोर	-14906
▁भिजवाया	-14907
▁मोहनलाल	-14908
▁वोडाफोन	-14909
▁शकुंतला	-14910
▁शाहनवाज	-14911
▁सिद्धार	-14912
▁त्रिवेणी	-14913
▁नियमावली	-14914
▁मालगाड़ी	-14915
▁मुंहतोड़	-14916
▁सेलिब्रे	-14917
▁स्वस्थ्य	-14918
▁अधिकारिता	-14919
▁गाइडलाइंस	-14920
▁निश्शुल्क	-14921
▁पत्थरबाजी	-14922
▁बिहारशरीफ	-14923
▁राष्ट्रों	-14924
▁संलिप्तता	-14925
▁सशक्तीकरण	-14926
▁स्कॉलरशिप	-14927
▁डॉक्यूमेंट	-14928
▁पंचायतीराज	-14929
▁फर्जीवाड़े	-14930
▁फोटोग्राफर	-14931
▁मुख्यालयों	-14932
▁विद्यासागर	-14933
▁जिम्मेदारों	-14934
▁श्रद्घालुओं	-14935
▁अनुशासनात्मक	-14936
▁सिद्धार्थनगर	-14937
लु	-14938
वई	-14939
ैस	-14940
ंबी	-14941
ंबे	-14942
एंड	-14943
जेस	-14944
तरह	-14945
ताज	-14946
नाद	-14947
मयी	-14948
ाज़	-14949
ोजल	-14950
▁उज	-14951
▁ढह	-14952
▁नह	-14953
▁वज	-14954
माना	-14955
र्टर	-14956
शोधन	-14957
सेवक	-14958
स्सा	-14959
हम्म	-14960
िलोक	-14961
ौतों	-14962
▁खाई	-14963
▁गुन	-14964
▁घूस	-14965
▁चाई	-14966
▁चें	-14967
▁चैक	-14968
▁छाई	-14969
▁तन्	-14970
▁दरि	-14971
▁बोग	-14972
▁मिर	-14973
▁मेद	-14974
▁हैड	-14975
ईआरटी	-14976
कॉलेज	-14977
चढ़कर	-14978
टलैंड	-14979
टेंशन	-14980
नकपुर	-14981
वर्धा	-14982
ालैंड	-14983
ियनों	-14984
ुआरों	-14985
्योदय	-14986
▁अफरा	-14987
▁इर्द	-14988
▁ओमिक	-14989
▁कगार	-14990
▁कांत	-14991
▁कालि	-14992
▁कैफे	-14993
▁गंदे	-14994
▁गार्	-14995
▁जलाल	-14996
▁जाली	-14997
▁जोंग	-14998
▁थकान	-14999
▁दंगल	-15000
▁देवन	-15001
▁धरात	-15002
▁नवमी	-15003
▁निंद	-15004
▁निमो	-15005
▁पनडु	-15006
▁प्रज	-15007
▁फिक्	-15008
▁बीएन	-15009
▁बेदी	-15010
▁बोरा	-15011
▁मीठा	-15012
▁वियत	-15013
▁संसू	-15014
▁साफ़	-15015
▁सीने	-15016
▁सैंक	-15017
केनिकल	-15018
▁अन्वे	-15019
▁अपनों	-15020
▁आंकलन	-15021
▁आंदोल	-15022
▁इंसाफ	-15023
▁उठाये	-15024
▁उमड़ा	-15025
▁एप्पल	-15026
▁एमओयू	-15027
▁गहराई	-15028
▁चंगुल	-15029
▁जिसपर	-15030
▁जीवंत	-15031
▁जेलों	-15032
▁जोसेफ	-15033
▁टेम्प	-15034
▁ट्रिप	-15035
▁डेबिट	-15036
▁तमंचा	-15037
▁ताल्ल	-15038
▁त्रास	-15039
▁देखता	-15040
▁देवगन	-15041
▁नजरें	-15042
▁पटाखा	-15043
▁भगदड़	-15044
▁मसौदा	-15045
▁मुल्क	-15046
▁रामजी	-15047
▁रिहाय	-15048
▁रेंजर	-15049
▁लहसुन	-15050
▁सिकंद	-15051
▁सिराज	-15052
▁स्नेह	-15053
▁हरभजन	-15054
▁हारने	-15055
कोटिक्स	-15056
लक्ष्मी	-15057
▁अग्रसर	-15058
▁अधिकता	-15059
▁अभाविप	-15060
▁अभिजीत	-15061
▁करवाएं	-15062
▁कुर्की	-15063
▁कोठारी	-15064
▁खिड़की	-15065
▁चांदनी	-15066
▁पंक्ति	-15067
▁ब्राउन	-15068
▁मिलिंद	-15069
▁मीडियम	-15070
▁मॉनसून	-15071
▁सरफराज	-15072
▁सांख्य	-15073
▁सुंदरी	-15074
▁स्टिंग	-15075
▁अभिवादन	-15076
▁असंगठित	-15077
▁असाधारण	-15078
▁आत्मदाह	-15079
▁एसडीओपी	-15080
▁कुंद्रा	-15081
▁गलतियों	-15082
▁गुजराती	-15083
▁घरवालों	-15084
▁दांपत्य	-15085
▁दूरदराज	-15086
▁दोपहिया	-15087
▁पंचनामा	-15088
▁पहाड़ों	-15089
▁पीठासीन	-15090
▁पौष्टिक	-15091
▁फेफड़ों	-15092
▁मछुआरों	-15093
▁महेश्वर	-15094
▁रेवाड़ी	-15095
▁लर्निंग	-15096
▁सिंहस्थ	-15097
जीक्यूटिव	-15098
▁उग्रवादी	-15099
▁गंगोत्री	-15100
▁जुर्माने	-15101
▁फोरेंसिक	-15102
▁बंदोबस्त	-15103
▁मताधिकार	-15104
▁मोहल्लों	-15105
▁विकासशील	-15106
▁संपादकीय	-15107
▁कोविशील्ड	-15108
▁प्रोटोकाल	-15109
▁फ़िलिस्ती	-15110
▁स्थितियां	-15111
▁ट्रांसमिशन	-15112
▁ब्रिगेडियर	-15113
▁उग्रवादियों	-15114
▁प्रौद्योगिक	-15115
▁विद्युतीकरण	-15116
▁व्यवसायियों	-15117
▁अर्थशास्त्री	-15118
▁परिस्थितियां	-15119
▁मैन्युफैक्चरिंग	-15120
मू	-15121
छार	-15122
जनन	-15123
पेई	-15124
शेर	-15125
हरद	-15126
ुआं	-15127
ैषी	-15128
ोदा	-15129
▁घृ	-15130
▁चं	-15131
▁जश	-15132
आरएम	-15133
गेशन	-15134
चुरल	-15135
टफ्ल	-15136
टीवी	-15137
देवा	-15138
नगरी	-15139
न्धन	-15140
बीना	-15141
भागी	-15142
र्तग	-15143
विवि	-15144
वेरा	-15145
वेरी	-15146
व्यव	-15147
संगत	-15148
स्का	-15149
ावों	-15150
्रेट	-15151
्रेड	-15152
▁आइट	-15153
▁आदर	-15154
▁एंव	-15155
▁एस्	-15156
▁काव	-15157
▁कुच	-15158
▁जेठ	-15159
▁जोड	-15160
▁टेर	-15161
▁दही	-15162
▁धुन	-15163
▁पीस	-15164
▁बेअ	-15165
▁रबी	-15166
▁रूख	-15167
▁वसा	-15168
डियों	-15169
त्विक	-15170
धिपति	-15171
पुराण	-15172
स्कोप	-15173
ारण्य	-15174
ियारा	-15175
▁अतीत	-15176
▁उधार	-15177
▁एलजी	-15178
▁कुएं	-15179
▁क्वॉ	-15180
▁घाटे	-15181
▁चट्ट	-15182
▁चौबी	-15183
▁छुपा	-15184
▁जीतन	-15185
▁डीआइ	-15186
▁तात्	-15187
▁पर्च	-15188
▁फाटक	-15189
▁मसला	-15190
▁सिला	-15191
र्दस्त	-15192
स्टर्स	-15193
▁एआरटी	-15194
▁किश्त	-15195
▁खांसी	-15196
▁गानों	-15197
▁घुमार	-15198
▁चढ़ने	-15199
▁डायरी	-15200
▁तुर्क	-15201
▁नालों	-15202
▁निशंक	-15203
▁पढ़ना	-15204
▁पढ़ाओ	-15205
▁पालतू	-15206
▁प्रसा	-15207
▁फारूक	-15208
▁बचाना	-15209
▁बब्बर	-15210
▁मचाने	-15211
▁मालवा	-15212
▁मिर्च	-15213
▁रंगीन	-15214
▁रियाय	-15215
▁लम्बे	-15216
▁शाक्य	-15217
▁सच्ची	-15218
▁सच्चे	-15219
▁सेंगर	-15220
गंगानगर	-15221
िप्रिंट	-15222
▁अटकलें	-15223
▁अभिन्न	-15224
▁इंट्री	-15225
▁उतरेगी	-15226
▁कवर्धा	-15227
▁कालिया	-15228
▁खरीदना	-15229
▁खासियत	-15230
▁गंतव्य	-15231
▁द्रमुक	-15232
▁नेटफ्ल	-15233
▁पांवटा	-15234
▁पुजारा	-15235
▁पुर्तग	-15236
▁फुटपाथ	-15237
▁बेतिया	-15238
▁बैजनाथ	-15239
▁मनमाने	-15240
▁मुख्यत	-15241
▁रायसेन	-15242
▁वाइल्ड	-15243
▁शरारती	-15244
▁शशिकला	-15245
▁संभागा	-15246
▁सबूतों	-15247
▁सिकंदर	-15248
▁सुशासन	-15249
▁एसोसिएट	-15250
▁गोविन्द	-15251
▁डिज़ाइन	-15252
▁धर्मवीर	-15253
▁पाजिटिव	-15254
▁पीडि़ता	-15255
▁मुकदमों	-15256
▁मौद्रिक	-15257
▁संजीवनी	-15258
▁संप्रभु	-15259
▁सतेंद्र	-15260
▁अधिकारिक	-15261
▁आम्रपाली	-15262
▁एंटीबॉडी	-15263
▁कस्तूरबा	-15264
▁कैल्शियम	-15265
▁जिंदाबाद	-15266
▁दुश्मनों	-15267
▁पद्मावती	-15268
▁परिभाषित	-15269
▁प्रफुल्ल	-15270
▁वानखेड़े	-15271
▁शराबबंदी	-15272
▁सांत्वना	-15273
▁सीआईएसएफ	-15274
▁अल्टीमेटम	-15275
▁जर्नलिस्ट	-15276
▁त्यागपत्र	-15277
▁निराशाजनक	-15278
▁हार्डवेयर	-15279
▁आंदोलनकारी	-15280
▁कलेक्टोरेट	-15281
▁टिप्पणियां	-15282
▁टिप्पणियों	-15283
▁नेटफ्लिक्स	-15284
▁प्रत्यर्पण	-15285
▁प्रश्नपत्र	-15286
▁प्रोड्यूसर	-15287
▁वेरिफिकेशन	-15288
▁पालिकाध्यक्ष	-15289
▁वीडियोग्राफी	-15290
▁साम्प्रदायिक	-15291
एब	-15292
खत	-15293
लू	-15294
ॉर	-15295
खिक	-15296
डेन	-15297
तुर	-15298
थरा	-15299
नीर	-15300
फाक	-15301
फाल	-15302
मृत	-15303
रेड	-15304
रोड	-15305
शीष	-15306
ांप	-15307
िसि	-15308
▁उग	-15309
▁कद	-15310
▁वय	-15311
▁हं	-15312
किशन	-15313
क्षि	-15314
धारक	-15315
पोरा	-15316
लाईन	-15317
सूदन	-15318
ियरी	-15319
िलेश	-15320
ेतरा	-15321
▁ईसा	-15322
▁ओलि	-15323
▁केर	-15324
▁जफर	-15325
▁डिल	-15326
▁तान	-15327
▁थिर	-15328
▁नजी	-15329
▁नरम	-15330
▁पते	-15331
▁पसी	-15332
▁बाम	-15333
▁बुश	-15334
▁भला	-15335
▁मुन	-15336
▁मौज	-15337
▁रची	-15338
▁लॉग	-15339
▁सती	-15340
▁हुक	-15341
गुप्त	-15342
गौड़ा	-15343
ज्जित	-15344
प्राइ	-15345
फ्रेस	-15346
बार्ड	-15347
मुंबई	-15348
लिफ्ट	-15349
संहार	-15350
िमेंट	-15351
ुलेशन	-15352
▁उठकर	-15353
▁एनसी	-15354
▁कठुआ	-15355
▁कायर	-15356
▁कुला	-15357
▁जंतर	-15358
▁ज़ोर	-15359
▁जुगल	-15360
▁टोपी	-15361
▁डिनर	-15362
▁तत्प	-15363
▁थिये	-15364
▁पतंग	-15365
▁पल्ल	-15366
▁पाएं	-15367
▁पौने	-15368
▁फंदे	-15369
▁मामा	-15370
▁मेंं	-15371
▁लिंच	-15372
▁लिक्	-15373
▁सिलि	-15374
▁स्कॉ	-15375
▁स्लै	-15376
▁हैरत	-15377
चंद्रन	-15378
रीक्षण	-15379
र्ताओं	-15380
▁अपनाए	-15381
▁आपूर्	-15382
▁उंगली	-15383
▁उठाएं	-15384
▁उठानी	-15385
▁कीचड़	-15386
▁क्रीम	-15387
▁चेकअप	-15388
▁जताने	-15389
▁जरिया	-15390
▁जानता	-15391
▁टाइटल	-15392
▁डीएफओ	-15393
▁दीजिए	-15394
▁निखार	-15395
▁पत्ते	-15396
▁बदलना	-15397
▁बीएलओ	-15398
▁बुराई	-15399
▁मुंशी	-15400
▁मेनका	-15401
▁शार्ट	-15402
▁सज्जन	-15403
▁साइंट	-15404
▁सैलाब	-15405
▁सोचना	-15406
▁अनुयाय	-15407
▁अमीरात	-15408
▁आर्ट्स	-15409
▁उड़ीसा	-15410
▁एंटीजन	-15411
▁एमजीएम	-15412
▁एलपीजी	-15413
▁ओमिक्र	-15414
▁कंटेनर	-15415
▁कान्हा	-15416
▁चलेंगे	-15417
▁जीविका	-15418
▁थेरेपी	-15419
▁दबंगों	-15420
▁नर्सरी	-15421
▁नसबंदी	-15422
▁पोलियो	-15423
▁बड़ौदा	-15424
▁बनेंगी	-15425
▁लेखकों	-15426
▁लैंगिक	-15427
▁शालिनी	-15428
▁साधनों	-15429
▁सीएसपी	-15430
▁सीमाएं	-15431
▁सुहाना	-15432
▁स्टेटस	-15433
आईएमआईएम	-15434
क्सफोर्ड	-15435
▁कार्टून	-15436
▁चक्रवात	-15437
▁ज्वैलरी	-15438
▁डीपीआरओ	-15439
▁त्रिकोण	-15440
▁दर्शाया	-15441
▁निकालते	-15442
▁पंडितों	-15443
▁पत्थरों	-15444
▁प्लेइंग	-15445
▁मॉड्यूल	-15446
▁श्रमदान	-15447
▁आर्टिस्ट	-15448
▁उपनिदेशक	-15449
▁कहानियों	-15450
▁चौड़ीकरण	-15451
▁निमोनिया	-15452
▁पेंशनर्स	-15453
▁बेल्जियम	-15454
▁भगवानपुर	-15455
▁विद्रोही	-15456
▁व्यस्तता	-15457
▁संक्रामक	-15458
▁सांकेतिक	-15459
▁कलेक्टरों	-15460
▁कोलेस्ट्र	-15461
▁गिरफ़्तार	-15462
▁गौतमबुद्ध	-15463
▁ग्रेजुएशन	-15464
▁बॉयफ्रेंड	-15465
▁विद्वानों	-15466
▁सुलतानपुर	-15467
▁अपेक्षाकृत	-15468
▁उपद्रवियों	-15469
▁उम्मीदवारी	-15470
▁ओंकारेश्वर	-15471
▁विश्लेषकों	-15472
▁सामग्रियों	-15473
▁हेलीकाप्टर	-15474
▁इंस्टिट्यूट	-15475
▁कॉन्ट्रैक्ट	-15476
▁सिद्धारमैया	-15477
▁हिस्ट्रीशीटर	-15478
गद	-15479
ढा	-15480
ि़	-15481
ुख	-15482
कित	-15483
ध्व	-15484
भरा	-15485
मिल	-15486
वधि	-15487
शब्	-15488
सरण	-15489
ुमन	-15490
▁कव	-15491
▁बछ	-15492
ंसिल	-15493
एसडी	-15494
जुकी	-15495
ट्टन	-15496
तीया	-15497
नसोल	-15498
निवि	-15499
न्तर	-15500
पोषण	-15501
हरान	-15502
ोजिट	-15503
▁आख़	-15504
▁खंभ	-15505
▁जेव	-15506
▁ठेस	-15507
▁तनु	-15508
▁तुष	-15509
▁धौल	-15510
▁नाच	-15511
▁नेत	-15512
▁परस	-15513
▁पोत	-15514
▁यंग	-15515
▁रूक	-15516
▁रेह	-15517
▁लंग	-15518
▁सजी	-15519
▁सबम	-15520
▁सेम	-15521
▁सैर	-15522
डीपीओ	-15523
ताड़ा	-15524
फास्ट	-15525
बायोट	-15526
विकास	-15527
साराम	-15528
िल्ला	-15529
ॉर्नी	-15530
▁अनाथ	-15531
▁आर्क	-15532
▁उतरा	-15533
▁कटने	-15534
▁कबूल	-15535
▁कमेट	-15536
▁क्रू	-15537
▁ख़तर	-15538
▁जनसम	-15539
▁जोको	-15540
▁टोकन	-15541
[...]
