{
  "version": "1.0",
  "truncation": null,
  "padding": null,
  "added_tokens": [
    {
      "id": 0,
      "content": "<pad>",
      "single_word": false,
      "lstrip": false,
      "rstrip": false,
      "normalized": false,
      "special": true
    },
    {
      "id": 1,
      "content": "<unk>",
      "single_word": false,
      "lstrip": false,
      "rstrip": false,
      "normalized": false,
      "special": true
    },
    {
      "id": 2,
      "content": "<s>",
      "single_word": false,
      "lstrip": false,
      "rstrip": false,
      "normalized": false,
      "special": true
    },
    {
      "id": 3,
      "content": "</s>",
      "single_word": false,
      "lstrip": false,
      "rstrip": false,
      "normalized": false,
      "special": true
    },
    {
      "id": 4,
      "content": "<mask>",
      "single_word": false,
      "lstrip": false,
      "rstrip": false,
      "normalized": false,
      "special": true
    }
  ],
  "normalizer": {
    "type": "Sequence",
    "normalizers": [
      {
        "type": "NFC"
      }
    ]
  },
  "pre_tokenizer": {
    "type": "Whitespace"
  },
  "post_processor": null,
  "decoder": null,
  "model": {
    "type": "BPE",
    "dropout": null,
    "unk_token": "<unk>",
    "continuing_subword_prefix": null,
    "end_of_word_suffix": null,
    "fuse_unk": false,
    "byte_fallback": false,
    "ignore_merges": false,
    "vocab": {
      "<pad>": 0,
      "<unk>": 1,
      "<s>": 2,
      "</s>": 3,
      "<mask>": 4,
      "!": 5,
      "\"": 6,
      "'": 7,
      "(": 8,
      ")": 9,
      ",": 10,
      "-": 11,
      ":": 12,
      ";": 13,
      "?": 14,
      "²": 15,
      "³": 16,
      "ँ": 17,
      "ं": 18,
      "ः": 19,
      "अ": 20,
      "आ": 21,
      "इ": 22,
      "ई": 23,
      "उ": 24,
      "ऊ": 25,
      "ऋ": 26,
      "ऍ": 27,
      "ऎ": 28,
      "ए": 29,
      "ऐ": 30,
      "ऑ": 31,
      "ओ": 32,
      "औ": 33,
      "क": 34,
      "ख": 35,
      "ग": 36,
      "घ": 37,
      "ङ": 38,
      "च": 39,
      "छ": 40,
      "ज": 41,
      "झ": 42,
      "ञ": 43,
      "ट": 44,
      "ठ": 45,
      "ड": 46,
      "ढ": 47,
      "ण": 48,
      "त": 49,
      "थ": 50,
      "द": 51,
      "ध": 52,
      "न": 53,
      "ऩ": 54,
      "प": 55,
      "फ": 56,
      "ब": 57,
      "भ": 58,
      "म": 59,
      "य": 60,
      "र": 61,
      "ऱ": 62,
      "ल": 63,
      "ळ": 64,
      "व": 65,
      "श": 66,
      "ष": 67,
      "स": 68,
      "ह": 69,
      "़": 70,
      "ऽ": 71,
      "ा": 72,
      "ि": 73,
      "ी": 74,
      "ु": 75,
      "ू": 76,
      "ृ": 77,
      "ॄ": 78,
      "ॅ": 79,
      "ॆ": 80,
      "े": 81,
      "ै": 82,
      "ॉ": 83,
      "ो": 84,
      "ौ": 85,
      "्": 86,
      "ॎ": 87,
      "ॐ": 88,
      "॑": 89,
      "॒": 90,
      "॓": 91,
      "ॠ": 92,
      "ॢ": 93,
      "।": 94,
      "॥": 95,
      "०": 96,
      "१": 97,
      "२": 98,
      "३": 99,
      "४": 100,
      "५": 101,
      "६": 102,
      "७": 103,
      "८": 104,
      "९": 105,
      "॰": 106,
      "❾": 107,
      "के": 108,
      "्र": 109,
      "ार": 110,
      "ें": 111,
      "ने": 112,
      "या": 113,
      "में": 114,
      "ों": 115,
      "की": 116,
      "का": 117,
      "है": 118,
      "कर": 119,
      "को": 120,
      "स्": 121,
      "से": 122,
      "र्": 123,
      "कि": 124,
      "ान": 125,
      "क्": 126,
      "्य": 127,
      "प्र": 128,
      "ला": 129,
      "ता": 130,
      "ना": 131,
      "वा": 132,
      "पर": 133,
      "वि": 134,
      "रा": 135,
      "ले": 136,
      "लि": 137,
      "कार": 138,
      "हा": 139,
      "नि": 140,
      "ही": 141,
      "सा": 142,
      "जा": 143,
      "मा": 144,
      "और": 145,
      "दि": 146,
      "त्र": 147,
      "दे": 148,
      "ति": 149,
      "क्ष": 150,
      "ड़": 151,
      "बा": 152,
      "ंग": 153,
      "सी": 154,
      "हो": 155,
      "इस": 156,
      "भी": 157,
      "मि": 158,
      "गा": 159,
      "सं": 160,
      "न्": 161,
      "ली": 162,
      "पा": 163,
      "ित": 164,
      "हु": 165,
      "ती": 166,
      "हैं": 167,
      "वार": 168,
      "ुर": 169,
      "त्": 170,
      "सि": 171,
      "ते": 172,
      "री": 173,
      "यों": 174,
      "मु": 175,
      "जि": 176,
      "लिए": 177,
      "भा": 178,
      "दी": 179,
      "ल्": 180,
      "नी": 181,
      "टी": 182,
      "किया": 183,
      "रि": 184,
      "मं": 185,
      "था": 186,
      "रो": 187,
      "देश": 188,
      "द्": 189,
      "हीं": 190,
      "ट्र": 191,
      "हि": 192,
      "धि": 193,
      "यो": 194,
      "रह": 195,
      "सर": 196,
      "पी": 197,
      "दा": 198,
      "जी": 199,
      "सम": 200,
      "शा": 201,
      "एक": 202,
      "शि": 203,
      "ंच": 204,
      "मी": 205,
      "ार्": 206,
      "लो": 207,
      "ंद": 208,
      "गया": 209,
      "गी": 210,
      "क्र": 211,
      "ंड": 212,
      "पू": 213,
      "ारी": 214,
      "राज": 215,
      "नहीं": 216,
      "स्थ": 217,
      "वे": 218,
      "ष्": 219,
      "करने": 220,
      "मे": 221,
      "अप": 222,
      "न्ह": 223,
      "पु": 224,
      "कहा": 225,
      "स्ट": 226,
      "कु": 227,
      "बी": 228,
      "बाद": 229,
      "्या": 230,
      "मंत्र": 231,
      "सु": 232,
      "वी": 233,
      "शन": 234,
      "उन्ह": 235,
      "चा": 236,
      "जन": 237,
      "रे": 238,
      "श्": 239,
      "साथ": 240,
      "ओं": 241,
      "स्त": 242,
      "ियों": 243,
      "ढ़": 244,
      "बि": 245,
      "पुर": 246,
      "मान": 247,
      "मंत्री": 248,
      "अन": 249,
      "डि": 250,
      "गे": 251,
      "प्": 252,
      "टर": 253,
      "दिया": 254,
      "उन": 255,
      "अधि": 256,
      "रहे": 257,
      "ग्र": 258,
      "भार": 259,
      "दो": 260,
      "कारी": 261,
      "तर": 262,
      "पह": 263,
      "क्षा": 264,
      "वर्": 265,
      "ये": 266,
      "कार्य": 267,
      "एस": 268,
      "इन": 269,
      "मो": 270,
      "मुख": 271,
      "हुए": 272,
      "ोंने": 273,
      "टे": 274,
      "ध्य": 275,
      "ौर": 276,
      "खा": 277,
      "तक": 278,
      "धान": 279,
      "ंध": 280,
      "जाए": 281,
      "जे": 282,
      "चु": 283,
      "निर्": 284,
      "डी": 285,
      "सिं": 286,
      "उन्होंने": 287,
      "म्": 288,
      "रू": 289,
      "२०": 290,
      "ाय": 291,
      "पुलि": 292,
      "लोग": 293,
      "परि": 294,
      "बता": 295,
      "पुलिस": 296,
      "चि": 297,
      "कर्": 298,
      "यह": 299,
      "सिंह": 300,
      "मिल": 301,
      "मार": 302,
      "टि": 303,
      "फि": 304,
      "बे": 305,
      "गई": 306,
      "हर": 307,
      "खि": 308,
      "चार": 309,
      "प्रति": 310,
      "बर": 311,
      "नों": 312,
      "्यू": 313,
      "यु": 314,
      "कों": 315,
      "ीय": 316,
      "सरकार": 317,
      "श्र": 318,
      "गर": 319,
      "आई": 320,
      "तो": 321,
      "थी": 322,
      "पूर्": 323,
      "लगा": 324,
      "टा": 325,
      "दर्": 326,
      "बै": 327,
      "एम": 328,
      "द्र": 329,
      "यर": 330,
      "ाना": 331,
      "लय": 332,
      "च्": 333,
      "पि": 334,
      "मौ": 335,
      "रही": 336,
      "वं": 337,
      "बार": 338,
      "जो": 339,
      "लों": 340,
      "बना": 341,
      "िया": 342,
      "प्रदेश": 343,
      "रहा": 344,
      "ड़ी": 345,
      "ेस": 346,
      "सू": 347,
      "दू": 348,
      "पो": 349,
      "दु": 350,
      "उत्": 351,
      "वाले": 352,
      "ब्": 353,
      "ड़ा": 354,
      "होने": 355,
      "उप": 356,
      "ष्ट्र": 357,
      "र्ट": 358,
      "अपने": 359,
      "क्षे": 360,
      "ंद्र": 361,
      "माम": 362,
      "बताया": 363,
      "वारा": 364,
      "इसके": 365,
      "क्त": 366,
      "क्षेत्र": 367,
      "छा": 368,
      "गि": 369,
      "पहु": 370,
      "थे": 371,
      "मुख्य": 372,
      "अनु": 373,
      "व्य": 374,
      "हां": 375,
      "सो": 376,
      "लोगों": 377,
      "लेकर": 378,
      "गए": 379,
      "पे": 380,
      "पहुंच": 381,
      "ानी": 382,
      "यू": 383,
      "मै": 384,
      "सक": 385,
      "बंध": 386,
      "भाग": 387,
      "ज़": 388,
      "द्वारा": 389,
      "अं": 390,
      "ध्यक्ष": 391,
      "उस": 392,
      "योज": 393,
      "लिया": 394,
      "मह": 395,
      "राज्य": 396,
      "ंग्र": 397,
      "गु": 398,
      "जिस": 399,
      "जु": 400,
      "रु": 401,
      "इं": 402,
      "शी": 403,
      "पहले": 404,
      "पार्": 405,
      "खिला": 406,
      "डा": 407,
      "बु": 408,
      "राष्ट्र": 409,
      "ंप": 410,
      "प्रा": 411,
      "दौर": 412,
      "एवं": 413,
      "करा": 414,
      "फ्": 415,
      "जान": 416,
      "जू": 417,
      "स्क": 418,
      "भारत": 419,
      "एं": 420,
      "िक": 421,
      "सह": 422,
      "धा": 423,
      "क्रम": 424,
      "स्था": 425,
      "शुर": 426,
      "शु": 427,
      "किन": 428,
      "ग्रा": 429,
      "बढ़": 430,
      "सभी": 431,
      "ेंगे": 432,
      "सद": 433,
      "कै": 434,
      "आर": 435,
      "नाव": 436,
      "गो": 437,
      "दौरान": 438,
      "अभ": 439,
      "कांग्र": 440,
      "कॉ": 441,
      "जिला": 442,
      "ल्ली": 443,
      "बो": 444,
      "वर": 445,
      "ज्": 446,
      "हम": 447,
      "केंद्र": 448,
      "दिल्ली": 449,
      "कुमार": 450,
      "धार": 451,
      "हुई": 452,
      "योग": 453,
      "लग": 454,
      "कांग्रेस": 455,
      "तार": 456,
      "जब": 457,
      "ंक": 458,
      "फी": 459,
      "ड़े": 460,
      "शे": 461,
      "ट्": 462,
      "करते": 463,
      "तीय": 464,
      "स्प": 465,
      "सभा": 466,
      "महि": 467,
      "वह": 468,
      "लेकिन": 469,
      "स्थान": 470,
      "ची": 471,
      "खे": 472,
      "णा": 473,
      "जार": 474,
      "राम": 475,
      "अध्यक्ष": 476,
      "वाई": 477,
      "चुनाव": 478,
      "न्यू": 479,
      "वै": 480,
      "अब": 481,
      "स्वा": 482,
      "महिला": 483,
      "आरो": 484,
      "सन": 485,
      "कई": 486,
      "सान": 487,
      "पाल": 488,
      "होगा": 489,
      "वन": 490,
      "फा": 491,
      "मार्": 492,
      "आप": 493,
      "पूर्व": 494,
      "ंदी": 495,
      "काम": 496,
      "दिन": 497,
      "चल": 498,
      "कोरो": 499,
      "कोरोना": 500,
      "ूल": 501,
      "डे": 502,
      "सार": 503,
      "जाएगा": 504,
      "जय": 505,
      "अपनी": 506,
      "वाली": 507,
      "महा": 508,
      "चे": 509,
      "सुर": 510,
      "दार": 511,
      "शुरू": 512,
      "मन": 513,
      "जारी": 514,
      "जाने": 515,
      "विभाग": 516,
      "रूप": 517,
      "हुआ": 518,
      "क्स": 519,
      "तै": 520,
      "उन्हें": 521,
      "प्रधान": 522,
      "मुख्यमंत्री": 523,
      "एन": 524,
      "कल": 525,
      "छात्र": 526,
      "ताओं": 527,
      "ंव": 528,
      "खिलाफ": 529,
      "चौ": 530,
      "डॉ": 531,
      "सब": 532,
      "बात": 533,
      "१९": 534,
      "नगर": 535,
      "उनके": 536,
      "मामले": 537,
      "पार्टी": 538,
      "दान": 539,
      "ट्रे": 540,
      "बैठ": 541,
      "टीम": 542,
      "हत": 543,
      "गत": 544,
      "रख": 545,
      "१०": 546,
      "कम": 547,
      "र्थ": 548,
      "परी": 549,
      "कृ": 550,
      "स्व": 551,
      "खु": 552,
      "यन": 553,
      "शामिल": 554,
      "बन": 555,
      "कुछ": 556,
      "क्टर": 557,
      "वर्ष": 558,
      "ज्ञ": 559,
      "भाज": 560,
      "मांग": 561,
      "सर्": 562,
      "हार": 563,
      "भारतीय": 564,
      "समा": 565,
      "विश्": 566,
      "ेंद्र": 567,
      "भाजपा": 568,
      "फो": 569,
      "पोर्ट": 570,
      "कंप": 571,
      "जर": 572,
      "योजना": 573,
      "श्री": 574,
      "साल": 575,
      "क्षण": 576,
      "पास": 577,
      "प्त": 578,
      "द्य": 579,
      "अन्य": 580,
      "किए": 581,
      "ताल": 582,
      "स्थित": 583,
      "मत": 584,
      "जानकारी": 585,
      "समय": 586,
      "जै": 587,
      "कान": 588,
      "न्न": 589,
      "रुप": 590,
      "क्ति": 591,
      "गांव": 592,
      "पद": 593,
      "साम": 594,
      "पर्": 595,
      "फै": 596,
      "अधिकार": 597,
      "करण": 598,
      "च्च": 599,
      "देख": 600,
      "तीन": 601,
      "हे": 602,
      "ंत": 603,
      "आरोप": 604,
      "ंस": 605,
      "जांच": 606,
      "निया": 607,
      "बीच": 608,
      "भू": 609,
      "ब्र": 610,
      "हिंदी": 611,
      "खंड": 612,
      "निय": 613,
      "नाम": 614,
      "शो": 615,
      "पै": 616,
      "ोड़": 617,
      "वाद": 618,
      "कोई": 619,
      "यहां": 620,
      "रिया": 621,
      "ंगा": 622,
      "धी": 623,
      "पत्र": 624,
      "कार्यक्रम": 625,
      "होगी": 626,
      "राष्ट्रीय": 627,
      "र्स": 628,
      "ंगे": 629,
      "उत्तर": 630,
      "करना": 631,
      "ठा": 632,
      "यालय": 633,
      "किसी": 634,
      "निक": 635,
      "त्य": 636,
      "करी": 637,
      "अधिकारी": 638,
      "किसान": 639,
      "त्या": 640,
      "विका": 641,
      "आज": 642,
      "र्ड": 643,
      "नई": 644,
      "मोदी": 645,
      "संबंध": 646,
      "वान": 647,
      "न्या": 648,
      "देने": 649,
      "त्व": 650,
      "सम्": 651,
      "विध": 652,
      "अस्प": 653,
      "वाल": 654,
      "टना": 655,
      "तैय": 656,
      "सै": 657,
      "विद्": 658,
      "व्यव": 659,
      "जिले": 660,
      "निर्देश": 661,
      "अव": 662,
      "स्तान": 663,
      "तरह": 664,
      "नर": 665,
      "द्ध": 666,
      "ारा": 667,
      "युक्त": 668,
      "जग": 669,
      "्ड": 670,
      "कर्म": 671,
      "माण": 672,
      "नो": 673,
      "हों": 674,
      "प्रधानमंत्री": 675,
      "ग्": 676,
      "दर्शन": 677,
      "कारण": 678,
      "००": 679,
      "प्रो": 680,
      "न्यूज़": 681,
      "तथा": 682,
      "वहीं": 683,
      "पति": 684,
      "अधिक": 685,
      "बैठक": 686,
      "फिल्": 687,
      "पंच": 688,
      "परीक्षा": 689,
      "जूद": 690,
      "भे": 691,
      "विकास": 692,
      "विधान": 693,
      "गिर": 694,
      "विश्व": 695,
      "चना": 696,
      "ेश": 697,
      "लै": 698,
      "हन": 699,
      "दोनों": 700,
      "चाहि": 701,
      "टो": 702,
      "लॉ": 703,
      "शासन": 704,
      "नीति": 705,
      "संग": 706,
      "नेता": 707,
      "कह": 708,
      "लन": 709,
      "सबसे": 710,
      "घर": 711,
      "चाहिए": 712,
      "लं": 713,
      "्यादा": 714,
      "यात्र": 715,
      "भाव": 716,
      "गुर": 717,
      "केट": 718,
      "आदि": 719,
      "स्वास्थ": 720,
      "लू": 721,
      "भर": 722,
      "सुरक्षा": 723,
      "इंड": 724,
      "लोक": 725,
      "स्वास्थ्य": 726,
      "एल": 727,
      "धन": 728,
      "आत": 729,
      "मित": 730,
      "मू": 731,
      "अस्पताल": 732,
      "व्या": 733,
      "रवि": 734,
      "दर्ज": 735,
      "स्टे": 736,
      "दिए": 737,
      "गढ़": 738,
      "ध्या": 739,
      "अधिकारियों": 740,
      "ंकि": 741,
      "ंत्र": 742,
      "बद": 743,
      "इससे": 744,
      "फिल्म": 745,
      "वासी": 746,
      "ंट": 747,
      "िय": 748,
      "स्थि": 749,
      "उनकी": 750,
      "ज्यादा": 751,
      "स्ता": 752,
      "विधाय": 753,
      "ओर": 754,
      "सचि": 755,
      "२०१": 756,
      "वो": 757,
      "करें": 758,
      "अनुसार": 759,
      "मिले": 760,
      "पाकि": 761,
      "व्यवस्था": 762,
      "तु": 763,
      "इला": 764,
      "कार्र": 765,
      "घो": 766,
      "दन": 767,
      "दिर": 768,
      "ख्या": 769,
      "शहर": 770,
      "कार्रवाई": 771,
      "लाइन": 772,
      "पूर्ण": 773,
      "भि": 774,
      "यी": 775,
      "शेष": 776,
      "नौ": 777,
      "कोर्ट": 778,
      "हाल": 779,
      "र्म": 780,
      "दर": 781,
      "यत": 782,
      "मंदिर": 783,
      "अला": 784,
      "न्द्र": 785,
      "तहत": 786,
      "फर": 787,
      "लेज": 788,
      "ष्ठ": 789,
      "याद": 790,
      "डल": 791,
      "फ्र": 792,
      "स्थिति": 793,
      "पिछ": 794,
      "ंगल": 795,
      "पार": 796,
      "अमे": 797,
      "काल": 798,
      "गिरफ्": 799,
      "करोड़": 800,
      "रात": 801,
      "घटना": 802,
      "इसमें": 803,
      "चित": 804,
      "क्ट": 805,
      "सदस्": 806,
      "मिक": 807,
      "लाख": 808,
      "अलावा": 809,
      "गं": 810,
      "रिपोर्ट": 811,
      "मेंट": 812,
      "पं": 813,
      "जीत": 814,
      "पांच": 815,
      "अभि": 816,
      "जाएगी": 817,
      "हजार": 818,
      "नाथ": 819,
      "विद्यालय": 820,
      "पंचाय": 821,
      "शिक्षा": 822,
      "रण": 823,
      "वास": 824,
      "परा": 825,
      "बह": 826,
      "ग्राम": 827,
      "प्रदर्शन": 828,
      "बल": 829,
      "पक्ष": 830,
      "जाता": 831,
      "विधानसभा": 832,
      "फे": 833,
      "गुरु": 834,
      "पक": 835,
      "सरे": 836,
      "करेंगे": 837,
      "क्षक": 838,
      "सकता": 839,
      "हाला": 840,
      "शर्": 841,
      "अपना": 842,
      "इस्": 843,
      "विशेष": 844,
      "म्मी": 845,
      "स्कूल": 846,
      "भारी": 847,
      "आने": 848,
      "भो": 849,
      "करे": 850,
      "निर्माण": 851,
      "साइ": 852,
      "ऐसे": 853,
      "पढ़": 854,
      "तैयार": 855,
      "पंचायत": 856,
      "थाना": 857,
      "आए": 858,
      "बहु": 859,
      "झा": 860,
      "सौ": 861,
      "उम्मी": 862,
      "अमेरि": 863,
      "वरी": 864,
      "मद": 865,
      "जरू": 866,
      "सेवा": 867,
      "सां": 868,
      "उम्मीद": 869,
      "निवार": 870,
      "पूरी": 871,
      "बढ़ा": 872,
      "सला": 873,
      "सचिव": 874,
      "पाकिस्तान": 875,
      "रत": 876,
      "फिर": 877,
      "विरो": 878,
      "बनाने": 879,
      "सकते": 880,
      "्यालय": 881,
      "घा": 882,
      "एफ": 883,
      "लाई": 884,
      "संख्या": 885,
      "सके": 886,
      "सें": 887,
      "कंपनी": 888,
      "मौजूद": 889,
      "मरी": 890,
      "योजित": 891,
      "परिवार": 892,
      "सहित": 893,
      "रुपये": 894,
      "वेश": 895,
      "बंद": 896,
      "अग": 897,
      "विधायक": 898,
      "फ़": 899,
      "सोम": 900,
      "योजन": 901,
      "पहुंचे": 902,
      "मर": 903,
      "बच्च": 904,
      "क्सी": 905,
      "बिक": 906,
      "कुल": 907,
      "सामने": 908,
      "जिसमें": 909,
      "स्वी": 910,
      "भग": 911,
      "काफी": 912,
      "घोष": 913,
      "डिया": 914,
      "क्रि": 915,
      "१२": 916,
      "टन": 917,
      "ंधी": 918,
      "च्छ": 919,
      "वल": 920,
      "आयोजित": 921,
      "बिहार": 922,
      "त्म": 923,
      "जों": 924,
      "शल": 925,
      "बड़ी": 926,
      "बजे": 927,
      "हरा": 928,
      "लाल": 929,
      "मंगल": 930,
      "यादव": 931,
      "पिछले": 932,
      "इसी": 933,
      "करीब": 934,
      "रेल": 935,
      "हित": 936,
      "जल": 937,
      "ंबर": 938,
      "शर्मा": 939,
      "शिका": 940,
      "मीण": 941,
      "सोमवार": 942,
      "कल्": 943,
      "माल": 944,
      "पत्": 945,
      "कट": 946,
      "समि": 947,
      "शुक्र": 948,
      "१५": 949,
      "मारी": 950,
      "ग्रामीण": 951,
      "प्रशासन": 952,
      "सेना": 953,
      "गांधी": 954,
      "गिरफ्तार": 955,
      "बॉ": 956,
      "मुता": 957,
      "मुताबिक": 958,
      "दुनिया": 959,
      "प्रमुख": 960,
      "सूचना": 961,
      "यां": 962,
      "देव": 963,
      "उसके": 964,
      "ट्स": 965,
      "दिव": 966,
      "वज": 967,
      "जहां": 968,
      "संघ": 969,
      "जल्": 970,
      "शिव": 971,
      "णी": 972,
      "ार्थ": 973,
      "समिति": 974,
      "पन": 975,
      "ल्ड": 976,
      "मौके": 977,
      "फल": 978,
      "समाज": 979,
      "आधार": 980,
      "आयोजन": 981,
      "एच": 982,
      "शुक्रवार": 983,
      "सित": 984,
      "तरा": 985,
      "सड़": 986,
      "प्ता": 987,
      "दूर": 988,
      "श्य": 989,
      "अलग": 990,
      "अभिया": 991,
      "निवासी": 992,
      "अति": 993,
      "किसानों": 994,
      "बच्चों": 995,
      "बाइ": 996,
      "राय": 997,
      "मिली": 998,
      "र्चा": 999,
      "क्रिया": 1000,
      "कॉलेज": 1001,
      "पड़": 1002,
      "हालांकि": 1003,
      "ेंस": 1004,
      "विभि": 1005,
      "स्तर": 1006,
      "शिकायत": 1007,
      "व्यक्ति": 1008,
      "ेंट": 1009,
      "बारे": 1010,
      "अभियान": 1011,
      "सल": 1012,
      "प्रे": 1013,
      "मंगलवार": 1014,
      "वाला": 1015,
      "सिल": 1016,
      "क्यों": 1017,
      "मीडिया": 1018,
      "चला": 1019,
      "बुध": 1020,
      "वित": 1021,
      "सुबह": 1022,
      "ड्र": 1023,
      "होता": 1024,
      "हाई": 1025,
      "गै": 1026,
      "मौत": 1027,
      "उपल": 1028,
      "विभिन्न": 1029,
      "भूमि": 1030,
      "तन": 1031,
      "स्ट्र": 1032,
      "टल": 1033,
      "धर": 1034,
      "ठन": 1035,
      "कार्यकर्": 1036,
      "नजर": 1037,
      "प्रया": 1038,
      "बल्": 1039,
      "यात्रा": 1040,
      "बुधवार": 1041,
      "यान": 1042,
      "डियो": 1043,
      "कोवि": 1044,
      "मध्य": 1045,
      "जबकि": 1046,
      "स्या": 1047,
      "आदेश": 1048,
      "दारी": 1049,
      "केंद्रीय": 1050,
      "दूसरे": 1051,
      "षण": 1052,
      "वेदन": 1053,
      "उनका": 1054,
      "शनिवार": 1055,
      "विरोध": 1056,
      "हू": 1057,
      "वृ": 1058,
      "सरकारी": 1059,
      "समे": 1060,
      "काश": 1061,
      "तृ": 1062,
      "राव": 1063,
      "दिनों": 1064,
      "राजनीति": 1065,
      "ज्ञान": 1066,
      "कानू": 1067,
      "बाजार": 1068,
      "२१": 1069,
      "सीएम": 1070,
      "खो": 1071,
      "मिला": 1072,
      "उपलब्": 1073,
      "स्ट्रे": 1074,
      "यक": 1075,
      "होंगे": 1076,
      "बेह": 1077,
      "त्त": 1078,
      "युव": 1079,
      "ष्ट": 1080,
      "दिखा": 1081,
      "खेल": 1082,
      "इसे": 1083,
      "सीट": 1084,
      "खन": 1085,
      "नए": 1086,
      "रविवार": 1087,
      "ठी": 1088,
      "उठा": 1089,
      "कता": 1090,
      "सदस्य": 1091,
      "उपा": 1092,
      "कराया": 1093,
      "बहुत": 1094,
      "मंडल": 1095,
      "शत": 1096,
      "प्राप्त": 1097,
      "प्री": 1098,
      "रै": 1099,
      "वायर": 1100,
      "षि": 1101,
      "जिन": 1102,
      "हरी": 1103,
      "विधा": 1104,
      "दूस": 1105,
      "राष्ट्रपति": 1106,
      "लु": 1107,
      "बई": 1108,
      "३०": 1109,
      "माध्य": 1110,
      "लगाया": 1111,
      "उसे": 1112,
      "लेने": 1113,
      "मीर": 1114,
      "अर्": 1115,
      "बैंक": 1116,
      "समस्या": 1117,
      "५०": 1118,
      "हिस्": 1119,
      "जैसे": 1120,
      "जेपी": 1121,
      "अभी": 1122,
      "रोक": 1123,
      "कद": 1124,
      "वाह": 1125,
      "मुं": 1126,
      "कित्": 1127,
      "कराने": 1128,
      "्स": 1129,
      "चिकित्": 1130,
      "नाग": 1131,
      "षद": 1132,
      "विष": 1133,
      "समर्थ": 1134,
      "जें": 1135,
      "महिलाओं": 1136,
      "दौ": 1137,
      "बोर्ड": 1138,
      "मैच": 1139,
      "लत": 1140,
      "कार्यालय": 1141,
      "संचा": 1142,
      "पूरा": 1143,
      "चारियों": 1144,
      "ग्री": 1145,
      "र्फ": 1146,
      "समेत": 1147,
      "प्रतिनि": 1148,
      "सुविधा": 1149,
      "प्रभा": 1150,
      "यम": 1151,
      "बिज": 1152,
      "बू": 1153,
      "कर्मचारियों": 1154,
      "चै": 1155,
      "रहने": 1156,
      "सकती": 1157,
      "द्यो": 1158,
      "तरी": 1159,
      "डीएम": 1160,
      "११": 1161,
      "नरेंद्र": 1162,
      "पहली": 1163,
      "तौर": 1164,
      "लैंड": 1165,
      "इसका": 1166,
      "मिलने": 1167,
      "विद्य": 1168,
      "टू": 1169,
      "सम्मान": 1170,
      "गम": 1171,
      "जनता": 1172,
      "टेस्ट": 1173,
      "लगातार": 1174,
      "गू": 1175,
      "मृ": 1176,
      "कोविड": 1177,
      "सहा": 1178,
      "होती": 1179,
      "कहना": 1180,
      "आव": 1181,
      "शं": 1182,
      "चो": 1183,
      "यल": 1184,
      "इंटर": 1185,
      "विदेश": 1186,
      "इसकी": 1187,
      "धिकारी": 1188,
      "डो": 1189,
      "ालय": 1190,
      "योगी": 1191,
      "मियों": 1192,
      "तम": 1193,
      "मदद": 1194,
      "मामला": 1195,
      "कां": 1196,
      "त्री": 1197,
      "नार": 1198,
      "द्धा": 1199,
      "पॉ": 1200,
      "सांसद": 1201,
      "खरी": 1202,
      "थि": 1203,
      "वीं": 1204,
      "एक्स": 1205,
      "दें": 1206,
      "राब": 1207,
      "एसपी": 1208,
      "युवा": 1209,
      "अफ": 1210,
      "गुरुवार": 1211,
      "बाहर": 1212,
      "चाह": 1213,
      "वीडियो": 1214,
      "अंतर": 1215,
      "लाभ": 1216,
      "छो": 1217,
      "मही": 1218,
      "प्रभारी": 1219,
      "भर्": 1220,
      "उपलब्ध": 1221,
      "आगे": 1222,
      "ख्": 1223,
      "जल्द": 1224,
      "ज्ञा": 1225,
      "लड़": 1226,
      "महारा": 1227,
      "नियम": 1228,
      "जवा": 1229,
      "क्षित": 1230,
      "संवाद": 1231,
      "प्रबंध": 1232,
      "टिंग": 1233,
      "ट्रो": 1234,
      "वालों": 1235,
      "चर्चा": 1236,
      "जाना": 1237,
      "सदी": 1238,
      "डर": 1239,
      "बनाया": 1240,
      "वहां": 1241,
      "धित": 1242,
      "पानी": 1243,
      "प्रतिशत": 1244,
      "छात्रों": 1245,
      "सिटी": 1246,
      "उम्मीदवार": 1247,
      "लने": 1248,
      "भु": 1249,
      "त्रि": 1250,
      "मना": 1251,
      "लाइ": 1252,
      "क्रमण": 1253,
      "नेट": 1254,
      "ऑफ": 1255,
      "सुन": 1256,
      "बने": 1257,
      "ृह": 1258,
      "मार्ग": 1259,
      "लिक": 1260,
      "षा": 1261,
      "आवेदन": 1262,
      "बीजेपी": 1263,
      "लित": 1264,
      "क्रिकेट": 1265,
      "कश्": 1266,
      "प्रस्ता": 1267,
      "पेश": 1268,
      "नेशन": 1269,
      "बस": 1270,
      "प्रकाश": 1271,
      "पित": 1272,
      "मुंबई": 1273,
      "प्रयास": 1274,
      "विक": 1275,
      "तीस": 1276,
      "शुरु": 1277,
      "इंडिया": 1278,
      "अंत": 1279,
      "बाव": 1280,
      "२००": 1281,
      "आम": 1282,
      "क्शन": 1283,
      "क्या": 1284,
      "जीवन": 1285,
      "भर्ती": 1286,
      "दाय": 1287,
      "निका": 1288,
      "संबंधित": 1289,
      "नव": 1290,
      "जिसके": 1291,
      "लर": 1292,
      "दल": 1293,
      "चीन": 1294,
      "छात्रा": 1295,
      "हत्या": 1296,
      "हुल": 1297,
      "अमेरिका": 1298,
      "र्जी": 1299,
      "सड़क": 1300,
      "१४": 1301,
      "चलते": 1302,
      "प्रक्रिया": 1303,
      "ंति": 1304,
      "यूनि": 1305,
      "लगे": 1306,
      "लॉक": 1307,
      "वें": 1308,
      "ंटे": 1309,
      "क्योंकि": 1310,
      "मेडि": 1311,
      "ंदर": 1312,
      "मान्य": 1313,
      "१८": 1314,
      "रेलवे": 1315,
      "बचा": 1316,
      "क्ता": 1317,
      "जगह": 1318,
      "गण": 1319,
      "लक": 1320,
      "लब": 1321,
      "सफल": 1322,
      "२५": 1323,
      "अगर": 1324,
      "गति": 1325,
      "महत्व": 1326,
      "वरि": 1327,
      "जिम्": 1328,
      "दुर्": 1329,
      "उच्च": 1330,
      "नेताओं": 1331,
      "सात": 1332,
      "बयान": 1333,
      "रखा": 1334,
      "अवसर": 1335,
      "राशि": 1336,
      "परेश": 1337,
      "सत": 1338,
      "पश्": 1339,
      "जाएंगे": 1340,
      "पड़ा": 1341,
      "धिकार": 1342,
      "टिव": 1343,
      "माध्यम": 1344,
      "मुद्": 1345,
      "शाम": 1346,
      "ंभ": 1347,
      "करता": 1348,
      "माह": 1349,
      "मूल": 1350,
      "देते": 1351,
      "रुपए": 1352,
      "दिवस": 1353,
      "आया": 1354,
      "ोह": 1355,
      "मंत्रालय": 1356,
      "तंत्र": 1357,
      "प्रतिनिधि": 1358,
      "ऑन": 1359,
      "राहुल": 1360,
      "बड़े": 1361,
      "इसलिए": 1362,
      "उत्तरा": 1363,
      "क्षि": 1364,
      "स्टर": 1365,
      "सीमा": 1366,
      "ंडे": 1367,
      "चुके": 1368,
      "फोन": 1369,
      "फॉ": 1370,
      "वरिष्ठ": 1371,
      "लखन": 1372,
      "ुक": 1373,
      "निरी": 1374,
      "पूरे": 1375,
      "उद्": 1376,
      "दों": 1377,
      "खान": 1378,
      "मैं": 1379,
      "बनाए": 1380,
      "खी": 1381,
      "भीर": 1382,
      "ानि": 1383,
      "पहुंचा": 1384,
      "कश्मीर": 1385,
      "तों": 1386,
      "र्ष": 1387,
      "ंज": 1388,
      "हाथ": 1389,
      "मनो": 1390,
      "हॉ": 1391,
      "बिजली": 1392,
      "मति": 1393,
      "वाप": 1394,
      "विजय": 1395,
      "ध्यान": 1396,
      "बड़ा": 1397,
      "चर": 1398,
      "जनों": 1399,
      "भावना": 1400,
      "फाय": 1401,
      "पीएम": 1402,
      "संगठन": 1403,
      "भव": 1404,
      "दीप": 1405,
      "ंग्": 1406,
      "वजह": 1407,
      "चारी": 1408,
      "ेक": 1409,
      "केश": 1410,
      "स्टेशन": 1411,
      "इस्ते": 1412,
      "फैसला": 1413,
      "इस्तेमाल": 1414,
      "जाम": 1415,
      "कृषि": 1416,
      "संयुक्त": 1417,
      "वादी": 1418,
      "खबर": 1419,
      "निगम": 1420,
      "कर्मियों": 1421,
      "साद": 1422,
      "मण": 1423,
      "स्कू": 1424,
      "विश्वविद्यालय": 1425,
      "यूपी": 1426,
      "आवश्य": 1427,
      "महीने": 1428,
      "मां": 1429,
      "त्ता": 1430,
      "चंद्र": 1431,
      "ाइ": 1432,
      "स्थानीय": 1433,
      "घोषणा": 1434,
      "मार्च": 1435,
      "सीसी": 1436,
      "गंभीर": 1437,
      "लखनऊ": 1438,
      "जिम्मे": 1439,
      "शाह": 1440,
      "स्कार": 1441,
      "रोड": 1442,
      "अहम": 1443,
      "ाई": 1444,
      "उत्पा": 1445,
      "आयोग": 1446,
      "सिक": 1447,
      "करवा": 1448,
      "छे": 1449,
      "काउ": 1450,
      "हरिया": 1451,
      "होना": 1452,
      "श्वर": 1453,
      "परिषद": 1454,
      "दाता": 1455,
      "लक्ष": 1456,
      "दूसरी": 1457,
      "एयर": 1458,
      "कार्ड": 1459,
      "आरोपी": 1460,
      "जन्": 1461,
      "मारे": 1462,
      "कले": 1463,
      "लाने": 1464,
      "मुला": 1465,
      "निर्ण": 1466,
      "घाय": 1467,
      "होते": 1468,
      "गर्": 1469,
      "वीर": 1470,
      "कर्मचारी": 1471,
      "मेडिकल": 1472,
      "जिससे": 1473,
      "नागरि": 1474,
      "सीबी": 1475,
      "मार्ट": 1476,
      "मता": 1477,
      "विधि": 1478,
      "तिम": 1479,
      "प्रेस": 1480,
      "पंजा": 1481,
      "जरूरत": 1482,
      "बाजी": 1483,
      "मिश्र": 1484,
      "आपको": 1485,
      "ड्": 1486,
      "समी": 1487,
      "ष्ण": 1488,
      "१६": 1489,
      "केन्द्र": 1490,
      "उत्तराखंड": 1491,
      "जरि": 1492,
      "टै": 1493,
      "किंग": 1494,
      "जता": 1495,
      "वार्": 1496,
      "देशों": 1497,
      "२२": 1498,
      "विचार": 1499,
      "डाउन": 1500,
      "पुरा": 1501,
      "रखने": 1502,
      "कू": 1503,
      "खुद": 1504,
      "अंतिम": 1505,
      "वैक्सी": 1506,
      "चान": 1507,
      "पीड़": 1508,
      "ऐसा": 1509,
      "लान": 1510,
      "वायरस": 1511,
      "ऑनलाइन": 1512,
      "श्रद्धा": 1513,
      "तिक": 1514,
      "मोह": 1515,
      "कानून": 1516,
      "धर्म": 1517,
      "राजस्थान": 1518,
      "लौ": 1519,
      "तेज": 1520,
      "टक": 1521,
      "स्पे": 1522,
      "आइ": 1523,
      "ताप": 1524,
      "गृह": 1525,
      "ग्रह": 1526,
      "छह": 1527,
      "क्षेत्रों": 1528,
      "जबू": 1529,
      "लगाने": 1530,
      "लिंग": 1531,
      "क्ट्र": 1532,
      "सहयोग": 1533,
      "ब्रि": 1534,
      "मजबू": 1535,
      "स्कृ": 1536,
      "माना": 1537,
      "कला": 1538,
      "पश्चि": 1539,
      "कं": 1540,
      "तत्": 1541,
      "लेख": 1542,
      "जमा": 1543,
      "पदा": 1544,
      "लोकसभा": 1545,
      "प्रवेश": 1546,
      "प्रसाद": 1547,
      "गें": 1548,
      "ंगी": 1549,
      "समार": 1550,
      "उल्": 1551,
      "काब": 1552,
      "तृत्व": 1553,
      "अदा": 1554,
      "२४": 1555,
      "प्रस्ताव": 1556,
      "अग्र": 1557,
      "न्याय": 1558,
      "वार्ड": 1559,
      "सोशल": 1560,
      "ल्स": 1561,
      "तारी": 1562,
      "ार्थियों": 1563,
      "अल": 1564,
      "निश्": 1565,
      "टने": 1566,
      "आग": 1567,
      "कुर": 1568,
      "नेतृत्व": 1569,
      "जाती": 1570,
      "स्तु": 1571,
      "समझ": 1572,
      "दुकान": 1573,
      "कार्": 1574,
      "सिंग": 1575,
      "ियां": 1576,
      "नियों": 1577,
      "अप्र": 1578,
      "ंदो": 1579,
      "बेहतर": 1580,
      "छोड़": 1581,
      "मॉ": 1582,
      "१३": 1583,
      "कार्यकर्ताओं": 1584,
      "निजी": 1585,
      "लिका": 1586,
      "जिक": 1587,
      "समारोह": 1588,
      "सवाल": 1589,
      "१७": 1590,
      "पंजाब": 1591,
      "करके": 1592,
      "पालन": 1593,
      "एजें": 1594,
      "आर्थ": 1595,
      "प्रशि": 1596,
      "पिता": 1597,
      "डॉक्टर": 1598,
      "संस्था": 1599,
      "लिये": 1600,
      "सूत्र": 1601,
      "प्रभावित": 1602,
      "ह्": 1603,
      "पोस्ट": 1604,
      "बित": 1605,
      "न्यायालय": 1606,
      "लें": 1607,
      "प्ले": 1608,
      "नंबर": 1609,
      "प्राथ": 1610,
      "ूबर": 1611,
      "कारो": 1612,
      "टाइ": 1613,
      "तियों": 1614,
      "लगभग": 1615,
      "धु": 1616,
      "ैल": 1617,
      "ट्रेन": 1618,
      "भवन": 1619,
      "वक्ता": 1620,
      "व्यापार": 1621,
      "दर्श": 1622,
      "एड": 1623,
      "निर्णय": 1624,
      "गरी": 1625,
      "संक्रमण": 1626,
      "वारी": 1627,
      "सियों": 1628,
      "वु": 1629,
      "भेज": 1630,
      "वाहन": 1631,
      "आर्थिक": 1632,
      "रों": 1633,
      "प्रकार": 1634,
      "चरण": 1635,
      "संस्थान": 1636,
      "जीव": 1637,
      "बिना": 1638,
      "द्धि": 1639,
      "टीका": 1640,
      "सिर्फ": 1641,
      "घंटे": 1642,
      "तैना": 1643,
      "आंदो": 1644,
      "बच्": 1645,
      "गयी": 1646,
      "िश": 1647,
      "तरफ": 1648,
      "गंज": 1649,
      "दक्षि": 1650,
      "प्रिय": 1651,
      "योगि": 1652,
      "संक्र": 1653,
      "अच्छ": 1654,
      "जाय": 1655,
      "ट्रा": 1656,
      "पहुंची": 1657,
      "मरीजों": 1658,
      "मुकाब": 1659,
      "टेल": 1660,
      "हिस्सा": 1661,
      "याचि": 1662,
      "हरियाणा": 1663,
      "गल": 1664,
      "देखते": 1665,
      "निदेश": 1666,
      "झार": 1667,
      "दिग्": 1668,
      "फाइन": 1669,
      "धानी": 1670,
      "ट्रै": 1671,
      "करती": 1672,
      "हाद": 1673,
      "समर्थन": 1674,
      "पता": 1675,
      "रहेगा": 1676,
      "देवी": 1677,
      "मिलेगा": 1678,
      "अपरा": 1679,
      "जमी": 1680,
      "प्रदान": 1681,
      "मीटर": 1682,
      "रिंग": 1683,
      "च्छा": 1684,
      "उसकी": 1685,
      "जवाब": 1686,
      "महत्वपूर्ण": 1687,
      "परिसर": 1688,
      "चार्य": 1689,
      "याचिका": 1690,
      "हासिल": 1691,
      "निश्चित": 1692,
      "कत": 1693,
      "पण": 1694,
      "घु": 1695,
      "पड़े": 1696,
      "मैन": 1697,
      "स्ट्रेलिया": 1698,
      "क़": 1699,
      "मोबाइ": 1700,
      "नेशनल": 1701,
      "होकर": 1702,
      "रोजग": 1703,
      "कौ": 1704,
      "हान": 1705,
      "जेल": 1706,
      "फोटो": 1707,
      "राजनीतिक": 1708,
      "ज्य": 1709,
      "पना": 1710,
      "रिक्त": 1711,
      "मोबाइल": 1712,
      "वाही": 1713,
      "राज्यों": 1714,
      "कमे": 1715,
      "ड़ियों": 1716,
      "जवान": 1717,
      "हटा": 1718,
      "महाराष्ट्र": 1719,
      "जोर": 1720,
      "गुप्ता": 1721,
      "सेंटर": 1722,
      "गौर": 1723,
      "पल": 1724,
      "क्षकों": 1725,
      "बाज": 1726,
      "तैयारी": 1727,
      "आंदोलन": 1728,
      "वर्ग": 1729,
      "शुरुआत": 1730,
      "चन": 1731,
      "केवल": 1732,
      "जुड़े": 1733,
      "मतदान": 1734,
      "चिकित्सा": 1735,
      "निवेश": 1736,
      "कीय": 1737,
      "काली": 1738,
      "फीसदी": 1739,
      "प्रत्या": 1740,
      "जुलाई": 1741,
      "आस": 1742,
      "वॉ": 1743,
      "बाल": 1744,
      "भाई": 1745,
      "ष्टि": 1746,
      "वुड": 1747,
      "नल": 1748,
      "आन": 1749,
      "देकर": 1750,
      "श्रे": 1751,
      "सील": 1752,
      "पाए": 1753,
      "जनवरी": 1754,
      "जम्": 1755,
      "क्री": 1756,
      "युवक": 1757,
      "जन्म": 1758,
      "लगी": 1759,
      "भगवान": 1760,
      "एंड": 1761,
      "पत्नी": 1762,
      "नियंत्र": 1763,
      "शिश": 1764,
      "परे": 1765,
      "चुकी": 1766,
      "नियर": 1767,
      "सामा": 1768,
      "भ्र": 1769,
      "उपस्थित": 1770,
      "ख़": 1771,
      "स्टा": 1772,
      "फाई": 1773,
      "लागू": 1774,
      "घायल": 1775,
      "गठ": 1776,
      "बंगा": 1777,
      "कोशिश": 1778,
      "ब्रा": 1779,
      "रक्षा": 1780,
      "झारखंड": 1781,
      "बनी": 1782,
      "प्रतियोगि": 1783,
      "ग्रामीणों": 1784,
      "ंडा": 1785,
      "थाने": 1786,
      "आतंक": 1787,
      "अमेरिकी": 1788,
      "ंका": 1789,
      "ंडी": 1790,
      "विपक्ष": 1791,
      "भेजा": 1792,
      "जम्मू": 1793,
      "ंता": 1794,
      "शान": 1795,
      "करेगी": 1796,
      "आठ": 1797,
      "किल": 1798,
      "प्रत्य": 1799,
      "संक्रमित": 1800,
      "इलाज": 1801,
      "डाय": 1802,
      "र्य": 1803,
      "झे": 1804,
      "शिक्षक": 1805,
      "पूजा": 1806,
      "तस्वी": 1807,
      "भाषा": 1808,
      "पुत्र": 1809,
      "दिसं": 1810,
      "दियों": 1811,
      "दिसंबर": 1812,
      "कारों": 1813,
      "सूची": 1814,
      "द्योग": 1815,
      "फु": 1816,
      "सुधार": 1817,
      "जम": 1818,
      "वितर": 1819,
      "अदालत": 1820,
      "तिहा": 1821,
      "तय": 1822,
      "रल": 1823,
      "जागर": 1824,
      "सव": 1825,
      "हूं": 1826,
      "अगले": 1827,
      "स्थल": 1828,
      "बावजूद": 1829,
      "वापस": 1830,
      "अप्रैल": 1831,
      "धरी": 1832,
      "लिख": 1833,
      "विवाद": 1834,
      "त्मक": 1835,
      "सामाजिक": 1836,
      "खिलाड़ी": 1837,
      "गेंद": 1838,
      "उद्योग": 1839,
      "तला": 1840,
      "भूमिका": 1841,
      "स्कूलों": 1842,
      "जाग": 1843,
      "संबो": 1844,
      "शास": 1845,
      "हमारे": 1846,
      "ड़ों": 1847,
      "लगाए": 1848,
      "जरी": 1849,
      "स्तार": 1850,
      "थीं": 1851,
      "जरूरी": 1852,
      "प्राथमिक": 1853,
      "रोजगार": 1854,
      "कात": 1855,
      "साय": 1856,
      "सुनवाई": 1857,
      "हमला": 1858,
      "ंकन": 1859,
      "हिंद": 1860,
      "खिल": 1861,
      "वैध": 1862,
      "रें": 1863,
      "मामलों": 1864,
      "भोपाल": 1865,
      "वत": 1866,
      "कंपनियों": 1867,
      "अंतरराष्ट्रीय": 1868,
      "लीवुड": 1869,
      "पर्य": 1870,
      "शोक": 1871,
      "यता": 1872,
      "समू": 1873,
      "ंदा": 1874,
      "सप्ता": 1875,
      "सुप्री": 1876,
      "दक्षिण": 1877,
      "बुल": 1878,
      "खू": 1879,
      "तब": 1880,
      "सले": 1881,
      "र्गत": 1882,
      "खास": 1883,
      "जरिए": 1884,
      "तह": 1885,
      "निरीक्षण": 1886,
      "धे": 1887,
      "र्च": 1888,
      "निकल": 1889,
      "वैक्सीन": 1890,
      "याल": 1891,
      "अगस्त": 1892,
      "घोषित": 1893,
      "सितंबर": 1894,
      "प्ला": 1895,
      "बंगाल": 1896,
      "खरीद": 1897,
      "मुलाकात": 1898,
      "मज": 1899,
      "२०२१": 1900,
      "चौधरी": 1901,
      "कमी": 1902,
      "मात्र": 1903,
      "अक्ट": 1904,
      "माता": 1905,
      "न्ना": 1906,
      "शांति": 1907,
      "कदम": 1908,
      "प्रतियोगिता": 1909,
      "अक्टूबर": 1910,
      "समु": 1911,
      "शेयर": 1912,
      "सदस्यों": 1913,
      "ताकि": 1914,
      "आईपी": 1915,
      "अधी": 1916,
      "राजधानी": 1917,
      "टिस": 1918,
      "सप्ताह": 1919,
      "थम": 1920,
      "परियोजना": 1921,
      "सत्र": 1922,
      "अल्": 1923,
      "नवं": 1924,
      "कराई": 1925,
      "बल्ले": 1926,
      "साइट": 1927,
      "टेड": 1928,
      "नवंबर": 1929,
      "छत्": 1930,
      "ुष": 1931,
      "जाते": 1932,
      "चीत": 1933,
      "४०": 1934,
      "स्टी": 1935,
      "जित": 1936,
      "कर्मी": 1937,
      "पौ": 1938,
      "बातचीत": 1939,
      "अर": 1940,
      "लास": 1941,
      "णाम": 1942,
      "करेगा": 1943,
      "अतिरिक्त": 1944,
      "कप्त": 1945,
      "कारा": 1946,
      "उपयोग": 1947,
      "कमेटी": 1948,
      "सिद्ध": 1949,
      "रं": 1950,
      "ठे": 1951,
      "स्मार्ट": 1952,
      "कृष्ण": 1953,
      "छत्तीस": 1954,
      "तैनात": 1955,
      "लाया": 1956,
      "वित्त": 1957,
      "वेब": 1958,
      "चुका": 1959,
      "महामारी": 1960,
      "संजय": 1961,
      "गुज": 1962,
      "ऑस्ट्रेलिया": 1963,
      "केस": 1964,
      "संभावना": 1965,
      "२०२०": 1966,
      "जमीन": 1967,
      "टॉ": 1968,
      "अनुमति": 1969,
      "बारी": 1970,
      "२०१९": 1971,
      "शाला": 1972,
      "हड़": 1973,
      "किलो": 1974,
      "प्रशिक्षण": 1975,
      "इत": 1976,
      "१००": 1977,
      "वर्त": 1978,
      "निंग": 1979,
      "छत्तीसगढ़": 1980,
      "शव": 1981,
      "देर": 1982,
      "शिक्षकों": 1983,
      "ज्ञापन": 1984,
      "पथ": 1985,
      "बर्": 1986,
      "बल्कि": 1987,
      "वरण": 1988,
      "पर्क": 1989,
      "जिन्ह": 1990,
      "पहला": 1991,
      "परिणाम": 1992,
      "पर्या": 1993,
      "नया": 1994,
      "संभा": 1995,
      "शिया": 1996,
      "शक्ति": 1997,
      "नामा": 1998,
      "निर्वा": 1999,
      "यदि": 2000,
      "स्टि": 2001,
      "म्स": 2002,
      "बदला": 2003,
      "२६": 2004,
      "पूर्ति": 2005,
      "कल्या": 2006,
      "कलेक्टर": 2007,
      "शील": 2008,
      "स्थापित": 2009,
      "इनमें": 2010,
      "निर्धार": 2011,
      "्रा": 2012,
      "मैदान": 2013,
      "लेश": 2014,
      "परेशान": 2015,
      "कल्प": 2016,
      "फ्ट": 2017,
      "लिखा": 2018,
      "स्त्र": 2019,
      "पश्चिम": 2020,
      "ंकी": 2021,
      "ंसा": 2022,
      "ल्क": 2023,
      "पहर": 2024,
      "कल्याण": 2025,
      "रन": 2026,
      "स्ट्री": 2027,
      "संवाददाता": 2028,
      "वर्तमान": 2029,
      "अवैध": 2030,
      "यात्रियों": 2031,
      "पुरस्कार": 2032,
      "हमले": 2033,
      ")।": 2034,
      "नीय": 2035,
      "निदेशक": 2036,
      "अग्रवाल": 2037,
      "मिशन": 2038,
      "इलाके": 2039,
      "शराब": 2040,
      "जैन": 2041,
      "गौ": 2042,
      "पें": 2043,
      "केशन": 2044,
      "दोपहर": 2045,
      "पाठ": 2046,
      "परिजनों": 2047,
      "पसं": 2048,
      "जून": 2049,
      "नुक": 2050,
      "बनने": 2051,
      "दस": 2052,
      "रज": 2053,
      "वास्त": 2054,
      "मिन": 2055,
      "सुप्रीम": 2056,
      "दिशा": 2057,
      "पूछ": 2058,
      "घाट": 2059,
      "सफाई": 2060,
      "जागरू": 2061,
      "संबोधित": 2062,
      "शै": 2063,
      "ूड": 2064,
      "वां": 2065,
      "वाज": 2066,
      "गये": 2067,
      "स्ती": 2068,
      "डिग्री": 2069,
      "राहत": 2070,
      "कमा": 2071,
      "सामान्य": 2072,
      "सिस्ट": 2073,
      "दवा": 2074,
      "ारे": 2075,
      "देखने": 2076,
      "वर्षीय": 2077,
      "टीवी": 2078,
      "ल्ला": 2079,
      "फाइनल": 2080,
      "२८": 2081,
      "पहचान": 2082,
      "मई": 2083,
      "देना": 2084,
      "कृत": 2085,
      "वाना": 2086,
      "जाये": 2087,
      "नै": 2088,
      "भीड़": 2089,
      "प्रतिबंध": 2090,
      "२३": 2091,
      "साफ": 2092,
      "धारा": 2093,
      "ऐसी": 2094,
      "रैली": 2095,
      "अपी": 2096,
      "रंग": 2097,
      "ड्यू": 2098,
      "बज": 2099,
      "रहेंगे": 2100,
      "बढ़ाने": 2101,
      "ट्रोल": 2102,
      "बारिश": 2103,
      "र्ति": 2104,
      "मिलेगी": 2105,
      "तहसील": 2106,
      "ट्टी": 2107,
      "अमित": 2108,
      "मंजू": 2109,
      "फरवरी": 2110,
      "संर": 2111,
      "लॉकडाउन": 2112,
      "आईटी": 2113,
      "बंधन": 2114,
      "अच्छा": 2115,
      "सामना": 2116,
      "बॉलीवुड": 2117,
      "चाहते": 2118,
      "कोल": 2119,
      "कार्यकर्ता": 2120,
      "घे": 2121,
      "गैर": 2122,
      "एक्सप्रेस": 2123,
      "सूत्रों": 2124,
      "अर्थ": 2125,
      "फार्": 2126,
      "कीमत": 2127,
      "संपर्क": 2128,
      "एशन": 2129,
      "नुकसान": 2130,
      "चौहान": 2131,
      "सम्मे": 2132,
      "उम": 2133,
      "तोड़": 2134,
      "स्वागत": 2135,
      "आवश्यक": 2136,
      "रजि": 2137,
      "प्रचार": 2138,
      "प्रबंधन": 2139,
      "जिलों": 2140,
      "म्प": 2141,
      "पिक": 2142,
      "पढ़ें": 2143,
      "प्रथम": 2144,
      "इले": 2145,
      "ट्वी": 2146,
      "मजबूत": 2147,
      "गुजरात": 2148,
      "राइ": 2149,
      "दावा": 2150,
      "क्रे": 2151,
      "मोहन": 2152,
      "धो": 2153,
      "इंत": 2154,
      "जिम्मेदारी": 2155,
      "कारोबार": 2156,
      "पटेल": 2157,
      "चले": 2158,
      "पूर": 2159,
      "ग्रे": 2160,
      "मिश्रा": 2161,
      "तकनी": 2162,
      "एक्": 2163,
      "तिवारी": 2164,
      "सम्मेलन": 2165,
      "नारा": 2166,
      "जुर्": 2167,
      "सौं": 2168,
      "यं": 2169,
      "शरी": 2170,
      "शादी": 2171,
      "ार्थी": 2172,
      "पांडे": 2173,
      "स्वामी": 2174,
      "फिल": 2175,
      "शुल्क": 2176,
      "अंतर्गत": 2177,
      "२७": 2178,
      "कड़ी": 2179,
      "निकाल": 2180,
      "आयु": 2181,
      "अपील": 2182,
      "मुख्यालय": 2183,
      "यूनिवर्": 2184,
      "डु": 2185,
      "अध्यक्षता": 2186,
      "जाकर": 2187,
      "उपाध्यक्ष": 2188,
      "मल": 2189,
      "शांत": 2190,
      "रहेगी": 2191,
      "ब्ल": 2192,
      "असल": 2193,
      "ब्यू": 2194,
      "कप्तान": 2195,
      "डिंग": 2196,
      "उसने": 2197,
      "ठाकुर": 2198,
      "तरीके": 2199,
      "विद्यार्थियों": 2200,
      "कभी": 2201,
      "मुस्": 2202,
      "जागरण": 2203,
      "चुना": 2204,
      "कही": 2205,
      "प्रभाव": 2206,
      "कार्यों": 2207,
      "हरि": 2208,
      "तीश": 2209,
      "वोट": 2210,
      "लियों": 2211,
      "दाबाद": 2212,
      "सहायक": 2213,
      "आदित्य": 2214,
      "आगा": 2215,
      "चयन": 2216,
      "सार्": 2217,
      "विश्वास": 2218,
      "कालीन": 2219,
      "हाईकोर्ट": 2220,
      "पारी": 2221,
      "सम्मानित": 2222,
      "सहायता": 2223,
      "भुगत": 2224,
      "सुनी": 2225,
      "आवास": 2226,
      "द्योगि": 2227,
      "उंड": 2228,
      "खुला": 2229,
      "्व": 2230,
      "दीन": 2231,
      "िका": 2232,
      "निश": 2233,
      "बच्चे": 2234,
      "दारों": 2235,
      "पदों": 2236,
      "निर्धारित": 2237,
      "आखि": 2238,
      "कक्षा": 2239,
      "भागी": 2240,
      "फ्री": 2241,
      "पीड़ित": 2242,
      "एजेंसी": 2243,
      "अली": 2244,
      "प्रस्तु": 2245,
      "ट्वीट": 2246,
      "व्": 2247,
      "प्रयोग": 2248,
      "भविष": 2249,
      "मरा": 2250,
      "विज्ञान": 2251,
      "भविष्य": 2252,
      "हमें": 2253,
      "लगाई": 2254,
      "छात्राओं": 2255,
      "दास": 2256,
      "उसका": 2257,
      "रिक": 2258,
      "ट्री": 2259,
      "बीएस": 2260,
      "अनि": 2261,
      "हिमा": 2262,
      "कित": 2263,
      "रीय": 2264,
      "वाहनों": 2265,
      "समीक्षा": 2266,
      "खर": 2267,
      "सुरक्षित": 2268,
      "फैसले": 2269,
      "खत्म": 2270,
      "चंद": 2271,
      "न्य": 2272,
      "विर": 2273,
      "मेर": 2274,
      "शंकर": 2275,
      "चार्": 2276,
      "पीछे": 2277,
      "युक्ति": 2278,
      "बाइक": 2279,
      "वितरण": 2280,
      "अशोक": 2281,
      "कोत": 2282,
      "स्वयं": 2283,
      "पटना": 2284,
      "साह": 2285,
      "हिन्": 2286,
      "प्राइ": 2287,
      "वेबसाइट": 2288,
      "यूनिवर्सिटी": 2289,
      "वासियों": 2290,
      "बाग": 2291,
      "जिसे": 2292,
      "प्रत्याशी": 2293,
      "सीय": 2294,
      "वर्मा": 2295,
      "स्वतंत्र": 2296,
      "गतिविधि": 2297,
      "वधान": 2298,
      "प्रार": 2299,
      "तेजी": 2300,
      "दृ": 2301,
      "मुकद": 2302,
      "इंग्": 2303,
      "साहित": 2304,
      "क्रो": 2305,
      "आर्": 2306,
      "स्तरीय": 2307,
      "प्रवक्ता": 2308,
      "चुनौ": 2309,
      "गंगा": 2310,
      "जाति": 2311,
      "यात": 2312,
      "छु": 2313,
      "त्ति": 2314,
      "संचालन": 2315,
      "ोर": 2316,
      "विषय": 2317,
      "लक्ष्य": 2318,
      "सपा": 2319,
      "खिलाड़ियों": 2320,
      "टीकाकरण": 2321,
      "किये": 2322,
      "सुनिश्चित": 2323,
      "पुरुष": 2324,
      "फिलहाल": 2325,
      "प्रत्येक": 2326,
      "ट्रांस": 2327,
      "जमकर": 2328,
      "पाया": 2329,
      "एसो": 2330,
      "पियन": 2331,
      "छोटे": 2332,
      "सफलता": 2333,
      "समूह": 2334,
      "वनी": 2335,
      "रिश्": 2336,
      "शिप": 2337,
      "सर्व": 2338,
      "तुल": 2339,
      "बदलाव": 2340,
      "वेद": 2341,
      "घन": 2342,
      "संस्कृ": 2343,
      "मक": 2344,
      "देखा": 2345,
      "असर": 2346,
      "बारा": 2347,
      "ऑफि": 2348,
      "शही": 2349,
      "लिम": 2350,
      "आपके": 2351,
      "०००": 2352,
      "क्सीजन": 2353,
      "ार्ड": 2354,
      "क्षमता": 2355,
      "प्रि": 2356,
      "सुपर": 2357,
      "कैसे": 2358,
      "बेहद": 2359,
      "र्क": 2360,
      "इंजी": 2361,
      "रोकने": 2362,
      "मुकाबले": 2363,
      "धू": 2364,
      "पुरी": 2365,
      "नियंत्रण": 2366,
      "पीट": 2367,
      "मजदूर": 2368,
      "आयुक्त": 2369,
      "ायण": 2370,
      "गार": 2371,
      "बुक": 2372,
      "जिटिव": 2373,
      "दिल": 2374,
      "श्रद्धालु": 2375,
      "आं": 2376,
      "म्मद": 2377,
      "वहन": 2378,
      "धीश": 2379,
      "कप": 2380,
      "रॉ": 2381,
      "माने": 2382,
      "ताछ": 2383,
      "आरोपित": 2384,
      "अफसर": 2385,
      "एसोसि": 2386,
      "इट": 2387,
      "नक्स": 2388,
      "प्रताप": 2389,
      "विकेट": 2390,
      "टिकट": 2391,
      "नोटिस": 2392,
      "मूर्ति": 2393,
      "कोह": 2394,
      "शुभ": 2395,
      "ढा": 2396,
      "मरीज": 2397,
      "तलब": 2398,
      "बराम": 2399,
      "सर्वे": 2400,
      "कब्": 2401,
      "२९": 2402,
      "न्याया": 2403,
      "पूछताछ": 2404,
      "इंद": 2405,
      "मनी": 2406,
      "सलाह": 2407,
      "विस्तार": 2408,
      "मुश्": 2409,
      "योजनाओं": 2410,
      "विमान": 2411,
      "बच": 2412,
      "सिया": 2413,
      "टेन": 2414,
      "कालेज": 2415,
      "होम": 2416,
      "वजनिक": 2417,
      "सार्वजनिक": 2418,
      "ण्ड": 2419,
      "थो": 2420,
      "मला": 2421,
      "दिख": 2422,
      "प्रखंड": 2423,
      "पुन": 2424,
      "नरे": 2425,
      "रिकॉ": 2426,
      "बदल": 2427,
      "३१": 2428,
      "पंजी": 2429,
      "अच्छी": 2430,
      "बजट": 2431,
      "ुप": 2432,
      "दोष": 2433,
      "वक्त": 2434,
      "राज्यपाल": 2435,
      "सकेंगे": 2436,
      "गोली": 2437,
      "संबंधी": 2438,
      "दिवसीय": 2439,
      "पदाधिकारी": 2440,
      "ट्यू": 2441,
      "नईदुनिया": 2442,
      "किशो": 2443,
      "नियमों": 2444,
      "क्रिय": 2445,
      "नियुक्ति": 2446,
      "इन्": 2447,
      "टरी": 2448,
      "सरा": 2449,
      "क्रा": 2450,
      "मौसम": 2451,
      "वृद्धि": 2452,
      "प्रियंका": 2453,
      "नाराज": 2454,
      "मुस्लिम": 2455,
      "द्वार": 2456,
      "र्जा": 2457,
      "रोग": 2458,
      "दय": 2459,
      "आरोपियों": 2460,
      "कने": 2461,
      "लपुर": 2462,
      "सों": 2463,
      "बनाकर": 2464,
      "युवाओं": 2465,
      "अफग": 2466,
      "एसडीएम": 2467,
      "मध्यप्रदेश": 2468,
      "बरामद": 2469,
      "छि": 2470,
      "हथ": 2471,
      "ताब": 2472,
      "मास्क": 2473,
      "स्थापना": 2474,
      "भुगतान": 2475,
      "२०१८": 2476,
      "सेक्टर": 2477,
      "जैसी": 2478,
      "इलाकों": 2479,
      "पन्न": 2480,
      "श्रम": 2481,
      "स्वच्छ": 2482,
      "हल": 2483,
      "धिक": 2484,
      "ष्टा": 2485,
      "ग्रहण": 2486,
      "ड़ने": 2487,
      "द्वि": 2488,
      "आपूर्ति": 2489,
      "हेल्": 2490,
      "७०": 2491,
      "पीठ": 2492,
      "दिखाई": 2493,
      "यानी": 2494,
      "माइ": 2495,
      "संकट": 2496,
      "बनाई": 2497,
      "पार्ट": 2498,
      "काउं": 2499,
      "अधीक्षक": 2500,
      "खर्च": 2501,
      "शिविर": 2502,
      "वेज": 2503,
      "केंद्रों": 2504,
      "संगठ": 2505,
      "पत्ति": 2506,
      "गठबंधन": 2507,
      "नामांकन": 2508,
      "रखी": 2509,
      "रायपुर": 2510,
      "पॉजिटिव": 2511,
      "६०": 2512,
      "लड़ा": 2513,
      "करार": 2514,
      "जर्": 2515,
      "शू": 2516,
      "फाइ": 2517,
      "वास्तव": 2518,
      "न्यायाधीश": 2519,
      "महासचिव": 2520,
      "कहीं": 2521,
      "िता": 2522,
      "ानिस्तान": 2523,
      "मुद्दे": 2524,
      "अंदर": 2525,
      "इन्ह": 2526,
      "अजय": 2527,
      "विल": 2528,
      "विशेषज्ञ": 2529,
      "नारायण": 2530,
      "धिकारियों": 2531,
      "खार": 2532,
      "मशी": 2533,
      "वेतन": 2534,
      "समाप्त": 2535,
      "आंक": 2536,
      "खराब": 2537,
      "उम्मीदवारों": 2538,
      "मनाया": 2539,
      "डू": 2540,
      "मर्": 2541,
      "स्पि": 2542,
      "प्रमाण": 2543,
      "कॉन्": 2544,
      "जॉ": 2545,
      "आसपास": 2546,
      "इंग्लैंड": 2547,
      "सही": 2548,
      "तीनों": 2549,
      "ट्रंप": 2550,
      "पहुंचने": 2551,
      "जिलाधिकारी": 2552,
      "र्ना": 2553,
      "नौकरी": 2554,
      "विदेशी": 2555,
      "रिकॉर्ड": 2556,
      "स्टार": 2557,
      "सक्रिय": 2558,
      "हंगा": 2559,
      "लेते": 2560,
      "डियम": 2561,
      "हमारी": 2562,
      "आनंद": 2563,
      "ंडर": 2564,
      "तोष": 2565,
      "इका": 2566,
      "अभ्य": 2567,
      "नॉ": 2568,
      "विधायकों": 2569,
      "एसोसिएशन": 2570,
      "तीसरे": 2571,
      "स्थानों": 2572,
      "मिलकर": 2573,
      "चोरी": 2574,
      "सख्": 2575,
      "स्टूड": 2576,
      "स्तानी": 2577,
      "बेड": 2578,
      "ठीक": 2579,
      "आय": 2580,
      "मौका": 2581,
      "दरअसल": 2582,
      "अनिल": 2583,
      "ओवर": 2584,
      "चढ़": 2585,
      "फर्जी": 2586,
      "सत्ता": 2587,
      "रहते": 2588,
      "वती": 2589,
      "मंच": 2590,
      "यही": 2591,
      "सब्": 2592,
      "वर्तन": 2593,
      "बताते": 2594,
      "नियमित": 2595,
      "वेट": 2596,
      "ंसी": 2597,
      "आश्": 2598,
      "नदी": 2599,
      "ौल": 2600,
      "पाई": 2601,
      "राजेश": 2602,
      "बिल": 2603,
      "उपभो": 2604,
      "प्रेर": 2605,
      "वार्ता": 2606,
      "मोहम्मद": 2607,
      "अखि": 2608,
      "काता": 2609,
      "वेस्ट": 2610,
      "उपचार": 2611,
      "दौरे": 2612,
      "उत्पादन": 2613,
      "मंजूरी": 2614,
      "इस्ती": 2615,
      "फेस": 2616,
      "कराए": 2617,
      "इंडि": 2618,
      "कोतवाली": 2619,
      "इंदौर": 2620,
      "उन्": 2621,
      "सीबीआई": 2622,
      "रीज": 2623,
      "लगाकर": 2624,
      "धार्": 2625,
      "बद्ध": 2626,
      "मुक्त": 2627,
      "घाटन": 2628,
      "दस्ता": 2629,
      "विरा": 2630,
      "हाउस": 2631,
      "पालिका": 2632,
      "खूब": 2633,
      "इतिहा": 2634,
      "स्ते": 2635,
      "र्न": 2636,
      "्यु": 2637,
      "जेक्ट": 2638,
      "धार्मिक": 2639,
      "बेटी": 2640,
      "आगामी": 2641,
      "गोरख": 2642,
      "हिंसा": 2643,
      "मारा": 2644,
      "अखिलेश": 2645,
      "रवाना": 2646,
      "लिस्ट": 2647,
      "देश्य": 2648,
      "आरपी": 2649,
      "इतिहास": 2650,
      "बंदी": 2651,
      "आती": 2652,
      "सजा": 2653,
      "दूरी": 2654,
      "समस्याओं": 2655,
      "कोलकाता": 2656,
      "वायु": 2657,
      "साध": 2658,
      "वर्क": 2659,
      "गुण": 2660,
      "गांवों": 2661,
      "पढ़े": 2662,
      "हमे": 2663,
      "त्सव": 2664,
      "जयपुर": 2665,
      "मिनट": 2666,
      "नाटक": 2667,
      "सैनि": 2668,
      "ेंगी": 2669,
      "सुना": 2670,
      "चौक": 2671,
      "परेशानी": 2672,
      "फॉर्म": 2673,
      "समझौ": 2674,
      "गठन": 2675,
      "क्ला": 2676,
      "बाबा": 2677,
      "बीते": 2678,
      "ंग्ला": 2679,
      "बान": 2680,
      "शीर्ष": 2681,
      "बचाव": 2682,
      "अपराध": 2683,
      "चित्र": 2684,
      "इस्ला": 2685,
      "एसटी": 2686,
      "लंबित": 2687,
      "रान": 2688,
      "राजीव": 2689,
      "मंडी": 2690,
      "मुकदमा": 2691,
      "१९९": 2692,
      "आदित्यनाथ": 2693,
      "कोर": 2694,
      "संत": 2695,
      "ज्यो": 2696,
      "शानदार": 2697,
      "निर्वाचन": 2698,
      "कृति": 2699,
      "लक्ष्": 2700,
      "ष्टाचार": 2701,
      "धम": 2702,
      "घरों": 2703,
      "()": 2704,
      "क्यू": 2705,
      "एसएस": 2706,
      "आतंकी": 2707,
      "चेयर": 2708,
      "यालयों": 2709,
      "वैज्ञान": 2710,
      "मृत": 2711,
      "जताई": 2712,
      "तत्काल": 2713,
      "जवानों": 2714,
      "अरवि": 2715,
      "श्न": 2716,
      "शोध": 2717,
      "नती": 2718,
      "३५": 2719,
      "सीटों": 2720,
      "उद्देश्य": 2721,
      "बांग्ला": 2722,
      "टेक्": 2723,
      "सिस्टम": 2724,
      "अध्य": 2725,
      "केजरी": 2726,
      "निभा": 2727,
      "सलमान": 2728,
      "छू": 2729,
      "दमी": 2730,
      "स्कर": 2731,
      "डिजि": 2732,
      "निप": 2733,
      "ियार": 2734,
      "हिमाचल": 2735,
      "आत्म": 2736,
      "हार्": 2737,
      "गड़": 2738,
      "स्पी": 2739,
      "वालि": 2740,
      "बेटे": 2741,
      "पत्रकार": 2742,
      "मनोज": 2743,
      "हमेशा": 2744,
      "ऑक्सीजन": 2745,
      "तिथि": 2746,
      "केजरीवाल": 2747,
      "स्पष्ट": 2748,
      "लकर": 2749,
      "लापर": 2750,
      "नियुक्त": 2751,
      "टिप्": 2752,
      "क्षेत्रीय": 2753,
      "धाम": 2754,
      "इलेक्ट्र": 2755,
      "ऑपरे": 2756,
      "ेंट्स": 2757,
      "लेंगे": 2758,
      "मौजू": 2759,
      "स्टेट": 2760,
      "रावत": 2761,
      "नू": 2762,
      "मैने": 2763,
      "सड़कों": 2764,
      "उद्घाटन": 2765,
      "दम": 2766,
      "लिमि": 2767,
      "उनसे": 2768,
      "डीसी": 2769,
      "संघर्ष": 2770,
      "अतिथि": 2771,
      "गज": 2772,
      "चू": 2773,
      "तमाम": 2774,
      "दश": 2775,
      "वानी": 2776,
      "परिवहन": 2777,
      "ंजलि": 2778,
      "हथियार": 2779,
      "तेल": 2780,
      "ग्राह": 2781,
      "खुलासा": 2782,
      "संचालित": 2783,
      "मौजूदा": 2784,
      "८०": 2785,
      "डीओ": 2786,
      "ंती": 2787,
      "वाने": 2788,
      "चिंता": 2789,
      "पर्व": 2790,
      "चैं": 2791,
      "विकसित": 2792,
      "उल्लेख": 2793,
      "सिविल": 2794,
      "ंची": 2795,
      "अस्पता": 2796,
      "भ्रष्टाचार": 2797,
      "संशो": 2798,
      "पहल": 2799,
      "डीपी": 2800,
      "स्पेशल": 2801,
      "सामान": 2802,
      "पात": 2803,
      "जनपद": 2804,
      "धरना": 2805,
      "निशाना": 2806,
      "ग्रुप": 2807,
      "चेता": 2808,
      "किलोमीटर": 2809,
      "ेंड": 2810,
      "निगर": 2811,
      "भारती": 2812,
      "सर्वि": 2813,
      "देंगे": 2814,
      "शौ": 2815,
      "क्कर": 2816,
      "गरीब": 2817,
      "कथ": 2818,
      "पाने": 2819,
      "चुनौती": 2820,
      "अस्पतालों": 2821,
      "निगरानी": 2822,
      "हरे": 2823,
      "ूप": 2824,
      "मानव": 2825,
      "टिक": 2826,
      "दूसरा": 2827,
      "करनी": 2828,
      "संसद": 2829,
      "मूल्य": 2830,
      "इंडियन": 2831,
      "बरा": 2832,
      "प्रेम": 2833,
      "अमर": 2834,
      "रानी": 2835,
      "दून": 2836,
      "समाधान": 2837,
      "सीरीज": 2838,
      "संभव": 2839,
      "मारपीट": 2840,
      "ब्लॉक": 2841,
      "आईए": 2842,
      "चुनावी": 2843,
      "ज्योति": 2844,
      "परीक्षण": 2845,
      "२०१७": 2846,
      "पशु": 2847,
      "कोच": 2848,
      "मंड": 2849,
      "लोड": 2850,
      "स्टेडियम": 2851,
      "शहीद": 2852,
      "दलों": 2853,
      "हेतु": 2854,
      "मद्": 2855,
      "सवार": 2856,
      "चालक": 2857,
      "इनके": 2858,
      "फ्रा": 2859,
      "विद्यु": 2860,
      "अफगानिस्तान": 2861,
      "पत": 2862,
      "मेश": 2863,
      "मोर्चा": 2864,
      "रखते": 2865,
      "नागरिक": 2866,
      "गौरतलब": 2867,
      "इड": 2868,
      "कपूर": 2869,
      "४५": 2870,
      "डिजिटल": 2871,
      "आवश्यकता": 2872,
      "नागरिकों": 2873,
      "आउ": 2874,
      "स्वीकार": 2875,
      "बीर": 2876,
      "कमि": 2877,
      "प्रसार": 2878,
      "होनी": 2879,
      "दुष्": 2880,
      "कमल": 2881,
      "पाकिस्तानी": 2882,
      "पढ़ाई": 2883,
      "टूर्ना": 2884,
      "योग्य": 2885,
      "मशीन": 2886,
      "शर": 2887,
      "ब्ल्यू": 2888,
      "दरा": 2889,
      "संपत्ति": 2890,
      "डीए": 2891,
      "महान": 2892,
      "विद्यालयों": 2893,
      "मुझे": 2894,
      "दाताओं": 2895,
      "व्यक्त": 2896,
      "बांग्लादेश": 2897,
      "हल्": 2898,
      "ब्ला": 2899,
      "यात्री": 2900,
      "न्स": 2901,
      "हिक": 2902,
      "निष्": 2903,
      "गैस": 2904,
      "एयरपोर्ट": 2905,
      "हड़ताल": 2906,
      "कोहली": 2907,
      "अरु": 2908,
      "धियों": 2909,
      "अनुर": 2910,
      "प्रोजेक्ट": 2911,
      "गिरफ्तारी": 2912,
      "गोरखपुर": 2913,
      "बैं": 2914,
      "स्टाफ": 2915,
      "डब्ल्यू": 2916,
      "साबित": 2917,
      "पुल": 2918,
      "पर्यावरण": 2919,
      "अध्ययन": 2920,
      "ंदन": 2921,
      "बेच": 2922,
      "वैश्": 2923,
      "श्रीवास्तव": 2924,
      "आधारित": 2925,
      "लिमिटेड": 2926,
      "टूर्नामेंट": 2927,
      "एशिया": 2928,
      "रखे": 2929,
      "नेश": 2930,
      "रिट": 2931,
      "हालत": 2932,
      "क्ताओं": 2933,
      "गाय": 2934,
      "मंत्रियों": 2935,
      "एमसी": 2936,
      "प्रारंभ": 2937,
      "लापरवाही": 2938,
      "शपथ": 2939,
      "माश": 2940,
      "मिलना": 2941,
      "अब्": 2942,
      "आत्": 2943,
      "कहते": 2944,
      "लोनी": 2945,
      "चुनावों": 2946,
      "नारे": 2947,
      "दुर्घटना": 2948,
      "ड्यूटी": 2949,
      "आते": 2950,
      "आईसी": 2951,
      "हिंदू": 2952,
      "घरे": 2953,
      "बें": 2954,
      "सेल्": 2955,
      "किस": 2956,
      "पार्क": 2957,
      "दौरा": 2958,
      "दायिक": 2959,
      "ण्": 2960,
      "नान": 2961,
      "योध्या": 2962,
      "आजा": 2963,
      "तें": 2964,
      "नवी": 2965,
      "विजे": 2966,
      "जनरल": 2967,
      "वायरल": 2968,
      "सुख": 2969,
      "प्रकरण": 2970,
      "राकेश": 2971,
      "खाद्य": 2972,
      "फायदा": 2973,
      "अनिवार": 2974,
      "वसू": 2975,
      "अनिवार्य": 2976,
      "दबाव": 2977,
      "संदिग्": 2978,
      "डिप्": 2979,
      "जिसका": 2980,
      "बदमाश": 2981,
      "आईपीएल": 2982,
      "पान": 2983,
      "वर्ल्ड": 2984,
      "सुनील": 2985,
      "करि": 2986,
      "लेट": 2987,
      "वैश्विक": 2988,
      "षेक": 2989,
      "रहती": 2990,
      "प्रोफे": 2991,
      "हराया": 2992,
      "संगठनों": 2993,
      "अयोध्या": 2994,
      "वाड़ा": 2995,
      "तापमान": 2996,
      "हवाई": 2997,
      "न्व": 2998,
      "द्द": 2999,
      "विरोधी": 3000,
      "्यास": 3001,
      "बिनेट": 3002,
      "लाइट": 3003,
      "संस्कृति": 3004,
      "तू": 3005,
      "सिर": 3006,
      "कियों": 3007,
      "पैदा": 3008,
      "रंजन": 3009,
      "पांडेय": 3010,
      "संदिग्ध": 3011,
      "बं": 3012,
      "ममता": 3013,
      "कैंप": 3014,
      "हंगामा": 3015,
      "पब्": 3016,
      "रेट": 3017,
      "लंका": 3018,
      "अभिने": 3019,
      "नीतीश": 3020,
      "कर्ता": 3021,
      "सहयोगी": 3022,
      "आउट": 3023,
      "आशी": 3024,
      "भक्त": 3025,
      "रात्रि": 3026,
      "संदेश": 3027,
      "इंस": 3028,
      "कानपुर": 3029,
      "पेंशन": 3030,
      "हाबाद": 3031,
      "शियों": 3032,
      "गेट": 3033,
      "सदर": 3034,
      "धिकारिक": 3035,
      "बलों": 3036,
      "नीचे": 3037,
      "राजस्व": 3038,
      "चंडी": 3039,
      "ट्वि": 3040,
      "जयंती": 3041,
      "सामग्री": 3042,
      "रहीं": 3043,
      "मानी": 3044,
      "युद्ध": 3045,
      "अध्या": 3046,
      "नवा": 3047,
      "हैया": 3048,
      "हिर": 3049,
      "चेतावनी": 3050,
      "जिया": 3051,
      "दाखिल": 3052,
      "न्यूज": 3053,
      "अम": 3054,
      "अंग्र": 3055,
      "चैंपियन": 3056,
      "आधिकारिक": 3057,
      "सत्य": 3058,
      "हिरा": 3059,
      "विभागों": 3060,
      "उम्र": 3061,
      "गार्ड": 3062,
      "जुड़ी": 3063,
      "जिन्होंने": 3064,
      "मित्र": 3065,
      "वर्ण": 3066,
      "एससी": 3067,
      "अंक": 3068,
      "कवि": 3069,
      "संग्र": 3070,
      "कैबिनेट": 3071,
      "पदाधिकारियों": 3072,
      "उल्लं": 3073,
      "शरीर": 3074,
      "एंगे": 3075,
      "िंग": 3076,
      "केदार": 3077,
      "वासन": 3078,
      "वर्षों": 3079,
      "स्टूडेंट्स": 3080,
      "मद्दे": 3081,
      "अंग्रे": 3082,
      "डायरे": 3083,
      "समुदाय": 3084,
      "वित्": 3085,
      "पार्षद": 3086,
      "प्रबंधक": 3087,
      "प्रशास": 3088,
      "परिवर्तन": 3089,
      "वहार": 3090,
      "लॉन्": 3091,
      "महो": 3092,
      "विवा": 3093,
      "निरा": 3094,
      "म्बर": 3095,
      "जुट": 3096,
      "महिलाएं": 3097,
      "उठाया": 3098,
      "अरविंद": 3099,
      "प्रणा": 3100,
      "मुश्किल": 3101,
      "फेसबुक": 3102,
      "अपर": 3103,
      "सेज": 3104,
      "संतोष": 3105,
      "समान": 3106,
      "उल्लंघन": 3107,
      "वकी": 3108,
      "ाम": 3109,
      "पहुंचकर": 3110,
      "होंगी": 3111,
      "जर्स": 3112,
      "पड़ी": 3113,
      "कानों": 3114,
      "सागर": 3115,
      "चौरा": 3116,
      "रणनीति": 3117,
      "अच्छे": 3118,
      "विद्युत": 3119,
      "गलत": 3120,
      "पूजन": 3121,
      "२०१४": 3122,
      "जिम्मेदार": 3123,
      "संरक्षण": 3124,
      "गतिविधियों": 3125,
      "घरेलू": 3126,
      "वित्तीय": 3127,
      "ईओ": 3128,
      "उतार": 3129,
      "दित": 3130,
      "शाखा": 3131,
      "बिक्री": 3132,
      "शुभार": 3133,
      "शंका": 3134,
      "स्मार्टफोन": 3135,
      "इमर": 3136,
      "लियन": 3137,
      "निधन": 3138,
      "जनक": 3139,
      "गईं": 3140,
      "इयों": 3141,
      "उत": 3142,
      "तलाश": 3143,
      "इंतजार": 3144,
      "स्वतंत्रता": 3145,
      "इन्हें": 3146,
      "कर्नाटक": 3147,
      "जिलाध्यक्ष": 3148,
      "हमने": 3149,
      "चौकी": 3150,
      "रोज": 3151,
      "चय": 3152,
      "गाड़ी": 3153,
      "पुराने": 3154,
      "िज": 3155,
      "वादियों": 3156,
      "हाँ": 3157,
      "मुज": 3158,
      "क्लब": 3159,
      "फिया": 3160,
      "रुद्ध": 3161,
      "तुर": 3162,
      "षित": 3163,
      "कांड": 3164,
      "चलाया": 3165,
      "अरब": 3166,
      "अर्थव्यवस्था": 3167,
      "चेयरमैन": 3168,
      "सारी": 3169,
      "कोट": 3170,
      "श्रीलंका": 3171,
      "बल्लेबाज": 3172,
      "ंटी": 3173,
      "णसी": 3174,
      "भरो": 3175,
      "क्षर": 3176,
      "ुरी": 3177,
      "लंबे": 3178,
      "वाराणसी": 3179,
      "कामना": 3180,
      "स्त्री": 3181,
      "कार्यवाही": 3182,
      "श्रद्धालुओं": 3183,
      "उसी": 3184,
      "फंड": 3185,
      "सूचित": 3186,
      "अमरी": 3187,
      "पंड": 3188,
      "७५": 3189,
      "जोन": 3190,
      "चीनी": 3191,
      "आगरा": 3192,
      "कांत": 3193,
      "बोले": 3194,
      "पदक": 3195,
      "टों": 3196,
      "ताला": 3197,
      "राजकीय": 3198,
      "हादसे": 3199,
      "पर्यटन": 3200,
      "उर्फ": 3201,
      "गन": 3202,
      "टिया": 3203,
      "मद्देनजर": 3204,
      "मुजफ्": 3205,
      "जमान": 3206,
      "रद्द": 3207,
      "दीपक": 3208,
      "रूम": 3209,
      "सौंप": 3210,
      "प्रस्तुत": 3211,
      "चंडीगढ़": 3212,
      "हिरासत": 3213,
      "ेंडर": 3214,
      "हालात": 3215,
      "हिस्से": 3216,
      "काउंट": 3217,
      "श्रेणी": 3218,
      "तस्वीर": 3219,
      "विराट": 3220,
      "अश्": 3221,
      "ैंड": 3222,
      "सीधे": 3223,
      "नियां": 3224,
      "र्डर": 3225,
      "२०१६": 3226,
      "जायेगा": 3227,
      "उठ": 3228,
      "नतम": 3229,
      "क्का": 3230,
      "प्रदर्श": 3231,
      "दिव्या": 3232,
      "सिन्": 3233,
      "एनएस": 3234,
      "निरीक्षक": 3235,
      "खड़े": 3236,
      "समक्ष": 3237,
      "पेट": 3238,
      "आरक्षण": 3239,
      "उक्त": 3240,
      "श्या": 3241,
      "निर": 3242,
      "पीसी": 3243,
      "कथित": 3244,
      "ख्य": 3245,
      "बधा": 3246,
      "द्रा": 3247,
      "ड्राइ": 3248,
      "पसंद": 3249,
      "प्राइवेट": 3250,
      "पब्लिक": 3251,
      "यस": 3252,
      "माया": 3253,
      "प्रतिमा": 3254,
      "बढ़ावा": 3255,
      "संगी": 3256,
      "प्रशासनिक": 3257,
      "मुजफ्फर": 3258,
      "अफ्री": 3259,
      "प्रदू": 3260,
      "समाजवादी": 3261,
      "डॉक्टरों": 3262,
      "अभिनेत्री": 3263,
      "प्रणाली": 3264,
      "बाई": 3265,
      "लीज": 3266,
      "रीन": 3267,
      "ब्रिटेन": 3268,
      "उड़": 3269,
      "हारी": 3270,
      "सैन्य": 3271,
      "हजारों": 3272,
      "टका": 3273,
      "जोशी": 3274,
      "बनर्जी": 3275,
      "मान्यता": 3276,
      "इस्तीफा": 3277,
      "अने": 3278,
      "चक्र": 3279,
      "यंस": 3280,
      "आरटी": 3281,
      "डॉलर": 3282,
      "ज्ञात": 3283,
      "आशंका": 3284,
      "उचित": 3285,
      "धर्": 3286,
      "धिकरण": 3287,
      "टिफि": 3288,
      "वली": 3289,
      "प्लेट": 3290,
      "सौंपा": 3291,
      "ऊर्जा": 3292,
      "चक": 3293,
      "जला": 3294,
      "पृ": 3295,
      "सर्च": 3296,
      "उतर": 3297,
      "सॉ": 3298,
      "दाम": 3299,
      "ब्रे": 3300,
      "दै": 3301,
      "विन": 3302,
      "क्षी": 3303,
      "न्द": 3304,
      "बढ़े": 3305,
      "कैप्": 3306,
      "मात्रा": 3307,
      "ट्विटर": 3308,
      "शुभारंभ": 3309,
      "वाय": 3310,
      "स्वरूप": 3311,
      "समाचार": 3312,
      "तुर्": 3313,
      "शिवराज": 3314,
      "प्लांट": 3315,
      "सुझा": 3316,
      "जिनमें": 3317,
      "कठ": 3318,
      "सेन": 3319,
      "देहरा": 3320,
      "होटल": 3321,
      "परिस्थिति": 3322,
      "छापे": 3323,
      "फुट": 3324,
      "बैंकों": 3325,
      "किर": 3326,
      "विवे": 3327,
      "हाइ": 3328,
      "संविधान": 3329,
      "हरण": 3330,
      "गोपाल": 3331,
      "जागरूकता": 3332,
      "चार्ज": 3333,
      "अफसरों": 3334,
      "अथ": 3335,
      "सेल": 3336,
      "मेले": 3337,
      "किशोर": 3338,
      "राजा": 3339,
      "ल्या": 3340,
      "मेह": 3341,
      "लाखों": 3342,
      "पकड़": 3343,
      "कानूनी": 3344,
      "बचाने": 3345,
      "दुष्कर्म": 3346,
      "प्रमो": 3347,
      "मांगी": 3348,
      "संशोधन": 3349,
      "बीमार": 3350,
      "खाने": 3351,
      "महाविद्यालय": 3352,
      "स्ट्रेशन": 3353,
      "अहमद": 3354,
      "ंटा": 3355,
      "स्ति": 3356,
      "क्सर": 3357,
      "खाली": 3358,
      "डीजी": 3359,
      "योगदान": 3360,
      "सांस्कृ": 3361,
      "माहौल": 3362,
      "कारात्मक": 3363,
      "मती": 3364,
      "जिसकी": 3365,
      "लिखित": 3366,
      "ऑटो": 3367,
      "ानों": 3368,
      "गाइड": 3369,
      "रेशन": 3370,
      "जागरूक": 3371,
      "इंस्पे": 3372,
      "झू": 3373,
      "पुष्टि": 3374,
      "व्यवहार": 3375,
      "हटाने": 3376,
      "ब्यूरो": 3377,
      "विवाह": 3378,
      "अधिनियम": 3379,
      "आरसी": 3380,
      "समझा": 3381,
      "वेदी": 3382,
      "व्यापारियों": 3383,
      "चली": 3384,
      "भीतर": 3385,
      "ट्रेनों": 3386,
      "कार्यक्रमों": 3387,
      "निकाली": 3388,
      "ऊपर": 3389,
      "हस्ता": 3390,
      "बाकी": 3391,
      "भाष": 3392,
      "राज्यसभा": 3393,
      "कॉम": 3394,
      "ड्डा": 3395,
      "मॉडल": 3396,
      "देहरादून": 3397,
      "याता": 3398,
      "दुकानों": 3399,
      "ंकियों": 3400,
      "प्रयाग": 3401,
      "जब्": 3402,
      "लॉजी": 3403,
      "इकाई": 3404,
      "सांस्कृतिक": 3405,
      "धिया": 3406,
      "दायर": 3407,
      "चलने": 3408,
      "सैक": 3409,
      "नक": 3410,
      "बढ़ने": 3411,
      "गणना": 3412,
      "बधाई": 3413,
      "सेव": 3414,
      "लेन": 3415,
      "नित": 3416,
      "पुस्त": 3417,
      "बिलास": 3418,
      "ज़ा": 3419,
      "भोजन": 3420,
      "तकनीकी": 3421,
      "लड़ाई": 3422,
      "विजेता": 3423,
      "जस्टि": 3424,
      "विकल्प": 3425,
      "बाला": 3426,
      "कुमारी": 3427,
      "दिक": 3428,
      "फिल्मों": 3429,
      "आश्वासन": 3430,
      "आकर्": 3431,
      "रखें": 3432,
      "खुले": 3433,
      "तस्वीरें": 3434,
      "कस्": 3435,
      "फार": 3436,
      "बायो": 3437,
      "कॉल": 3438,
      "यातायात": 3439,
      "्यूटर": 3440,
      "ंतर": 3441,
      "कक्ष": 3442,
      "बत": 3443,
      "ानु": 3444,
      "पात्र": 3445,
      "एंटी": 3446,
      "शुक्ला": 3447,
      "उत्पाद": 3448,
      "घू": 3449,
      "शब्": 3450,
      "नाक": 3451,
      "साई": 3452,
      "पुरानी": 3453,
      "मानना": 3454,
      "प्ति": 3455,
      "जेएन": 3456,
      "आपकी": 3457,
      "चलाने": 3458,
      "विद्यार्थी": 3459,
      "हाथों": 3460,
      "बिलासपुर": 3461,
      "औद्योगि": 3462,
      "नपुर": 3463,
      "बिल्": 3464,
      "प्राधिकरण": 3465,
      "मुकाबला": 3466,
      "नेह": 3467,
      "प्रती": 3468,
      "विदा": 3469,
      "ड्डी": 3470,
      "दृष्टि": 3471,
      "द्वितीय": 3472,
      "संसदी": 3473,
      "लगने": 3474,
      "आखिरी": 3475,
      "संसदीय": 3476,
      "खड़ा": 3477,
      "पुण": 3478,
      "घोटा": 3479,
      "इंटरनेट": 3480,
      "जिन्हें": 3481,
      "दराबाद": 3482,
      "तुरंत": 3483,
      "तनाव": 3484,
      "दस्त": 3485,
      "मश": 3486,
      "रोह": 3487,
      "ंदगी": 3488,
      "प्रावधान": 3489,
      "इतना": 3490,
      "खारिज": 3491,
      "ग़": 3492,
      "फू": 3493,
      "९०": 3494,
      "दोस्त": 3495,
      "पूर्वी": 3496,
      "लक्ष्मी": 3497,
      "सुझाव": 3498,
      "कोर्स": 3499,
      "राशन": 3500,
      "लीग": 3501,
      "उससे": 3502,
      "श्रेष्ठ": 3503,
      "जमानत": 3504,
      "इंस्पेक्टर": 3505,
      "वत्ता": 3506,
      "३३": 3507,
      "रोहित": 3508,
      "मेला": 3509,
      "स्टो": 3510,
      "डेट": 3511,
      "साहित्य": 3512,
      "औद्योगिक": 3513,
      "एप": 3514,
      "एसी": 3515,
      "५००": 3516,
      "नाइ": 3517,
      "कुश": 3518,
      "दोबारा": 3519,
      "कैं": 3520,
      "पत्रकारों": 3521,
      "शहरों": 3522,
      "पड़ेगा": 3523,
      "गह": 3524,
      "शॉ": 3525,
      "हैदराबाद": 3526,
      "्यार": 3527,
      "वाइ": 3528,
      "इलाहाबाद": 3529,
      "एचसी": 3530,
      "दिनेश": 3531,
      "पाठी": 3532,
      "वापसी": 3533,
      "श्रद्धांजलि": 3534,
      "गुणवत्ता": 3535,
      "अचान": 3536,
      "त्कार": 3537,
      "ंचल": 3538,
      "मेट्रो": 3539,
      "उपकरण": 3540,
      "टॉप": 3541,
      "इंजीनिय": 3542,
      "अचानक": 3543,
      "तल": 3544,
      "िए": 3545,
      "संस्कार": 3546,
      "रियल": 3547,
      "फिक": 3548,
      "मांगों": 3549,
      "कॉलेजों": 3550,
      "मुद्दों": 3551,
      "शासकीय": 3552,
      "मल्": 3553,
      "ग्रस्त": 3554,
      "अभिय": 3555,
      "खुश": 3556,
      "परिवारों": 3557,
      "शिवसेना": 3558,
      "आदमी": 3559,
      "ेन्द्र": 3560,
      "विवि": 3561,
      "लेना": 3562,
      "प्राचार्य": 3563,
      "बैठे": 3564,
      "लौट": 3565,
      "कंट्रोल": 3566,
      "क्ल": 3567,
      "राग": 3568,
      "ष्ट्रीय": 3569,
      "महाराज": 3570,
      "त्रिपाठी": 3571,
      "अरुण": 3572,
      "प्रदूषण": 3573,
      "आवा": 3574,
      "स्क्री": 3575,
      "लिग": 3576,
      "शाली": 3577,
      "अवधि": 3578,
      "तारीख": 3579,
      "मेरठ": 3580,
      "स्वच्छता": 3581,
      "रांची": 3582,
      "फरार": 3583,
      "बरे": 3584,
      "बीमारी": 3585,
      "पेट्रोल": 3586,
      "अभिषेक": 3587,
      "जताया": 3588,
      "सिन्हा": 3589,
      "मिता": 3590,
      "टेक": 3591,
      "उसमें": 3592,
      "बढ़ते": 3593,
      "मार्केट": 3594,
      "व्यवसाय": 3595,
      "तालि": 3596,
      "संके": 3597,
      "वर्ती": 3598,
      "दर्जन": 3599,
      "सदन": 3600,
      "एफआई": 3601,
      "ट्रैक्टर": 3602,
      "ऑफिस": 3603,
      "सख्त": 3604,
      "अनेक": 3605,
      "रास्ते": 3606,
      "बालिका": 3607,
      "संकल्प": 3608,
      "निर्भर": 3609,
      "माध्यमिक": 3610,
      "प्रश्न": 3611,
      "विरुद्ध": 3612,
      "गिराव": 3613,
      "न्यूजी": 3614,
      "न्यूनतम": 3615,
      "अभिनेता": 3616,
      "गिरावट": 3617,
      "उनको": 3618,
      "बसपा": 3619,
      "टैक्स": 3620,
      "आंग": 3621,
      "खतरा": 3622,
      "मोटर": 3623,
      "सूर्य": 3624,
      "सेवाएं": 3625,
      "जस्टिस": 3626,
      "इजा": 3627,
      "लागत": 3628,
      "्राष्ट्रीय": 3629,
      "तुलना": 3630,
      "ओम": 3631,
      "नही": 3632,
      "भट्": 3633,
      "मेल": 3634,
      "सूरत": 3635,
      "दलित": 3636,
      "देता": 3637,
      "एसई": 3638,
      "ग्वालि": 3639,
      "नेपाल": 3640,
      "क्यो": 3641,
      "यूरो": 3642,
      "आपत्ति": 3643,
      "पैसे": 3644,
      "ंकिंग": 3645,
      "प्रोफेसर": 3646,
      "जब्त": 3647,
      "सीनियर": 3648,
      "चाल": 3649,
      "स्पर्": 3650,
      "फार्म": 3651,
      "न्यूजीलैंड": 3652,
      "ग्वालियर": 3653,
      "लाइस": 3654,
      "बाढ़": 3655,
      "मेरे": 3656,
      "लगाते": 3657,
      "चीफ": 3658,
      "व्यापारी": 3659,
      "प्रतिनिधियों": 3660,
      "विपक्षी": 3661,
      "प्राथमिकता": 3662,
      "करियर": 3663,
      "ऐलान": 3664,
      "पणी": 3665,
      "शिकार": 3666,
      "योजक": 3667,
      "रामपुर": 3668,
      "सुरेश": 3669,
      "दुर्गा": 3670,
      "लेशन": 3671,
      "क्ट्रेस": 3672,
      "टिप्पणी": 3673,
      "नोट": 3674,
      "एटी": 3675,
      "हफ्": 3676,
      "पुष्": 3677,
      "सचिन": 3678,
      "हिंदु": 3679,
      "नरेन्द्र": 3680,
      "दैनिक": 3681,
      "ईरान": 3682,
      "एक्ट": 3683,
      "पहा": 3684,
      "बादी": 3685,
      "आईएस": 3686,
      "बूथ": 3687,
      "मृतक": 3688,
      "पंडित": 3689,
      "उज्": 3690,
      "मगर": 3691,
      "इनकी": 3692,
      "प्रतिक्रिया": 3693,
      "एनसी": 3694,
      "लूट": 3695,
      "आतंकियों": 3696,
      "निकाला": 3697,
      "झी": 3698,
      "पट": 3699,
      "रिजल्": 3700,
      "रहता": 3701,
      "शाल": 3702,
      "डिजा": 3703,
      "चिकित्स": 3704,
      "पश्चिमी": 3705,
      "जबर": 3706,
      "ौली": 3707,
      "ुरु": 3708,
      "हिया": 3709,
      "सोनिया": 3710,
      "फोर्स": 3711,
      "अब्दु": 3712,
      "क्वार": 3713,
      "मुहैया": 3714,
      "रिटी": 3715,
      "शियल": 3716,
      "रिजल्ट": 3717,
      "नम": 3718,
      "प्रौ": 3719,
      "कुर्": 3720,
      "प्रतिभा": 3721,
      "डाल": 3722,
      "निकले": 3723,
      "खोलने": 3724,
      "इंटरनेशनल": 3725,
      "कस": 3726,
      "यंत्र": 3727,
      "प्रगति": 3728,
      "जाएं": 3729,
      "लियां": 3730,
      "सैनिकों": 3731,
      "उल्लेखनीय": 3732,
      "अफ्रीका": 3733,
      "उधर": 3734,
      "थु": 3735,
      "कोरिया": 3736,
      "बेहत": 3737,
      "बढ़ो": 3738,
      "व्यापक": 3739,
      "पड़ता": 3740,
      "रजिस्ट्रेशन": 3741,
      "मजदूरों": 3742,
      "डायरेक्टर": 3743,
      "काशी": 3744,
      "भाषण": 3745,
      "अनुभव": 3746,
      "देखकर": 3747,
      "पंचायतों": 3748,
      "आतंकवाद": 3749,
      "रिश्ते": 3750,
      "पुनर्": 3751,
      "छूट": 3752,
      "गों": 3753,
      "तमिलना": 3754,
      "नु": 3755,
      "स्य": 3756,
      "कारियों": 3757,
      "रहें": 3758,
      "साथी": 3759,
      "जुन": 3760,
      "इंट": 3761,
      "विधे": 3762,
      "प्रोत्": 3763,
      "संचालक": 3764,
      "गणेश": 3765,
      "पर्याप्त": 3766,
      "शहरी": 3767,
      "स्ना": 3768,
      "परं": 3769,
      "साधन": 3770,
      "बाजों": 3771,
      "खेला": 3772,
      "भूषण": 3773,
      "फ़ि": 3774,
      "मार्टम": 3775,
      "एक्ट्रेस": 3776,
      "मकान": 3777,
      "लहर": 3778,
      "अनुमान": 3779,
      "ज्यादातर": 3780,
      "बुलेंस": 3781,
      "महोत्सव": 3782,
      "साइकिल": 3783,
      "मैचों": 3784,
      "सुविधाएं": 3785,
      "मणि": 3786,
      "पोस्टमार्टम": 3787,
      "तिहासिक": 3788,
      "जुर्माना": 3789,
      "सैकड़ों": 3790,
      "जंग": 3791,
      "नेस": 3792,
      "साहि": 3793,
      "दिये": 3794,
      "बांध": 3795,
      "मुफ्": 3796,
      "चेन्न": 3797,
      "लंबी": 3798,
      "संस्थानों": 3799,
      "इंजीनियरिंग": 3800,
      "हट": 3801,
      "स्टॉ": 3802,
      "बुजुर्": 3803,
      "जीतने": 3804,
      "घुस": 3805,
      "हेल्थ": 3806,
      "डिप्टी": 3807,
      "किरा": 3808,
      "उपस्थिति": 3809,
      "इंडस्ट्री": 3810,
      "अतिक्रमण": 3811,
      "गैंग": 3812,
      "मृत्य": 3813,
      "करवाया": 3814,
      "निलंबित": 3815,
      "मुना": 3816,
      "पूत": 3817,
      "कर्ताओं": 3818,
      "तमिलनाडु": 3819,
      "आवं": 3820,
      "ट्रक": 3821,
      "२०१५": 3822,
      "जरूर": 3823,
      "घ्र": 3824,
      "लम": 3825,
      "व्र": 3826,
      "जीता": 3827,
      "सहमति": 3828,
      "फ्रेंस": 3829,
      "छोड़कर": 3830,
      "आखिर": 3831,
      "एडा": 3832,
      "कब": 3833,
      "४८": 3834,
      "सालों": 3835,
      "सीओ": 3836,
      "रिलीज": 3837,
      "कार्यकाल": 3838,
      "खाते": 3839,
      "चाहती": 3840,
      "तीसरी": 3841,
      "पीड़िता": 3842,
      "मृत्यु": 3843,
      "खला": 3844,
      "खाना": 3845,
      "दली": 3846,
      "पाली": 3847,
      "मुकेश": 3848,
      "जिंग": 3849,
      "राजेंद्र": 3850,
      "जूनियर": 3851,
      "भागीय": 3852,
      "मनीष": 3853,
      "आलो": 3854,
      "बन्": 3855,
      "बाड़ी": 3856,
      "अधिवक्ता": 3857,
      "भेड़": 3858,
      "प्रस्तावित": 3859,
      "प्रौद्योगि": 3860,
      "परंपरा": 3861,
      "आसान": 3862,
      "फसल": 3863,
      "वही": 3864,
      "लाश": 3865,
      "इंस्टी": 3866,
      "शीघ्र": 3867,
      "स्वस्थ": 3868,
      "एग्": 3869,
      "मच": 3870,
      "शारी": 3871,
      "विभागीय": 3872,
      "ध्याय": 3873,
      "दोषी": 3874,
      "स्पिटल": 3875,
      "शारीरिक": 3876,
      "तभी": 3877,
      "साझा": 3878,
      "त्तर": 3879,
      "मुठ": 3880,
      "पहन": 3881,
      "चेक": 3882,
      "देखी": 3883,
      "सुविधाओं": 3884,
      "ऑपरेशन": 3885,
      "कमिश्": 3886,
      "ब्लाक": 3887,
      "श्याम": 3888,
      "आग्रह": 3889,
      "सामु": 3890,
      "वेल": 3891,
      "ढ़े": 3892,
      "प्टर": 3893,
      "उनमें": 3894,
      "टाई": 3895,
      "न्यायमूर्ति": 3896,
      "रक्त": 3897,
      "मांड": 3898,
      "सुंदर": 3899,
      "पुलिसकर्मियों": 3900,
      "भाग्य": 3901,
      "प्रधाना": 3902,
      "अभिभाव": 3903,
      "करवाने": 3904,
      "तालिबान": 3905,
      "चेन्नई": 3906,
      "फें": 3907,
      "केरल": 3908,
      "ट्रेनिंग": 3909,
      "मांगा": 3910,
      "सिलसि": 3911,
      "ट्यूट": 3912,
      "सर्विस": 3913,
      "दिव्यांग": 3914,
      "कम्प": 3915,
      "वाया": 3916,
      "दिक्": 3917,
      "सिस": 3918,
      "मिलता": 3919,
      "कमजोर": 3920,
      "ब्रह्": 3921,
      "अंतर्राष्ट्रीय": 3922,
      "प्रकाशित": 3923,
      "गौरव": 3924,
      "नाराजगी": 3925,
      "छापेमारी": 3926,
      "नाल्ड": 3927,
      "साहू": 3928,
      "तिर": 3929,
      "बीमा": 3930,
      "जाएंगी": 3931,
      "मिलते": 3932,
      "जबलपुर": 3933,
      "बातें": 3934,
      "सैनिक": 3935,
      "भेजे": 3936,
      "आदिवासी": 3937,
      "यूनियन": 3938,
      "कौन": 3939,
      "धमकी": 3940,
      "भरोसा": 3941,
      "मचा": 3942,
      "बीसी": 3943,
      "अंदा": 3944,
      "महत्या": 3945,
      "नोएडा": 3946,
      "तत्कालीन": 3947,
      "धुनिक": 3948,
      "अल्पसं": 3949,
      "व्हा": 3950,
      "आत्महत्या": 3951,
      "ंजी": 3952,
      "उपरा": 3953,
      "कन": 3954,
      "वाणी": 3955,
      "प्लान": 3956,
      "किनारे": 3957,
      "बोल": 3958,
      "विंग": 3959,
      "दिलाने": 3960,
      "शास्त्र": 3961,
      "परीक्ष": 3962,
      "वैज्ञानिक": 3963,
      "अल्पसंख्य": 3964,
      "णि": 3965,
      "रखना": 3966,
      "दिग्गज": 3967,
      "अक्ष": 3968,
      "३६": 3969,
      "शिमला": 3970,
      "पकड़ा": 3971,
      "लॉन्च": 3972,
      "बेहतरीन": 3973,
      "एके": 3974,
      "जद": 3975,
      "नोद": 3976,
      "मरे": 3977,
      "बाबू": 3978,
      "मंत्रि": 3979,
      "टेली": 3980,
      "चिंग": 3981,
      "प्रतिष्ठ": 3982,
      "महेंद्र": 3983,
      "सर्वो": 3984,
      "कंपनियां": 3985,
      "अवगत": 3986,
      "सकेगा": 3987,
      "कुलपति": 3988,
      "समर्थकों": 3989,
      "दौड़": 3990,
      "केन्द्रीय": 3991,
      "ऐतिहासिक": 3992,
      "पावर": 3993,
      "द्दीन": 3994,
      "प्रतिदिन": 3995,
      "कहानी": 3996,
      "उपायुक्त": 3997,
      "हमारा": 3998,
      "त्मा": 3999,
      "पीजी": 4000,
      "लगता": 4001,
      "पूर्वक": 4002,
      "मतदाता": 4003,
      "मुद्दा": 4004,
      "जरिये": 4005,
      "अन्": 4006,
      "काया": 4007,
      "प्रसिद्ध": 4008,
      "रेखा": 4009,
      "मानसिक": 4010,
      "पिंग": 4011,
      "बढ़ती": 4012,
      "देखें": 4013,
      "युवती": 4014,
      "गौतम": 4015,
      "कब्जे": 4016,
      "ग्राहकों": 4017,
      "कमिश्नर": 4018,
      "ओलं": 4019,
      "किट": 4020,
      "क्की": 4021,
      "मिया": 4022,
      "ढ़ी": 4023,
      "च्चा": 4024,
      "गोवि": 4025,
      "आपदा": 4026,
      "आतंकवादी": 4027,
      "इरा": 4028,
      "कन्या": 4029,
      "गित": 4030,
      "जानी": 4031,
      "नयी": 4032,
      "भरा": 4033,
      "स्वर्ण": 4034,
      "लिहा": 4035,
      "तिन": 4036,
      "जिद": 4037,
      "स्टिक": 4038,
      "श्त": 4039,
      "आएंगे": 4040,
      "पहुंचाने": 4041,
      "गठित": 4042,
      "आरपीएफ": 4043,
      "लाइसेंस": 4044,
      "विधेयक": 4045,
      "टियों": 4046,
      "हिता": 4047,
      "चारों": 4048,
      "अंग्रेजी": 4049,
      "बरेली": 4050,
      "वस्तु": 4051,
      "५५": 4052,
      "जैसा": 4053,
      "मैंने": 4054,
      "प्रेरित": 4055,
      "फ्यू": 4056,
      "कार्यरत": 4057,
      "एमएस": 4058,
      "कौशल": 4059,
      "निपटने": 4060,
      "रिसर्च": 4061,
      "श्रृ": 4062,
      "सोच": 4063,
      "डेस्क": 4064,
      "बहाद": 4065,
      "समर्": 4066,
      "मेरी": 4067,
      "कामया": 4068,
      "छोटी": 4069,
      "लड़ने": 4070,
      "चिकित्सकों": 4071,
      "सामुदायिक": 4072,
      "साब": 4073,
      "टाटा": 4074,
      "अभियंता": 4075,
      "संकेत": 4076,
      "विस्": 4077,
      "१९८": 4078,
      "व्यक्तियों": 4079,
      "टक्कर": 4080,
      "सराय": 4081,
      "ड्रा": 4082,
      "सराह": 4083,
      "अभ्यर्थ": 4084,
      "नेहरू": 4085,
      "मुठभेड़": 4086,
      "रमेश": 4087,
      "प्रदीप": 4088,
      "पेय": 4089,
      "महंगा": 4090,
      "चिकित्सक": 4091,
      "अंतरि": 4092,
      "बड़": 4093,
      "ृत": 4094,
      "दावे": 4095,
      "सैंप": 4096,
      "सेवाओं": 4097,
      "दिखाया": 4098,
      "दस्तावेज": 4099,
      "तान": 4100,
      "बानी": 4101,
      "नाय": 4102,
      "जात": 4103,
      "संवेदन": 4104,
      "अधिकां": 4105,
      "एसएसपी": 4106,
      "जोड़": 4107,
      "कांग्रे": 4108,
      "अर्जुन": 4109,
      "हस्ताक्षर": 4110,
      "हफ्ते": 4111,
      "इधर": 4112,
      "कथा": 4113,
      "३२": 4114,
      "ेंसिंग": 4115,
      "ज़र": 4116,
      "गोल": 4117,
      "उठाए": 4118,
      "डोर": 4119,
      "बौ": 4120,
      "बीसीसी": 4121,
      "गिरा": 4122,
      "श्रीनगर": 4123,
      "कट्": 4124,
      "बम": 4125,
      "कें": 4126,
      "केटर": 4127,
      "परमाण": 4128,
      "स्थगित": 4129,
      "बॉल": 4130,
      "तकनीक": 4131,
      "मर्श": 4132,
      "वकील": 4133,
      "प्रौद्योगिकी": 4134,
      "उदा": 4135,
      "बहा": 4136,
      "मधु": 4137,
      "विनोद": 4138,
      "देगी": 4139,
      "पाक": 4140,
      "लोकप्रिय": 4141,
      "१२वीं": 4142,
      "अभ्यर्थियों": 4143,
      "अकाउंट": 4144,
      "खों": 4145,
      "व्यू": 4146,
      "सुभाष": 4147,
      "बिग": 4148,
      "रूस": 4149,
      "मिलती": 4150,
      "बढ़ी": 4151,
      "खनन": 4152,
      "दिरा": 4153,
      "संपन्न": 4154,
      "समन्व": 4155,
      "अर्चना": 4156,
      "परमाणु": 4157,
      "सीए": 4158,
      "ंचाई": 4159,
      "उत्साह": 4160,
      "अंजाम": 4161,
      "सारे": 4162,
      "हनु": 4163,
      "ट्रैफिक": 4164,
      "अस": 4165,
      "अंडर": 4166,
      "अज्ञात": 4167,
      "वारदा": 4168,
      "ल्ट": 4169,
      "मेन": 4170,
      "दर्द": 4171,
      "महानि": 4172,
      "सीटें": 4173,
      "कनेक्शन": 4174,
      "बेडकर": 4175,
      "ओलंपिक": 4176,
      "अधिकांश": 4177,
      "कूल": 4178,
      "खत": 4179,
      "फर्": 4180,
      "भड़": 4181,
      "रास्ता": 4182,
      "सर्जन": 4183,
      "आकर": 4184,
      "आशा": 4185,
      "इश": 4186,
      "चर्स": 4187,
      "म्यू": 4188,
      "षक": 4189,
      "मास्टर": 4190,
      "क्षति": 4191,
      "टिल": 4192,
      "प्रभावी": 4193,
      "स्मृ": 4194,
      "हीन": 4195,
      "संतु": 4196,
      "लोत": 4197,
      "राजपूत": 4198,
      "सूस": 4199,
      "विद्या": 4200,
      "पारित": 4201,
      "नगरी": 4202,
      "भंड": 4203,
      "यार": 4204,
      "ट्रल": 4205,
      "समस्त": 4206,
      "आईजी": 4207,
      "ज़ि": 4208,
      "जानिए": 4209,
      "कॉलोनी": 4210,
      "आपका": 4211,
      "नारेबाजी": 4212,
      "अखिल": 4213,
      "ोध": 4214,
      "प्रवासी": 4215,
      "इनकार": 4216,
      "स्थायी": 4217,
      "पड़ो": 4218,
      "गेंदबाज": 4219,
      "अंग": 4220,
      "ढे": 4221,
      "त्यो": 4222,
      "पत्थ": 4223,
      "आबादी": 4224,
      "तहरी": 4225,
      "बजाय": 4226,
      "विशाल": 4227,
      "ट्रस्ट": 4228,
      "जुटा": 4229,
      "फ्तार": 4230,
      "क्रिकेटर": 4231,
      "पहुंचाया": 4232,
      "प्रत्याशियों": 4233,
      "अनुरोध": 4234,
      "विस्फो": 4235,
      "आमंत्र": 4236,
      "आह्": 4237,
      "मुर": 4238,
      "मपुर": 4239,
      "काट": 4240,
      "किताब": 4241,
      "वंत": 4242,
      "पॉलि": 4243,
      "बदमाशों": 4244,
      "कोण": 4245,
      "क्के": 4246,
      "साढ़े": 4247,
      "गाह": 4248,
      "जिश": 4249,
      "शिंग": 4250,
      "पुलिसकर्मी": 4251,
      "ब्लै": 4252,
      "सकें": 4253,
      "उपाध्याय": 4254,
      "कब्जा": 4255,
      "उपभोक्ताओं": 4256,
      "हवा": 4257,
      "संचार": 4258,
      "टीमों": 4259,
      "वानि": 4260,
      "लोकतंत्र": 4261,
      "मौजूदगी": 4262,
      "संगीत": 4263,
      "अक्सर": 4264,
      "लाकर": 4265,
      "हिसाब": 4266,
      "अनुसं": 4267,
      "सोनी": 4268,
      "खुशी": 4269,
      "युवकों": 4270,
      "लड़की": 4271,
      "सीसीटीवी": 4272,
      "प्रयागराज": 4273,
      "साहिब": 4274,
      "मस्": 4275,
      "लायंस": 4276,
      "स्थलों": 4277,
      "पदार्थ": 4278,
      "),": 4279,
      "निस्तार": 4280,
      "मुरा": 4281,
      "स्पति": 4282,
      "तैयारियों": 4283,
      "वैक्सीनेशन": 4284,
      "तहसीलदार": 4285,
      "आह्वान": 4286,
      "कमान": 4287,
      "फान": 4288,
      "सौर": 4289,
      "काय": 4290,
      "होली": 4291,
      "दुबे": 4292,
      "थानाध्यक्ष": 4293,
      "पाठ्य": 4294,
      "अज": 4295,
      "रथ": 4296,
      "रियर": 4297,
      "वेयर": 4298,
      "डेढ़": 4299,
      "समापन": 4300,
      "वृत्ति": 4301,
      "नेटवर्क": 4302,
      "हॉस्पिटल": 4303,
      "हिन्दू": 4304,
      "अनुसंधान": 4305,
      "अगु": 4306,
      "जाहिर": 4307,
      "गिरी": 4308,
      "वैसे": 4309,
      "अधिकतम": 4310,
      "करेंगी": 4311,
      "देगा": 4312,
      "संजीव": 4313,
      "शिक": 4314,
      "स्टैंड": 4315,
      "प्ल": 4316,
      "इंस्टा": 4317,
      "प्रांत": 4318,
      "गोल्ड": 4319,
      "महामंत्री": 4320,
      "जन्मदिन": 4321,
      "पंक": 4322,
      "सिपा": 4323,
      "स्टोर": 4324,
      "शनल": 4325,
      "कर्ज": 4326,
      "चाहता": 4327,
      "इंजीनियर": 4328,
      "नक्सलियों": 4329,
      "क्वि": 4330,
      "कार्या": 4331,
      "मिकों": 4332,
      "उठाने": 4333,
      "बेचने": 4334,
      "एफआईआर": 4335,
      "बढ़ोतरी": 4336,
      "झु": 4337,
      "बालिग": 4338,
      "कार्यकारी": 4339,
      "गुना": 4340,
      "फायर": 4341,
      "सर्वश्रेष्ठ": 4342,
      "समझौते": 4343,
      "स्मृति": 4344,
      "ंदे": 4345,
      "एट": 4346,
      "बतौर": 4347,
      "सकारात्मक": 4348,
      "वर्धन": 4349,
      "डाला": 4350,
      "सामू": 4351,
      "स्ट्रेट": 4352,
      "संवेदनशील": 4353,
      "आदर्श": 4354,
      "मजि": 4355,
      "काला": 4356,
      "सेवानि": 4357,
      "लिटी": 4358,
      "पोर्": 4359,
      "घाटी": 4360,
      "अहमदाबाद": 4361,
      "गहलोत": 4362,
      "सामूहिक": 4363,
      "अमृत": 4364,
      "ऋषि": 4365,
      "ओपी": 4366,
      "गंग": 4367,
      "लालू": 4368,
      "मतदाताओं": 4369,
      "बहादुर": 4370,
      "रम": 4371,
      "सका": 4372,
      "मंद": 4373,
      "थाम": 4374,
      "२०१३": 4375,
      "तृण": 4376,
      "कारोबारी": 4377,
      "क्रोश": 4378,
      "शतक": 4379,
      "सत्या": 4380,
      "सियस": 4381,
      "जीएसटी": 4382,
      "सिंधिया": 4383,
      "बनाना": 4384,
      "हेड": 4385,
      "जगहों": 4386,
      "डोनाल्ड": 4387,
      "अपराधियों": 4388,
      "धोनी": 4389,
      "नृ": 4390,
      "षिक": 4391,
      "शास्त्री": 4392,
      "निर्मित": 4393,
      "गंभीरता": 4394,
      "छेड़": 4395,
      "डिजाइन": 4396,
      "तृणमूल": 4397,
      "जस": 4398,
      "्वी": 4399,
      "सेट": 4400,
      "वाहा": 4401,
      "सीजन": 4402,
      "निर्माता": 4403,
      "बदलने": 4404,
      "आता": 4405,
      "सप्": 4406,
      "सिने": 4407,
      "अनुसूचित": 4408,
      "पोर्टल": 4409,
      "सेंट्रल": 4410,
      "खरीदने": 4411,
      "अना": 4412,
      "कोय": 4413,
      "त्रा": 4414,
      "जेट": 4415,
      "लड़कियों": 4416,
      "जायजा": 4417,
      "बंग": 4418,
      "३७": 4419,
      "निंदा": 4420,
      "रेन": 4421,
      "महसूस": 4422,
      "खेलने": 4423,
      "नियंत्रित": 4424,
      "नये": 4425,
      "प्रॉ": 4426,
      "सीता": 4427,
      "सीईओ": 4428,
      "सिम": 4429,
      "रिजर्": 4430,
      "गुस्": 4431,
      "खेले": 4432,
      "सर्वा": 4433,
      "खण्ड": 4434,
      "बृह": 4435,
      "वाणि": 4436,
      "राजकुमार": 4437,
      "डि़": 4438,
      "कैमरे": 4439,
      "वनडे": 4440,
      "गुरू": 4441,
      "सीएमओ": 4442,
      "सेल्सियस": 4443,
      "वाणिज्य": 4444,
      "भेंट": 4445,
      "रफ्तार": 4446,
      "मुखिया": 4447,
      "क्षणिक": 4448,
      "पंकज": 4449,
      "जमेंट": 4450,
      "लयों": 4451,
      "सफर": 4452,
      "डिस्": 4453,
      "ट्रेट": 4454,
      "पैसा": 4455,
      "समीप": 4456,
      "इतनी": 4457,
      "असम": 4458,
      "नज": 4459,
      "६५": 4460,
      "नीत": 4461,
      "ट्रिक": 4462,
      "टियां": 4463,
      "पोषण": 4464,
      "उत्सव": 4465,
      "गुल": 4466,
      "फीस": 4467,
      "नवीन": 4468,
      "घूम": 4469,
      "लाना": 4470,
      "पायल": 4471,
      "रोध": 4472,
      "ंद्रा": 4473,
      "पेपर": 4474,
      "बुलाया": 4475,
      "मूल्या": 4476,
      "पंजीकरण": 4477,
      "आक्रोश": 4478,
      "उथ": 4479,
      "ऐप": 4480,
      "देती": 4481,
      "दीपा": 4482,
      "ट्रॉ": 4483,
      "बुनिया": 4484,
      "खेती": 4485,
      "शैक्षणिक": 4486,
      "आशीष": 4487,
      "आवाज": 4488,
      "ओपन": 4489,
      "हस्त": 4490,
      "नाबालिग": 4491,
      "निवास": 4492,
      "मालिक": 4493,
      "बिर": 4494,
      "अनुप": 4495,
      "ज़ी": 4496,
      "इंदिरा": 4497,
      "आएगी": 4498,
      "उल": 4499,
      "पारा": 4500,
      "३८": 4501,
      "सीन": 4502,
      "लीला": 4503,
      "मेट": 4504,
      "पिका": 4505,
      "उत्पादों": 4506,
      "स्पर्धा": 4507,
      "बीसीसीआई": 4508,
      "ईडी": 4509,
      "उदय": 4510,
      "फरी": 4511,
      "३००": 4512,
      "विस्त": 4513,
      "देह": 4514,
      "मुसलमान": 4515,
      "रहना": 4516,
      "शिष्ट": 4517,
      "राजमार्ग": 4518,
      "स्वीकृति": 4519,
      "देवेंद्र": 4520,
      "भक्तों": 4521,
      "मायावती": 4522,
      "फते": 4523,
      "यद": 4524,
      "रस": 4525,
      "३४": 4526,
      "क्षम": 4527,
      "एकत्र": 4528,
      "बताई": 4529,
      "आरोपों": 4530,
      "इंस्टीट्यूट": 4531,
      "हनुमान": 4532,
      "तहरीर": 4533,
      "ौती": 4534,
      "आईएम": 4535,
      "ब्दी": 4536,
      "धीरे": 4537,
      "निकट": 4538,
      "वार्षिक": 4539,
      "न्यायिक": 4540,
      "इमरान": 4541,
      "मुजफ्फरपुर": 4542,
      "कैप्टन": 4543,
      "आये": 4544,
      "लाम": 4545,
      "संयोजक": 4546,
      "ार्ट": 4547,
      "दर्भ": 4548,
      "गोयल": 4549,
      "शेखर": 4550,
      "कानूनों": 4551,
      "ब्रांड": 4552,
      "शुभकामना": 4553,
      "घोटाले": 4554,
      "आलोचना": 4555,
      "मूल्यांकन": 4556,
      "डें": 4557,
      "मय": 4558,
      "लंदन": 4559,
      "संदीप": 4560,
      "स्टल": 4561,
      "सुल": 4562,
      "डिट": 4563,
      "महेश": 4564,
      "गुजर": 4565,
      "धोखा": 4566,
      "धूम": 4567,
      "ंखला": 4568,
      "धारी": 4569,
      "हर्ष": 4570,
      "संसाधन": 4571,
      "स्टाइ": 4572,
      "डीआर": 4573,
      "बेस": 4574,
      "गिरि": 4575,
      "खेलों": 4576,
      "मनोहर": 4577,
      "शूटिंग": 4578,
      "उपभोक्ता": 4579,
      "उद्य": 4580,
      "कच": 4581,
      "भरे": 4582,
      "मों": 4583,
      "अपे": 4584,
      "मंदिरों": 4585,
      "बसों": 4586,
      "फायरिंग": 4587,
      "प्रस्तुति": 4588,
      "फाइल": 4589,
      "परिस्थितियों": 4590,
      "सेवक": 4591,
      "इंच": 4592,
      "टकों": 4593,
      "नग": 4594,
      "फूल": 4595,
      "ौरा": 4596,
      "टी२०": 4597,
      "द्वी": 4598,
      "बनकर": 4599,
      "भेद": 4600,
      "तैयारियां": 4601,
      "पृथ": 4602,
      "पेयजल": 4603,
      "४७": 4604,
      "कराना": 4605,
      "स्की": 4606,
      "देन": 4607,
      "हियों": 4608,
      "मेहन": 4609,
      "बिजनेस": 4610,
      "ड्डे": 4611,
      "आंगन": 4612,
      "ऑल": 4613,
      "राजनाथ": 4614,
      "बैक": 4615,
      "उपचुनाव": 4616,
      "चढ़ा": 4617,
      "सेस": 4618,
      "क्राइ": 4619,
      "रेज": 4620,
      "आजम": 4621,
      "पढ़ा": 4622,
      "भेजने": 4623,
      "उड़ा": 4624,
      "घि": 4625,
      "डेंट": 4626,
      "४९": 4627,
      "ताकत": 4628,
      "डेय": 4629,
      "लाइफ": 4630,
      "इंस्टाग्राम": 4631,
      "आइस": 4632,
      "आपात": 4633,
      "क्लास": 4634,
      "गीय": 4635,
      "२०२२": 4636,
      "परिजन": 4637,
      "जानें": 4638,
      "ंतु": 4639,
      "्त": 4640,
      "तिया": 4641,
      "मिट": 4642,
      "देशभर": 4643,
      "बीआई": 4644,
      "ष्णु": 4645,
      "पवन": 4646,
      "सेमी": 4647,
      "तीर्थ": 4648,
      "मेगा": 4649,
      "आईसीसी": 4650,
      "संबंधों": 4651,
      "प्रोग्राम": 4652,
      "दर्शकों": 4653,
      "आसानी": 4654,
      "त्योहार": 4655,
      "निस्तारण": 4656,
      "बृहस्पति": 4657,
      "ंबा": 4658,
      "जंगल": 4659,
      "जापान": 4660,
      "गाँ": 4661,
      "भास्कर": 4662,
      "प्पा": 4663,
      "कंप्यूटर": 4664,
      "पकड़े": 4665,
      "शौचा": 4666,
      "आजाद": 4667,
      "मंत्रिमंडल": 4668,
      "ड्ड": 4669,
      "तः": 4670,
      "यर्स": 4671,
      "शिक्षण": 4672,
      "जुड़ा": 4673,
      "एंबुलेंस": 4674,
      "एनजी": 4675,
      "बाजारों": 4676,
      "दुकानें": 4677,
      "सौंपी": 4678,
      "सर्वोच्च": 4679,
      "पाठ्यक्रम": 4680,
      "आना": 4681,
      "शरण": 4682,
      "िकों": 4683,
      "४६": 4684,
      "क्लि": 4685,
      "क्ट्रेट": 4686,
      "रेड": 4687,
      "श्रीराम": 4688,
      "चैंपियनशिप": 4689,
      "कैंसर": 4690,
      "मुरादाबाद": 4691,
      "कन्": 4692,
      "प्रार्थ": 4693,
      "इनका": 4694,
      "मुखर्जी": 4695,
      "भरने": 4696,
      "फ्रांस": 4697,
      "शौचालय": 4698,
      "ंसे": 4699,
      "तत्व": 4700,
      "वट": 4701,
      "्री": 4702,
      "मुद्रा": 4703,
      "म्मत": 4704,
      "मिलेंगे": 4705,
      "कैलाश": 4706,
      "महात्मा": 4707,
      "तालाब": 4708,
      "मजिस्ट्रेट": 4709,
      "रिजर्व": 4710,
      "आंध": 4711,
      "राणा": 4712,
      "गाजिया": 4713,
      "रिलायंस": 4714,
      "मेरा": 4715,
      "पोस्टर": 4716,
      "पार्किंग": 4717,
      "ग्लो": 4718,
      "परीक्षाओं": 4719,
      "ंटन": 4720,
      "भोज": 4721,
      "यूनिट": 4722,
      "गृहमंत्री": 4723,
      "इंतजाम": 4724,
      "कमलनाथ": 4725,
      "प्रार्थना": 4726,
      "अग्": 4727,
      "एरिया": 4728,
      "बघे": 4729,
      "खुल": 4730,
      "प्रोड": 4731,
      "घटनाओं": 4732,
      "व्यक्तिगत": 4733,
      "नागरिकता": 4734,
      "गेंदबाजी": 4735,
      "हरिद्वार": 4736,
      "गाजियाबाद": 4737,
      "अड्डे": 4738,
      "आधुनिक": 4739,
      "खड़ी": 4740,
      "चतुर्": 4741,
      "केंड": 4742,
      "राउंड": 4743,
      "देरी": 4744,
      "लीप": 4745,
      "सरपंच": 4746,
      "बीपी": 4747,
      "चाइ": 4748,
      "डांस": 4749,
      "एचडी": 4750,
      "दिक्कत": 4751,
      "अक्षय": 4752,
      "नय": 4753,
      "ोन": 4754,
      "मुक्ति": 4755,
      "कृतिक": 4756,
      "हेली": 4757,
      "धीन": 4758,
      "सैन": 4759,
      "घायलों": 4760,
      "किरदार": 4761,
      "रघु": 4762,
      "विज्ञापन": 4763,
      "ड़िया": 4764,
      "जियो": 4765,
      "उत्तरी": 4766,
      "राज्यमंत्री": 4767,
      "साइबर": 4768,
      "संभावित": 4769,
      "माइक्रो": 4770,
      "अथवा": 4771,
      "रचना": 4772,
      "साइंस": 4773,
      "साजिश": 4774,
      "हिम": 4775,
      "सुशील": 4776,
      "एसआई": 4777,
      "डाटा": 4778,
      "प्राकृतिक": 4779,
      "कॉप्टर": 4780,
      "शुरुआती": 4781,
      "फॉर": 4782,
      "फॉर्": 4783,
      "सलाहकार": 4784,
      "मैनेजमेंट": 4785,
      "निरस्त": 4786,
      "अटल": 4787,
      "सलों": 4788,
      "सुने": 4789,
      "रेप": 4790,
      "डीजल": 4791,
      "जुटी": 4792,
      "ग्राउंड": 4793,
      "वृत्त": 4794,
      "प्रयासों": 4795,
      "भागीदारी": 4796,
      "पार्टियों": 4797,
      "प्रमोद": 4798,
      "जेएनएन": 4799,
      "थुरा": 4800,
      "वारदात": 4801,
      "सप्लाई": 4802,
      "विस्तृत": 4803,
      "बघेल": 4804,
      "ध्व": 4805,
      "भव्य": 4806,
      "भगत": 4807,
      "प्रशांत": 4808,
      "सिद्": 4809,
      "रोल": 4810,
      "डीह": 4811,
      "हिस्सों": 4812,
      "शरीफ": 4813,
      "विशेषज्ञों": 4814,
      "रिटाय": 4815,
      "सैंपल": 4816,
      "आमंत्रित": 4817,
      "चन्द्र": 4818,
      "मथुरा": 4819,
      "किमी": 4820,
      "्याज": 4821,
      "बरत": 4822,
      "फाउ": 4823,
      "संस्थाओं": 4824,
      "वितरित": 4825,
      "क्रांति": 4826,
      "मेहनत": 4827,
      "आश्रम": 4828,
      "भरी": 4829,
      "सश": 4830,
      "सभाग": 4831,
      "काने": 4832,
      "राधा": 4833,
      "जेडी": 4834,
      "कैमरा": 4835,
      "हुईं": 4836,
      "मतगणना": 4837,
      "इंडी": 4838,
      "पक्षों": 4839,
      "चोपड़ा": 4840,
      "अलर्ट": 4841,
      "बल्लेबाजी": 4842,
      "वसूली": 4843,
      "अमरीका": 4844,
      "शिंगटन": 4845,
      "दपुर": 4846,
      "बला": 4847,
      "सनी": 4848,
      "ूर": 4849,
      "स्नान": 4850,
      "व्यस्त": 4851,
      "स्टेबल": 4852,
      "निकाय": 4853,
      "उर्": 4854,
      "बहन": 4855,
      "सकी": 4856,
      "मुआव": 4857,
      "जिक्र": 4858,
      "बिंद": 4859,
      "फेल": 4860,
      "अर्पित": 4861,
      "समझौता": 4862,
      "क्चर": 4863,
      "प्रको": 4864,
      "लिन": 4865,
      "रोजाना": 4866,
      "बढ़कर": 4867,
      "लैब": 4868,
      "हूर": 4869,
      "चोट": 4870,
      "ंडेशन": 4871,
      "प्रतिबंधित": 4872,
      "अल्पसंख्यक": 4873,
      "जगत": 4874,
      "स्र": 4875,
      "सतीश": 4876,
      "केयर": 4877,
      "स्पोर्ट": 4878,
      "प्रजा": 4879,
      "पूछा": 4880,
      "चिन्ह": 4881,
      "सोना": 4882,
      "वरों": 4883,
      "ंत्रिक": 4884,
      "जल्दी": 4885,
      "परियोजनाओं": 4886,
      "प्रेरणा": 4887,
      "टेक्नो": 4888,
      "आचार्य": 4889,
      "ट्रि": 4890,
      "मार्क": 4891,
      "धित्व": 4892,
      "विवादित": 4893,
      "छी": 4894,
      "नंद": 4895,
      "बरी": 4896,
      "स्को": 4897,
      "सेहत": 4898,
      "माय": 4899,
      "इसको": 4900,
      "बीन": 4901,
      "सरकारों": 4902,
      "पिल": 4903,
      "गुप्त": 4904,
      "ठाकरे": 4905,
      "सेंट": 4906,
      "काउंटर": 4907,
      "जत": 4908,
      "भक्ति": 4909,
      "टीसी": 4910,
      "मीटिंग": 4911,
      "ंडि": 4912,
      "वीय": 4913,
      "करोड़ों": 4914,
      "साइड": 4915,
      "प्रीत": 4916,
      "प्रतिनिधित्व": 4917,
      "बुलंद": 4918,
      "निकालने": 4919,
      "ऋण": 4920,
      "दफ्": 4921,
      "नायक": 4922,
      "लीटर": 4923,
      "ष्कार": 4924,
      "बिहारी": 4925,
      "टिन": 4926,
      "ज़्यादा": 4927,
      "फोड़": 4928,
      "फ्रंट": 4929,
      "जिनके": 4930,
      "जौ": 4931,
      "थ्य": 4932,
      "ंडो": 4933,
      "डाक्टर": 4934,
      "प्रीमि": 4935,
      "सीबीएसई": 4936,
      "सिद्धार्थ": 4937,
      "आजादी": 4938,
      "पत्थर": 4939,
      "एगा": 4940,
      "कौर": 4941,
      "िणी": 4942,
      "प्रभार": 4943,
      "सीमित": 4944,
      "१९७": 4945,
      "पारि": 4946,
      "खोल": 4947,
      "जॉन": 4948,
      "नृत्य": 4949,
      "सिनेमा": 4950,
      "चें": 4951,
      "दत्त": 4952,
      "९९": 4953,
      "लेटर": 4954,
      "स्थाना": 4955,
      "गुर्": 4956,
      "गर्मी": 4957,
      "निकलने": 4958,
      "उड़ान": 4959,
      "मशहूर": 4960,
      "ब्लैक": 4961,
      "बृहस्पतिवार": 4962,
      "आंध्र": 4963,
      "यश": 4964,
      "रवी": 4965,
      "र्ण": 4966,
      "साव": 4967,
      "सीख": 4968,
      "लोर": 4969,
      "कुंभ": 4970,
      "फ्लै": 4971,
      "कामका": 4972,
      "चौथे": 4973,
      "तारीफ": 4974,
      "आतंकवादियों": 4975,
      "आयुर्": 4976,
      "इलेक्ट्रिक": 4977,
      "कठि": 4978,
      "आंगनबाड़ी": 4979,
      "सभागार": 4980,
      "दफ्तर": 4981,
      "आलोक": 4982,
      "मले": 4983,
      "माला": 4984,
      "माही": 4985,
      "जोध": 4986,
      "भेजी": 4987,
      "पद्": 4988,
      "बस्ती": 4989,
      "स्पा": 4990,
      "दिलीप": 4991,
      "क्ष्य": 4992,
      "खिताब": 4993,
      "ज़ार": 4994,
      "डेटा": 4995,
      "नामक": 4996,
      "खोज": 4997,
      "तैनाती": 4998,
      "फुल": 4999,
      "अक्त": 5000,
      "ठो": 5001,
      "दंड": 5002,
      "दयाल": 5003,
      "जाल": 5004,
      "सिन": 5005,
      "गेहूं": 5006,
      "निर्मा": 5007,
      "चारिक": 5008,
      "पोल": 5009,
      "खेत": 5010,
      "चेहरे": 5011,
      "निर्देशों": 5012,
      "मिलाकर": 5013,
      "संस्थापक": 5014,
      "आर्मी": 5015,
      "सर्वेक्षण": 5016,
      "अक्तूबर": 5017,
      "नर्स": 5018,
      "हद": 5019,
      "सेक्स": 5020,
      "कियां": 5021,
      "चुन": 5022,
      "भूत": 5023,
      "अधिकतर": 5024,
      "बदले": 5025,
      "्युनि": 5026,
      "सिपाही": 5027,
      "सर्वाधिक": 5028,
      "र्थी": 5029,
      "राह": 5030,
      "टीमें": 5031,
      "रियों": 5032,
      "सांसदों": 5033,
      "महीनों": 5034,
      "डाउनलोड": 5035,
      "ख़ि": 5036,
      "रॉय": 5037,
      "मैनेजर": 5038,
      "अंदाज": 5039,
      "एप्": 5040,
      "गवर्": 5041,
      "साउथ": 5042,
      "दूध": 5043,
      "लिखकर": 5044,
      "श्रृंखला": 5045,
      "महानिदेश": 5046,
      "फाउंडेशन": 5047,
      "जोधपुर": 5048,
      "आभार": 5049,
      "आवेद": 5050,
      "जज": 5051,
      "भौ": 5052,
      "सत्": 5053,
      "४४": 5054,
      "प्रभु": 5055,
      "सिफार": 5056,
      "ंचा": 5057,
      "रेगा": 5058,
      "टेज": 5059,
      "एमपी": 5060,
      "स्वती": 5061,
      "२०१२": 5062,
      "हाईवे": 5063,
      "वैज्ञानिकों": 5064,
      "तेंदु": 5065,
      "चयनित": 5066,
      "सॉफ्ट": 5067,
      "सिफारिश": 5068,
      "अमिता": 5069,
      "आपरा": 5070,
      "प्यार": 5071,
      "सक्षम": 5072,
      "साधा": 5073,
      "बाहरी": 5074,
      "भाल": 5075,
      "मंत": 5076,
      "ंधे": 5077,
      "टिश": 5078,
      "पेयी": 5079,
      "ग्रीन": 5080,
      "दुकानदारों": 5081,
      "निवेशकों": 5082,
      "इलेक्ट्रॉ": 5083,
      "तस्": 5084,
      "श्वरी": 5085,
      "परिचा": 5086,
      "बेन": 5087,
      "छाड़": 5088,
      "आरती": 5089,
      "गोवा": 5090,
      "बॉर्डर": 5091,
      "भ्रमण": 5092,
      "उदाहरण": 5093,
      "इंडीज": 5094,
      "कड़": 5095,
      "र्ज": 5096,
      "तियां": 5097,
      "मिसाइ": 5098,
      "न्नी": 5099,
      "सरस्वती": 5100,
      "शाही": 5101,
      "लोन": 5102,
      "जेशन": 5103,
      "सहारा": 5104,
      "फ्रेंड": 5105,
      "चिकित्सालय": 5106,
      "सख्ती": 5107,
      "शब्द": 5108,
      "स्क्रीन": 5109,
      "स्नातक": 5110,
      "आपराधिक": 5111,
      "यॉ": 5112,
      "निधि": 5113,
      "साझे": 5114,
      "चाहे": 5115,
      "कॉर्": 5116,
      "पासपोर्ट": 5117,
      "न्नति": 5118,
      "फैक्ट्र": 5119,
      "बढ़ाया": 5120,
      "शिकायतों": 5121,
      "रोकथाम": 5122,
      "विषयों": 5123,
      "समर्थक": 5124,
      "जवाहर": 5125,
      "बच्ची": 5126,
      "समुद्र": 5127,
      "अभ्यर्थी": 5128,
      "शुभकामनाएं": 5129,
      "अका": 5130,
      "लम्": 5131,
      "हक": 5132,
      "छापा": 5133,
      "जुड़": 5134,
      "परीक्षाएं": 5135,
      "धन्य": 5136,
      "१५०": 5137,
      "बनेगा": 5138,
      "पश्चा": 5139,
      "हिन्दु": 5140,
      "आरोपितों": 5141,
      "हेल्प": 5142,
      "मुफ्त": 5143,
      "ऩे": 5144,
      "पटा": 5145,
      "कोटा": 5146,
      "दिखे": 5147,
      "जिंदगी": 5148,
      "चुने": 5149,
      "चुअल": 5150,
      "प्राचीन": 5151,
      "तीसरा": 5152,
      "हड़कंप": 5153,
      "भट्ट": 5154,
      "बुजुर्ग": 5155,
      "कांग्रेसी": 5156,
      "थियों": 5157,
      "बहि": 5158,
      "मुर्": 5159,
      "जिकल": 5160,
      "शिलान": 5161,
      "क्षेप": 5162,
      "कटौती": 5163,
      "मुलायम": 5164,
      "गाइडलाइन": 5165,
      "पायलट": 5166,
      "बुनियादी": 5167,
      "इच्छ": 5168,
      "खतर": 5169,
      "वाइस": 5170,
      "शासित": 5171,
      "एकजुट": 5172,
      "डिस्ट": 5173,
      "न्यास": 5174,
      "नौकर": 5175,
      "सदस्यता": 5176,
      "दिग्विजय": 5177,
      "नक्सली": 5178,
      "बेंगल": 5179,
      "शिलान्यास": 5180,
      "ढाई": 5181,
      "रत्": 5182,
      "करवाई": 5183,
      "किशन": 5184,
      "प्रवी": 5185,
      "विष्णु": 5186,
      "संस्": 5187,
      "द्दा": 5188,
      "दाद": 5189,
      "क्रमा": 5190,
      "शीट": 5191,
      "मनमोहन": 5192,
      "पैरा": 5193,
      "फ़्": 5194,
      "एजेंसियों": 5195,
      "पाएंगे": 5196,
      "जायेगी": 5197,
      "आरा": 5198,
      "डन": 5199,
      "पौर": 5200,
      "बहाल": 5201,
      "लक्षण": 5202,
      "वाड़": 5203,
      "विजन": 5204,
      "ंगना": 5205,
      "अधिसूचना": 5206,
      "धारण": 5207,
      "आंकड़ों": 5208,
      "आइसो": 5209,
      "आधा": 5210,
      "इच्छा": 5211,
      "काले": 5212,
      "एकता": 5213,
      "जुटे": 5214,
      "धीर": 5215,
      "ंटों": 5216,
      "पौध": 5217,
      "अभिभावकों": 5218,
      "सराहना": 5219,
      "तट": 5220,
      "लखी": 5221,
      "ॉट": 5222,
      "र्द": 5223,
      "राठ": 5224,
      "नीरज": 5225,
      "बेल": 5226,
      "सून": 5227,
      "जुलू": 5228,
      "चलता": 5229,
      "निर्देशित": 5230,
      "नीतियों": 5231,
      "स्थिर": 5232,
      "चैनल": 5233,
      "नजदी": 5234,
      "अके": 5235,
      "कड़ा": 5236,
      "ढंग": 5237,
      "फंसे": 5238,
      "कांग": 5239,
      "क्ली": 5240,
      "विहार": 5241,
      "रिस": 5242,
      "कुं": 5243,
      "धानिक": 5244,
      "श्रमिकों": 5245,
      "खेड़ा": 5246,
      "वैधानिक": 5247,
      "डेन": 5248,
      "१०वीं": 5249,
      "अधिकारों": 5250,
      "कोयला": 5251,
      "ँच": 5252,
      "चर्": 5253,
      "तबाद": 5254,
      "५६": 5255,
      "लिंक": 5256,
      "बांट": 5257,
      "रेफर": 5258,
      "मानते": 5259,
      "कार्यशाला": 5260,
      "कर्स": 5261,
      "सूर": 5262,
      "सिलेंडर": 5263,
      "मजबूर": 5264,
      "सियासी": 5265,
      "वेस्टइंडीज": 5266,
      "कविता": 5267,
      "गोविंद": 5268,
      "मस्जिद": 5269,
      "एक्शन": 5270,
      "निशा": 5271,
      "दीक्षित": 5272,
      "दीपिका": 5273,
      "जीपुर": 5274,
      "पूंजी": 5275,
      "हरु": 5276,
      "रुख": 5277,
      "बच्चन": 5278,
      "एचओ": 5279,
      "ब्रिटिश": 5280,
      "काउंसिल": 5281,
      "दशक": 5282,
      "योग्यता": 5283,
      "ईद": 5284,
      "कपड़े": 5285,
      "ठिका": 5286,
      "यौ": 5287,
      "लता": 5288,
      "ैया": 5289,
      "विक्रम": 5290,
      "सीएचसी": 5291,
      "सोने": 5292,
      "एंट्री": 5293,
      "सुरेंद्र": 5294,
      "उपाय": 5295,
      "तत्वा": 5296,
      "दस्तावे": 5297,
      "क्राइम": 5298,
      "जुलूस": 5299,
      "अत्य": 5300,
      "धव": 5301,
      "क्लिक": 5302,
      "कहां": 5303,
      "आईडी": 5304,
      "महापौर": 5305,
      "पासवान": 5306,
      "तृतीय": 5307,
      "हॉल": 5308,
      "फायदे": 5309,
      "पुरुषों": 5310,
      "नरेश": 5311,
      "विवेक": 5312,
      "महंगाई": 5313,
      "कोष": 5314,
      "गां": 5315,
      "निर्यात": 5316,
      "परिक": 5317,
      "फील्ड": 5318,
      "शुरूआत": 5319,
      "इंटरव्यू": 5320,
      "हॉकी": 5321,
      "खबरों": 5322,
      "रेंज": 5323,
      "ग्राहक": 5324,
      "खतरे": 5325,
      "एक्टर": 5326,
      "घट": 5327,
      "जं": 5328,
      "थन": 5329,
      "हवाला": 5330,
      "केज": 5331,
      "माफी": 5332,
      "संहिता": 5333,
      "पाट": 5334,
      "रिकार्ड": 5335,
      "रोशन": 5336,
      "खुफिया": 5337,
      "मनाने": 5338,
      "ठेकेदार": 5339,
      "सुनाई": 5340,
      "अगुवाई": 5341,
      "टेक्नोलॉजी": 5342,
      "परिचालन": 5343,
      "अवार्ड": 5344,
      "इंद्र": 5345,
      "एम्स": 5346,
      "यहाँ": 5347,
      "किस्": 5348,
      "ताज": 5349,
      "ट्राय": 5350,
      "शिर": 5351,
      "चालू": 5352,
      "बिन": 5353,
      "टेशन": 5354,
      "ट्रैक": 5355,
      "निर्वाचित": 5356,
      "हिस्सेदारी": 5357,
      "फतेह": 5358,
      "अमिताभ": 5359,
      "कना": 5360,
      "लाए": 5361,
      "मिनि": 5362,
      "प्रतिभाग": 5363,
      "जोड़ने": 5364,
      "प्रदर्शनकारियों": 5365,
      "प्रदर्शनी": 5366,
      "कामकाज": 5367,
      "अख": 5368,
      "कपिल": 5369,
      "र्वाद": 5370,
      "ित्व": 5371,
      "पीपी": 5372,
      "शियन": 5373,
      "ंचित": 5374,
      "बीए": 5375,
      "पेट्रो": 5376,
      "बुद्ध": 5377,
      "हितों": 5378,
      "वीरेंद्र": 5379,
      "केन्द्रों": 5380,
      "पर्यटकों": 5381,
      "प्रारंभिक": 5382,
      "पुणे": 5383,
      "व्रत": 5384,
      "अंतरिक्ष": 5385,
      "दीपावली": 5386,
      "धन्यवाद": 5387,
      "अवि": 5388,
      "इज": 5389,
      "बृ": 5390,
      "४००": 5391,
      "विशिष्ट": 5392,
      "निरं": 5393,
      "पाद": 5394,
      "शिफ्ट": 5395,
      "गीता": 5396,
      "वेशन": 5397,
      "बादल": 5398,
      "तोमर": 5399,
      "महत्": 5400,
      "डालने": 5401,
      "बोला": 5402,
      "पत्रों": 5403,
      "व्याव": 5404,
      "समस्याएं": 5405,
      "प्रदर्शित": 5406,
      "स्पोर्ट्स": 5407,
      "नर्": 5408,
      "पीयू": 5409,
      "शिखर": 5410,
      "म्भ": 5411,
      "सहार": 5412,
      "नोडल": 5413,
      "अगली": 5414,
      "लुक": 5415,
      "उच्चतम": 5416,
      "गर्भव": 5417,
      "कलाकारों": 5418,
      "सब्जी": 5419,
      "गुस्सा": 5420,
      "ओडि": 5421,
      "लव": 5422,
      "प्रश": 5423,
      "मिकी": 5424,
      "मिट्टी": 5425,
      "संदर्भ": 5426,
      "पीय": 5427,
      "समृ": 5428,
      "आईआईटी": 5429,
      "२०११": 5430,
      "टाइम": 5431,
      "एडमिशन": 5432,
      "जितेंद्र": 5433,
      "फ़िल्": 5434,
      "सेमीफाइनल": 5435,
      "अत्या": 5436,
      "नज़र": 5437,
      "पने": 5438,
      "सपना": 5439,
      "३९": 5440,
      "लियो": 5441,
      "बाधा": 5442,
      "एकमात्र": 5443,
      "राजद": 5444,
      "टिकल": 5445,
      "श्रा": 5446,
      "पोरेशन": 5447,
      "अनुराग": 5448,
      "बोली": 5449,
      "सदस्यीय": 5450,
      "ड्राइवर": 5451,
      "अम्": 5452,
      "मलिक": 5453,
      "ल्यू": 5454,
      "सृ": 5455,
      "राजे": 5456,
      "पूर्वा": 5457,
      "वंश": 5458,
      "जोड़ी": 5459,
      "यूजर्स": 5460,
      "जानते": 5461,
      "डेवि": 5462,
      "सर्टिफि": 5463,
      "फैंस": 5464,
      "दरवा": 5465,
      "खरीदी": 5466,
      "जोरदार": 5467,
      "अब्दुल": 5468,
      "गर्भवती": 5469,
      "ुओं": 5470,
      "स्वि": 5471,
      "नाइट": 5472,
      "बताए": 5473,
      "प्रतिबद्ध": 5474,
      "कारणों": 5475,
      "अगला": 5476,
      "लगेगा": 5477,
      "प्रिं": 5478,
      "नतीजे": 5479,
      "मल्टी": 5480,
      "दलीय": 5481,
      "पड़ोसी": 5482,
      "महानिदेशक": 5483,
      "व्यावसाय": 5484,
      "मप्र": 5485,
      "लिखे": 5486,
      "ब्लू": 5487,
      "आरंभ": 5488,
      "शेख": 5489,
      "फांसी": 5490,
      "एनएच": 5491,
      "शंसा": 5492,
      "हत्याकांड": 5493,
      "रिश्वत": 5494,
      "आशीर्वाद": 5495,
      "एग्जाम": 5496,
      "संस्करण": 5497,
      "आंत": 5498,
      "दह": 5499,
      "पला": 5500,
      "भजन": 5501,
      "करो": 5502,
      "सेकेंड": 5503,
      "नाई": 5504,
      "मारकर": 5505,
      "टिक्स": 5506,
      "अंसारी": 5507,
      "जिसने": 5508,
      "डाक": 5509,
      "इतने": 5510,
      "हार्दिक": 5511,
      "महानगर": 5512,
      "प्रधानाचार्य": 5513,
      "इच्छुक": 5514,
      "ओबा": 5515,
      "ैन": 5516,
      "कायम": 5517,
      "वालय": 5518,
      "सिख": 5519,
      "ंचे": 5520,
      "गेटिव": 5521,
      "श्रमिक": 5522,
      "गिल": 5523,
      "सहकारी": 5524,
      "फीसद": 5525,
      "निकली": 5526,
      "जेंसी": 5527,
      "टूट": 5528,
      "दुकानदार": 5529,
      "एशियाई": 5530,
      "संग्रह": 5531,
      "चालकों": 5532,
      "जबरदस्त": 5533,
      "आकाश": 5534,
      "खड़": 5535,
      "छवि": 5536,
      "िमा": 5537,
      "५७": 5538,
      "निस": 5539,
      "ंगर": 5540,
      "भीम": 5541,
      "रोका": 5542,
      "ष्णा": 5543,
      "रूपये": 5544,
      "रखकर": 5545,
      "आएगा": 5546,
      "उपलब्धि": 5547,
      "ब्रिज": 5548,
      "पौधे": 5549,
      "शरद": 5550,
      "तस्करी": 5551,
      "रौ": 5552,
      "उत्पन्न": 5553,
      "पढ़ने": 5554,
      "छोड़ने": 5555,
      "डीजीपी": 5556,
      "सेवानिवृत्त": 5557,
      "फैक्ट्री": 5558,
      "एजु": 5559,
      "जेंट": 5560,
      "४२": 5561,
      "यानि": 5562,
      "स्मार": 5563,
      "कारिणी": 5564,
      "क्रॉ": 5565,
      "कुशी": 5566,
      "पेड़": 5567,
      "पेशे": 5568,
      "जूझ": 5569,
      "चैम्": 5570,
      "छात्राएं": 5571,
      "छुट्टी": 5572,
      "बहिष्कार": 5573,
      "ओडिशा": 5574,
      "लेंस": 5575,
      "लियम": 5576,
      "पीने": 5577,
      "जीते": 5578,
      "डीएस": 5579,
      "निकला": 5580,
      "सैनी": 5581,
      "ाराम": 5582,
      "प्रोटो": 5583,
      "फेयर": 5584,
      "स्टेशनों": 5585,
      "तेजस्वी": 5586,
      "चलेगा": 5587,
      "व्यावसायिक": 5588,
      "ओबामा": 5589,
      "कंड": 5590,
      "पचारिक": 5591,
      "सेवन": 5592,
      "माफिया": 5593,
      "संज्ञान": 5594,
      "पीएस": 5595,
      "कुंड": 5596,
      "सूबे": 5597,
      "भागलपुर": 5598,
      "कृष्णा": 5599,
      "शोभा": 5600,
      "निदेशालय": 5601,
      "पाठक": 5602,
      "सैनिटाइ": 5603,
      "पृथ्वी": 5604,
      "गुर्जर": 5605,
      "जाया": 5606,
      "ंगाना": 5607,
      "मारने": 5608,
      "कम्युनि": 5609,
      "गणतंत्र": 5610,
      "मनोरंजन": 5611,
      "किंग्स": 5612,
      "वाजपेयी": 5613,
      "वायुसेना": 5614,
      "गायब": 5615,
      "मेंद्र": 5616,
      "वाता": 5617,
      "मिथ": 5618,
      "लोकार्": 5619,
      "चालान": 5620,
      "बेस्ट": 5621,
      "बरकरार": 5622,
      "दुख": 5623,
      "गिरोह": 5624,
      "जानकार": 5625,
      "शेर": 5626,
      "दायित्व": 5627,
      "कूट": 5628,
      "धोखाध": 5629,
      "बली": 5630,
      "हवाले": 5631,
      "६७": 5632,
      "लापता": 5633,
      "नितिन": 5634,
      "ंगु": 5635,
      "ल्ले": 5636,
      "ल्लू": 5637,
      "मीणा": 5638,
      "भागवत": 5639,
      "निर्देशन": 5640,
      "वासीय": 5641,
      "ष्ठी": 5642,
      "प्राथमिकी": 5643,
      "पीड़ितों": 5644,
      "पंजीकृत": 5645,
      "अपेक्षा": 5646,
      "ट्रायल": 5647,
      "सर्टिफिकेट": 5648,
      "दुर": 5649,
      "बकाया": 5650,
      "मदर": 5651,
      "६८": 5652,
      "्यो": 5653,
      "सीतार": 5654,
      "पिन": 5655,
      "सूरज": 5656,
      "महंत": 5657,
      "इंजन": 5658,
      "सम्बन्": 5659,
      "कुलदीप": 5660,
      "पड़ने": 5661,
      "दुर्ग": 5662,
      "कलाकार": 5663,
      "संक्रमितों": 5664,
      "शैली": 5665,
      "कीमतों": 5666,
      "कारोबारियों": 5667,
      "संस्कृत": 5668,
      "खूबसूरत": 5669,
      "स्पीकर": 5670,
      "तेलंगाना": 5671,
      "ानुसार": 5672,
      "लोकार्पण": 5673,
      "भले": 5674,
      "हुसैन": 5675,
      "वारिक": 5676,
      "बनाये": 5677,
      "एंट": 5678,
      "बहुमत": 5679,
      "हिन्दी": 5680,
      "चौराहे": 5681,
      "उतरे": 5682,
      "बीमारियों": 5683,
      "सहारनपुर": 5684,
      "आर्य": 5685,
      "ड्स": 5686,
      "धमा": 5687,
      "बर्फ": 5688,
      "ुसार": 5689,
      "किरण": 5690,
      "प्रण": 5691,
      "साथियों": 5692,
      "कृष्ट": 5693,
      "पत्रिका": 5694,
      "घटनास्थल": 5695,
      "फ़ी": 5696,
      "मीरपुर": 5697,
      "डोज": 5698,
      "कांस्टेबल": 5699,
      "प्लास्टिक": 5700,
      "ब्लड": 5701,
      "अनुरूप": 5702,
      "पुस्तक": 5703,
      "पारिवारिक": 5704,
      "स्थानांतर": 5705,
      "एजुकेशन": 5706,
      "आस्था": 5707,
      "आवासीय": 5708,
      "कड़े": 5709,
      "वक्ताओं": 5710,
      "५८": 5711,
      "स्कोर": 5712,
      "लिश": 5713,
      "साक्षा": 5714,
      "जाबाद": 5715,
      "सुर्": 5716,
      "डीएसपी": 5717,
      "शिकायतें": 5718,
      "उद्योगों": 5719,
      "गरीबों": 5720,
      "छेड़छाड़": 5721,
      "प्रवीण": 5722,
      "धोखाधड़ी": 5723,
      "झटका": 5724,
      "क्वार्": 5725,
      "जाट": 5726,
      "सिक्यो": 5727,
      "दीवार": 5728,
      "गीत": 5729,
      "अपलोड": 5730,
      "सुशांत": 5731,
      "रुचि": 5732,
      "कराकर": 5733,
      "अभ्यास": 5734,
      "बातों": 5735,
      "पंथी": 5736,
      "अलीगढ़": 5737,
      "कस्बे": 5738,
      "आस्ट्रेलिया": 5739,
      "ऊदी": 5740,
      "५४": 5741,
      "मिंग": 5742,
      "पाइ": 5743,
      "मानक": 5744,
      "डिय": 5745,
      "कार्यकारिणी": 5746,
      "महज": 5747,
      "ट्टा": 5748,
      "मांगे": 5749,
      "अवकाश": 5750,
      "र्मनी": 5751,
      "स्वीकृत": 5752,
      "रैंकिंग": 5753,
      "प्रतिनिधिमंडल": 5754,
      "कितना": 5755,
      "विस्फोट": 5756,
      "अखबार": 5757,
      "अट": 5758,
      "जहा": 5759,
      "जर्मनी": 5760,
      "नमेंट": 5761,
      "दित्य": 5762,
      "तिमाही": 5763,
      "सीआरपीएफ": 5764,
      "क्रय": 5765,
      "पूछे": 5766,
      "वेरि": 5767,
      "२००८": 5768,
      "स्कूली": 5769,
      "सिलसिला": 5770,
      "परीक्षार्थी": 5771,
      "हस्तक्षेप": 5772,
      "आफ": 5773,
      "घंटों": 5774,
      "म्या": 5775,
      "लभ": 5776,
      "सेवी": 5777,
      "दिला": 5778,
      "जिट": 5779,
      "शिल्": 5780,
      "राजू": 5781,
      "अधिग्रहण": 5782,
      "खाता": 5783,
      "बैग": 5784,
      "बैड": 5785,
      "विश्ले": 5786,
      "पूर्णिमा": 5787,
      "खोले": 5788,
      "कमांडर": 5789,
      "अभाव": 5790,
      "तस्कर": 5791,
      "फूड": 5792,
      "वाड़ी": 5793,
      "त्रु": 5794,
      "गाने": 5795,
      "हुये": 5796,
      "अपमान": 5797,
      "मतलब": 5798,
      "पिछली": 5799,
      "धरने": 5800,
      "मोहल्ला": 5801,
      "मकसद": 5802,
      "गोलीबारी": 5803,
      "गड़बड़ी": 5804,
      "प्रसारण": 5805,
      "कुशवाहा": 5806,
      "प्रोत्साहित": 5807,
      "इमार": 5808,
      "ऑर्": 5809,
      "पंप": 5810,
      "्न": 5811,
      "२५०": 5812,
      "४१": 5813,
      "५१": 5814,
      "लेस": 5815,
      "मास": 5816,
      "नीला": 5817,
      "एमएल": 5818,
      "अनुकूल": 5819,
      "रुद्र": 5820,
      "जारा": 5821,
      "सिद्धू": 5822,
      "जेटली": 5823,
      "मुसलमानों": 5824,
      "यौन": 5825,
      "अह": 5826,
      "चम": 5827,
      "चलाई": 5828,
      "नशे": 5829,
      "नर्म": 5830,
      "यज्ञ": 5831,
      "नामी": 5832,
      "विवरण": 5833,
      "लिखी": 5834,
      "बाधित": 5835,
      "संयंत्र": 5836,
      "सिड": 5837,
      "एसके": 5838,
      "फिट": 5839,
      "स्थाई": 5840,
      "कमरे": 5841,
      "वर्षा": 5842,
      "पैमाने": 5843,
      "एफसी": 5844,
      "दिखाने": 5845,
      "क्षिका": 5846,
      "कूद": 5847,
      "लेखक": 5848,
      "थोड़ा": 5849,
      "स्पीड": 5850,
      "कामयाब": 5851,
      "कार्यालयों": 5852,
      "ग्लोबल": 5853,
      "वातावरण": 5854,
      "ंपरिक": 5855,
      "उग्र": 5856,
      "एम्": 5857,
      "हमीरपुर": 5858,
      "दिलाया": 5859,
      "शाहरु": 5860,
      "ष्ठा": 5861,
      "मानें": 5862,
      "वर्गीय": 5863,
      "एसडीओ": 5864,
      "दर्शा": 5865,
      "मौर्य": 5866,
      "लगाना": 5867,
      "टोल": 5868,
      "पारंपरिक": 5869,
      "गूगल": 5870,
      "हॉट": 5871,
      "परेड": 5872,
      "समन्वय": 5873,
      "पश्चात": 5874,
      "अजीत": 5875,
      "६९": 5876,
      "लाइंस": 5877,
      "सरदार": 5878,
      "मेयर": 5879,
      "जेई": 5880,
      "२०१०": 5881,
      "महासभा": 5882,
      "पैदल": 5883,
      "२००९": 5884,
      "रोगियों": 5885,
      "समर्पित": 5886,
      "स्टाइल": 5887,
      "एका": 5888,
      "टर्स": 5889,
      "ठान": 5890,
      "मस": 5891,
      "लरी": 5892,
      "ललित": 5893,
      "वंचित": 5894,
      "शता": 5895,
      "ताजा": 5896,
      "तांत्रिक": 5897,
      "लेवल": 5898,
      "हैंड": 5899,
      "जीएम": 5900,
      "लूम": 5901,
      "हरीश": 5902,
      "लौटने": 5903,
      "आंकड़े": 5904,
      "अमरीकी": 5905,
      "प्रतीक": 5906,
      "स्कीम": 5907,
      "कंगना": 5908,
      "गमन": 5909,
      "डर्स": 5910,
      "पवि": 5911,
      "हानि": 5912,
      "वाशिंगटन": 5913,
      "मिनी": 5914,
      "संपूर्ण": 5915,
      "बिका": 5916,
      "बेसिक": 5917,
      "धारकों": 5918,
      "मनरेगा": 5919,
      "हेमंत": 5920,
      "जायसवाल": 5921,
      "ब्रांच": 5922,
      "समूहों": 5923,
      "पार्टमेंट": 5924,
      "कॉन्फ्रेंस": 5925,
      "साधनों": 5926,
      "हथियारों": 5927,
      "ंटीन": 5928,
      "उज्जैन": 5929,
      "गाँव": 5930,
      "खतरनाक": 5931,
      "दस्तावेजों": 5932,
      "चक्कर": 5933,
      "टर्": 5934,
      "सऊदी": 5935,
      "मानवा": 5936,
      "प्शन": 5937,
      "वर्ड": 5938,
      "चिह्": 5939,
      "कर्फ्यू": 5940,
      "दर्जनों": 5941,
      "बैंकिंग": 5942,
      "जोखि": 5943,
      "जिनकी": 5944,
      "मिसाइल": 5945,
      "डमी": 5946,
      "५२": 5947,
      "ान्": 5948,
      "प्रस": 5949,
      "जनसभा": 5950,
      "प्राप्ति": 5951,
      "श्रीमती": 5952,
      "ंसल": 5953,
      "ख्यात": 5954,
      "मनाई": 5955,
      "मजबूती": 5956,
      "अधीन": 5957,
      "आत्मनिर्भर": 5958,
      "प्लेटफॉर्म": 5959,
      "फुटबॉल": 5960,
      "यॉर्क": 5961,
      "सना": 5962,
      "हीरो": 5963,
      "सांस": 5964,
      "सिंचाई": 5965,
      "मेश्वर": 5966,
      "रेख": 5967,
      "गेश्वर": 5968,
      "सचिवालय": 5969,
      "मुंह": 5970,
      "धर्मशाला": 5971,
      "जदयू": 5972,
      "ख़िला": 5973,
      "अकादमी": 5974,
      "तत्वावधान": 5975,
      "सिक्योरिटी": 5976,
      "मानवाधिकार": 5977,
      "पमेंट": 5978,
      "ैर": 5979,
      "७२": 5980,
      "लाह": 5981,
      "लांग": 5982,
      "नाश": 5983,
      "वादा": 5984,
      "माबाद": 5985,
      "टीके": 5986,
      "मीन": 5987,
      "अपहरण": 5988,
      "अपडेट": 5989,
      "बीडीओ": 5990,
      "वीएम": 5991,
      "बैनर": 5992,
      "दायरे": 5993,
      "पीड़न": 5994,
      "शांतिपूर्ण": 5995,
      "धाराओं": 5996,
      "क्रेडिट": 5997,
      "व्ही": 5998,
      "इजाजत": 5999,
      "बलात्कार": 6000,
      "साक्षात्कार": 6001,
      "उमा": 6002,
      "६४": 6003,
      "क्वालि": 6004,
      "प्रदायिक": 6005,
      "बालक": 6006,
      "सीरिया": 6007,
      "टीन": 6008,
      "मेजब": 6009,
      "टरों": 6010,
      "टाने": 6011,
      "दूत": 6012,
      "सोसाय": 6013,
      "शुक्ल": 6014,
      "कैद": 6015,
      "देखना": 6016,
      "सकेगी": 6017,
      "हराकर": 6018,
      "पलट": 6019,
      "ऑस्ट्रेलियाई": 6020,
      "दिलच": 6021,
      "बचने": 6022,
      "न्वयन": 6023,
      "प्लस": 6024,
      "निरंतर": 6025,
      "चैम्पियन": 6026,
      "काबू": 6027,
      "नाला": 6028,
      "मेडल": 6029,
      "चांदी": 6030,
      "रूट": 6031,
      "बनाते": 6032,
      "मांगने": 6033,
      "खोला": 6034,
      "स्टील": 6035,
      "इमरजेंसी": 6036,
      "दोस्तों": 6037,
      "निशाने": 6038,
      "शिरकत": 6039,
      "आलम": 6040,
      "तथ्य": 6041,
      "सक्": 6042,
      "हसन": 6043,
      "काग": 6044,
      "देखि": 6045,
      "रिहा": 6046,
      "खाद": 6047,
      "जोड़ा": 6048,
      "उत्पीड़न": 6049,
      "ज़रू": 6050,
      "आरएसएस": 6051,
      "डेवल": 6052,
      "१०००": 6053,
      "निर्देशक": 6054,
      "धनबाद": 6055,
      "बॉक्स": 6056,
      "नागपुर": 6057,
      "खबरें": 6058,
      "आइए": 6059,
      "हादसा": 6060,
      "ब्राह्": 6061,
      "खासकर": 6062,
      "ट्रांसफर": 6063,
      "एटीएम": 6064,
      "नगरीय": 6065,
      "पॉलिसी": 6066,
      "सावधानी": 6067,
      "आइसोलेशन": 6068,
      "एँ": 6069,
      "नहर": 6070,
      "पेंद्र": 6071,
      "रवै": 6072,
      "हृ": 6073,
      "र्त": 6074,
      "दिलाई": 6075,
      "टिवि": 6076,
      "दर्जा": 6077,
      "बुद्धि": 6078,
      "आरके": 6079,
      "हमलों": 6080,
      "फोर्": 6081,
      "देखभाल": 6082,
      "लाइव": 6083,
      "मराह": 6084,
      "अमरि": 6085,
      "इजाफा": 6086,
      "क्षतिग्रस्त": 6087,
      "अन्न": 6088,
      "अफ़": 6089,
      "टें": 6090,
      "रकम": 6091,
      "वाहि": 6092,
      "निभाई": 6093,
      "मालि": 6094,
      "देय": 6095,
      "दीश": 6096,
      "शायद": 6097,
      "सुष": 6098,
      "मोड़": 6099,
      "उपमुख्यमंत्री": 6100,
      "गुला": 6101,
      "केंद्रित": 6102,
      "भरत": 6103,
      "जिनका": 6104,
      "संचाल": 6105,
      "ब्रह्म": 6106,
      "आब": 6107,
      "आला": 6108,
      "एथ": 6109,
      "फौ": 6110,
      "पाकर": 6111,
      "देशी": 6112,
      "कुशल": 6113,
      "प्रतिपक्ष": 6114,
      "कलेक्ट्रेट": 6115,
      "ड्यूल": 6116,
      "किशोरी": 6117,
      "मुआवजा": 6118,
      "गर्म": 6119,
      "चपेट": 6120,
      "णे": 6121,
      "यमुना": 6122,
      "िम": 6123,
      "वाइंट": 6124,
      "रहेंगी": 6125,
      "आरएस": 6126,
      "आपसी": 6127,
      "चेत": 6128,
      "शोषण": 6129,
      "छोटा": 6130,
      "कितने": 6131,
      "आंकड़ा": 6132,
      "लक्ष्मण": 6133,
      "आवंटन": 6134,
      "साझेदारी": 6135,
      "सास": 6136,
      "साहन": 6137,
      "होश": 6138,
      "संवैधानिक": 6139,
      "ार्ज": 6140,
      "टेबल": 6141,
      "अनुबंध": 6142,
      "महल": 6143,
      "परीत": 6144,
      "पैर": 6145,
      "पैकेज": 6146,
      "जगदीश": 6147,
      "लाभार्थियों": 6148,
      "प्रिंट": 6149,
      "पवित्र": 6150,
      "जोखिम": 6151,
      "असिस्ट": 6152,
      "कन्न": 6153,
      "जना": 6154,
      "पवार": 6155,
      "पट्टी": 6156,
      "शह": 6157,
      "कोड": 6158,
      "राक": 6159,
      "एकल": 6160,
      "ढ़ा": 6161,
      "स्वराज": 6162,
      "बहस": 6163,
      "टिफिकेशन": 6164,
      "ंटाइन": 6165,
      "द्वीप": 6166,
      "क्वार्टर": 6167,
      "शाहरुख": 6168,
      "सुषमा": 6169,
      "अनियमित": 6170,
      "गहरा": 6171,
      "बजर": 6172,
      "बुरी": 6173,
      "ूं": 6174,
      "६६": 6175,
      "अनुदान": 6176,
      "यूं": 6177,
      "यूजी": 6178,
      "स्कॉ": 6179,
      "फैलाने": 6180,
      "करीबी": 6181,
      "व्यवस्थाओं": 6182,
      "अर्ध": 6183,
      "नक्सल": 6184,
      "बढ़ेगी": 6185,
      "प्रोत्साहन": 6186,
      "सीएए": 6187,
      "सत्यापन": 6188,
      "अरो": 6189,
      "ध्": 6190,
      "बगैर": 6191,
      "विभा": 6192,
      "संविदा": 6193,
      "सिपल": 6194,
      "शिशु": 6195,
      "मीना": 6196,
      "ंधा": 6197,
      "उत्कृष्ट": 6198,
      "जानने": 6199,
      "गोप": 6200,
      "लगंज": 6201,
      "महासंघ": 6202,
      "बैठा": 6203,
      "अभियुक्त": 6204,
      "मार्गदर्शन": 6205,
      "आयकर": 6206,
      "निराकरण": 6207,
      "लिहाजा": 6208,
      "कठिन": 6209,
      "शताब्दी": 6210,
      "ख़िलाफ़": 6211,
      "एडि": 6212,
      "खल": 6213,
      "बढ": 6214,
      "मंग": 6215,
      "सपोर्ट": 6216,
      "सवालों": 6217,
      "ड़ियां": 6218,
      "पाटी": 6219,
      "सारा": 6220,
      "चेकिंग": 6221,
      "धनराशि": 6222,
      "सहाय": 6223,
      "नवरा": 6224,
      "धर्मेंद्र": 6225,
      "अजमेर": 6226,
      "डिय़": 6227,
      "नर्मदा": 6228,
      "गली": 6229,
      "लघु": 6230,
      "विपरीत": 6231,
      "मांस": 6232,
      "संभाग": 6233,
      "बीज": 6234,
      "बिया": 6235,
      "वर्चुअल": 6236,
      "टेनिस": 6237,
      "आईं": 6238,
      "पेज": 6239,
      "मरम्मत": 6240,
      "पुण्य": 6241,
      "फर्म": 6242,
      "भद्र": 6243,
      "ूत": 6244,
      "५९": 6245,
      "कोषा": 6246,
      "विमर्श": 6247,
      "रेड्डी": 6248,
      "पुराना": 6249,
      "मानसून": 6250,
      "महतो": 6251,
      "खुली": 6252,
      "पारदर्": 6253,
      "बढ़ाकर": 6254,
      "सितम्बर": 6255,
      "छात्रावास": 6256,
      "बिल्डिंग": 6257,
      "यूरोपीय": 6258,
      "भंडार": 6259,
      "ट्रॉफी": 6260,
      "सत्तार": 6261,
      "लखीमपुर": 6262,
      "ईटी": 6263,
      "पकों": 6264,
      "वड़ा": 6265,
      "नेश्वर": 6266,
      "क्य": 6267,
      "लील": 6268,
      "जनहित": 6269,
      "प्स": 6270,
      "जेक्शन": 6271,
      "परिचय": 6272,
      "दुबई": 6273,
      "अंकों": 6274,
      "रोडवेज": 6275,
      "जमशे": 6276,
      "वास्तविक": 6277,
      "पहाड़ी": 6278,
      "उद्ध": 6279,
      "एगी": 6280,
      "जख्": 6281,
      "टित": 6282,
      "ाध्यक्ष": 6283,
      "वाकर": 6284,
      "टीआई": 6285,
      "हिद": 6286,
      "सुल्": 6287,
      "निर्दलीय": 6288,
      "२०००": 6289,
      "बताने": 6290,
      "बेरोजगार": 6291,
      "सोन": 6292,
      "कराएं": 6293,
      "व्यवसा": 6294,
      "बढ़ाई": 6295,
      "ट्सएप": 6296,
      "पड़ताल": 6297,
      "ड्रेस": 6298,
      "एंड्र": 6299,
      "कमाई": 6300,
      "दवाओं": 6301,
      "थोड़ी": 6302,
      "इस्लामाबाद": 6303,
      "क्वारंटाइन": 6304,
      "पाइप": 6305,
      "बैडमि": 6306,
      "सोसायटी": 6307,
      "झो": 6308,
      "टरिंग": 6309,
      "णु": 6310,
      "नमू": 6311,
      "सन्": 6312,
      "क्षिक": 6313,
      "पाण्": 6314,
      "एकड़": 6315,
      "चांद": 6316,
      "पेन": 6317,
      "ंगाबाद": 6318,
      "रिपोर्ट्स": 6319,
      "तरीका": 6320,
      "दक्षिणी": 6321,
      "अपराधी": 6322,
      "रजनी": 6323,
      "नैतिक": 6324,
      "संरचना": 6325,
      "भारतीयों": 6326,
      "आईएएनएस": 6327,
      "चौराहा": 6328,
      "रक्तदान": 6329,
      "हेलीकॉप्टर": 6330,
      "बरतने": 6331,
      "आंतरिक": 6332,
      "औपचारिक": 6333,
      "कंटे": 6334,
      "ब्याज": 6335,
      "ॉर्ड": 6336,
      "४३": 6337,
      "्रु": 6338,
      "नाकाम": 6339,
      "ड़की": 6340,
      "पुरम": 6341,
      "म्न": 6342,
      "कर्मा": 6343,
      "एमओ": 6344,
      "न्यूयॉर्क": 6345,
      "कोरोनावायरस": 6346,
      "बनेंगे": 6347,
      "नोटिफिकेशन": 6348,
      "नौसेना": 6349,
      "ग्रेजु": 6350,
      "कितनी": 6351,
      "दोषियों": 6352,
      "विनय": 6353,
      "प्रसन्न": 6354,
      "उजा": 6355,
      "उमेश": 6356,
      "कस्ट": 6357,
      "पंत": 6358,
      "मदन": 6359,
      "शार": 6360,
      "गाजीपुर": 6361,
      "ष्का": 6362,
      "प्रदेशों": 6363,
      "शुद्ध": 6364,
      "आरओ": 6365,
      "गोला": 6366,
      "योजनाएं": 6367,
      "फ्रें": 6368,
      "समितियों": 6369,
      "श्यप": 6370,
      "ग्रेड": 6371,
      "बिल्कुल": 6372,
      "आवंटित": 6373,
      "चतुर्वेदी": 6374,
      "ब्राह्मण": 6375,
      "ख्स": 6376,
      "फट": 6377,
      "वाल्": 6378,
      "विविध": 6379,
      "लिय": 6380,
      "निशान": 6381,
      "सीपी": 6382,
      "त्ते": 6383,
      "दीक्षा": 6384,
      "लोका": 6385,
      "बिता": 6386,
      "डिपार्टमेंट": 6387,
      "लगाव": 6388,
      "पैठ": 6389,
      "स्ट्राइ": 6390,
      "चोर": 6391,
      "कश्मी": 6392,
      "खींच": 6393,
      "तलाशी": 6394,
      "एक्टिव": 6395,
      "साहब": 6396,
      "सिलसिले": 6397,
      "नायडू": 6398,
      "बेंगलुरु": 6399,
      "एआई": 6400,
      "ठप": 6401,
      "णवी": 6402,
      "रनों": 6403,
      "वला": 6404,
      "वेंट": 6405,
      "शक": 6406,
      "मेंस": 6407,
      "विक्रे": 6408,
      "श्रीकृष्ण": 6409,
      "भूपेश": 6410,
      "जलवायु": 6411,
      "मध्यम": 6412,
      "आंखों": 6413,
      "निष्पक्ष": 6414,
      "कैंपस": 6415,
      "चक्रवर्ती": 6416,
      "नोटबंदी": 6417,
      "नवरात्र": 6418,
      "ईश्वर": 6419,
      "उच्चा": 6420,
      "एडीएम": 6421,
      "धना": 6422,
      "नंदन": 6423,
      "रमन": 6424,
      "शनि": 6425,
      "शनी": 6426,
      "शख्स": 6427,
      "क्षत्र": 6428,
      "सिद्धा": 6429,
      "द्विपक्ष": 6430,
      "सुमन": 6431,
      "लोगो": 6432,
      "दुश्": 6433,
      "डेट्स": 6434,
      "फैला": 6435,
      "सलामी": 6436,
      "कल्पना": 6437,
      "चैलें": 6438,
      "मण्ड": 6439,
      "काउंस": 6440,
      "संभाल": 6441,
      "नैनी": 6442,
      "सब्जि": 6443,
      "आईएएस": 6444,
      "पृष्ठ": 6445,
      "अब्दुल्ला": 6446,
      "बुलंदशहर": 6447,
      "चेंज": 6448,
      "स्मारक": 6449,
      "बैडमिंटन": 6450,
      "द्विपक्षीय": 6451,
      "कतों": 6452,
      "डऩे": 6453,
      "वेंद्र": 6454,
      "ूंगा": 6455,
      "शिवा": 6456,
      "ार्क": 6457,
      "जनप्रतिनिधियों": 6458,
      "पहना": 6459,
      "वंशी": 6460,
      "स्पॉट": 6461,
      "डेब्यू": 6462,
      "फ्रेंसिंग": 6463,
      "क्टर्स": 6464,
      "हाईस्कूल": 6465,
      "क़ा": 6466,
      "तस्वीरों": 6467,
      "तोड़ने": 6468,
      "ऑफिसर": 6469,
      "द्विवेदी": 6470,
      "इन्होंने": 6471,
      "बढ़ेगा": 6472,
      "हाइड्र": 6473,
      "देखिए": 6474,
      "इंग": 6475,
      "मछ": 6476,
      "कालोनी": 6477,
      "लेखा": 6478,
      "हाजि": 6479,
      "सीधा": 6480,
      "मिर्जा": 6481,
      "गांगु": 6482,
      "सिडी": 6483,
      "चाय": 6484,
      "सर्जरी": 6485,
      "पर्सन": 6486,
      "परामर्श": 6487,
      "श्योर": 6488,
      "विधिक": 6489,
      "खून": 6490,
      "ओमप्रकाश": 6491,
      "धूमधाम": 6492,
      "चर्चित": 6493,
      "नीलामी": 6494,
      "जमशेदपुर": 6495,
      "अनाव": 6496,
      "आर्ट": 6497,
      "यहीं": 6498,
      "ेद": 6499,
      "ानगर": 6500,
      "विज": 6501,
      "सावधान": 6502,
      "क्रू": 6503,
      "गुट": 6504,
      "महादेव": 6505,
      "खुलने": 6506,
      "ग्स": 6507,
      "फ्रे": 6508,
      "स्ट्रा": 6509,
      "कोविंद": 6510,
      "ष्टमी": 6511,
      "गर्ग": 6512,
      "अमृतसर": 6513,
      "गांगुली": 6514,
      "अखा": 6515,
      "वाटर": 6516,
      "माओ": 6517,
      "ष्मान": 6518,
      "पुत्री": 6519,
      "ग्राफी": 6520,
      "कैश": 6521,
      "देखरेख": 6522,
      "फिल्में": 6523,
      "लोकतांत्रिक": 6524,
      "घटनाएं": 6525,
      "एक्सप": 6526,
      "बनेगी": 6527,
      "आकर्षक": 6528,
      "प्रतिष्ठित": 6529,
      "वस्तुओं": 6530,
      "डेंगू": 6531,
      "जश्न": 6532,
      "पठान": 6533,
      "यड": 6534,
      "शय": 6535,
      "सरो": 6536,
      "७७": 6537,
      "कोचिंग": 6538,
      "प्रै": 6539,
      "वियों": 6540,
      "विफल": 6541,
      "दाश्त": 6542,
      "शिक्षिका": 6543,
      "रेस्ट": 6544,
      "अनंत": 6545,
      "जेश": 6546,
      "प्रतिद्": 6547,
      "पर्टी": 6548,
      "पैनल": 6549,
      "विश्वविद्यालयों": 6550,
      "लैस": 6551,
      "ल्डर": 6552,
      "लौटे": 6553,
      "प्रशिक्षित": 6554,
      "एडमिट": 6555,
      "प्रत्यक्ष": 6556,
      "शहीदों": 6557,
      "ज्योतिरा": 6558,
      "अन्त": 6559,
      "आजमगढ़": 6560,
      "डिस्टेंसिंग": 6561,
      "रत्न": 6562,
      "फ़िल्म": 6563,
      "इयां": 6564,
      "एह": 6565,
      "एबी": 6566,
      "कश्यप": 6567,
      "दबो": 6568,
      "बटा": 6569,
      "स्तियों": 6570,
      "लांच": 6571,
      "जाही": 6572,
      "गुहार": 6573,
      "भूकंप": 6574,
      "भरपूर": 6575,
      "त्तम": 6576,
      "पॉली": 6577,
      "केशव": 6578,
      "निकालकर": 6579,
      "आयुष्मान": 6580,
      "स्पिनर": 6581,
      "बराबर": 6582,
      "स्टॉक": 6583,
      "लिहाज": 6584,
      "ऋषिकेश": 6585,
      "तत्वों": 6586,
      "प्रीमियर": 6587,
      "सिद्धांत": 6588,
      "ज्योतिरादित्य": 6589,
      "कच्": 6590,
      "दंप": 6591,
      "क्शा": 6592,
      "प्रशंसा": 6593,
      "मात": 6594,
      "रियो": 6595,
      "द्वानी": 6596,
      "जनजाति": 6597,
      "डिली": 6598,
      "पेक्ष": 6599,
      "सुरक्षाबलों": 6600,
      "फेस्टि": 6601,
      "चैन": 6602,
      "छोड़ा": 6603,
      "गणित": 6604,
      "ट्रेनें": 6605,
      "बच्चा": 6606,
      "पर्यवे": 6607,
      "घेर": 6608,
      "फार्मा": 6609,
      "दृश्य": 6610,
      "मेहता": 6611,
      "असिस्टेंट": 6612,
      "औष": 6613,
      "कवाय": 6614,
      "तड़": 6615,
      "बस्तर": 6616,
      "भय": 6617,
      "९८": 6618,
      "तारा": 6619,
      "फीचर्स": 6620,
      "जीतकर": 6621,
      "चरणों": 6622,
      "रजिस्टर": 6623,
      "गतिविधियां": 6624,
      "आवाजाही": 6625,
      "आशु": 6626,
      "आसार": 6627,
      "ईमान": 6628,
      "ईवीएम": 6629,
      "कपा": 6630,
      "नसी": 6631,
      "शशि": 6632,
      "७८": 6633,
      "क्टे": 6634,
      "देनी": 6635,
      "हिदा": 6636,
      "बिगड़": 6637,
      "मोर्": 6638,
      "प्रतिष्ठा": 6639,
      "लगाम": 6640,
      "वन्य": 6641,
      "फ़ा": 6642,
      "बॉडी": 6643,
      "कप्तानी": 6644,
      "उन्होने": 6645,
      "हल्द्वानी": 6646,
      "श्योरेंस": 6647,
      "प्रतिद्वं": 6648,
      "पों": 6649,
      "फड": 6650,
      "बंट": 6651,
      "हौ": 6652,
      "परो": 6653,
      "लिप": 6654,
      "जियम": 6655,
      "रोपण": 6656,
      "द्वाज": 6657,
      "दाखिला": 6658,
      "ष्टी": 6659,
      "डिफ": 6660,
      "तकों": 6661,
      "बारह": 6662,
      "व्यय": 6663,
      "अंबानी": 6664,
      "अंबेडकर": 6665,
      "कैपि": 6666,
      "कैंडि": 6667,
      "चेहरा": 6668,
      "हेल": 6669,
      "अवॉर्ड": 6670,
      "चोरों": 6671,
      "आनलाइन": 6672,
      "शैक्षिक": 6673,
      "कॉमर्स": 6674,
      "आवागमन": 6675,
      "परीक्षार्थियों": 6676,
      "अकेले": 6677,
      "एक्सपर्ट": 6678,
      "):": 6679,
      "ष्य": 6680,
      "५३": 6681,
      "र्कता": 6682,
      "प्रिया": 6683,
      "वाम": 6684,
      "देखे": 6685,
      "गायक": 6686,
      "रहकर": 6687,
      "दायक": 6688,
      "बीएच": 6689,
      "सिंघ": 6690,
      "बेटियों": 6691,
      "अंकित": 6692,
      "बढ़त": 6693,
      "वैसी": 6694,
      "ब्रेक": 6695,
      "प्रेमी": 6696,
      "सुनकर": 6697,
      "हटाया": 6698,
      "चलेगी": 6699,
      "शब्दों": 6700,
      "नर्सिंग": 6701,
      "ठंड": 6702,
      "तले": 6703,
      "पदो": 6704,
      "पटरी": 6705,
      "सच": 6706,
      "कराय": 6707,
      "क्ट्स": 6708,
      "लेगी": 6709,
      "मासू": 6710,
      "संपाद": 6711,
      "मुहिम": 6712,
      "जिम": 6713,
      "दीय": 6714,
      "वीजन": 6715,
      "इंकार": 6716,
      "अभद्र": 6717,
      "कॉर": 6718,
      "न्नत": 6719,
      "सतर्क": 6720,
      "सतर्कता": 6721,
      "गौरी": 6722,
      "आकर्षित": 6723,
      "उपकरणों": 6724,
      "आखिरकार": 6725,
      "सक्सेना": 6726,
      "अमरिंदर": 6727,
      "सुल्तान": 6728,
      "कवायद": 6729,
      "ओसी": 6730,
      "नड्डा": 6731,
      "भूल": 6732,
      "लह": 6733,
      "वों": 6734,
      "स्ड": 6735,
      "स्मिथ": 6736,
      "सेमे": 6737,
      "मालूम": 6738,
      "मिठा": 6739,
      "गाड़ियों": 6740,
      "अनशन": 6741,
      "मोड़ा": 6742,
      "बैंड": 6743,
      "पिक्स": 6744,
      "अनुष्का": 6745,
      "सोरेन": 6746,
      "कलन": 6747,
      "फोकस": 6748,
      "कहने": 6749,
      "इंडो": 6750,
      "गुरुद्वारा": 6751,
      "दुनियाभर": 6752,
      "प्रभात": 6753,
      "वकीलों": 6754,
      "क्वारंटीन": 6755,
      "समर्पण": 6756,
      "फतेहपुर": 6757,
      "उद्धव": 6758,
      "सेमेस्टर": 6759,
      "खरा": 6760,
      "खियों": 6761,
      "गड": 6762,
      "झंडी": 6763,
      "पहिया": 6764,
      "ूढ़": 6765,
      "तावास": 6766,
      "श्ती": 6767,
      "पुरो": 6768,
      "बढ़ता": 6769,
      "आरक्षित": 6770,
      "फास्ट": 6771,
      "व्याख्या": 6772,
      "र्मल": 6773,
      "खरीदारी": 6774,
      "सुनने": 6775,
      "झेल": 6776,
      "आईपीएस": 6777,
      "रॉयल": 6778,
      "मुश्कि": 6779,
      "इकाइयों": 6780,
      "पहलवान": 6781,
      "मुजफ्फरनगर": 6782,
      "कामयाबी": 6783,
      "एकत्रित": 6784,
      "णवीस": 6785,
      "ंथ": 6786,
      "आधे": 6787,
      "एजेंट": 6788,
      "ढी": 6789,
      "नें": 6790,
      "फसलों": 6791,
      "केके": 6792,
      "लाद": 6793,
      "परंतु": 6794,
      "निशुल्क": 6795,
      "दिसम्": 6796,
      "ंडन": 6797,
      "गेश": 6798,
      "गेस्ट": 6799,
      "प्पी": 6800,
      "दूतावास": 6801,
      "फ्टी": 6802,
      "हेज": 6803,
      "नियामक": 6804,
      "सैम": 6805,
      "संवाददाताओं": 6806,
      "बर्दाश्त": 6807,
      "परेशानियों": 6808,
      "वोटों": 6809,
      "इस्लामिक": 6810,
      "केदारनाथ": 6811,
      "उपरांत": 6812,
      "डेविड": 6813,
      "टिविटी": 6814,
      "हिदायत": 6815,
      "दिसम्बर": 6816,
      "आड": 6817,
      "आकार": 6818,
      "ईरानी": 6819,
      "थान": 6820,
      "बलू": 6821,
      "यें": 6822,
      "ंगत": 6823,
      "पीडि़": 6824,
      "जीविका": 6825,
      "शिला": 6826,
      "ार्पण": 6827,
      "भारद्वाज": 6828,
      "खास्त": 6829,
      "चिद": 6830,
      "रामनाथ": 6831,
      "डेमो": 6832,
      "चौथा": 6833,
      "चौंका": 6834,
      "अमेठी": 6835,
      "ड्रोन": 6836,
      "धरती": 6837,
      "कार्तिक": 6838,
      "मंजूर": 6839,
      "अध्यापक": 6840,
      "किराया": 6841,
      "तिरंगा": 6842,
      "कनाडा": 6843,
      "संचालकों": 6844,
      "आयी": 6845,
      "एपी": 6846,
      "काव": 6847,
      "दिवाली": 6848,
      "रोहि": 6849,
      "शासक": 6850,
      "मानदेय": 6851,
      "गेम": 6852,
      "पिटाई": 6853,
      "उत्साहित": 6854,
      "फ्लाइट": 6855,
      "स्पेस": 6856,
      "एनडीए": 6857,
      "रखेंगे": 6858,
      "पैसें": 6859,
      "गिरने": 6860,
      "पत्तियों": 6861,
      "गेंदबाजों": 6862,
      "पर्यटक": 6863,
      "पथराव": 6864,
      "कमांड": 6865,
      "ट्यूब": 6866,
      "उन्हीं": 6867,
      "डिप्लो": 6868,
      "अग्नि": 6869,
      "पद्म": 6870,
      "जख्मी": 6871,
      "उजाला": 6872,
      "आक्सीजन": 6873,
      "इक": 6874,
      "गान": 6875,
      "धेश": 6876,
      "वजन": 6877,
      "८५": 6878,
      "क्सि": 6879,
      "जातीय": 6880,
      "पाय": 6881,
      "खेली": 6882,
      "डेरा": 6883,
      "पैट": 6884,
      "दरबार": 6885,
      "२००७": 6886,
      "चरम": 6887,
      "चंद्रशेखर": 6888,
      "गर्ल": 6889,
      "प्लेस": 6890,
      "सौरभ": 6891,
      "प्रतिभागियों": 6892,
      "ंकर": 6893,
      "अनिश्चित": 6894,
      "इको": 6895,
      "एएन": 6896,
      "जहाँ": 6897,
      "ठहराया": 6898,
      "लद्दा": 6899,
      "सस्प": 6900,
      "हाना": 6901,
      "६२": 6902,
      "किम": 6903,
      "लाठी": 6904,
      "राई": 6905,
      "सिखा": 6906,
      "सिंध": 6907,
      "टिका": 6908,
      "सोनू": 6909,
      "मैसेज": 6910,
      "इंश्योरेंस": 6911,
      "गोदाम": 6912,
      "एनएल": 6913,
      "करीबन": 6914,
      "अभिनय": 6915,
      "गुरुग्राम": 6916,
      "पकड़ने": 6917,
      "आगमन": 6918,
      "तुलसी": 6919,
      "यूरोप": 6920,
      "ठोस": 6921,
      "टु": 6922,
      "टमेंट": 6923,
      "शमी": 6924,
      "हीरा": 6925,
      "मासिक": 6926,
      "दिनी": 6927,
      "मिर": 6928,
      "लीय": 6929,
      "खां": 6930,
      "युग": 6931,
      "इंसान": 6932,
      "लगवाने": 6933,
      "एनटी": 6934,
      "सांप्रदायिक": 6935,
      "चलाए": 6936,
      "कांफ्रेंस": 6937,
      "खीरी": 6938,
      "गलती": 6939,
      "संबोधन": 6940,
      "अल्मोड़ा": 6941,
      "बर्खास्त": 6942,
      "संभालने": 6943,
      "मुकदमे": 6944,
      "उतारा": 6945,
      "मोटरसाइकिल": 6946,
      "व्हाइट": 6947,
      "गुरूवार": 6948,
      "रोधक": 6949,
      "स्रो": 6950,
      "इलेक्ट्रॉनिक": 6951,
      "पेट्रोलियम": 6952,
      "हृदय": 6953,
      "सत्तारूढ़": 6954,
      "पाण्डेय": 6955,
      "आश्र": 6956,
      "इकट्": 6957,
      "कश": 6958,
      "कटि": 6959,
      "गना": 6960,
      "तर्ज": 6961,
      "थानों": 6962,
      "९६": 6963,
      "प्रका": 6964,
      "प्रता": 6965,
      "हाली": 6966,
      "संसाधनों": 6967,
      "ल्टी": 6968,
      "रिपोर्": 6969,
      "रोष": 6970,
      "राजेन्द्र": 6971,
      "स्थी": 6972,
      "पोरेट": 6973,
      "शीला": 6974,
      "चीजों": 6975,
      "आपस": 6976,
      "ट्रेड": 6977,
      "सालाना": 6978,
      "फैल": 6979,
      "ब्रॉ": 6980,
      "च्छेद": 6981,
      "दूरसंचार": 6982,
      "अर्जी": 6983,
      "वाहक": 6984,
      "बीएसएफ": 6985,
      "इस्लाम": 6986,
      "कम्प्यूटर": 6987,
      "इंचार्ज": 6988,
      "प्रजापति": 6989,
      "पूर्वांचल": 6990,
      "बवाल": 6991,
      "बसें": 6992,
      "केर": 6993,
      "नेत्र": 6994,
      "मेंट्स": 6995,
      "कोटे": 6996,
      "लिं": 6997,
      "जाज": 6998,
      "देहा": 6999,
      "न्तु": 7000,
      "तीकरण": 7001,
      "नीता": 7002,
      "रोशनी": 7003,
      "ट्रम्प": 7004,
      "अंबिका": 7005,
      "बुलाई": 7006,
      "बुकिंग": 7007,
      "चौथी": 7008,
      "फेड": 7009,
      "मार्गों": 7010,
      "बल्लेबाजों": 7011,
      "जानकारियां": 7012,
      "लोकायुक्त": 7013,
      "फडणवीस": 7014,
      "ऑर्डर": 7015,
      "दशा": 7016,
      "शैल": 7017,
      "शत्रु": 7018,
      "्रि": 7019,
      "काटने": 7020,
      "हाट": 7021,
      "सुधीर": 7022,
      "एमबी": 7023,
      "कराते": 7024,
      "रामलीला": 7025,
      "फैशन": 7026,
      "ध्यापक": 7027,
      "फेर": 7028,
      "ख्ता": 7029,
      "जताते": 7030,
      "तलाक": 7031,
      "ट्रांसपोर्ट": 7032,
      "उन्नाव": 7033,
      "मित्रों": 7034,
      "प्लेटफार्म": 7035,
      "बहाली": 7036,
      "भेदभाव": 7037,
      "तेंदुलकर": 7038,
      "प्रैक्": 7039,
      "चिदंबर": 7040,
      "खन्ना": 7041,
      "झंडा": 7042,
      "बचे": 7043,
      "०५": 7044,
      "कीपर": 7045,
      "र्या": 7046,
      "प्रकट": 7047,
      "प्रकृति": 7048,
      "हालय": 7049,
      "बां": 7050,
      "संदेह": 7051,
      "पाते": 7052,
      "दीं": 7053,
      "पुजारी": 7054,
      "खातों": 7055,
      "डीएफ": 7056,
      "ायक": 7057,
      "श्राम": 7058,
      "बनाएं": 7059,
      "पदस्थ": 7060,
      "ंकित": 7061,
      "झांसी": 7062,
      "नवरात्रि": 7063,
      "विचारों": 7064,
      "मॉड": 7065,
      "पंजीयन": 7066,
      "छिड़": 7067,
      "पार्टनर": 7068,
      "चूंकि": 7069,
      "नकली": 7070,
      "राठौर": 7071,
      "प्रोटोकॉल": 7072,
      "आबकारी": 7073,
      "व्यवसायी": 7074,
      "आडवाणी": 7075,
      "लद्दाख": 7076,
      "चिदंबरम": 7077,
      "अटै": 7078,
      "अंचल": 7079,
      "आचार": 7080,
      "कवर": 7081,
      "टेंडर": 7082,
      "ठहरा": 7083,
      "दानी": 7084,
      "य्य": 7085,
      "वसु": 7086,
      "८००": 7087,
      "क्टो": 7088,
      "प्रश्": 7089,
      "वामा": 7090,
      "राघ": 7091,
      "दिश": 7092,
      "मुह": 7093,
      "रोधी": 7094,
      "मुखी": 7095,
      "बेटा": 7096,
      "डालकर": 7097,
      "चौबे": 7098,
      "घटनाक्रम": 7099,
      "वृक्ष": 7100,
      "चुनौतियों": 7101,
      "हार्ट": 7102,
      "अश्लील": 7103,
      "पुष्प": 7104,
      "बजरंग": 7105,
      "फेस्टिवल": 7106,
      "ंसक": 7107,
      "छान": 7108,
      "मकर": 7109,
      "स्किन": 7110,
      "कारगर": 7111,
      "सिल्": 7112,
      "सिंगा": 7113,
      "मेमो": 7114,
      "जनसंख्या": 7115,
      "निर्मला": 7116,
      "खिले": 7117,
      "यूआई": 7118,
      "डाली": 7119,
      "बोध": 7120,
      "पालक": 7121,
      "उत्तरप्रदेश": 7122,
      "पूर्णिया": 7123,
      "दिवंगत": 7124,
      "पड़ती": 7125,
      "ड्रि": 7126,
      "उपलब्धता": 7127,
      "मांझी": 7128,
      "आइटी": 7129,
      "टनेस": 7130,
      "हमलावर": 7131,
      "स्टूडेंट": 7132,
      "संग्रहालय": 7133,
      "ढेर": 7134,
      "मुरली": 7135,
      "ंदेल": 7136,
      "चिन्हित": 7137,
      "कोषाध्यक्ष": 7138,
      "अतुल": 7139,
      "इम्": 7140,
      "नवाज": 7141,
      "८७": 7142,
      "केमि": 7143,
      "क्वाली": 7144,
      "लिप्त": 7145,
      "संध्या": 7146,
      "राजन": 7147,
      "वीसी": 7148,
      "बिश": 7149,
      "फिकेशन": 7150,
      "हरकत": 7151,
      "द्रो": 7152,
      "सूद": 7153,
      "फीट": 7154,
      "कमलेश": 7155,
      "त्वचा": 7156,
      "हितग्रा": 7157,
      "दिखाकर": 7158,
      "मोहल्ले": 7159,
      "निपट": 7160,
      "स्क्रीनिंग": 7161,
      "समन्वयक": 7162,
      "सीतापुर": 7163,
      "सुलझा": 7164,
      "ठिकानों": 7165,
      "अरोड़ा": 7166,
      "नैनीताल": 7167,
      "अख्": 7168,
      "अधू": 7169,
      "गन्ना": 7170,
      "ढूं": 7171,
      "बार्": 7172,
      "वण": 7173,
      "ोपण": 7174,
      "६१": 7175,
      "कांव": 7176,
      "विज्ञ": 7177,
      "साधारण": 7178,
      "मिलियन": 7179,
      "ल्हा": 7180,
      "टीएमसी": 7181,
      "मेक": 7182,
      "चावल": 7183,
      "रेडियो": 7184,
      "प्रदेशाध्यक्ष": 7185,
      "विश्वनाथ": 7186,
      "लंब": 7187,
      "ियल": 7188,
      "मरने": 7189,
      "शेयरों": 7190,
      "प्रारूप": 7191,
      "इस्तीफे": 7192,
      "असली": 7193,
      "सॉफ्टवेयर": 7194,
      "नजदीक": 7195,
      "अमन": 7196,
      "तव्य": 7197,
      "तकरीबन": 7198,
      "दंग": 7199,
      "सद्": 7200,
      "६३": 7201,
      "९५": 7202,
      "ानू": 7203,
      "ानंद": 7204,
      "लिता": 7205,
      "साप्ता": 7206,
      "सीने": 7207,
      "सिग": 7208,
      "रोजाबाद": 7209,
      "श्वे": 7210,
      "मोती": 7211,
      "अनुच्छेद": 7212,
      "रुक": 7213,
      "कामगार": 7214,
      "१०८": 7215,
      "सौदा": 7216,
      "क्रियान्वयन": 7217,
      "उपायों": 7218,
      "टाइम्स": 7219,
      "कोतवाल": 7220,
      "किराए": 7221,
      "टिनेंट": 7222,
      "निर्माताओं": 7223,
      "हेल्पलाइन": 7224,
      "म्यां": 7225,
      "आशुतोष": 7226,
      "पिक्सल": 7227,
      "अक": 7228,
      "चर्च": 7229,
      "डै": 7230,
      "पंडा": 7231,
      "फंस": 7232,
      "भंगा": 7233,
      "पीएल": 7234,
      "पीएचडी": 7235,
      "प्रतिस्पर्धा": 7236,
      "छाया": 7237,
      "यूएस": 7238,
      "चेन": 7239,
      "मनुष": 7240,
      "पांचवें": 7241,
      "चलाकर": 7242,
      "भेजकर": 7243,
      "कदमों": 7244,
      "घेराव": 7245,
      "इन्हीं": 7246,
      "पशुओं": 7247,
      "ुरुस्त": 7248,
      "गैंगरेप": 7249,
      "प्रकोप": 7250,
      "काउंसलिंग": 7251,
      "सिंगापुर": 7252,
      "साप्ताहिक": 7253,
      "मनुष्य": 7254,
      "आराम": 7255,
      "गले": 7256,
      "थल": 7257,
      "मन्": 7258,
      "ारों": 7259,
      "जापुर": 7260,
      "दिखी": 7261,
      "देही": 7262,
      "सरत": 7263,
      "वीजा": 7264,
      "एसओ": 7265,
      "गोस्वामी": 7266,
      "रामदेव": 7267,
      "चलती": 7268,
      "बनार": 7269,
      "भूपेंद्र": 7270,
      "त्याग": 7271,
      "दर्शक": 7272,
      "अनाज": 7273,
      "फरीदाबाद": 7274,
      "डिप्लोमा": 7275,
      "नमा": 7276,
      "वरेज": 7277,
      "शर्म": 7278,
      "६००": 7279,
      "गीर": 7280,
      "बिष्ट": 7281,
      "जोत": 7282,
      "प्राण": 7283,
      "ज्म": 7284,
      "लगते": 7285,
      "त्यागी": 7286,
      "आदिवासियों": 7287,
      "एलान": 7288,
      "बलरामपुर": 7289,
      "साइज": 7290,
      "रैंक": 7291,
      "जायेंगे": 7292,
      "सुधारने": 7293,
      "स्ट्रीट": 7294,
      "हिमालय": 7295,
      "अपराधों": 7296,
      "संशोधित": 7297,
      "पुलवामा": 7298,
      "कुर्सी": 7299,
      "मुफ्ती": 7300,
      "उदयपुर": 7301,
      "रिटायर्ड": 7302,
      "तबादला": 7303,
      "डेमोक्रे": 7304,
      "प्रकाशन": 7305,
      "म्यांमार": 7306,
      "तबा": 7307,
      "नकारात्मक": 7308,
      "भंग": 7309,
      "रसो": 7310,
      "८८": 7311,
      "काबुल": 7312,
      "भीषण": 7313,
      "मिलि": 7314,
      "संवेद": 7315,
      "तीर्ण": 7316,
      "अनूप": 7317,
      "रूसी": 7318,
      "तोड़ा": 7319,
      "पहुंचेंगे": 7320,
      "बंधक": 7321,
      "बुखार": 7322,
      "महावीर": 7323,
      "महागठबंधन": 7324,
      "बनना": 7325,
      "व्यापी": 7326,
      "दरभंगा": 7327,
      "शाहजहां": 7328,
      "स्कृत": 7329,
      "निर्धारण": 7330,
      "डीपीओ": 7331,
      "निराशा": 7332,
      "एकेडमी": 7333,
      "पदार्थों": 7334,
      "डिलीवरी": 7335,
      "मासूम": 7336,
      "अजी": 7337,
      "एई": 7338,
      "दबा": 7339,
      "नष्ट": 7340,
      "वाकां": 7341,
      "लिस": 7342,
      "हायर": 7343,
      "निम्न": 7344,
      "टीचर": 7345,
      "सरों": 7346,
      "पीटा": 7347,
      "जीबी": 7348,
      "सुचार": 7349,
      "वीवी": 7350,
      "डिवाइस": 7351,
      "डिवीजन": 7352,
      "तरण": 7353,
      "कर्तव्य": 7354,
      "बैटरी": 7355,
      "पिथ": 7356,
      "इंजेक्शन": 7357,
      "सबको": 7358,
      "भूति": 7359,
      "अवतार": 7360,
      "प्रोसे": 7361,
      "ेशर": 7362,
      "संगम": 7363,
      "शर्त": 7364,
      "इसीलिए": 7365,
      "दुर्भाग्य": 7366,
      "अग्रिम": 7367,
      "रजत": 7368,
      "सब्सिडी": 7369,
      "पार्षदों": 7370,
      "तुर्की": 7371,
      "हिंदुस्तान": 7372,
      "घुसपैठ": 7373,
      "अभिभावक": 7374,
      "रिटायर": 7375,
      "फटकार": 7376,
      "डिफेंस": 7377,
      "कसा": 7378,
      "चम्": 7379,
      "तको": 7380,
      "बग": 7381,
      "बों": 7382,
      "बलि": 7383,
      "वस्त्र": 7384,
      "३७०": 7385,
      "नेगी": 7386,
      "सेले": 7387,
      "सेक्सी": 7388,
      "किता": 7389,
      "विटा": 7390,
      "माद": 7391,
      "पांड": 7392,
      "पाबंदी": 7393,
      "पीएचसी": 7394,
      "जील": 7395,
      "राजदूत": 7396,
      "मेजर": 7397,
      "पेड": 7398,
      "पहुंचते": 7399,
      "बैठकर": 7400,
      "जरुर": 7401,
      "अवश्य": 7402,
      "विश्वकर्मा": 7403,
      "टोला": 7404,
      "उठाते": 7405,
      "ख्त": 7406,
      "फॉलो": 7407,
      "वार्डों": 7408,
      "कमीशन": 7409,
      "कक्षाओं": 7410,
      "बौद्ध": 7411,
      "ओपीडी": 7412,
      "अलगाव": 7413,
      "इवेंट": 7414,
      "उमर": 7415,
      "छठ": 7416,
      "सच्चा": 7417,
      "हैरान": 7418,
      "सेशन": 7419,
      "बाघ": 7420,
      "संभ": 7421,
      "लीन": 7422,
      "रोमा": 7423,
      "जीती": 7424,
      "एमडी": 7425,
      "अनुशासन": 7426,
      "गोलियां": 7427,
      "लगती": 7428,
      "मनमानी": 7429,
      "बनता": 7430,
      "मतों": 7431,
      "नामों": 7432,
      "शोर": 7433,
      "लॉट": 7434,
      "रायबरेली": 7435,
      "खेलते": 7436,
      "विचारधारा": 7437,
      "इंडस्ट्रीज": 7438,
      "संतुष्ट": 7439,
      "मलेरिया": 7440,
      "मोर्चे": 7441,
      "अमल": 7442,
      "कतार": 7443,
      "गंदगी": 7444,
      "चौर": 7445,
      "नकल": 7446,
      "बलिया": 7447,
      "ेश्वर": 7448,
      "प्रवर्तन": 7449,
      "नामित": 7450,
      "पादु": 7451,
      "जिए": 7452,
      "मानुसार": 7453,
      "पर्स": 7454,
      "लॉजि": 7455,
      "लंबा": 7456,
      "पंचायती": 7457,
      "लुओं": 7458,
      "पेशकश": 7459,
      "हॉस्टल": 7460,
      "विजयी": 7461,
      "प्रिंसिपल": 7462,
      "शोभायात्रा": 7463,
      "क्टेयर": 7464,
      "गडकरी": 7465,
      "चतु": 7466,
      "टकरा": 7467,
      "तर्क": 7468,
      "बंसल": 7469,
      "मजा": 7470,
      "हंस": 7471,
      "निक्स": 7472,
      "दिना": 7473,
      "पाटिल": 7474,
      "मुंगे": 7475,
      "टीज": 7476,
      "टीचर्स": 7477,
      "स्टार्ट": 7478,
      "रेस": 7479,
      "पुरस्कृत": 7480,
      "टाउन": 7481,
      "उत्तम": 7482,
      "गिंग": 7483,
      "एनसीसी": 7484,
      "छात्रवृत्ति": 7485,
      "नगरपालिका": 7486,
      "विकासखंड": 7487,
      "रविंद्र": 7488,
      "वोटिंग": 7489,
      "भुव": 7490,
      "प्लेक्स": 7491,
      "जन्मभूमि": 7492,
      "सुप्रीमो": 7493,
      "मजदूरी": 7494,
      "फार्मर": 7495,
      "तोड़कर": 7496,
      "स्वयंसेवक": 7497,
      "ढांचे": 7498,
      "सुनाया": 7499,
      "निभाने": 7500,
      "स्नातको": 7501,
      "दहशत": 7502,
      "पेशेवर": 7503,
      "कश्मीरी": 7504,
      "ष्टीकरण": 7505,
      "पिथौरा": 7506,
      "ऑफर": 7507,
      "कपड़ा": 7508,
      "चंबा": 7509,
      "टके": 7510,
      "भती": 7511,
      "ललिता": 7512,
      "नेहा": 7513,
      "याम": 7514,
      "सेलि": 7515,
      "क्ले": 7516,
      "विराम": 7517,
      "मुक्के": 7518,
      "हिंसक": 7519,
      "शाहिद": 7520,
      "ग्रो": 7521,
      "डीलर": 7522,
      "कैंट": 7523,
      "कॉपी": 7524,
      "चीजें": 7525,
      "पूर्वो": 7526,
      "सबका": 7527,
      "व्यास": 7528,
      "उद्योगपति": 7529,
      "किलोग्राम": 7530,
      "होमगार्ड": 7531,
      "दिखने": 7532,
      "शून्य": 7533,
      "फर्स्ट": 7534,
      "जंक्शन": 7535,
      "चैम्पियनशिप": 7536,
      "''": 7537,
      "इत्या": 7538,
      "गड्": 7539,
      "टुक": 7540,
      "थर्मल": 7541,
      "दुरुस्त": 7542,
      "धवन": 7543,
      "मच्छ": 7544,
      "सवा": 7545,
      "ूक": 7546,
      "०२": 7547,
      "७४": 7548,
      "करों": 7549,
      "क्वा": 7550,
      "निप्र": 7551,
      "निगेटिव": 7552,
      "तिल": 7553,
      "न्दर": 7554,
      "दीकी": 7555,
      "रिज": 7556,
      "सुब्र": 7557,
      "मोड": 7558,
      "सोसाइ": 7559,
      "आरडी": 7560,
      "धारणा": 7561,
      "बंदर": 7562,
      "उठाई": 7563,
      "टेस्टिंग": 7564,
      "नवदुनिया": 7565,
      "याचिकाकर्ता": 7566,
      "विरासत": 7567,
      "तूफान": 7568,
      "इकट्ठा": 7569,
      "प्रताड़": 7570,
      "छानबीन": 7571,
      "स्नातकोत्तर": 7572,
      "ओवैसी": 7573,
      "खदान": 7574,
      "खंगा": 7575,
      "ठगी": 7576,
      "डों": 7577,
      "ढो": 7578,
      "ताना": 7579,
      "परम": 7580,
      "बास": 7581,
      "मुहर": 7582,
      "भाइयों": 7583,
      "पीएफ": 7584,
      "पूनम": 7585,
      "टेलि": 7586,
      "फिटनेस": 7587,
      "द्रोह": 7588,
      "सोलर": 7589,
      "पेमेंट": 7590,
      "भागने": 7591,
      "गोद": 7592,
      "ट्ठी": 7593,
      "बैठने": 7594,
      "फोर्ड": 7595,
      "अवस्था": 7596,
      "टोक्यो": 7597,
      "दरों": 7598,
      "पहुंचेगी": 7599,
      "चंद्रा": 7600,
      "संक्रा": 7601,
      "विवादों": 7602,
      "ऑफिशियल": 7603,
      "इटली": 7604,
      "सर्विसेज": 7605,
      "गार्डन": 7606,
      "जेएनयू": 7607,
      "बालिकाओं": 7608,
      "बटालियन": 7609,
      "सोसाइटी": 7610,
      "अस्थायी": 7611,
      "मत्": 7612,
      "शम": 7613,
      "कीर्ति": 7614,
      "विरू": 7615,
      "विसर्जन": 7616,
      "माँ": 7617,
      "देसी": 7618,
      "मिस": 7619,
      "लीक": 7620,
      "मुंडा": 7621,
      "मंथन": 7622,
      "दाखिले": 7623,
      "क्रै": 7624,
      "राजभवन": 7625,
      "वेन्द्र": 7626,
      "मेघ": 7627,
      "प्वाइंट": 7628,
      "कॉम्": 7629,
      "शेट्टी": 7630,
      "जयराम": 7631,
      "नियमानुसार": 7632,
      "आएंगी": 7633,
      "स्ट्रो": 7634,
      "लगेगी": 7635,
      "गर्भ": 7636,
      "इलेवन": 7637,
      "दीनदयाल": 7638,
      "विमानों": 7639,
      "बेंच": 7640,
      "विदाई": 7641,
      "दृष्टिकोण": 7642,
      "नाइटेड": 7643,
      "प्रतिष्ठान": 7644,
      "कट्टर": 7645,
      "कन्हैया": 7646,
      "छीन": 7647,
      "गवर्नर": 7648,
      "स्थानांतरित": 7649,
      "अनियमितता": 7650,
      "स्ट्राइक": 7651,
      "इत्यादि": 7652,
      "अन्ना": 7653,
      "दं": 7654,
      "नम्बर": 7655,
      "नेटाइ": 7656,
      "र्षि": 7657,
      "प्रसव": 7658,
      "वाए": 7659,
      "ंगार": 7660,
      "मिड": 7661,
      "द्घ": 7662,
      "शासी": 7663,
      "स्टडी": 7664,
      "वीन": 7665,
      "बिजन": 7666,
      "अनदेखी": 7667,
      "डिमांड": 7668,
      "परिष": 7669,
      "मैक": 7670,
      "फीचर": 7671,
      "खेतों": 7672,
      "नेताजी": 7673,
      "दवाएं": 7674,
      "प्रयोगशाला": 7675,
      "ट्रांसफार्मर": 7676,
      "एसटीएफ": 7677,
      "गायत्री": 7678,
      "घुसकर": 7679,
      "आक्रोशित": 7680,
      "प्रकोष्ठ": 7681,
      "सुर्खियों": 7682,
      "शाहजहांपुर": 7683,
      "पादुकोण": 7684,
      "ओएस": 7685,
      "९४": 7686,
      "क्सिंग": 7687,
      "राफेल": 7688,
      "लेगा": 7689,
      "देवा": 7690,
      "सीज": 7691,
      "सीम": 7692,
      "सीएस": 7693,
      "पुतला": 7694,
      "पुख्ता": 7695,
      "स्टार्": 7696,
      "कार्यो": 7697,
      "डीआईजी": 7698,
      "उत्तीर्ण": 7699,
      "ब्लॉ": 7700,
      "बोलने": 7701,
      "कलक्टर": 7702,
      "भिषेक": 7703,
      "सौदे": 7704,
      "रतलाम": 7705,
      "युवतियों": 7706,
      "२००५": 7707,
      "आमने": 7708,
      "स्टिंग": 7709,
      "ल्लाह": 7710,
      "तोड़फोड़": 7711,
      "छुट्": 7712,
      "गारंटी": 7713,
      "आत्मविश्वास": 7714,
      "उठाना": 7715,
      "ड्राइविंग": 7716,
      "मेहमान": 7717,
      "बुजुर्गों": 7718,
      "फ्लैट": 7719,
      "बृज": 7720,
      "उजागर": 7721,
      "पट्": 7722,
      "ूली": 7723,
      "कीं": 7724,
      "सेरे": 7725,
      "साहे": 7726,
      "जाव": 7727,
      "माव": 7728,
      "सिसो": 7729,
      "जिंदा": 7730,
      "दीर्": 7731,
      "दाई": 7732,
      "एसबीआई": 7733,
      "बरती": 7734,
      "एमएम": 7735,
      "सूच": 7736,
      "छात्रसंघ": 7737,
      "इंडिय": 7738,
      "निवारण": 7739,
      "स्ट्रक्चर": 7740,
      "मददगार": 7741,
      "उद्यान": 7742,
      "भावनाओं": 7743,
      "मॉल": 7744,
      "पड़ेगी": 7745,
      "रजिस्ट्र": 7746,
      "प्राइमरी": 7747,
      "आरटीओ": 7748,
      "विवेकान": 7749,
      "लेनदेन": 7750,
      "एनसीआर": 7751,
      "रिश्तेदार": 7752,
      "अफ़ग़": 7753,
      "आल": 7754,
      "आहार": 7755,
      "उठे": 7756,
      "ऊंचाई": 7757,
      "एडी": 7758,
      "झड़": 7759,
      "नदियों": 7760,
      "पद्ध": 7761,
      "बुर": 7762,
      "भै": 7763,
      "सटे": 7764,
      "हज़ार": 7765,
      "ुण": 7766,
      "दिमा": 7767,
      "बाबत": 7768,
      "जिल": 7769,
      "पीढ़ी": 7770,
      "बीस": 7771,
      "बनाम": 7772,
      "ब्स": 7773,
      "वैकल्": 7774,
      "सनसनी": 7775,
      "रूपए": 7776,
      "कलश": 7777,
      "हेक्टेयर": 7778,
      "सम्बंध": 7779,
      "रविशंकर": 7780,
      "पिछड़ा": 7781,
      "टाइगर": 7782,
      "नतीजा": 7783,
      "आपत्तिजनक": 7784,
      "महत्वाकां": 7785,
      "पीयूष": 7786,
      "कन्नौ": 7787,
      "मण्डल": 7788,
      "पदोन्नति": 7789,
      "पूर्वोत्तर": 7790,
      "अनियंत्रित": 7791,
      "आकलन": 7792,
      "गहरी": 7793,
      "बर्ट": 7794,
      "सज्": 7795,
      "र्तन": 7796,
      "प्रच": 7797,
      "लेवा": 7798,
      "तित": 7799,
      "हुड्डा": 7800,
      "त्वर": 7801,
      "सिरे": 7802,
      "सियत": 7803,
      "रिय": 7804,
      "योगा": 7805,
      "शिता": 7806,
      "मीकि": 7807,
      "लोहिया": 7808,
      "गेम्स": 7809,
      "चिंति": 7810,
      "ग्ध": 7811,
      "सेंसर": 7812,
      "शिवपाल": 7813,
      "एक्सचेंज": 7814,
      "निकाले": 7815,
      "नवम्बर": 7816,
      "हॉलीवुड": 7817,
      "कूड़ा": 7818,
      "ख़ा": 7819,
      "दसवीं": 7820,
      "संरक्षक": 7821,
      "उतरने": 7822,
      "अंतरिम": 7823,
      "कायदा": 7824,
      "हिन्दुस्तान": 7825,
      "सीतारमण": 7826,
      "अन्तर्गत": 7827,
      "विटामिन": 7828,
      "भुवनेश्वर": 7829,
      "वैकल्पिक": 7830,
      "चिंतित": 7831,
      "आमत": 7832,
      "आपरे": 7833,
      "इर": 7834,
      "एकी": 7835,
      "औसत": 7836,
      "कमाल": 7837,
      "नशा": 7838,
      "नक्षत्र": 7839,
      "बर्थ": 7840,
      "रच": 7841,
      "ुआ": 7842,
      "१२०": 7843,
      "९७": 7844,
      "काफि": 7845,
      "राने": 7846,
      "दिय": 7847,
      "मानवीय": 7848,
      "मोर": 7849,
      "ंधरा": 7850,
      "मामूली": 7851,
      "अनुमंडल": 7852,
      "एनआरसी": 7853,
      "व्यक्तित्व": 7854,
      "ानिर्": 7855,
      "एयरटेल": 7856,
      "लौटा": 7857,
      "ब्रिगे": 7858,
      "ठेके": 7859,
      "शोधकर्ताओं": 7860,
      "पहनने": 7861,
      "बहाने": 7862,
      "सिद्दीकी": 7863,
      "सशस्त्र": 7864,
      "चिह्नित": 7865,
      "पाटीदार": 7866,
      "पिथौरागढ़": 7867,
      "साहेब": 7868,
      "त्वरित": 7869,
      "--": 7870,
      "बहर": 7871,
      "िस": 7872,
      "ोली": 7873,
      "कान्": 7874,
      "कालिक": 7875,
      "प्रवासियों": 7876,
      "नाका": 7877,
      "माधव": 7878,
      "बाड़": 7879,
      "सीधी": 7880,
      "संबद्ध": 7881,
      "मुन्ना": 7882,
      "मंदी": 7883,
      "कुल्लू": 7884,
      "सुरा": 7885,
      "ग्रंथ": 7886,
      "बरसात": 7887,
      "बैच": 7888,
      "महबू": 7889,
      "शीत": 7890,
      "सबूत": 7891,
      "फोर": 7892,
      "१२५": 7893,
      "बचाओ": 7894,
      "रोजगारी": 7895,
      "फुटेज": 7896,
      "नतीजों": 7897,
      "अमरनाथ": 7898,
      "अध्यापकों": 7899,
      "आकर्षण": 7900,
      "कस्बा": 7901,
      "जबरन": 7902,
      "कबड्डी": 7903,
      "प्रोडक्शन": 7904,
      "प्रतिबद्धता": 7905,
      "डेवलपमेंट": 7906,
      "सिसोदिया": 7907,
      "आमतौर": 7908,
      "कम्": 7909,
      "बया": 7910,
      "यथा": 7911,
      "रित": 7912,
      "षभ": 7913,
      "केला": 7914,
      "कीर्तन": 7915,
      "लेफ्": 7916,
      "कारिता": 7917,
      "मिनल": 7918,
      "ल्ल": 7919,
      "हिमां": 7920,
      "राजनैतिक": 7921,
      "कार्यभार": 7922,
      "खासी": 7923,
      "कर्नल": 7924,
      "उसको": 7925,
      "कैदियों": 7926,
      "सभापति": 7927,
      "स्वामि": 7928,
      "महाप्रबंधक": 7929,
      "बैठकों": 7930,
      "ंटल": 7931,
      "फेरी": 7932,
      "फ़ै": 7933,
      "अर्था": 7934,
      "खरीदा": 7935,
      "लड़कियां": 7936,
      "२००४": 7937,
      "नवजात": 7938,
      "इस्लामी": 7939,
      "संतान": 7940,
      "फ्रां": 7941,
      "अरुणा": 7942,
      "अश्विन": 7943,
      "घूमने": 7944,
      "वसुंधरा": 7945,
      "दिशानिर्": 7946,
      "अमीर": 7947,
      "उर": 7948,
      "कहे": 7949,
      "टंडन": 7950,
      "तं": 7951,
      "धुर": 7952,
      "पन्ना": 7953,
      "भवी": 7954,
      "वश": 7955,
      "वरु": 7956,
      "शस्त्र": 7957,
      "षी": 7958,
      "सरोज": 7959,
      "ॉरिटी": 7960,
      "७००": 7961,
      "वाहों": 7962,
      "वारंट": 7963,
      "सिक्": 7964,
      "रिपब्लिक": 7965,
      "बीयत": 7966,
      "निर्मल": 7967,
      "मौलाना": 7968,
      "फ्लू": 7969,
      "रतन": 7970,
      "कारावास": 7971,
      "शूट": 7972,
      "फेंक": 7973,
      "अनुपस्थित": 7974,
      "कचरा": 7975,
      "डेयरी": 7976,
      "अत्यंत": 7977,
      "समृद्धि": 7978,
      "रुद्रपुर": 7979,
      "बनारस": 7980,
      "आक्रा": 7981,
      "उप्र": 7982,
      "एएसपी": 7983,
      "ओप": 7984,
      "छत": 7985,
      "तबीयत": 7986,
      "ब्यो": 7987,
      "भ्": 7988,
      "कीन": 7989,
      "सेकंड": 7990,
      "र्डिंग": 7991,
      "वांस": 7992,
      "लेश्वर": 7993,
      "निः": 7994,
      "सांग": 7995,
      "साक्ष्य": 7996,
      "सीना": 7997,
      "मेधा": 7998,
      "वीपी": 7999,
      "पुरू": 8000,
      "कर्ण": 8001,
      "बेरोजगारी": 8002,
      "टाला": 8003,
      "पेशा": 8004,
      "णाधीन": 8005,
      "रामगढ़": 8006,
      "एनआईए": 8007,
      "फोरम": 8008,
      "भिड़": 8009,
      "अतिथियों": 8010,
      "उठाकर": 8011,
      "टूरि": 8012,
      "भाषाओं": 8013,
      "चंदन": 8014,
      "प्रकरणों": 8015,
      "डिस्प्ले": 8016,
      "भोजपुरी": 8017,
      "पौधरोपण": 8018,
      "करायी": 8019,
      "अंबिकापुर": 8020,
      "अस्ति": 8021,
      "आधी": 8022,
      "इमाम": 8023,
      "औचक": 8024,
      "दरी": 8025,
      "पचा": 8026,
      "वंद": 8027,
      "ेल": 8028,
      "्म": 8029,
      "७१": 8030,
      "८४": 8031,
      "नेशिया": 8032,
      "विश्राम": 8033,
      "कारक": 8034,
      "हाथी": 8035,
      "मंदों": 8036,
      "पीली": 8037,
      "जनसंपर्क": 8038,
      "एसआईटी": 8039,
      "गिनती": 8040,
      "अनुभवी": 8041,
      "डाले": 8042,
      "प्रां": 8043,
      "आरबीआई": 8044,
      "स्पद": 8045,
      "सर्किट": 8046,
      "अपनाने": 8047,
      "हराने": 8048,
      "शिवरात्रि": 8049,
      "समाजसेवी": 8050,
      "ड्रग्स": 8051,
      "विदेशों": 8052,
      "हटाए": 8053,
      "हंगामे": 8054,
      "दलितों": 8055,
      "झील": 8056,
      "प्रॉपर्टी": 8057,
      "बर्फबारी": 8058,
      "विश्लेषण": 8059,
      "दिलचस्प": 8060,
      "ईयर": 8061,
      "चरि": 8062,
      "झग": 8063,
      "तमिल": 8064,
      "पनों": 8065,
      "७३": 8066,
      "७६": 8067,
      "सेक्रे": 8068,
      "क्लो": 8069,
      "वाड्रा": 8070,
      "राबाद": 8071,
      "सावन": 8072,
      "जासू": 8073,
      "मिका": 8074,
      "रिडोर": 8075,
      "द्दी": 8076,
      "मेशन": 8077,
      "कुमा": 8078,
      "बीबी": 8079,
      "मानने": 8080,
      "खालि": 8081,
      "ष्ट्रपति": 8082,
      "यूथ": 8083,
      "महार": 8084,
      "रुड़की": 8085,
      "बुला": 8086,
      "बुलाकर": 8087,
      "जानलेवा": 8088,
      "सहज": 8089,
      "कैम्प": 8090,
      "रामनगर": 8091,
      "एनपी": 8092,
      "बनवाने": 8093,
      "पर्दा": 8094,
      "लैप": 8095,
      "संगत": 8096,
      "वोकेट": 8097,
      "सेंसेक्स": 8098,
      "२००६": 8099,
      "सहयोगियों": 8100,
      "क़ानू": 8101,
      "संभावनाएं": 8102,
      "बर्बाद": 8103,
      "आगाज": 8104,
      "बूथों": 8105,
      "उपराष्ट्रपति": 8106,
      "काटकर": 8107,
      "देहात": 8108,
      "अंधे": 8109,
      "घी": 8110,
      "घंटा": 8111,
      "धौ": 8112,
      "पटिया": 8113,
      "फंसा": 8114,
      "मऊ": 8115,
      "मठ": 8116,
      "ुति": 8117,
      "०९": 8118,
      "केल": 8119,
      "ारिया": 8120,
      "ंगण": 8121,
      "संतों": 8122,
      "रिमांड": 8123,
      "दायी": 8124,
      "लोद": 8125,
      "लोकल": 8126,
      "श्मा": 8127,
      "मानकों": 8128,
      "प्ट": 8129,
      "ग्रि": 8130,
      "पहने": 8131,
      "बेगू": 8132,
      "हरदो": 8133,
      "पैड": 8134,
      "अवस्थी": 8135,
      "ड्रग": 8136,
      "प्रीति": 8137,
      "वर्गों": 8138,
      "जॉब": 8139,
      "चित्रकूट": 8140,
      "हल्की": 8141,
      "प्रमोशन": 8142,
      "निर्माणाधीन": 8143,
      "गांठ": 8144,
      "ध्वज": 8145,
      "कंटेनमेंट": 8146,
      "मिठाई": 8147,
      "फेडरेशन": 8148,
      "चौरसिया": 8149,
      "लेफ्टिनेंट": 8150,
      "अस्तित्व": 8151,
      "नाना": 8152,
      "प्य": 8153,
      "बसे": 8154,
      "मौर": 8155,
      "सफे": 8156,
      "केटिंग": 8157,
      "प्राय": 8158,
      "निजात": 8159,
      "माइंड": 8160,
      "बागेश्वर": 8161,
      "वारे": 8162,
      "बिट": 8163,
      "फिरोजाबाद": 8164,
      "लगाएं": 8165,
      "जोड़े": 8166,
      "दूसरों": 8167,
      "उपयोगी": 8168,
      "मैक्स": 8169,
      "शील्ड": 8170,
      "सहकारिता": 8171,
      "कैटे": 8172,
      "आरक्षक": 8173,
      "गोर": 8174,
      "दिनभर": 8175,
      "लंबन": 8176,
      "मालवीय": 8177,
      "रायगढ़": 8178,
      "आमजन": 8179,
      "निकायों": 8180,
      "मुद्दीन": 8181,
      "समझने": 8182,
      "कनेक्": 8183,
      "पत्रकारिता": 8184,
      "प्रसारित": 8185,
      "आत्मा": 8186,
      "संग्राम": 8187,
      "कठोर": 8188,
      "जुटाने": 8189,
      "क्रमांक": 8190,
      "प्रशंस": 8191,
      "कुशीनगर": 8192,
      "क्वालिटी": 8193,
      "यूजीसी": 8194,
      "बीएचयू": 8195,
      "पुरोहित": 8196,
      "चतुर्थ": 8197,
      "स्वामित्व": 8198,
      "आएं": 8199,
      "जहरी": 8200,
      "भान": 8201,
      "ससुरा": 8202,
      "रामेश्वर": 8203,
      "बाय": 8204,
      "भीत": 8205,
      "मित्त": 8206,
      "संपत्तियों": 8207,
      "न्नाथ": 8208,
      "सरल": 8209,
      "बीती": 8210,
      "खासा": 8211,
      "बताकर": 8212,
      "उपे": 8213,
      "अंश": 8214,
      "अंकुश": 8215,
      "बुरा": 8216,
      "सहमत": 8217,
      "स्पष्टीकरण": 8218,
      "खंडपीठ": 8219,
      "सम्मि": 8220,
      "सैयद": 8221,
      "एलईडी": 8222,
      "तुम्": 8223,
      "कांस्य": 8224,
      "भवनों": 8225,
      "टैंकर": 8226,
      "अग्रणी": 8227,
      "एडवोकेट": 8228,
      "पहुंचीं": 8229,
      "ख़ु": 8230,
      "ख़बर": 8231,
      "ब्राजील": 8232,
      "टिप्स": 8233,
      "बंदियों": 8234,
      "पात्रता": 8235,
      "जौनपुर": 8236,
      "डाक्टरों": 8237,
      "आयुर्वेद": 8238,
      "मालिकों": 8239,
      "पैसेंजर": 8240,
      "बिजनौर": 8241,
      "चरित्र": 8242,
      "बेगूसराय": 8243,
      "ंजय": 8244,
      "गला": 8245,
      "दशी": 8246,
      "नकद": 8247,
      "बदा": 8248,
      "नाले": 8249,
      "विनिर्माण": 8250,
      "साक्षी": 8251,
      "देवास": 8252,
      "सिद्धि": 8253,
      "नीर": 8254,
      "दांव": 8255,
      "जीएस": 8256,
      "समस": 8257,
      "अप्": 8258,
      "सुधा": 8259,
      "मानस": 8260,
      "डिस्ट्र": 8261,
      "लगाड़ी": 8262,
      "एमए": 8263,
      "पहुँ": 8264,
      "फ्ले": 8265,
      "वैष्ण": 8266,
      "श्रीकांत": 8267,
      "प्रोफाइल": 8268,
      "वोटर": 8269,
      "सौंद": 8270,
      "लाइब्रे": 8271,
      "सातवें": 8272,
      "हाथरस": 8273,
      "खुदरा": 8274,
      "राइडर्स": 8275,
      "दृढ़": 8276,
      "बचपन": 8277,
      "अफगान": 8278,
      "साधना": 8279,
      "मंडला": 8280,
      "विवाहिता": 8281,
      "रोहतक": 8282,
      "पहाड़": 8283,
      "एनसीपी": 8284,
      "दिव्यांगों": 8285,
      "व्हाट्सएप": 8286,
      "संतुलन": 8287,
      "उद्यमियों": 8288,
      "दरवाजा": 8289,
      "गुलाब": 8290,
      "डिय़ों": 8291,
      "इंडोनेशिया": 8292,
      "इंडियंस": 8293,
      "रजिस्ट्रार": 8294,
      "विवेकानंद": 8295,
      "हरदोई": 8296,
      "सम्मिलित": 8297,
      "उद": 8298,
      "एडीजी": 8299,
      "ऑयल": 8300,
      "ौड़": 8301,
      "लेनी": 8302,
      "हालिया": 8303,
      "जासं": 8304,
      "क्षु": 8305,
      "संन्यास": 8306,
      "त्मिक": 8307,
      "सिले": 8308,
      "सिंगल": 8309,
      "लोहा": 8310,
      "बीटी": 8311,
      "बिछा": 8312,
      "मोचन": 8313,
      "डाॅ": 8314,
      "कैत": 8315,
      "डॉक्टर्स": 8316,
      "नामजद": 8317,
      "जगन्नाथ": 8318,
      "कल्चर": 8319,
      "देवरिया": 8320,
      "वृद्ध": 8321,
      "श्रेय": 8322,
      "जितना": 8323,
      "कल्याणकारी": 8324,
      "प्रतापगढ़": 8325,
      "घोटाला": 8326,
      "बोलते": 8327,
      "मुश्किलें": 8328,
      "सैमसंग": 8329,
      "अकबर": 8330,
      "स्टार्स": 8331,
      "आयर": 8332,
      "ओबीसी": 8333,
      "कहर": 8334,
      "गव": 8335,
      "नस": 8336,
      "सईद": 8337,
      "हर्": 8338,
      "हता": 8339,
      "हनी": 8340,
      "केन": 8341,
      "काे": 8342,
      "स्म": 8343,
      "सेफ": 8344,
      "विपण": 8345,
      "लियत": 8346,
      "साड़ी": 8347,
      "बाध्य": 8348,
      "पाये": 8349,
      "सियां": 8350,
      "कुश्ती": 8351,
      "चाई": 8352,
      "अधिकृत": 8353,
      "बरसा": 8354,
      "बुंदेल": 8355,
      "क्रमश": 8356,
      "जयंत": 8357,
      "जरत": 8358,
      "सम्पन्न": 8359,
      "मूर्": 8360,
      "व्यवस्थाएं": 8361,
      "भोग": 8362,
      "शिवपुरी": 8363,
      "निकासी": 8364,
      "रिटर्न": 8365,
      "भरोसे": 8366,
      "पीसीआर": 8367,
      "अथॉरिटी": 8368,
      "सराहनीय": 8369,
      "आराधना": 8370,
      "वाल्मीकि": 8371,
      "मछली": 8372,
      "संवेदना": 8373,
      "ंजन": 8374,
      "आलिया": 8375,
      "एग्री": 8376,
      "डम": 8377,
      "थ्र": 8378,
      "फना": 8379,
      "िकी": 8380,
      "९२": 8381,
      "हाउ": 8382,
      "हापु": 8383,
      "औरंगाबाद": 8384,
      "मुन": 8385,
      "मुस्त": 8386,
      "योगेश": 8387,
      "रहमान": 8388,
      "सरकारें": 8389,
      "श्रद्": 8390,
      "बुमराह": 8391,
      "प्रांगण": 8392,
      "बोस": 8393,
      "कामों": 8394,
      "खुलकर": 8395,
      "जैक": 8396,
      "फैलने": 8397,
      "हेलि": 8398,
      "भिलाई": 8399,
      "वरीय": 8400,
      "उपलक्ष्य": 8401,
      "त्तरी": 8402,
      "खेलना": 8403,
      "डायबि": 8404,
      "वांछ": 8405,
      "बागपत": 8406,
      "इंग्लिश": 8407,
      "निरपेक्ष": 8408,
      "स्तिका": 8409,
      "प्रावधानों": 8410,
      "मेगापिक्सल": 8411,
      "एनजीओ": 8412,
      "चाइल्ड": 8413,
      "स्थिरता": 8414,
      "अत्यधिक": 8415,
      "सृजन": 8416,
      "वाहिनी": 8417,
      "संपादक": 8418,
      "सस्पेंड": 8419,
      "कामगारों": 8420,
      "रसोई": 8421,
      "सफेद": 8422,
      "विपणन": 8423,
      "खौ": 8424,
      "चं": 8425,
      "तब्दी": 8426,
      "रसा": 8427,
      "वहाँ": 8428,
      "बांटे": 8429,
      "रिक्शा": 8430,
      "हिट": 8431,
      "रेत": 8432,
      "अनो": 8433,
      "ंधर": 8434,
      "बैन": 8435,
      "उपयुक्त": 8436,
      "यूवी": 8437,
      "अंबाला": 8438,
      "गुम": 8439,
      "रुके": 8440,
      "इंफ्रा": 8441,
      "निर्देशानुसार": 8442,
      "कहान": 8443,
      "ख्याल": 8444,
      "जलस्तर": 8445,
      "दिखाते": 8446,
      "बूझ": 8447,
      "निर्णायक": 8448,
      "फाइनेंस": 8449,
      "सुपरस्टार": 8450,
      "ढांचा": 8451,
      "डूब": 8452,
      "कोरबा": 8453,
      "मृतकों": 8454,
      "प्रगतिशील": 8455,
      "एम्बुलेंस": 8456,
      "अख्तर": 8457,
      "पुरूष": 8458,
      "वंदना": 8459,
      "जासूसी": 8460,
      "लैपटॉप": 8461,
      "हापुड़": 8462,
      "अड्डा": 8463,
      "आमिर": 8464,
      "पप्": 8465,
      "पाना": 8466,
      "बजाए": 8467,
      "भार्": 8468,
      "ह्यू": 8469,
      "ैशी": 8470,
      "विनी": 8471,
      "विलय": 8472,
      "निग": 8473,
      "निचले": 8474,
      "साधु": 8475,
      "माउ": 8476,
      "माली": 8477,
      "दिव्य": 8478,
      "सीमेंट": 8479,
      "गाली": 8480,
      "तीव्र": 8481,
      "जिसमे": 8482,
      "जीन": 8483,
      "अपार्ट": 8484,
      "दोस्ती": 8485,
      "कार्यक्षेत्र": 8486,
      "चिट्ठी": 8487,
      "टास्क": 8488,
      "दुल": 8489,
      "गुड": 8490,
      "अभय": 8491,
      "कॉरिडोर": 8492,
      "कलर": 8493,
      "रखती": 8494,
      "फैक्ट": 8495,
      "संगो": 8496,
      "तुम": 8497,
      "सौगा": 8498,
      "शिवलिंग": 8499,
      "सड़कें": 8500,
      "श्यक": 8501,
      "ट्रीटमेंट": 8502,
      "बीएसए": 8503,
      "बीएसएनएल": 8504,
      "संगठित": 8505,
      "प्रमाणपत्र": 8506,
      "अमरो": 8507,
      "चक्रवा": 8508,
      "रिश्तेदारों": 8509,
      "इराक़": 8510,
      "मेजबानी": 8511,
      "तड़के": 8512,
      "आजीवन": 8513,
      "उभर": 8514,
      "ऊना": 8515,
      "खरे": 8516,
      "गवाह": 8517,
      "धरा": 8518,
      "मसले": 8519,
      "३५०": 8520,
      "८२": 8521,
      "वाड़े": 8522,
      "साइन": 8523,
      "साउंड": 8524,
      "मातृ": 8525,
      "लीट": 8526,
      "योद्धा": 8527,
      "वीके": 8528,
      "युगल": 8529,
      "टाइन": 8530,
      "अनुपालन": 8531,
      "कराये": 8532,
      "बढ़ाना": 8533,
      "बोझ": 8534,
      "डेड": 8535,
      "ट्रेलर": 8536,
      "सर्स": 8537,
      "ोहण": 8538,
      "करवाए": 8539,
      "पंजाबी": 8540,
      "ट्रां": 8541,
      "प्रतिबंधों": 8542,
      "आंख": 8543,
      "विकेटकीपर": 8544,
      "पशुपालन": 8545,
      "सेल्फी": 8546,
      "नकदी": 8547,
      "हिंदुत्व": 8548,
      "दावेदार": 8549,
      "गिराया": 8550,
      "क्विंटल": 8551,
      "ध्वस्त": 8552,
      "सशक्त": 8553,
      "फायदेमंद": 8554,
      "इमारत": 8555,
      "औषधि": 8556,
      "ढूंढ": 8557,
      "प्रांतीय": 8558,
      "एलि": 8559,
      "गश्त": 8560,
      "जड़": 8561,
      "ठि": 8562,
      "दक्ष": 8563,
      "भत्ता": 8564,
      "लख": 8565,
      "०१": 8566,
      "क्कड़": 8567,
      "विड़": 8568,
      "हावड़ा": 8569,
      "निष्ठ": 8570,
      "निगाह": 8571,
      "जावेद": 8572,
      "तिरा": 8573,
      "देशमुख": 8574,
      "द्या": 8575,
      "हिल": 8576,
      "पीडब्ल्यू": 8577,
      "अधिवक्ताओं": 8578,
      "चिन्": 8579,
      "टाल": 8580,
      "गोष्ठी": 8581,
      "बोल्ड": 8582,
      "आपने": 8583,
      "कमला": 8584,
      "खुराक": 8585,
      "खंडवा": 8586,
      "विद्वान": 8587,
      "स्टेज": 8588,
      "बाइडन": 8589,
      "बाइडेन": 8590,
      "चलाते": 8591,
      "तरीकों": 8592,
      "गर्व": 8593,
      "मैनपुरी": 8594,
      "अल्ट्रा": 8595,
      "पाठशाला": 8596,
      "सुनीता": 8597,
      "प्रिंस": 8598,
      "साधते": 8599,
      "दमदार": 8600,
      "सौंपने": 8601,
      "आपातकालीन": 8602,
      "कम्युनिस्ट": 8603,
      "विक्रेता": 8604,
      "कटिहार": 8605,
      "छिड़काव": 8606,
      "प्रश्नों": 8607,
      "संभल": 8608,
      "हिमांशु": 8609,
      "अमरोहा": 8610,
      "ओटी": 8611,
      "कंस": 8612,
      "दहन": 8613,
      "बले": 8614,
      "विगत": 8615,
      "विपिन": 8616,
      "लेती": 8617,
      "साइं": 8618,
      "मिक्स": 8619,
      "संप्र": 8620,
      "रोगी": 8621,
      "समस्ती": 8622,
      "पुस्तिका": 8623,
      "बीएड": 8624,
      "बीबीसी": 8625,
      "कार्यवाहक": 8626,
      "कार्यपालक": 8627,
      "अनुमो": 8628,
      "पेटी": 8629,
      "जुआ": 8630,
      "फ्लो": 8631,
      "बोर": 8632,
      "मनु": 8633,
      "मांगें": 8634,
      "धीमी": 8635,
      "झांकी": 8636,
      "जन्मा": 8637,
      "प्रतियोगिताओं": 8638,
      "लिखने": 8639,
      "समुचित": 8640,
      "आईटीआई": 8641,
      "ग्रेटर": 8642,
      "नॉर्थ": 8643,
      "मूल्यों": 8644,
      "कम्पनी": 8645,
      "म्यूजिक": 8646,
      "अविनाश": 8647,
      "जेईई": 8648,
      "हाजिर": 8649,
      "चौंकाने": 8650,
      "रोमांच": 8651,
      "मुंगेर": 8652,
      "विरूद्ध": 8653,
      "समस्तीपुर": 8654,
      "इक्वि": 8655,
      "खुर": 8656,
      "घटा": 8657,
      "घ्न": 8658,
      "जरा": 8659,
      "टल्स": 8660,
      "धड़": 8661,
      "धक्का": 8662,
      "मवे": 8663,
      "लट": 8664,
      "ृति": 8665,
      "९३": 8666,
      "विराज": 8667,
      "विंदर": 8668,
      "निज": 8669,
      "दांत": 8670,
      "ंदवाड़ा": 8671,
      "बीएल": 8672,
      "वर्स": 8673,
      "निर्वहन": 8674,
      "यूएन": 8675,
      "मैथ": 8676,
      "ज़न": 8677,
      "महर्षि": 8678,
      "गुणा": 8679,
      "वैदिक": 8680,
      "पंचकू": 8681,
      "क्रिसमस": 8682,
      "कलाम": 8683,
      "मॉनि": 8684,
      "बनीं": 8685,
      "जितनी": 8686,
      "परिणामों": 8687,
      "रजिस्ट्री": 8688,
      "हिंदुओं": 8689,
      "पटवारी": 8690,
      "समुद्री": 8691,
      "पौधों": 8692,
      "शिल्प": 8693,
      "सब्जियों": 8694,
      "स्रोत": 8695,
      "मेमोरियल": 8696,
      "श्वेता": 8697,
      "सुचारू": 8698,
      "जरुरत": 8699,
      "अफ़ग़ानिस्तान": 8700,
      "बहरहाल": 8701,
      "महबूबा": 8702,
      "बयानों": 8703,
      "वरुण": 8704,
      "मित्तल": 8705,
      "बुंदेलखंड": 8706,
      "भार्गव": 8707,
      "पंचकूला": 8708,
      "अस्थाई": 8709,
      "आइसी": 8710,
      "उतरी": 8711,
      "एव": 8712,
      "कटा": 8713,
      "ग्य": 8714,
      "झों": 8715,
      "दहेज": 8716,
      "ध्रु": 8717,
      "हवन": 8718,
      "ौरी": 8719,
      "स्सी": 8720,
      "किड": 8721,
      "वाट": 8722,
      "वाइन": 8723,
      "माफ": 8724,
      "ुरप्पा": 8725,
      "सिग्": 8726,
      "मुसी": 8727,
      "गीतों": 8728,
      "मेरिट": 8729,
      "पुरात": 8730,
      "ग्रैंड": 8731,
      "मुख्या": 8732,
      "जेने": 8733,
      "पियो": 8734,
      "छावनी": 8735,
      "पेरिस": 8736,
      "शेड्यूल": 8737,
      "पर्चा": 8738,
      "व्याप्त": 8739,
      "१५००": 8740,
      "आदेशों": 8741,
      "उपलब्धियों": 8742,
      "लुधिया": 8743,
      "पॉवर": 8744,
      "गणमान्य": 8745,
      "सीमावर्ती": 8746,
      "व्यापारिक": 8747,
      "निवेशक": 8748,
      "पाएगा": 8749,
      "खासतौर": 8750,
      "आयुष": 8751,
      "छुट": 8752,
      "रोगों": 8753,
      "ण्डा": 8754,
      "हाइवे": 8755,
      "अल्पसंख्यकों": 8756,
      "कांग्रेसियों": 8757,
      "समृद्ध": 8758,
      "विज्ञप्ति": 8759,
      "अराज": 8760,
      "आॅ": 8761,
      "आति": 8762,
      "आध्या": 8763,
      "गहन": 8764,
      "ढि": 8765,
      "थर्ड": 8766,
      "दया": 8767,
      "बख्": 8768,
      "वमेंट": 8769,
      "षकों": 8770,
      "सटी": 8771,
      "८६": 8772,
      "किले": 8773,
      "विजि": 8774,
      "जाधव": 8775,
      "बांदा": 8776,
      "गाड़ियां": 8777,
      "पाती": 8778,
      "ल्लत": 8779,
      "रोगा": 8780,
      "शिक्षित": 8781,
      "रेजि": 8782,
      "रेस्टोर": 8783,
      "अधिशासी": 8784,
      "वर्जन": 8785,
      "टिकैत": 8786,
      "फिरोज": 8787,
      "रुझ": 8788,
      "आरआई": 8789,
      "कॉमन": 8790,
      "धारक": 8791,
      "महिंद्रा": 8792,
      "रखता": 8793,
      "बनती": 8794,
      "मूला": 8795,
      "ड्रे": 8796,
      "बूत": 8797,
      "आयात": 8798,
      "निजीकरण": 8799,
      "आश्व": 8800,
      "ऑपरेटर": 8801,
      "एनएसयूआई": 8802,
      "तलवार": 8803,
      "सैनिटाइजर": 8804,
      "मिर्जापुर": 8805,
      "हितग्राहियों": 8806,
      "दिमाग": 8807,
      "तब्दील": 8808,
      "अपार्टमेंट": 8809,
      "लुधियाना": 8810,
      "रेस्टोरेंट": 8811,
      "अकाली": 8812,
      "आन्": 8813,
      "आभूषण": 8814,
      "एएम": 8815,
      "ऑफ़": 8816,
      "दबिश": 8817,
      "भटक": 8818,
      "षड": 8819,
      "सार्थ": 8820,
      "विद": 8821,
      "निवासियों": 8822,
      "इस्र": 8823,
      "मियां": 8824,
      "संकाय": 8825,
      "तीत": 8826,
      "ुरू": 8827,
      "त्थे": 8828,
      "तेश्वर": 8829,
      "भाटिया": 8830,
      "हिम्मत": 8831,
      "डिब्": 8832,
      "अधिवेशन": 8833,
      "ग्रेस": 8834,
      "दोहरा": 8835,
      "बेरी": 8836,
      "जोगी": 8837,
      "लगवा": 8838,
      "झांसा": 8839,
      "२००२": 8840,
      "खुदकुशी": 8841,
      "गेंदों": 8842,
      "जागृति": 8843,
      "रंजीत": 8844,
      "संभावनाओं": 8845,
      "पेंटिंग": 8846,
      "दसौर": 8847,
      "प्रभावशाली": 8848,
      "कक्षाएं": 8849,
      "दशकों": 8850,
      "समझाने": 8851,
      "भट्टा": 8852,
      "प्लानि": 8853,
      "वाणिज्यिक": 8854,
      "सीखने": 8855,
      "प्रणब": 8856,
      "ईमानदारी": 8857,
      "अटैक": 8858,
      "पटियाला": 8859,
      "पप्पू": 8860,
      "अखंड": 8861,
      "आमद": 8862,
      "इनाम": 8863,
      "दखल": 8864,
      "नारी": 8865,
      "प्याज": 8866,
      "फन": 8867,
      "मज़": 8868,
      "सच्": 8869,
      "हकी": 8870,
      "ैना": 8871,
      "११०": 8872,
      "नेपाली": 8873,
      "प्रसंग": 8874,
      "लेखन": 8875,
      "नियो": 8876,
      "ल्डिंग": 8877,
      "समकक्ष": 8878,
      "मीरा": 8879,
      "दियां": 8880,
      "एसएल": 8881,
      "मिलन": 8882,
      "सोया": 8883,
      "यूएई": 8884,
      "सहारे": 8885,
      "गोपा": 8886,
      "कमर": 8887,
      "ब्रो": 8888,
      "सम्पर्क": 8889,
      "नोई": 8890,
      "लोकन": 8891,
      "बॉस": 8892,
      "युवराज": 8893,
      "भुत": 8894,
      "सीमाओं": 8895,
      "कुरु": 8896,
      "परेखा": 8897,
      "शवों": 8898,
      "काउंसि": 8899,
      "बराक": 8900,
      "सेवकों": 8901,
      "विस्फोटक": 8902,
      "कांगड़ा": 8903,
      "इजराय": 8904,
      "तस्करों": 8905,
      "ग्रेजुएट": 8906,
      "अनावश्यक": 8907,
      "अभद्रता": 8908,
      "सच्चाई": 8909,
      "कन्नौज": 8910,
      "कैटेगरी": 8911,
      "ंजा": 8912,
      "अद्": 8913,
      "आसमान": 8914,
      "उपह": 8915,
      "जनी": 8916,
      "डबल": 8917,
      "वचन": 8918,
      "सली": 8919,
      "सहर": 8920,
      "हं": 8921,
      "हब": 8922,
      "हबी": 8923,
      "०७": 8924,
      "कांक": 8925,
      "किला": 8926,
      "्यम": 8927,
      "तादाद": 8928,
      "रामा": 8929,
      "माई": 8930,
      "देशभक्ति": 8931,
      "जीआरपी": 8932,
      "समग्र": 8933,
      "पुतिन": 8934,
      "डीके": 8935,
      "म्बे": 8936,
      "चिं": 8937,
      "बैंग": 8938,
      "उपद्र": 8939,
      "मैट्रिक": 8940,
      "बुझा": 8941,
      "जानवरों": 8942,
      "एंटर": 8943,
      "कैप": 8944,
      "आरजेडी": 8945,
      "चीज": 8946,
      "कलक्ट्रेट": 8947,
      "कृपा": 8948,
      "सम्बो": 8949,
      "पिछड़े": 8950,
      "बहुजन": 8951,
      "बॉय": 8952,
      "नवमी": 8953,
      "मेडिसिन": 8954,
      "बचाया": 8955,
      "अलवर": 8956,
      "एडवांस": 8957,
      "वॉय": 8958,
      "शासना": 8959,
      "प्रचारक": 8960,
      "बीएससी": 8961,
      "रिश्तों": 8962,
      "पुनः": 8963,
      "ुपयोग": 8964,
      "क्राफ्ट": 8965,
      "कराएंगे": 8966,
      "शॉप": 8967,
      "नायब": 8968,
      "डि़यों": 8969,
      "बिंदुओं": 8970,
      "आवेदकों": 8971,
      "लाहौर": 8972,
      "लाइब्रेरी": 8973,
      "खौफ": 8974,
      "ईस्ट": 8975,
      "कंट": 8976,
      "खानी": 8977,
      "खट्": 8978,
      "घबरा": 8979,
      "चमक": 8980,
      "जमु": 8981,
      "दहा": 8982,
      "दवाई": 8983,
      "दंडा": 8984,
      "भया": 8985,
      "सेल्स": 8986,
      "वादे": 8987,
      "लेता": 8988,
      "नियोजन": 8989,
      "गाई": 8990,
      "लीफ": 8991,
      "रीवा": 8992,
      "मुक": 8993,
      "टीबी": 8994,
      "रोज़": 8995,
      "पीपु": 8996,
      "पीएसी": 8997,
      "जनप्रतिनिधि": 8998,
      "रेटिंग": 8999,
      "मुख्": 9000,
      "अनुज": 9001,
      "गुवाहा": 9002,
      "शीद": 9003,
      "बुद्दीन": 9004,
      "जयललिता": 9005,
      "सबक": 9006,
      "सम्मति": 9007,
      "चाहिये": 9008,
      "अभिलेख": 9009,
      "अभिनंदन": 9010,
      "माल्य": 9011,
      "श्यो": 9012,
      "कांकेर": 9013,
      "त्रिपुरा": 9014,
      "नवजोत": 9015,
      "लकड़ी": 9016,
      "कुरैशी": 9017,
      "गरीबी": 9018,
      "ज्यपाल": 9019,
      "स्टीव": 9020,
      "संभाला": 9021,
      "बचें": 9022,
      "लड़ाकू": 9023,
      "मशीनों": 9024,
      "कॉन्फ्रेंसिंग": 9025,
      "सक्रियता": 9026,
      "दशहरा": 9027,
      "समानता": 9028,
      "शॉर्ट": 9029,
      "मुनाफा": 9030,
      "उपराज्यपाल": 9031,
      "लोकप्रियता": 9032,
      "मायण": 9033,
      "प्रीमियम": 9034,
      "प्रभारियों": 9035,
      "मलेशिया": 9036,
      "बांटने": 9037,
      "अत्याधुनिक": 9038,
      "सेकेंडरी": 9039,
      "दुरुपयोग": 9040,
      "वेरिएंट": 9041,
      "सिडनी": 9042,
      "पारदर्शिता": 9043,
      "हाइड्रो": 9044,
      "दियुरप्पा": 9045,
      "ब्योरा": 9046,
      "संगोष्ठी": 9047,
      "आश्वस्त": 9048,
      "गुवाहाटी": 9049,
      "उड": 9050,
      "एटा": 9051,
      "जहर": 9052,
      "बसंत": 9053,
      "वरा": 9054,
      "ौदा": 9055,
      "८३": 9056,
      "प्रेशर": 9057,
      "नागर": 9058,
      "राण": 9059,
      "रामायण": 9060,
      "बांस": 9061,
      "ंग्या": 9062,
      "होत्रा": 9063,
      "सिलि": 9064,
      "मंदसौर": 9065,
      "बीजिंग": 9066,
      "डीआई": 9067,
      "यूनाइटेड": 9068,
      "जिसको": 9069,
      "पार्थि": 9070,
      "फ्लोर": 9071,
      "चलकर": 9072,
      "भूख": 9073,
      "पैन": 9074,
      "लंकी": 9075,
      "सचिवों": 9076,
      "देवता": 9077,
      "डीएमके": 9078,
      "जवाबी": 9079,
      "जिम्मा": 9080,
      "शामली": 9081,
      "विजयवर्गीय": 9082,
      "टैंक": 9083,
      "टैक्सी": 9084,
      "सिंगर": 9085,
      "शक्तिशाली": 9086,
      "राइच": 9087,
      "आंबेडकर": 9088,
      "सियासत": 9089,
      "टेनमेंट": 9090,
      "न्यायाधीशों": 9091,
      "निष्का": 9092,
      "अब्बास": 9093,
      "निराश": 9094,
      "एटीएस": 9095,
      "पुष्पा": 9096,
      "हर्षवर्धन": 9097,
      "अत्याचार": 9098,
      "क्रॉस": 9099,
      "शिवाजी": 9100,
      "आश्रित": 9101,
      "पद्धति": 9102,
      "अरुणाचल": 9103,
      "वांछित": 9104,
      "जन्माष्टमी": 9105,
      "प्लानिंग": 9106,
      "पीपुल्स": 9107,
      "पार्थिव": 9108,
      "चट": 9109,
      "चर्य": 9110,
      "दराज": 9111,
      "नं": 9112,
      "सवारी": 9113,
      "सघन": 9114,
      "करूंगा": 9115,
      "निलंबन": 9116,
      "बाज़": 9117,
      "त्ती": 9118,
      "ल्टर": 9119,
      "चुप": 9120,
      "डील": 9121,
      "रूपरेखा": 9122,
      "द्रविड़": 9123,
      "जोनल": 9124,
      "सूरी": 9125,
      "गिता": 9126,
      "पार्टियां": 9127,
      "बुन": 9128,
      "दारो": 9129,
      "जैविक": 9130,
      "पैकेट": 9131,
      "सम्पूर्ण": 9132,
      "अवलोकन": 9133,
      "लैंग": 9134,
      "पराजित": 9135,
      "बहराइच": 9136,
      "प्रदर्शनकारी": 9137,
      "फेज": 9138,
      "घातक": 9139,
      "वेंटि": 9140,
      "जमीनी": 9141,
      "कौशिक": 9142,
      "ठेका": 9143,
      "आंशिक": 9144,
      "गड़िया": 9145,
      "आईसीयू": 9146,
      "सत्येंद्र": 9147,
      "टेलीविजन": 9148,
      "कचरे": 9149,
      "ड्डू": 9150,
      "कानेर": 9151,
      "रवींद्र": 9152,
      "दरवाजे": 9153,
      "एमएलसी": 9154,
      "टर्मिनल": 9155,
      "सनातन": 9156,
      "पुण्यतिथि": 9157,
      "डेमोक्रेटिक": 9158,
      "मत्स्य": 9159,
      "सूचकांक": 9160,
      "अर्थात": 9161,
      "डिस्ट्रि": 9162,
      "पीडब्ल्यूडी": 9163,
      "आफि": 9164,
      "उन्नति": 9165,
      "एएसआई": 9166,
      "कबीर": 9167,
      "गढ": 9168,
      "झटके": 9169,
      "टाय": 9170,
      "ठु": 9171,
      "सफ": 9172,
      "हजरत": 9173,
      "०८": 9174,
      "कोले": 9175,
      "प्रज्": 9176,
      "वाहिक": 9177,
      "लिफ्ट": 9178,
      "सांप": 9179,
      "जातियों": 9180,
      "माहे": 9181,
      "बाहु": 9182,
      "सीडीओ": 9183,
      "पाता": 9184,
      "पांव": 9185,
      "सिव": 9186,
      "मुनि": 9187,
      "सरगु": 9188,
      "मील": 9189,
      "राजभर": 9190,
      "पुट": 9191,
      "बीएमसी": 9192,
      "बीकानेर": 9193,
      "डिल": 9194,
      "येदियुरप्पा": 9195,
      "पुलिया": 9196,
      "श्रवण": 9197,
      "द्री": 9198,
      "गिन": 9199,
      "सोलंकी": 9200,
      "गुड़": 9201,
      "ग्राफ": 9202,
      "कैमर": 9203,
      "मार्क्स": 9204,
      "डेली": 9205,
      "एनए": 9206,
      "एनर्जी": 9207,
      "चौटाला": 9208,
      "सबके": 9209,
      "हरियाली": 9210,
      "समीकरण": 9211,
      "राइल": 9212,
      "सफलतापूर्वक": 9213,
      "धूप": 9214,
      "जर्जर": 9215,
      "साध्वी": 9216,
      "चूक": 9217,
      "अश्विनी": 9218,
      "पुस्तका": 9219,
      "मयंक": 9220,
      "आयुर्वे": 9221,
      "इलेक्ट्रॉनिक्स": 9222,
      "रवैया": 9223,
      "नमूने": 9224,
      "दबोचा": 9225,
      "प्रतिद्वंद्वी": 9226,
      "केमिकल": 9227,
      "आक्रामक": 9228,
      "निःशुल्क": 9229,
      "सेक्रेटरी": 9230,
      "ससुराल": 9231,
      "बदायूं": 9232,
      "रसायन": 9233,
      "सौगात": 9234,
      "आध्यात्मिक": 9235,
      "अय्य": 9236,
      "आजीविका": 9237,
      "इटा": 9238,
      "ईसी": 9239,
      "जलाने": 9240,
      "तूल": 9241,
      "दरोगा": 9242,
      "ुल": 9243,
      "्रे": 9244,
      "स्फी": 9245,
      "स्नै": 9246,
      "सेफ्टी": 9247,
      "किन्न": 9248,
      "क्वॉ": 9249,
      "बालों": 9250,
      "बालू": 9251,
      "रिहाई": 9252,
      "रिटेल": 9253,
      "दायों": 9254,
      "एकदिवसीय": 9255,
      "ंडों": 9256,
      "ष्क": 9257,
      "स्टै": 9258,
      "बीके": 9259,
      "सुहा": 9260,
      "मोहित": 9261,
      "खाल": 9262,
      "परिक्रमा": 9263,
      "तोह": 9264,
      "पिड": 9265,
      "उत्थान": 9266,
      "थेरे": 9267,
      "स्कै": 9268,
      "शुगर": 9269,
      "खेर": 9270,
      "हत्यार": 9271,
      "पंचमी": 9272,
      "कहती": 9273,
      "पकड़ी": 9274,
      "घात": 9275,
      "स्ट्रॉ": 9276,
      "हूँ": 9277,
      "ख्वा": 9278,
      "बनाएंगे": 9279,
      "स्कूटर": 9280,
      "एजेंडा": 9281,
      "लेंगी": 9282,
      "थोक": 9283,
      "दिक्कतों": 9284,
      "जेडीयू": 9285,
      "भौतिक": 9286,
      "पलामू": 9287,
      "पृष्ठभूमि": 9288,
      "अखाड़ा": 9289,
      "रोहिंग्या": 9290,
      "सिल्वर": 9291,
      "एकीकृत": 9292,
      "श्रद्घा": 9293,
      "हेलिकॉप्टर": 9294,
      "डायबिटीज": 9295,
      "डक़": 9296,
      "यती": 9297,
      "नेटर": 9298,
      "सेनेटाइ": 9299,
      "किल्लत": 9300,
      "होत्री": 9301,
      "संलिप्त": 9302,
      "लीकेशन": 9303,
      "पाउ": 9304,
      "मुम्": 9305,
      "भाविक": 9306,
      "मंशा": 9307,
      "शियां": 9308,
      "राजपुर": 9309,
      "मेसी": 9310,
      "मेडी": 9311,
      "सुमित": 9312,
      "रेगु": 9313,
      "श्वर्": 9314,
      "डिटेल": 9315,
      "खाद्या": 9316,
      "डीडी": 9317,
      "रूपा": 9318,
      "परिचित": 9319,
      "दुल्": 9320,
      "क्षेत्रा": 9321,
      "गोमती": 9322,
      "गढ़वाल": 9323,
      "विशेषकर": 9324,
      "क्षिप्त": 9325,
      "अररिया": 9326,
      "सौंपे": 9327,
      "ड्राइव": 9328,
      "मल्होत्रा": 9329,
      "रॉयल्स": 9330,
      "आवेदक": 9331,
      "सम्बन्ध": 9332,
      "अर्धशतक": 9333,
      "झड़प": 9334,
      "हाउसिंग": 9335,
      "सार्थक": 9336,
      "माल्यार्पण": 9337,
      "सरगुजा": 9338,
      "अविश्वास": 9339,
      "ऑडियो": 9340,
      "खै": 9341,
      "जडे": 9342,
      "दबंग": 9343,
      "भदौ": 9344,
      "मंगा": 9345,
      "रजा": 9346,
      "सदा": 9347,
      "०३": 9348,
      "८१": 9349,
      "करवाना": 9350,
      "सेबी": 9351,
      "क्कत": 9352,
      "राखी": 9353,
      "तिरु": 9354,
      "बागी": 9355,
      "इसने": 9356,
      "रियन": 9357,
      "थाई": 9358,
      "हिप": 9359,
      "दादा": 9360,
      "जीरो": 9361,
      "शातिर": 9362,
      "वर्कर्स": 9363,
      "इनसे": 9364,
      "चारा": 9365,
      "लगाये": 9366,
      "पिया": 9367,
      "पोषित": 9368,
      "उपमंडल": 9369,
      "अंतरा": 9370,
      "योगेंद्र": 9371,
      "आरोग्य": 9372,
      "जयशंकर": 9373,
      "बनते": 9374,
      "प्रोटीन": 9375,
      "फिल्मी": 9376,
      "२००१": 9377,
      "जरूरतमंदों": 9378,
      "गुजरा": 9379,
      "सर्वसम्मति": 9380,
      "टिप्पण": 9381,
      "वसूला": 9382,
      "पुनर्वास": 9383,
      "प्रधानाध्यापक": 9384,
      "किताबें": 9385,
      "उर्दू": 9386,
      "कुंवर": 9387,
      "ज़रूरत": 9388,
      "इकबाल": 9389,
      "दिनांक": 9390,
      "पीलीभीत": 9391,
      "प्रशंसकों": 9392,
      "मुख्तार": 9393,
      "अमी": 9394,
      "अंध": 9395,
      "असफल": 9396,
      "ईसाई": 9397,
      "उड़ी": 9398,
      "गरि": 9399,
      "फरिया": 9400,
      "मका": 9401,
      "सस्ती": 9402,
      "काव्य": 9403,
      "वाग": 9404,
      "विलंब": 9405,
      "हांग": 9406,
      "जिता": 9407,
      "भागिता": 9408,
      "पीके": 9409,
      "लोनियों": 9410,
      "राजनय": 9411,
      "डिपो": 9412,
      "वर्किंग": 9413,
      "उपज": 9414,
      "गुलाम": 9415,
      "बोट": 9416,
      "ज्ड": 9417,
      "लगेंगे": 9418,
      "मनगर": 9419,
      "बैठी": 9420,
      "सर्जिकल": 9421,
      "मूवी": 9422,
      "व्यायाम": 9423,
      "बहनों": 9424,
      "सौभाग्य": 9425,
      "कटारिया": 9426,
      "विभिन्ना": 9427,
      "छोड़ी": 9428,
      "ऑफलाइन": 9429,
      "२००३": 9430,
      "कलेक्शन": 9431,
      "कार्मिक": 9432,
      "हटाकर": 9433,
      "विमानन": 9434,
      "बचत": 9435,
      "निष्ठा": 9436,
      "करिश्मा": 9437,
      "रणनीतिक": 9438,
      "गैंगस्टर": 9439,
      "पहनकर": 9440,
      "वेलफेयर": 9441,
      "गिरीश": 9442,
      "स्टैंडर्ड": 9443,
      "जालंधर": 9444,
      "नौकरियों": 9445,
      "एथले": 9446,
      "एंड्रॉ": 9447,
      "कच्चे": 9448,
      "पर्यवेक्षक": 9449,
      "ब्रॉड": 9450,
      "एमबीबीएस": 9451,
      "नमाज": 9452,
      "बलिदान": 9453,
      "माहेश्वरी": 9454,
      "पुस्तकालय": 9455,
      "आयुर्वेदिक": 9456,
      "भदौरिया": 9457,
      "आद": 9458,
      "उकसा": 9459,
      "ऐश्वर्": 9460,
      "झि": 9461,
      "दत्ता": 9462,
      "बलेट": 9463,
      "राना": 9464,
      "वल्": 9465,
      "सजग": 9466,
      "राजी": 9467,
      "पावत": 9468,
      "भांति": 9469,
      "नीट": 9470,
      "टीना": 9471,
      "दाग": 9472,
      "मेदिनी": 9473,
      "स्तो": 9474,
      "वर्दी": 9475,
      "खाड़ी": 9476,
      "म्मे": 9477,
      "प्रतिवर्ष": 9478,
      "पूर्णा": 9479,
      "पहुँच": 9480,
      "पेड़ों": 9481,
      "पहुंचना": 9482,
      "बुलाने": 9483,
      "सहभागिता": 9484,
      "कॉन": 9485,
      "रामचंद्र": 9486,
      "वैरि": 9487,
      "मार्केटिंग": 9488,
      "महाजन": 9489,
      "डॉक्यू": 9490,
      "त्यौ": 9491,
      "ष्ठान": 9492,
      "इस्पात": 9493,
      "क्रिस": 9494,
      "लुटे": 9495,
      "अर्जित": 9496,
      "१४४": 9497,
      "गर्ल्स": 9498,
      "कलां": 9499,
      "कौशा": 9500,
      "रिकवरी": 9501,
      "प्रारम्भ": 9502,
      "माइकल": 9503,
      "आश्चर्य": 9504,
      "हल्के": 9505,
      "बेंग": 9506,
      "विजेताओं": 9507,
      "अंग्रेजों": 9508,
      "चार्जशीट": 9509,
      "पकड़कर": 9510,
      "थुन": 9511,
      "जवाहरलाल": 9512,
      "एकजुटता": 9513,
      "ल्यूशन": 9514,
      "दीक्षांत": 9515,
      "चैलेंजर्स": 9516,
      "लिंपिक": 9517,
      "सुलझाने": 9518,
      "प्रताड़ित": 9519,
      "रिपब्लिकन": 9520,
      "छुटकारा": 9521,
      "स्फीति": 9522,
      "ऊंची": 9523,
      "छठे": 9524,
      "टार": 9525,
      "टलों": 9526,
      "भराव": 9527,
      "रमा": 9528,
      "रक्षक": 9529,
      "लश्": 9530,
      "सशक्ति": 9531,
      "सपने": 9532,
      "हस्तियों": 9533,
      "९१": 9534,
      "केसी": 9535,
      "नेगेटिव": 9536,
      "याँ": 9537,
      "प्रवास": 9538,
      "निटी": 9539,
      "इसपर": 9540,
      "मिसाल": 9541,
      "सिरो": 9542,
      "टीय": 9543,
      "बीएसपी": 9544,
      "पुरवा": 9545,
      "मुख्यमंत्रियों": 9546,
      "बुआ": 9547,
      "कराचार्य": 9548,
      "फैली": 9549,
      "कहकर": 9550,
      "पक्षी": 9551,
      "शिकायतकर्ता": 9552,
      "यानंद": 9553,
      "दिखाए": 9554,
      "वीरवार": 9555,
      "धर्मनिरपेक्ष": 9556,
      "स्पेन": 9557,
      "रेंट्स": 9558,
      "्राज्य": 9559,
      "कीमतें": 9560,
      "दुर्घटनाग्रस्त": 9561,
      "प्रोफेशनल": 9562,
      "सिरसा": 9563,
      "अध्यादेश": 9564,
      "डायरेक्ट": 9565,
      "हस्तांतर": 9566,
      "व्यवसायिक": 9567,
      "उज्ज": 9568,
      "राउंडर": 9569,
      "सूरती": 9570,
      "जहाज": 9571,
      "विभाजन": 9572,
      "गर्लफ्रेंड": 9573,
      "मुहम्मद": 9574,
      "प्रोसेसर": 9575,
      "महत्वाकांक्षी": 9576,
      "सशक्तिकरण": 9577,
      "ंछ": 9578,
      "अमाव": 9579,
      "ईंध": 9580,
      "एना": 9581,
      "एक्सी": 9582,
      "कटे": 9583,
      "खट": 9584,
      "गार्": 9585,
      "ग्यार": 9586,
      "धक": 9587,
      "रसू": 9588,
      "लटका": 9589,
      "हज": 9590,
      "ुकता": 9591,
      "काई": 9592,
      "किन्तु": 9593,
      "लाते": 9594,
      "ताइ": 9595,
      "वालिया": 9596,
      "परफॉर्": 9597,
      "विलास": 9598,
      "तिलक": 9599,
      "क्ष्म": 9600,
      "मिथुन": 9601,
      "सरगना": 9602,
      "लोकेशन": 9603,
      "पुर्द": 9604,
      "चाकू": 9605,
      "बिस्तर": 9606,
      "जेड": 9607,
      "डीएल": 9608,
      "यूटी": 9609,
      "ग्राफर": 9610,
      "फाश": 9611,
      "मार्शल": 9612,
      "चलें": 9613,
      "चेरी": 9614,
      "अन्यथा": 9615,
      "तालमेल": 9616,
      "ब्रज": 9617,
      "सैलरी": 9618,
      "एलएल": 9619,
      "बदली": 9620,
      "रणवीर": 9621,
      "पक्षियों": 9622,
      "सौहार्": 9623,
      "वरीयता": 9624,
      "समिट": 9625,
      "खेलकूद": 9626,
      "अफवाह": 9627,
      "लड़कों": 9628,
      "यूपीए": 9629,
      "एयरलाइंस": 9630,
      "जरूरतमंद": 9631,
      "समीर": 9632,
      "जमात": 9633,
      "खिलवाड़": 9634,
      "जितने": 9635,
      "बर्ग": 9636,
      "बजकर": 9637,
      "घनश्याम": 9638,
      "मुस्लिमों": 9639,
      "चढ़कर": 9640,
      "सजाया": 9641,
      "उतना": 9642,
      "झूठे": 9643,
      "मशक्कत": 9644,
      "उज्ज्": 9645,
      "जोड़कर": 9646,
      "फानन": 9647,
      "गाँधी": 9648,
[...]
