{
  "version": "1.0",
  "truncation": null,
  "padding": null,
  "added_tokens": [
    {
      "id": 0,
      "content": "<pad>",
      "single_word": false,
      "lstrip": false,
      "rstrip": false,
      "normalized": false,
      "special": true
    },
    {
      "id": 1,
      "content": "<unk>",
      "single_word": false,
      "lstrip": false,
      "rstrip": false,
      "normalized": false,
      "special": true
    },
    {
      "id": 2,
      "content": "<s>",
      "single_word": false,
      "lstrip": false,
      "rstrip": false,
      "normalized": false,
      "special": true
    },
    {
      "id": 3,
      "content": "</s>",
      "single_word": false,
      "lstrip": false,
      "rstrip": false,
      "normalized": false,
      "special": true
    },
    {
      "id": 4,
      "content": "<mask>",
      "single_word": false,
      "lstrip": false,
      "rstrip": false,
      "normalized": false,
      "special": true
    }
  ],
  "normalizer": {
    "type": "Sequence",
    "normalizers": [
      {
        "type": "NFC"
      }
    ]
  },
  "pre_tokenizer": {
    "type": "Whitespace"
  },
  "post_processor": null,
  "decoder": null,
  "model": {
    "type": "BPE",
    "dropout": null,
    "unk_token": "<unk>",
    "continuing_subword_prefix": null,
    "end_of_word_suffix": null,
    "fuse_unk": false,
    "byte_fallback": false,
    "ignore_merges": false,
    "vocab": {
      "<pad>": 0,
      "<unk>": 1,
      "<s>": 2,
      "</s>": 3,
      "<mask>": 4,
      "!": 5,
      "\"": 6,
      "'": 7,
      "(": 8,
      ")": 9,
      ",": 10,
      "-": 11,
      ":": 12,
      ";": 13,
      "?": 14,
      "²": 15,
      "³": 16,
      "¹": 17,
      "۱": 18,
      "۹": 19,
      "ँ": 20,
      "ं": 21,
      "ः": 22,
      "अ": 23,
      "आ": 24,
      "इ": 25,
      "ई": 26,
      "उ": 27,
      "ऊ": 28,
      "ऋ": 29,
      "ऌ": 30,
      "ऍ": 31,
      "ऎ": 32,
      "ए": 33,
      "ऐ": 34,
      "ऑ": 35,
      "ऒ": 36,
      "ओ": 37,
      "औ": 38,
      "क": 39,
      "ख": 40,
      "ग": 41,
      "घ": 42,
      "ङ": 43,
      "च": 44,
      "छ": 45,
      "ज": 46,
      "झ": 47,
      "ञ": 48,
      "ट": 49,
      "ठ": 50,
      "ड": 51,
      "ढ": 52,
      "ण": 53,
      "त": 54,
      "थ": 55,
      "द": 56,
      "ध": 57,
      "न": 58,
      "ऩ": 59,
      "प": 60,
      "फ": 61,
      "ब": 62,
      "भ": 63,
      "म": 64,
      "य": 65,
      "र": 66,
      "ऱ": 67,
      "ल": 68,
      "ळ": 69,
      "ऴ": 70,
      "व": 71,
      "श": 72,
      "ष": 73,
      "स": 74,
      "ह": 75,
      "ऺ": 76,
      "ऻ": 77,
      "़": 78,
      "ऽ": 79,
      "ा": 80,
      "ि": 81,
      "ी": 82,
      "ु": 83,
      "ू": 84,
      "ृ": 85,
      "ॄ": 86,
      "ॅ": 87,
      "ॆ": 88,
      "े": 89,
      "ै": 90,
      "ॉ": 91,
      "ॊ": 92,
      "ो": 93,
      "ौ": 94,
      "्": 95,
      "ॎ": 96,
      "ॐ": 97,
      "॑": 98,
      "॒": 99,
      "॓": 100,
      "॔": 101,
      "ॕ": 102,
      "ॖ": 103,
      "ॠ": 104,
      "ॢ": 105,
      "।": 106,
      "॥": 107,
      "०": 108,
      "१": 109,
      "२": 110,
      "३": 111,
      "४": 112,
      "५": 113,
      "६": 114,
      "७": 115,
      "८": 116,
      "९": 117,
      "॰": 118,
      "ॱ": 119,
      "ॲ": 120,
      "ॹ": 121,
      "ॻ": 122,
      "ॽ": 123,
      "੯": 124,
      "೧": 125,
      "១": 126,
      "៧": 127,
      "⁰": 128,
      "⁴": 129,
      "⁵": 130,
      "⁶": 131,
      "₂": 132,
      "₃": 133,
      "₄": 134,
      "₅": 135,
      "❾": 136,
      "्र": 137,
      "के": 138,
      "ार": 139,
      "ें": 140,
      "ने": 141,
      "या": 142,
      "में": 143,
      "है": 144,
      "ों": 145,
      "की": 146,
      "का": 147,
      "र्": 148,
      "स्": 149,
      "से": 150,
      "को": 151,
      "कर": 152,
      "कि": 153,
      "ान": 154,
      "क्": 155,
      "्य": 156,
      "प्र": 157,
      "ता": 158,
      "ना": 159,
      "ला": 160,
      "वि": 161,
      "रा": 162,
      "वा": 163,
      "पर": 164,
      "लि": 165,
      "ले": 166,
      "कार": 167,
      "नि": 168,
      "हा": 169,
      "और": 170,
      "न्": 171,
      "सा": 172,
      "ही": 173,
      "मा": 174,
      "ित": 175,
      "जा": 176,
      "दे": 177,
      "त्र": 178,
      "क्ष": 179,
      "ड़": 180,
      "दि": 181,
      "ति": 182,
      "बा": 183,
      "सं": 184,
      "गा": 185,
      "इस": 186,
      "हो": 187,
      "भी": 188,
      "सी": 189,
      "ती": 190,
      "ली": 191,
      "हैं": 192,
      "पा": 193,
      "ंग": 194,
      "री": 195,
      "त्": 196,
      "हु": 197,
      "मि": 198,
      "मु": 199,
      "ते": 200,
      "ुर": 201,
      "भा": 202,
      "ल्": 203,
      "जि": 204,
      "सि": 205,
      "वार": 206,
      "लिए": 207,
      "नी": 208,
      "था": 209,
      "द्": 210,
      "यों": 211,
      "दी": 212,
      "किया": 213,
      "एक": 214,
      "टी": 215,
      "रि": 216,
      "ोग": 217,
      "सम": 218,
      "हीं": 219,
      "हि": 220,
      "देश": 221,
      "ट्र": 222,
      "जी": 223,
      "मं": 224,
      "शा": 225,
      "धि": 226,
      "राज": 227,
      "रो": 228,
      "दा": 229,
      "क्र": 230,
      "मे": 231,
      "रह": 232,
      "नहीं": 233,
      "चा": 234,
      "न्ह": 235,
      "ष्": 236,
      "स्थ": 237,
      "शि": 238,
      "सर": 239,
      "ार्": 240,
      "मी": 241,
      "अप": 242,
      "भार": 243,
      "गया": 244,
      "वे": 245,
      "ंड": 246,
      "पू": 247,
      "ंद": 248,
      "पी": 249,
      "कु": 250,
      "श्": 251,
      "म्": 252,
      "स्ट": 253,
      "वी": 254,
      "गी": 255,
      "पु": 256,
      "्या": 257,
      "२०": 258,
      "उन्ह": 259,
      "रे": 260,
      "करने": 261,
      "स्त": 262,
      "बी": 263,
      "सु": 264,
      "जन": 265,
      "मान": 266,
      "ारी": 267,
      "बाद": 268,
      "शन": 269,
      "ज़": 270,
      "िक": 271,
      "िया": 272,
      "त्री": 273,
      "कहा": 274,
      "पुर": 275,
      "साथ": 276,
      "अन": 277,
      "यह": 278,
      "तर": 279,
      "ओं": 280,
      "वर्": 281,
      "दर्": 282,
      "प्": 283,
      "यो": 284,
      "ग्र": 285,
      "रू": 286,
      "ढ़": 287,
      "उन": 288,
      "ंच": 289,
      "ियों": 290,
      "मै": 291,
      "टर": 292,
      "गे": 293,
      "अधि": 294,
      "मुख": 295,
      "पह": 296,
      "लोग": 297,
      "ये": 298,
      "दिया": 299,
      "ोंने": 300,
      "टे": 301,
      "दो": 302,
      "निर्": 303,
      "बि": 304,
      "मंत्री": 305,
      "क्षा": 306,
      "खा": 307,
      "रहे": 308,
      "धान": 309,
      "कार्य": 310,
      "तक": 311,
      "१९": 312,
      "ध्य": 313,
      "कारी": 314,
      "इन": 315,
      "श्र": 316,
      "मो": 317,
      "उन्होंने": 318,
      "चु": 319,
      "जो": 320,
      "परि": 321,
      "मार": 322,
      "सिं": 323,
      "बे": 324,
      "यु": 325,
      "तु": 326,
      "एस": 327,
      "ीय": 328,
      "थी": 329,
      "हुए": 330,
      "ंध": 331,
      "मिल": 332,
      "हर": 333,
      "बर": 334,
      "ौर": 335,
      "गर": 336,
      "डी": 337,
      "चि": 338,
      "पूर्": 339,
      "लो": 340,
      "फि": 341,
      "प्रति": 342,
      "डि": 343,
      "ष्ट्र": 344,
      "चार": 345,
      "जे": 346,
      "क्षे": 347,
      "च्": 348,
      "लय": 349,
      "यर": 350,
      "वं": 351,
      "तो": 352,
      "सिंह": 353,
      "जाए": 354,
      "ाना": 355,
      "उत्": 356,
      "खि": 357,
      "कर्": 358,
      "उप": 359,
      "द्वार": 360,
      "द्र": 361,
      "टा": 362,
      "्यू": 363,
      "दू": 364,
      "गई": 365,
      "योग": 366,
      "भारत": 367,
      "बता": 368,
      "थे": 369,
      "ब्": 370,
      "नों": 371,
      "धा": 372,
      "बार": 373,
      "उस": 374,
      "लिस": 375,
      "सरकार": 376,
      "द्वारा": 377,
      "सू": 378,
      "ड़ी": 379,
      "बै": 380,
      "आई": 381,
      "पुलिस": 382,
      "क्षेत्र": 383,
      "प्रदेश": 384,
      "हार": 385,
      "कों": 386,
      "तीय": 387,
      "अपने": 388,
      "टि": 389,
      "पि": 390,
      "बना": 391,
      "ड़ा": 392,
      "राज्य": 393,
      "लगा": 394,
      "दु": 395,
      "अं": 396,
      "व्य": 397,
      "फ़": 398,
      "क्त": 399,
      "स्थित": 400,
      "अनु": 401,
      "प्रा": 402,
      "रहा": 403,
      "ानी": 404,
      "राष्ट्र": 405,
      "लों": 406,
      "रही": 407,
      "सक": 408,
      "पो": 409,
      "एम": 410,
      "होने": 411,
      "जिस": 412,
      "सो": 413,
      "ज्": 414,
      "वाले": 415,
      "मौ": 416,
      "डा": 417,
      "पे": 418,
      "भाग": 419,
      "मुख्य": 420,
      "्रे": 421,
      "गु": 422,
      "हम": 423,
      "इसके": 424,
      "छा": 425,
      "लिया": 426,
      "यू": 427,
      "रूप": 428,
      "ंद्र": 429,
      "एवं": 430,
      "वह": 431,
      "र्ट": 432,
      "स्था": 433,
      "भारतीय": 434,
      "बंध": 435,
      "क्रम": 436,
      "कृ": 437,
      "भि": 438,
      "शी": 439,
      "योज": 440,
      "ंप": 441,
      "इं": 442,
      "गए": 443,
      "वर": 444,
      "लोगों": 445,
      "गो": 446,
      "बताया": 447,
      "हां": 448,
      "खिला": 449,
      "पहले": 450,
      "जु": 451,
      "आप": 452,
      "लग": 453,
      "बु": 454,
      "सद": 455,
      "रु": 456,
      "पहु": 457,
      "स्थान": 458,
      "ध्यक्ष": 459,
      "कॉ": 460,
      "माम": 461,
      "कै": 462,
      "पार्": 463,
      "धार": 464,
      "ची": 465,
      "जान": 466,
      "वन": 467,
      "सभा": 468,
      "देख": 469,
      "मैं": 470,
      "किन": 471,
      "लेकर": 472,
      "जू": 473,
      "ंग्रे": 474,
      "णा": 475,
      "शुर": 476,
      "बो": 477,
      "ज्ञ": 478,
      "ट्": 479,
      "फा": 480,
      "शु": 481,
      "शे": 482,
      "करा": 483,
      "खे": 484,
      "सभी": 485,
      "जब": 486,
      "दौर": 487,
      "ंक": 488,
      "करते": 489,
      "एं": 490,
      "फ्": 491,
      "मार्": 492,
      "सब": 493,
      "मह": 494,
      "नाम": 495,
      "जिला": 496,
      "विश्": 497,
      "महि": 498,
      "आर": 499,
      "चुना": 500,
      "ड़े": 501,
      "निक": 502,
      "२०१": 503,
      "उन्हें": 504,
      "कुमार": 505,
      "हुआ": 506,
      "ेंगे": 507,
      "हुई": 508,
      "सन्": 509,
      "वै": 510,
      "सन": 511,
      "बढ़": 512,
      "लेकिन": 513,
      "पूर्व": 514,
      "्रा": 515,
      "डे": 516,
      "हित": 517,
      "गि": 518,
      "ल्ली": 519,
      "महिला": 520,
      "ग्रा": 521,
      "मन": 522,
      "दर्भ": 523,
      "यन": 524,
      "ूल": 525,
      "दौरान": 526,
      "पं": 527,
      "सार": 528,
      "कांग्रे": 529,
      "चे": 530,
      "काम": 531,
      "राम": 532,
      "तार": 533,
      "पाल": 534,
      "दिल्ली": 535,
      "अपनी": 536,
      "स्वा": 537,
      "कुछ": 538,
      "केंद्र": 539,
      "फी": 540,
      "महा": 541,
      "क्स": 542,
      "चल": 543,
      "भू": 544,
      "कई": 545,
      "होगा": 546,
      "क्रि": 547,
      "त्रा": 548,
      "नगर": 549,
      "जै": 550,
      "स्प": 551,
      "कांग्रेस": 552,
      "वाली": 553,
      "चुनाव": 554,
      "अब": 555,
      "सम्": 556,
      "गत": 557,
      "श्री": 558,
      "पहुंच": 559,
      "स्व": 560,
      "००": 561,
      "ल्म": 562,
      "द्ध": 563,
      "राष्ट्रीय": 564,
      "केट": 565,
      "उनके": 566,
      "टीम": 567,
      "प्त": 568,
      "दान": 569,
      "स्क": 570,
      "दार": 571,
      "द्य": 572,
      "अध्यक्ष": 573,
      "वर्ष": 574,
      "द्या": 575,
      "यत": 576,
      "जार": 577,
      "्ड": 578,
      "न्यू": 579,
      "यक": 580,
      "क्ति": 581,
      "सान": 582,
      "विश्व": 583,
      "वाई": 584,
      "जाने": 585,
      "दिन": 586,
      "र्थ": 587,
      "सन्दर्भ": 588,
      "ट्रे": 589,
      "तथा": 590,
      "जय": 591,
      "न्न": 592,
      "तुम्": 593,
      "समा": 594,
      "बात": 595,
      "कम": 596,
      "सुर": 597,
      "सर्": 598,
      "रख": 599,
      "शुरू": 600,
      "विधा": 601,
      "बन": 602,
      "नेता": 603,
      "डॉ": 604,
      "उत्तर": 605,
      "पर्": 606,
      "विभाग": 607,
      "चौ": 608,
      "हे": 609,
      "समय": 610,
      "पास": 611,
      "करना": 612,
      "अन्य": 613,
      "लै": 614,
      "कोई": 615,
      "पद": 616,
      "यम": 617,
      "विद्या": 618,
      "ंदी": 619,
      "प्रधान": 620,
      "एन": 621,
      "ंव": 622,
      "शामिल": 623,
      "पार्टी": 624,
      "तै": 625,
      "आरो": 626,
      "मत": 627,
      "क्षण": 628,
      "योजना": 629,
      "जाता": 630,
      "जाएगा": 631,
      "करण": 632,
      "किसी": 633,
      "हू": 634,
      "खिलाफ": 635,
      "बैठ": 636,
      "वाद": 637,
      "च्च": 638,
      "पै": 639,
      "मुख्यमंत्री": 640,
      "खु": 641,
      "चित": 642,
      "साम": 643,
      "कंप": 644,
      "जारी": 645,
      "रिया": 646,
      "रोना": 647,
      "स्तान": 648,
      "विधान": 649,
      "ंत": 650,
      "परी": 651,
      "ंगा": 652,
      "धी": 653,
      "अभि": 654,
      "सबसे": 655,
      "शो": 656,
      "हत": 657,
      "निया": 658,
      "कोरोना": 659,
      "माण": 660,
      "युक्त": 661,
      "फो": 662,
      "क्टर": 663,
      "बहु": 664,
      "पत्र": 665,
      "साल": 666,
      "नो": 667,
      "झे": 668,
      "कह": 669,
      "त्व": 670,
      "किए": 671,
      "न्या": 672,
      "बीच": 673,
      "वान": 674,
      "व्यव": 675,
      "भाज": 676,
      "विका": 677,
      "जर": 678,
      "मामले": 679,
      "कान": 680,
      "ठा": 681,
      "अव": 682,
      "चाहि": 683,
      "तीन": 684,
      "ंस": 685,
      "पोर्ट": 686,
      "ताल": 687,
      "हरी": 688,
      "जन्": 689,
      "सै": 690,
      "जिले": 691,
      "गांव": 692,
      "जानकारी": 693,
      "ोड़": 694,
      "लोक": 695,
      "धन": 696,
      "भाष": 697,
      "चाहिए": 698,
      "ेंद्र": 699,
      "लन": 700,
      "नीति": 701,
      "अधिक": 702,
      "कार्यक्रम": 703,
      "र्ड": 704,
      "अधिकार": 705,
      "कारण": 706,
      "भाजपा": 707,
      "फै": 708,
      "पति": 709,
      "संबंध": 710,
      "फिल्म": 711,
      "खंड": 712,
      "त्या": 713,
      "घा": 714,
      "तरह": 715,
      "विद्यालय": 716,
      "ग्": 717,
      "ख्या": 718,
      "त्य": 719,
      "चना": 720,
      "निर्देश": 721,
      "ंत्र": 722,
      "यार": 723,
      "र्स": 724,
      "प्रे": 725,
      "आज": 726,
      "रुप": 727,
      "विकास": 728,
      "टना": 729,
      "लू": 730,
      "मांग": 731,
      "अधिकारी": 732,
      "गठ": 733,
      "जग": 734,
      "दर्शन": 735,
      "टू": 736,
      "यहां": 737,
      "करी": 738,
      "स्टे": 739,
      "हन": 740,
      "न्द्र": 741,
      "हिंदी": 742,
      "मुझे": 743,
      "सदस्": 744,
      "होगी": 745,
      "हों": 746,
      "्यादा": 747,
      "र्म": 748,
      "आरोप": 749,
      "पूर्ण": 750,
      "शहर": 751,
      "टो": 752,
      "व्या": 753,
      "देने": 754,
      "उनकी": 755,
      "लॉ": 756,
      "जांच": 757,
      "वाल": 758,
      "इंड": 759,
      "क्रिकेट": 760,
      "पाकि": 761,
      "नर": 762,
      "घर": 763,
      "पार": 764,
      "गढ़": 765,
      "भे": 766,
      "दिर": 767,
      "प्रो": 768,
      "भाव": 769,
      "ध्या": 770,
      "किसान": 771,
      "वो": 772,
      "दोनों": 773,
      "१०": 774,
      "यी": 775,
      "कड़": 776,
      "ज़ि": 777,
      "ताओं": 778,
      "ंगे": 779,
      "दर": 780,
      "वरी": 781,
      "नई": 782,
      "शासन": 783,
      "२००": 784,
      "ज्ञान": 785,
      "अस्प": 786,
      "शिक्षा": 787,
      "लं": 788,
      "शेष": 789,
      "भर": 790,
      "अमे": 791,
      "ब्र": 792,
      "अभ": 793,
      "बहुत": 794,
      "ष्ठ": 795,
      "कर्म": 796,
      "ेश": 797,
      "आत": 798,
      "फे": 799,
      "छात्र": 800,
      "काल": 801,
      "बद": 802,
      "बैठक": 803,
      "जूद": 804,
      "सह": 805,
      "तुम्ह": 806,
      "न्हें": 807,
      "गुर": 808,
      "ओर": 809,
      "गिर": 810,
      "स्वास्थ": 811,
      "प्रधानमंत्री": 812,
      "मोदी": 813,
      "अनुसार": 814,
      "सकता": 815,
      "मेंट": 816,
      "डल": 817,
      "अपना": 818,
      "मंदिर": 819,
      "स्ता": 820,
      "मिक": 821,
      "अमेरि": 822,
      "वहीं": 823,
      "परीक्षा": 824,
      "स्वास्थ्य": 825,
      "एल": 826,
      "दन": 827,
      "मू": 828,
      "यल": 829,
      "होता": 830,
      "टन": 831,
      "चर": 832,
      "वास": 833,
      "इससे": 834,
      "फर": 835,
      "नौ": 836,
      "भाषा": 837,
      "णी": 838,
      "वित": 839,
      "क्यों": 840,
      "विधानसभा": 841,
      "कुल": 842,
      "ंकि": 843,
      "निर्माण": 844,
      "सुरक्षा": 845,
      "घो": 846,
      "प्रमुख": 847,
      "भग": 848,
      "लेज": 849,
      "आदि": 850,
      "रात": 851,
      "सचि": 852,
      "याद": 853,
      "सेवा": 854,
      "विशेष": 855,
      "इस्": 856,
      "वासी": 857,
      "न्यूज़": 858,
      "संख्या": 859,
      "बल": 860,
      "इसमें": 861,
      "अला": 862,
      "पाकिस्तान": 863,
      "सां": 864,
      "स्थाप": 865,
      "हाँ": 866,
      "जिसमें": 867,
      "हारा": 868,
      "रत": 869,
      "दिए": 870,
      "लाई": 871,
      "साइ": 872,
      "जीत": 873,
      "अस्पताल": 874,
      "नाथ": 875,
      "फिर": 876,
      "वल": 877,
      "रवि": 878,
      "अम": 879,
      "व्यवस्था": 880,
      "स्कूल": 881,
      "करें": 882,
      "ंट": 883,
      "शर्": 884,
      "इला": 885,
      "मिले": 886,
      "घटना": 887,
      "त्म": 888,
      "ज्यादा": 889,
      "परिवार": 890,
      "अधिकारियों": 891,
      "स्कार": 892,
      "उसके": 893,
      "अग": 894,
      "अच्": 895,
      "लाइन": 896,
      "सकते": 897,
      "मद": 898,
      "सित": 899,
      "सरे": 900,
      "तुम": 901,
      "पंचा": 902,
      "्यालय": 903,
      "अलावा": 904,
      "हिन्": 905,
      "ताब": 906,
      "इसे": 907,
      "ियाँ": 908,
      "तहत": 909,
      "पिछ": 910,
      "१५": 911,
      "हाल": 912,
      "दर्ज": 913,
      "विधायक": 914,
      "क्षक": 915,
      "ंगल": 916,
      "हरा": 917,
      "१८": 918,
      "सौ": 919,
      "वाला": 920,
      "गं": 921,
      "देव": 922,
      "सदस्य": 923,
      "पांच": 924,
      "लैंड": 925,
      "बॉ": 926,
      "प्रदर्शन": 927,
      "कार्र": 928,
      "उसे": 929,
      "रेल": 930,
      "झा": 931,
      "हाला": 932,
      "क्षि": 933,
      "इन्हें": 934,
      "जन्म": 935,
      "पूरी": 936,
      "बारे": 937,
      "कार्रवाई": 938,
      "करे": 939,
      "क्रिया": 940,
      "ख़": 941,
      "योजित": 942,
      "पढ़": 943,
      "जल": 944,
      "संघ": 945,
      "सें": 946,
      "ंबर": 947,
      "म्मी": 948,
      "१२": 949,
      "ग्राम": 950,
      "तैयार": 951,
      "काश": 952,
      "गुरु": 953,
      "लाख": 954,
      "स्थिति": 955,
      "लाल": 956,
      "पक्ष": 957,
      "चाह": 958,
      "मध्य": 959,
      "जाएगी": 960,
      "इसी": 961,
      "करेंगे": 962,
      "ऐसे": 963,
      "पंचायत": 964,
      "नार": 965,
      "आने": 966,
      "हजार": 967,
      "बंद": 968,
      "फ्र": 969,
      "बाहरी": 970,
      "आए": 971,
      "कोर्ट": 972,
      "आधार": 973,
      "माल": 974,
      "बच्च": 975,
      "राजनीति": 976,
      "विक": 977,
      "प्राप्त": 978,
      "करोड़": 979,
      "वेश": 980,
      "सचिव": 981,
      "भारी": 982,
      "भूमि": 983,
      "उम्मी": 984,
      "कंपनी": 985,
      "स्वी": 986,
      "सला": 987,
      "सहित": 988,
      "उम्मीद": 989,
      "गिरफ्": 990,
      "बनाने": 991,
      "कल": 992,
      "फल": 993,
      "२१": 994,
      "व्यक्ति": 995,
      "बिहार": 996,
      "सेना": 997,
      "सम्मान": 998,
      "रिपोर्ट": 999,
      "इसका": 1000,
      "कृति": 1001,
      "डिया": 1002,
      "देखें": 1003,
      "पत्": 1004,
      "भिन्न": 1005,
      "बह": 1006,
      "सके": 1007,
      "विरो": 1008,
      "थि": 1009,
      "भो": 1010,
      "मैच": 1011,
      "अंतर": 1012,
      "आयोजित": 1013,
      "करता": 1014,
      "खेल": 1015,
      "बढ़ा": 1016,
      "श्य": 1017,
      "शर्मा": 1018,
      "ार्थ": 1019,
      "नियम": 1020,
      "एफ": 1021,
      "वज": 1022,
      "ष्ट": 1023,
      "ठी": 1024,
      "ल्ड": 1025,
      "ंग्": 1026,
      "पश्": 1027,
      "बड़ी": 1028,
      "समाज": 1029,
      "हूँ": 1030,
      "त्रि": 1031,
      "घोष": 1032,
      "दिव": 1033,
      "पन": 1034,
      "क्या": 1035,
      "तरा": 1036,
      "क्सी": 1037,
      "दूर": 1038,
      "तुम्हें": 1039,
      "मौजूद": 1040,
      "वर्त": 1041,
      "योजन": 1042,
      "लु": 1043,
      "फ़ि": 1044,
      "थाना": 1045,
      "दुनिया": 1046,
      "ण्ड": 1047,
      "होती": 1048,
      "राय": 1049,
      "जैसे": 1050,
      "अति": 1051,
      "सामने": 1052,
      "पड़": 1053,
      "दक्षि": 1054,
      "जीवन": 1055,
      "जरू": 1056,
      "पुरस्कार": 1057,
      "खो": 1058,
      "जिन": 1059,
      "वृ": 1060,
      "अलग": 1061,
      "रीज": 1062,
      "कला": 1063,
      "विभिन्न": 1064,
      "उनका": 1065,
      "क्योंकि": 1066,
      "यादव": 1067,
      "वें": 1068,
      "िति": 1069,
      "मारी": 1070,
      "काफी": 1071,
      "शल": 1072,
      "स्ट्रे": 1073,
      "निवार": 1074,
      "कॉलेज": 1075,
      "स्तर": 1076,
      "१९९": 1077,
      "रुपये": 1078,
      "ंधी": 1079,
      "चै": 1080,
      "शिव": 1081,
      "हिस्": 1082,
      "मर": 1083,
      "गै": 1084,
      "लेख": 1085,
      "ग्रामी": 1086,
      "मार्ग": 1087,
      "उपल": 1088,
      "ग्रामीण": 1089,
      "संगठ": 1090,
      "एच": 1091,
      "अभिया": 1092,
      "अर्": 1093,
      "प्ता": 1094,
      "बच्चों": 1095,
      "वीं": 1096,
      "ट्स": 1097,
      "ल्प": 1098,
      "गांधी": 1099,
      "सोम": 1100,
      "टल": 1101,
      "अंत": 1102,
      "छे": 1103,
      "इसकी": 1104,
      "कड़ियाँ": 1105,
      "मिला": 1106,
      "पिछले": 1107,
      "विश्वविद्यालय": 1108,
      "त्त": 1109,
      "गण": 1110,
      "विष": 1111,
      "जाना": 1112,
      "षण": 1113,
      "करीब": 1114,
      "दूस": 1115,
      "चला": 1116,
      "मंगल": 1117,
      "द्योग": 1118,
      "सूचना": 1119,
      "जहां": 1120,
      "राष्ट्रपति": 1121,
      "मिली": 1122,
      "अभी": 1123,
      "सल": 1124,
      "दूसरे": 1125,
      "शिका": 1126,
      "जल्": 1127,
      "तृ": 1128,
      "िता": 1129,
      "साहित": 1130,
      "दिखा": 1131,
      "माध्य": 1132,
      "बजे": 1133,
      "प्रशासन": 1134,
      "सिल": 1135,
      "उपलब्": 1136,
      "तिहा": 1137,
      "स्या": 1138,
      "स्ट्र": 1139,
      "प्रि": 1140,
      "डियो": 1141,
      "प्रकाश": 1142,
      "वाह": 1143,
      "समिति": 1144,
      "निय": 1145,
      "ग्री": 1146,
      "जें": 1147,
      "जबकि": 1148,
      "महारा": 1149,
      "कित्": 1150,
      "मंडल": 1151,
      "पहुंचे": 1152,
      "चिकित्": 1153,
      "बल्": 1154,
      "छो": 1155,
      "आयोजन": 1156,
      "हालांकि": 1157,
      "प्रया": 1158,
      "अभियान": 1159,
      "मीर": 1160,
      "तरी": 1161,
      "सड़": 1162,
      "गिरफ्तार": 1163,
      "र्चा": 1164,
      "पश्चि": 1165,
      "प्रतिनि": 1166,
      "हमार": 1167,
      "बेह": 1168,
      "सोमवार": 1169,
      "पहली": 1170,
      "पक": 1171,
      "बई": 1172,
      "गल": 1173,
      "वत": 1174,
      "धर": 1175,
      "डो": 1176,
      "उपा": 1177,
      "बस": 1178,
      "मौके": 1179,
      "शुक्र": 1180,
      "किसानों": 1181,
      "दक्षिण": 1182,
      "दारी": 1183,
      "मुताब": 1184,
      "सहा": 1185,
      "मुताबिक": 1186,
      "नाग": 1187,
      "सरकारी": 1188,
      "यं": 1189,
      "दल": 1190,
      "कार्यकर्": 1191,
      "सकती": 1192,
      "३०": 1193,
      "षि": 1194,
      "मीडिया": 1195,
      "विद्य": 1196,
      "कानू": 1197,
      "११": 1198,
      "षद": 1199,
      "ग्रह": 1200,
      "निवासी": 1201,
      "संक्रम": 1202,
      "टेस्ट": 1203,
      "धिकार": 1204,
      "कृत": 1205,
      "गम": 1206,
      "बू": 1207,
      "जनता": 1208,
      "इल": 1209,
      "ेंस": 1210,
      "कता": 1211,
      "क्ट": 1212,
      "संचा": 1213,
      "न्याया": 1214,
      "लब": 1215,
      "होंगे": 1216,
      "प्री": 1217,
      "५०": 1218,
      "तम": 1219,
      "यात्रा": 1220,
      "शुरु": 1221,
      "भु": 1222,
      "मित": 1223,
      "क्षित": 1224,
      "समस्या": 1225,
      "क़": 1226,
      "दौ": 1227,
      "शुक्रवार": 1228,
      "नेट": 1229,
      "लड़": 1230,
      "पूरा": 1231,
      "लित": 1232,
      "चीन": 1233,
      "लेने": 1234,
      "तंत्र": 1235,
      "यान": 1236,
      "आदेश": 1237,
      "बैंक": 1238,
      "होते": 1239,
      "सुबह": 1240,
      "()": 1241,
      "मुं": 1242,
      "चो": 1243,
      "विरोध": 1244,
      "ड्": 1245,
      "हाई": 1246,
      "मूल": 1247,
      "कां": 1248,
      "लिक": 1249,
      "बाहर": 1250,
      "तीस": 1251,
      "अक्": 1252,
      "काली": 1253,
      "शं": 1254,
      "गू": 1255,
      "उठा": 1256,
      "बाजार": 1257,
      "मंगलवार": 1258,
      "रै": 1259,
      "बुध": 1260,
      "महत्व": 1261,
      "सत": 1262,
      "कार्यालय": 1263,
      "धित": 1264,
      "हिन्दी": 1265,
      "टक": 1266,
      "आव": 1267,
      "इंटर": 1268,
      "कार्": 1269,
      "दिनों": 1270,
      "ऑफ": 1271,
      "शत": 1272,
      "चन": 1273,
      "संयुक्त": 1274,
      "अमेरिका": 1275,
      "ज्ञा": 1276,
      "केंद्रीय": 1277,
      "समे": 1278,
      "जिसके": 1279,
      "लने": 1280,
      "मौत": 1281,
      "कराया": 1282,
      "नए": 1283,
      "विड": 1284,
      "पता": 1285,
      "समर्थ": 1286,
      "प्रभा": 1287,
      "बनाया": 1288,
      "ंदर": 1289,
      "उपलब्ध": 1290,
      "द्धा": 1291,
      "मदद": 1292,
      "एँ": 1293,
      "दाय": 1294,
      "रोक": 1295,
      "युवा": 1296,
      "साहित्य": 1297,
      "बुधवार": 1298,
      "महिलाओं": 1299,
      "मैंने": 1300,
      "अगर": 1301,
      "गति": 1302,
      "सीट": 1303,
      "बोर्ड": 1304,
      "ंचा": 1305,
      "वेदन": 1306,
      "नजर": 1307,
      "धर्म": 1308,
      "१४": 1309,
      "यां": 1310,
      "सुविधा": 1311,
      "र्फ": 1312,
      "धु": 1313,
      "लाइ": 1314,
      "्त": 1315,
      "श्रे": 1316,
      "मान्य": 1317,
      "खिलाड़ी": 1318,
      "रण": 1319,
      "धिकारी": 1320,
      "जाती": 1321,
      "आगे": 1322,
      "मृ": 1323,
      "रहने": 1324,
      "टिंग": 1325,
      "१६": 1326,
      "सहयोग": 1327,
      "ंभ": 1328,
      "वायर": 1329,
      "बनी": 1330,
      "कश्": 1331,
      "आपको": 1332,
      "तौर": 1333,
      "कद": 1334,
      "रेलवे": 1335,
      "सिक": 1336,
      "प्रबंध": 1337,
      "१९८": 1338,
      "सांसद": 1339,
      "समी": 1340,
      "शनिवार": 1341,
      "ियां": 1342,
      "ेंट": 1343,
      "संस्": 1344,
      "करती": 1345,
      "स्टेशन": 1346,
      "रखा": 1347,
      "लगाया": 1348,
      "नेशन": 1349,
      "लख": 1350,
      "मार्च": 1351,
      "पिता": 1352,
      "कराने": 1353,
      "ष्ण": 1354,
      "राजस्थान": 1355,
      "युव": 1356,
      "लिये": 1357,
      "लर": 1358,
      "सीसी": 1359,
      "बड़े": 1360,
      "दुर्": 1361,
      "उच्च": 1362,
      "शिकायत": 1363,
      "गाँ": 1364,
      "१७": 1365,
      "२५": 1366,
      "डर": 1367,
      "ट्रो": 1368,
      "निर्वा": 1369,
      "कट": 1370,
      "ब्रि": 1371,
      "यूनि": 1372,
      "इसलिए": 1373,
      "बड़ा": 1374,
      "माध्यम": 1375,
      "र्ष": 1376,
      "इंडिया": 1377,
      "विदेश": 1378,
      "पॉ": 1379,
      "मियों": 1380,
      "एक्स": 1381,
      "पानी": 1382,
      "विज्ञान": 1383,
      "राब": 1384,
      "स्टर": 1385,
      "चारियों": 1386,
      "उत्तरा": 1387,
      "स्तु": 1388,
      "सफल": 1389,
      "मना": 1390,
      "वादी": 1391,
      "रविवार": 1392,
      "क्शन": 1393,
      "पुरा": 1394,
      "संबंधित": 1395,
      "कर्मचारियों": 1396,
      "सुन": 1397,
      "लाभ": 1398,
      "संस्थान": 1399,
      "ैल": 1400,
      "नव": 1401,
      "शिया": 1402,
      "बिज": 1403,
      "थम": 1404,
      "मिलने": 1405,
      "उद्": 1406,
      "मही": 1407,
      "खरी": 1408,
      "सिटी": 1409,
      "लगभग": 1410,
      "जगह": 1411,
      "हाथ": 1412,
      "यहाँ": 1413,
      "मनो": 1414,
      "मरीज": 1415,
      "मुंबई": 1416,
      "प्रकार": 1417,
      "सीएम": 1418,
      "डीएम": 1419,
      "लक": 1420,
      "अफ": 1421,
      "सिद्ध": 1422,
      "वाप": 1423,
      "तों": 1424,
      "प्रयास": 1425,
      "एसपी": 1426,
      "अवसर": 1427,
      "संगठन": 1428,
      "ह्": 1429,
      "सूची": 1430,
      "िकल": 1431,
      "त्ता": 1432,
      "बने": 1433,
      "प्रतियोग": 1434,
      "ंति": 1435,
      "तन": 1436,
      "केन्द्र": 1437,
      "कहना": 1438,
      "स्थल": 1439,
      "हमें": 1440,
      "ऐसा": 1441,
      "दों": 1442,
      "्व": 1443,
      "कू": 1444,
      "अप्र": 1445,
      "गर्": 1446,
      "लक्ष": 1447,
      "हमारे": 1448,
      "उत्पा": 1449,
      "छोड़": 1450,
      "आया": 1451,
      "जनवरी": 1452,
      "सीमा": 1453,
      "लिख": 1454,
      "दें": 1455,
      "जिम्": 1456,
      "प्रक्रिया": 1457,
      "२२": 1458,
      "समेत": 1459,
      "भव": 1460,
      "लगातार": 1461,
      "ानि": 1462,
      "लगे": 1463,
      "ंडे": 1464,
      "ल्स": 1465,
      "गाँव": 1466,
      "श्वर": 1467,
      "सदी": 1468,
      "ट्रा": 1469,
      "प्रभारी": 1470,
      "पंजा": 1471,
      "आम": 1472,
      "प्रतिशत": 1473,
      "उपयोग": 1474,
      "छात्रों": 1475,
      "पड़ा": 1476,
      "स्पे": 1477,
      "खान": 1478,
      "कश्मीर": 1479,
      "जवा": 1480,
      "कोविड": 1481,
      "विधि": 1482,
      "जीव": 1483,
      "पूरे": 1484,
      "मेरे": 1485,
      "उम्मीदवार": 1486,
      "रिक": 1487,
      "प्रतिनिधि": 1488,
      "नारा": 1489,
      "विचार": 1490,
      "भर्": 1491,
      "हॉ": 1492,
      "सात": 1493,
      "ृह": 1494,
      "बचा": 1495,
      "मंत्रा": 1496,
      "फ़िल्म": 1497,
      "जेपी": 1498,
      "देते": 1499,
      "साद": 1500,
      "ध्यान": 1501,
      "वहां": 1502,
      "२०१९": 1503,
      "चुके": 1504,
      "जल्द": 1505,
      "क्ता": 1506,
      "वरि": 1507,
      "समझ": 1508,
      "वीडियो": 1509,
      "परिषद": 1510,
      "मण": 1511,
      "वालों": 1512,
      "ब्रा": 1513,
      "नरेंद्र": 1514,
      "क्षेत्रों": 1515,
      "आवश्य": 1516,
      "जिक": 1517,
      "कभी": 1518,
      "चंद्र": 1519,
      "वीर": 1520,
      "ोह": 1521,
      "स्थानीय": 1522,
      "प्रस्ता": 1523,
      "वर्तमान": 1524,
      "चर्चा": 1525,
      "मॉ": 1526,
      "फॉ": 1527,
      "तना": 1528,
      "१३": 1529,
      "राव": 1530,
      "प्रथम": 1531,
      "गीत": 1532,
      "होना": 1533,
      "र्जी": 1534,
      "उल्": 1535,
      "बाज": 1536,
      "मामला": 1537,
      "उसकी": 1538,
      "सड़क": 1539,
      "इस्ते": 1540,
      "धे": 1541,
      "इस्तेमाल": 1542,
      "हत्या": 1543,
      "विजय": 1544,
      "दर्श": 1545,
      "परेश": 1546,
      "मंत्रालय": 1547,
      "कं": 1548,
      "ज्य": 1549,
      "देवी": 1550,
      "इतिहा": 1551,
      "वार्": 1552,
      "बाव": 1553,
      "गुरुवार": 1554,
      "प्रदान": 1555,
      "हारे": 1556,
      "इतिहास": 1557,
      "स्ट्रेलिया": 1558,
      "चलते": 1559,
      "दीप": 1560,
      "केवल": 1561,
      "अहम": 1562,
      "भावना": 1563,
      "मीटर": 1564,
      "संवाद": 1565,
      "कुर": 1566,
      "कृषि": 1567,
      "करके": 1568,
      "दिवस": 1569,
      "जिससे": 1570,
      "आद": 1571,
      "भर्ती": 1572,
      "पेश": 1573,
      "बर्": 1574,
      "माना": 1575,
      "महत्वपूर्ण": 1576,
      "समू": 1577,
      "मता": 1578,
      "लॉक": 1579,
      "मिश्र": 1580,
      "दूसरी": 1581,
      "शाह": 1582,
      "२४": 1583,
      "नल": 1584,
      "मुद्": 1585,
      "वरिष्ठ": 1586,
      "राशि": 1587,
      "करवा": 1588,
      "म्प": 1589,
      "जुलाई": 1590,
      "माह": 1591,
      "शुरुआत": 1592,
      "महाराष्ट्र": 1593,
      "अच्छा": 1594,
      "नु": 1595,
      "प्ले": 1596,
      "समु": 1597,
      "सील": 1598,
      "टिव": 1599,
      "अक्टू": 1600,
      "तह": 1601,
      "बनाए": 1602,
      "अक्टूबर": 1603,
      "हरिया": 1604,
      "देशों": 1605,
      "ज़िले": 1606,
      "काउ": 1607,
      "ल्या": 1608,
      "केश": 1609,
      "ंज": 1610,
      "छात्रा": 1611,
      "भाई": 1612,
      "त्रियों": 1613,
      "ऑन": 1614,
      "मेड": 1615,
      "कप": 1616,
      "बिना": 1617,
      "प्रशि": 1618,
      "पश्चिम": 1619,
      "हिस्सा": 1620,
      "निगम": 1621,
      "ेक": 1622,
      "आवेदन": 1623,
      "तिम": 1624,
      "कीय": 1625,
      "वर्ग": 1626,
      "एयर": 1627,
      "१९७": 1628,
      "चान": 1629,
      "निश्": 1630,
      "टिक": 1631,
      "लाने": 1632,
      "लिका": 1633,
      "अप्रैल": 1634,
      "ताप": 1635,
      "प्रसाद": 1636,
      "बंगा": 1637,
      "घोषणा": 1638,
      "बच्": 1639,
      "रखने": 1640,
      "निरी": 1641,
      "अल": 1642,
      "टै": 1643,
      "चारी": 1644,
      "त्मक": 1645,
      "जन्मे": 1646,
      "लोकसभा": 1647,
      "प्रतियोगिता": 1648,
      "पंजाब": 1649,
      "घु": 1650,
      "तृत्व": 1651,
      "जाते": 1652,
      "धानी": 1653,
      "थीं": 1654,
      "अमेरिकी": 1655,
      "आयोग": 1656,
      "शक्ति": 1657,
      "वजह": 1658,
      "ुष": 1659,
      "माता": 1660,
      "हुल": 1661,
      "बाजी": 1662,
      "लिंग": 1663,
      "व्यापार": 1664,
      "नेताओं": 1665,
      "पण": 1666,
      "ज़ा": 1667,
      "तत्": 1668,
      "आइ": 1669,
      "भूमिका": 1670,
      "प्रेस": 1671,
      "्स": 1672,
      "चार्य": 1673,
      "लत": 1674,
      "तुम्हारे": 1675,
      "रल": 1676,
      "स्टा": 1677,
      "सामा": 1678,
      "वरण": 1679,
      "फोन": 1680,
      "रोड": 1681,
      "ज़िला": 1682,
      "रुपए": 1683,
      "शाम": 1684,
      "लखन": 1685,
      "अंतिम": 1686,
      "ष्टि": 1687,
      "नेतृत्व": 1688,
      "र्य": 1689,
      "स्थापित": 1690,
      "महीने": 1691,
      "प्रवेश": 1692,
      "ंदो": 1693,
      "सम्मानित": 1694,
      "फु": 1695,
      "पहुंचा": 1696,
      "चिकित्सा": 1697,
      "स्कू": 1698,
      "२०२१": 1699,
      "यता": 1700,
      "गयी": 1701,
      "र्गत": 1702,
      "कार्ड": 1703,
      "मोह": 1704,
      "अगस्त": 1705,
      "गें": 1706,
      "अर": 1707,
      "जाएंगे": 1708,
      "ंकन": 1709,
      "राजनीतिक": 1710,
      "एजें": 1711,
      "बीजेपी": 1712,
      "न्होंने": 1713,
      "भीर": 1714,
      "कर्मियों": 1715,
      "मां": 1716,
      "उसने": 1717,
      "जिम्मे": 1718,
      "कानून": 1719,
      "मेडिकल": 1720,
      "पदा": 1721,
      "साय": 1722,
      "निजी": 1723,
      "अग्र": 1724,
      "बेहतर": 1725,
      "णाम": 1726,
      "दाता": 1727,
      "जनों": 1728,
      "सितंबर": 1729,
      "बिजली": 1730,
      "लौ": 1731,
      "किल": 1732,
      "बाल": 1733,
      "ऑस्ट्रेलिया": 1734,
      "बयान": 1735,
      "जाम": 1736,
      "धारा": 1737,
      "छह": 1738,
      "निर्वाचन": 1739,
      "ंटे": 1740,
      "कौ": 1741,
      "तेज": 1742,
      "सामाजिक": 1743,
      "पहला": 1744,
      "निका": 1745,
      "फैसला": 1746,
      "खुद": 1747,
      "जाति": 1748,
      "ंख": 1749,
      "भेज": 1750,
      "भवन": 1751,
      "गरी": 1752,
      "वार्ड": 1753,
      "िका": 1754,
      "दिसं": 1755,
      "२०२०": 1756,
      "परिणाम": 1757,
      "दिसंबर": 1758,
      "आर्थ": 1759,
      "बित": 1760,
      "जून": 1761,
      "अर्थ": 1762,
      "जिसे": 1763,
      "वु": 1764,
      "लान": 1765,
      "नेशनल": 1766,
      "२०१८": 1767,
      "राहुल": 1768,
      "जबू": 1769,
      "भगवान": 1770,
      "मजबू": 1771,
      "क्रा": 1772,
      "रों": 1773,
      "आंदो": 1774,
      "द्धि": 1775,
      "लखनऊ": 1776,
      "एड": 1777,
      "वापस": 1778,
      "अदा": 1779,
      "टाइ": 1780,
      "टने": 1781,
      "एंड": 1782,
      "कर्मचारी": 1783,
      "गंभीर": 1784,
      "ंगी": 1785,
      "अंतरराष्ट्रीय": 1786,
      "नदी": 1787,
      "स्त्र": 1788,
      "फाइन": 1789,
      "टेड": 1790,
      "निर्ण": 1791,
      "पालन": 1792,
      "कोशि": 1793,
      "निश्चित": 1794,
      "शान": 1795,
      "रिक्त": 1796,
      "समार": 1797,
      "किंग": 1798,
      "अंग्रे": 1799,
      "हासिल": 1800,
      "सिंग": 1801,
      "निदेश": 1802,
      "लगाने": 1803,
      "तब": 1804,
      "जरूरत": 1805,
      "हरियाणा": 1806,
      "नंबर": 1807,
      "प्रयोग": 1808,
      "चरण": 1809,
      "ंडा": 1810,
      "मुला": 1811,
      "गंज": 1812,
      "नामा": 1813,
      "नियों": 1814,
      "गृह": 1815,
      "कले": 1816,
      "प्रत्य": 1817,
      "कोशिश": 1818,
      "च्छ": 1819,
      "रिंग": 1820,
      "तहसील": 1821,
      "पीएम": 1822,
      "प्राथ": 1823,
      "वायरस": 1824,
      "जाय": 1825,
      "टीवी": 1826,
      "स्थापना": 1827,
      "शास": 1828,
      "जम्": 1829,
      "वॉ": 1830,
      "हूं": 1831,
      "वारी": 1832,
      "श्रद्धा": 1833,
      "सियों": 1834,
      "जमा": 1835,
      "आंदोलन": 1836,
      "विस्त": 1837,
      "पुत्र": 1838,
      "आर्थिक": 1839,
      "गुज": 1840,
      "क्री": 1841,
      "न्यायालय": 1842,
      "झार": 1843,
      "होकर": 1844,
      "वैक्सी": 1845,
      "परियोजना": 1846,
      "पर्य": 1847,
      "राज्यों": 1848,
      "नियंत्र": 1849,
      "१९६": 1850,
      "निर्णय": 1851,
      "ऑनलाइन": 1852,
      "ार्थियों": 1853,
      "उपस्थित": 1854,
      "अपरा": 1855,
      "संस्था": 1856,
      "संर": 1857,
      "शै": 1858,
      "२३": 1859,
      "डॉक्टर": 1860,
      "ड्र": 1861,
      "डाउन": 1862,
      "इक": 1863,
      "हान": 1864,
      "छी": 1865,
      "ग्रे": 1866,
      "मार्ट": 1867,
      "फ्री": 1868,
      "आरोपी": 1869,
      "र्ना": 1870,
      "मैन": 1871,
      "द्वि": 1872,
      "समारोह": 1873,
      "ड़ियों": 1874,
      "आन": 1875,
      "प्रभावित": 1876,
      "सीबी": 1877,
      "समूह": 1878,
      "खबर": 1879,
      "चित्र": 1880,
      "तरफ": 1881,
      "जम्मू": 1882,
      "उत्तराखंड": 1883,
      "प्रस्ताव": 1884,
      "न्ना": 1885,
      "जीवित": 1886,
      "एक्": 1887,
      "जित": 1888,
      "राजधानी": 1889,
      "फरवरी": 1890,
      "जरि": 1891,
      "पीड़": 1892,
      "यूपी": 1893,
      "बंगाल": 1894,
      "कालीन": 1895,
      "समर्थन": 1896,
      "सूत्र": 1897,
      "सिर्फ": 1898,
      "टेल": 1899,
      "सवाल": 1900,
      "मई": 1901,
      "म्स": 1902,
      "नै": 1903,
      "विवाद": 1904,
      "जता": 1905,
      "संक्रमण": 1906,
      "वेब": 1907,
      "कत": 1908,
      "रॉ": 1909,
      "आस": 1910,
      "कार्यकर्ताओं": 1911,
      "पाठ": 1912,
      "उद्योग": 1913,
      "देखते": 1914,
      "नवं": 1915,
      "रं": 1916,
      "वास्त": 1917,
      "आग": 1918,
      "नवंबर": 1919,
      "दुकान": 1920,
      "सोशल": 1921,
      "वक्ता": 1922,
      "गुप्ता": 1923,
      "ट्रै": 1924,
      "कृष्ण": 1925,
      "परिसर": 1926,
      "दृ": 1927,
      "काब": 1928,
      "रक्षा": 1929,
      "१००": 1930,
      "चुकी": 1931,
      "मीन": 1932,
      "पर्या": 1933,
      "पोस्ट": 1934,
      "तारी": 1935,
      "लें": 1936,
      "हाद": 1937,
      "जैन": 1938,
      "पत्नी": 1939,
      "संगीत": 1940,
      "नीय": 1941,
      "पल": 1942,
      "नियर": 1943,
      "पूर": 1944,
      "साइट": 1945,
      "वुड": 1946,
      "सर्व": 1947,
      "यारी": 1948,
      "खी": 1949,
      "टीका": 1950,
      "क्षकों": 1951,
      "तरण": 1952,
      "धरी": 1953,
      "ख्": 1954,
      "द्वी": 1955,
      "मेरी": 1956,
      "डु": 1957,
      "ल्ला": 1958,
      "हिमा": 1959,
      "ंडी": 1960,
      "आठ": 1961,
      "िश": 1962,
      "ंदा": 1963,
      "शाला": 1964,
      "वाहन": 1965,
      "मोबा": 1966,
      "स्वतंत्र": 1967,
      "सव": 1968,
      "जवाब": 1969,
      "थो": 1970,
      "सेंटर": 1971,
      "तैना": 1972,
      "परे": 1973,
      "हिंद": 1974,
      "उसका": 1975,
      "रहेगा": 1976,
      "ट्रेन": 1977,
      "२६": 1978,
      "रोजग": 1979,
      "ज़ी": 1980,
      "जुड़े": 1981,
      "कारो": 1982,
      "घंटे": 1983,
      "शिक्षक": 1984,
      "ट्री": 1985,
      "प्रार": 1986,
      "कमे": 1987,
      "गौ": 1988,
      "कारों": 1989,
      "ताकि": 1990,
      "छत्": 1991,
      "अतिरिक्त": 1992,
      "जोर": 1993,
      "तला": 1994,
      "गौर": 1995,
      "गये": 1996,
      "देखा": 1997,
      "स्टी": 1998,
      "हटा": 1999,
      "टूर्ना": 2000,
      "सदस्यों": 2001,
      "निवेश": 2002,
      "पुरुष": 2003,
      "मिशन": 2004,
      "वैज्ञान": 2005,
      "प्रशिक्षण": 2006,
      "पौ": 2007,
      "मति": 2008,
      "संभा": 2009,
      "छत्तीस": 2010,
      "वैज्ञानिक": 2011,
      "लागू": 2012,
      "मुख्यालय": 2013,
      "वाही": 2014,
      "समीक्षा": 2015,
      "दियों": 2016,
      "यण": 2017,
      "मरीजों": 2018,
      "टूर्नामेंट": 2019,
      "चौधरी": 2020,
      "कमी": 2021,
      "यद": 2022,
      "मोबाइल": 2023,
      "मिलेगा": 2024,
      "जेल": 2025,
      "करेगा": 2026,
      "भ्र": 2027,
      "पड़े": 2028,
      "प्राथमिक": 2029,
      "विमान": 2030,
      "मुकाब": 2031,
      "सामान्य": 2032,
      "देना": 2033,
      "टॉ": 2034,
      "चुका": 2035,
      "गेंद": 2036,
      "पाए": 2037,
      "तैयारी": 2038,
      "देकर": 2039,
      "छत्तीसगढ़": 2040,
      "लगी": 2041,
      "४०": 2042,
      "कारा": 2043,
      "वां": 2044,
      "फाई": 2045,
      "ष्ट्रीय": 2046,
      "तस्वी": 2047,
      "झारखंड": 2048,
      "प्रत्या": 2049,
      "आतंक": 2050,
      "जों": 2051,
      "न्याय": 2052,
      "अधी": 2053,
      "दिग्": 2054,
      "लगता": 2055,
      "मतदान": 2056,
      "सुधार": 2057,
      "मैदान": 2058,
      "चिका": 2059,
      "आपके": 2060,
      "्राष्ट्रीय": 2061,
      "शोक": 2062,
      "२८": 2063,
      "शांति": 2064,
      "प्ला": 2065,
      "अगले": 2066,
      "दिशा": 2067,
      "ट्टी": 2068,
      "दास": 2069,
      "ंग्ला": 2070,
      "कवि": 2071,
      "ढा": 2072,
      "र्च": 2073,
      "रन": 2074,
      "इंग्": 2075,
      "लीवुड": 2076,
      "सप्ता": 2077,
      "जाग": 2078,
      "खिल": 2079,
      "ंखला": 2080,
      "िकी": 2081,
      "बांग्ला": 2082,
      "यदि": 2083,
      "पूजा": 2084,
      "बल्ले": 2085,
      "कोल": 2086,
      "रंग": 2087,
      "निर्धार": 2088,
      "किलो": 2089,
      "ठीक": 2090,
      "लास": 2091,
      "चाहते": 2092,
      "अली": 2093,
      "अन्": 2094,
      "उम": 2095,
      "सहायक": 2096,
      "रज": 2097,
      "नाटक": 2098,
      "आयु": 2099,
      "सीय": 2100,
      "फाइनल": 2101,
      "र्ति": 2102,
      "इड": 2103,
      "निदेशक": 2104,
      "याचिका": 2105,
      "ऐसी": 2106,
      "क्रे": 2107,
      "पर्क": 2108,
      "तय": 2109,
      "लाया": 2110,
      "इट": 2111,
      "बुल": 2112,
      "अंतर्गत": 2113,
      "ील": 2114,
      "दस": 2115,
      "सार्": 2116,
      "स्टि": 2117,
      "मामलों": 2118,
      "कंपनियों": 2119,
      "ारा": 2120,
      "तिक": 2121,
      "युद्ध": 2122,
      "ग्रामीणों": 2123,
      "करेगी": 2124,
      "स्वामी": 2125,
      "टों": 2126,
      "पढ़ा": 2127,
      "र्क": 2128,
      "२७": 2129,
      "पुन": 2130,
      "पहुंची": 2131,
      "अभिने": 2132,
      "ठाकुर": 2133,
      "ित्य": 2134,
      "बच्चे": 2135,
      "रें": 2136,
      "खू": 2137,
      "प्रसिद्ध": 2138,
      "कल्या": 2139,
      "भेजा": 2140,
      "जम": 2141,
      ")।": 2142,
      "डाय": 2143,
      "योगी": 2144,
      "युवक": 2145,
      "शब्": 2146,
      "लिखा": 2147,
      "काद": 2148,
      "सत्र": 2149,
      "लेक्": 2150,
      "रोजगार": 2151,
      "लना": 2152,
      "निधन": 2153,
      "मुस्": 2154,
      "ृंखला": 2155,
      "देखने": 2156,
      "स्ती": 2157,
      "जागर": 2158,
      "इलाज": 2159,
      "जॉ": 2160,
      "न्द": 2161,
      "घोषित": 2162,
      "हमला": 2163,
      "कात": 2164,
      "शील": 2165,
      "निंग": 2166,
      "बावजूद": 2167,
      "पथ": 2168,
      "ल्क": 2169,
      "अदालत": 2170,
      "स्कूलों": 2171,
      "प्रभाव": 2172,
      "जवान": 2173,
      "कृतिक": 2174,
      "शादी": 2175,
      "फाय": 2176,
      "फ्ट": 2177,
      "वैध": 2178,
      "सप्ताह": 2179,
      "तुम्हारी": 2180,
      "द्वीप": 2181,
      "कहते": 2182,
      "सले": 2183,
      "न्य": 2184,
      "जिसका": 2185,
      "पहचान": 2186,
      "गुजरात": 2187,
      "ठे": 2188,
      "कल्याण": 2189,
      "ोर": 2190,
      "नया": 2191,
      "संजय": 2192,
      "हमे": 2193,
      "मल": 2194,
      "जरी": 2195,
      "मोहन": 2196,
      "कदम": 2197,
      "लयों": 2198,
      "दिवसीय": 2199,
      "एशिया": 2200,
      "नामांकन": 2201,
      "उंड": 2202,
      "संबो": 2203,
      "तकनी": 2204,
      "अध्य": 2205,
      "),": 2206,
      "मरा": 2207,
      "राजा": 2208,
      "२०१४": 2209,
      "कप्त": 2210,
      "१९५": 2211,
      "पुस्त": 2212,
      "धिकारिक": 2213,
      "पन्न": 2214,
      "ऑफि": 2215,
      "खर": 2216,
      "०००": 2217,
      "मिन": 2218,
      "निरीक्षण": 2219,
      "बारी": 2220,
      "निकाल": 2221,
      "तियों": 2222,
      "क्रो": 2223,
      "थाने": 2224,
      "सिस्ट": 2225,
      "इनमें": 2226,
      "आधिकारिक": 2227,
      "संदर्भ": 2228,
      "किये": 2229,
      "अच्छी": 2230,
      "र्जा": 2231,
      "खरीद": 2232,
      "बनने": 2233,
      "कार्यकर्ता": 2234,
      "घायल": 2235,
      "२०१७": 2236,
      "प्रबंधन": 2237,
      "रोग": 2238,
      "मुलाकात": 2239,
      "अभिनेत्री": 2240,
      "शिक्षकों": 2241,
      "ारे": 2242,
      "भोपाल": 2243,
      "ज्ञापन": 2244,
      "पसं": 2245,
      "इंत": 2246,
      "बदला": 2247,
      "बल्कि": 2248,
      "वैक्सीन": 2249,
      "संक्रमित": 2250,
      "हमेशा": 2251,
      "हरि": 2252,
      "छु": 2253,
      "सुप्री": 2254,
      "चले": 2255,
      "कमेटी": 2256,
      "पें": 2257,
      "वायु": 2258,
      "अनुमति": 2259,
      "अभिनेता": 2260,
      "सुनवाई": 2261,
      "ड्रा": 2262,
      "सुरक्षित": 2263,
      "फीसदी": 2264,
      "शरी": 2265,
      "इन्": 2266,
      "स्वयं": 2267,
      "इस्ला": 2268,
      "व्": 2269,
      "शंकर": 2270,
      "सागर": 2271,
      "पृ": 2272,
      "वित्त": 2273,
      "जरूरी": 2274,
      "डिग्री": 2275,
      "ज़्यादा": 2276,
      "एशन": 2277,
      "दिल": 2278,
      "गैर": 2279,
      "दवा": 2280,
      "इंजी": 2281,
      "चीत": 2282,
      "आर्": 2283,
      "ट्रॉ": 2284,
      "वाज": 2285,
      "अंतर्राष्ट्रीय": 2286,
      "देर": 2287,
      "विश्वास": 2288,
      "तमिल": 2289,
      "हड़": 2290,
      "मानव": 2291,
      "ंसा": 2292,
      "राज्यपाल": 2293,
      "प्रत्येक": 2294,
      "वर्ण": 2295,
      "तोड़": 2296,
      "प्रस्तु": 2297,
      "स्वागत": 2298,
      "बांग्लादेश": 2299,
      "फार्": 2300,
      "पूर्ति": 2301,
      "कमा": 2302,
      "र्न": 2303,
      "ग़": 2304,
      "शांत": 2305,
      "हमारी": 2306,
      "लगाए": 2307,
      "टिस": 2308,
      "पीछे": 2309,
      "ब्ल": 2310,
      "बारा": 2311,
      "ण्": 2312,
      "सही": 2313,
      "जमीन": 2314,
      "मज": 2315,
      "लियों": 2316,
      "वेद": 2317,
      "बातचीत": 2318,
      "संपर्क": 2319,
      "स्ट्री": 2320,
      "लिम": 2321,
      "छोटे": 2322,
      "मुश्": 2323,
      "टेन": 2324,
      "आवश्यक": 2325,
      "हिक": 2326,
      "पुरी": 2327,
      "धो": 2328,
      "शिप": 2329,
      "त्रीय": 2330,
      "सहायता": 2331,
      "वर्मा": 2332,
      "दीन": 2333,
      "कर्मी": 2334,
      "फोटो": 2335,
      "२०१६": 2336,
      "पांडे": 2337,
      "कैसे": 2338,
      "यूनिवर्": 2339,
      "जरिए": 2340,
      "परेशान": 2341,
      "जाये": 2342,
      "वेबसाइट": 2343,
      "कल्प": 2344,
      "यात": 2345,
      "गंगा": 2346,
      "न्स": 2347,
      "संभावना": 2348,
      "शेयर": 2349,
      "पूछ": 2350,
      "चार्": 2351,
      "ंकी": 2352,
      "तैनात": 2353,
      "२९": 2354,
      "प्रचार": 2355,
      "चंद": 2356,
      "साह": 2357,
      "भागी": 2358,
      "महामारी": 2359,
      "खास": 2360,
      "विषय": 2361,
      "केशन": 2362,
      "सम्मे": 2363,
      "कराई": 2364,
      "चौहान": 2365,
      "मेरा": 2366,
      "इंग्लैंड": 2367,
      "वाना": 2368,
      "जाकर": 2369,
      "निर्धारित": 2370,
      "केस": 2371,
      "विजे": 2372,
      "आईपी": 2373,
      "त्ति": 2374,
      "मिश्रा": 2375,
      "टेली": 2376,
      "देश्य": 2377,
      "दय": 2378,
      "कक्षा": 2379,
      "बॉलीवुड": 2380,
      "अध्ययन": 2381,
      "बच": 2382,
      "विस्तार": 2383,
      "ब्यू": 2384,
      "म्मद": 2385,
      "सुपर": 2386,
      "कार्यों": 2387,
      "यही": 2388,
      "रहते": 2389,
      "बदल": 2390,
      "घाट": 2391,
      "सार्वज": 2392,
      "श्रेणी": 2393,
      "एसो": 2394,
      "सार्वजनिक": 2395,
      "प्रसार": 2396,
      "अग्रवाल": 2397,
      "अनि": 2398,
      "विर": 2399,
      "पहर": 2400,
      "डिंग": 2401,
      "अवैध": 2402,
      "ार्थी": 2403,
      "वेस्ट": 2404,
      "अफ्री": 2405,
      "इनके": 2406,
      "जागरू": 2407,
      "हमले": 2408,
      "पित": 2409,
      "नय": 2410,
      "शराब": 2411,
      "पियन": 2412,
      "पटेल": 2413,
      "तिवारी": 2414,
      "लक्ष्य": 2415,
      "सम्मेलन": 2416,
      "स्तानी": 2417,
      "सुनी": 2418,
      "जर्": 2419,
      "निकल": 2420,
      "स्मार्ट": 2421,
      "संचालन": 2422,
      "शुल्क": 2423,
      "युक्ति": 2424,
      "बन्": 2425,
      "दोपहर": 2426,
      "ट्रोल": 2427,
      "मक": 2428,
      "डियम": 2429,
      "हिमाचल": 2430,
      "एक्सप्रेस": 2431,
      "बौ": 2432,
      "पट": 2433,
      "उद्देश्य": 2434,
      "अध्यक्षता": 2435,
      "इंडि": 2436,
      "सफाई": 2437,
      "घे": 2438,
      "कलेक्टर": 2439,
      "सफलता": 2440,
      "तरीके": 2441,
      "ुप": 2442,
      "धिक": 2443,
      "ार्ड": 2444,
      "भुगत": 2445,
      "मुस्लिम": 2446,
      "अशोक": 2447,
      "ूप": 2448,
      "विष्य": 2449,
      "आधारित": 2450,
      "इलाके": 2451,
      "दूसरा": 2452,
      "अकाद": 2453,
      "एसोसि": 2454,
      "नॉ": 2455,
      "भविष्य": 2456,
      "आवास": 2457,
      "स्ते": 2458,
      "सामना": 2459,
      "बद्ध": 2460,
      "जिलों": 2461,
      "ंता": 2462,
      "दाबाद": 2463,
      "मेर": 2464,
      "उपाध्यक्ष": 2465,
      "पाया": 2466,
      "विकेट": 2467,
      "प्य": 2468,
      "खण्ड": 2469,
      "जैसी": 2470,
      "माने": 2471,
      "प्रणा": 2472,
      "संबोधित": 2473,
      "ुत": 2474,
      "लेश": 2475,
      "क्षमता": 2476,
      "यात्रियों": 2477,
      "ड्यू": 2478,
      "हेतु": 2479,
      "दिख": 2480,
      "अमित": 2481,
      "सिया": 2482,
      "सौं": 2483,
      "सुप्रीम": 2484,
      "बढ़ाने": 2485,
      "गतिविधि": 2486,
      "नारायण": 2487,
      "रानी": 2488,
      "ंडर": 2489,
      "वहन": 2490,
      "पंच": 2491,
      "म्बर": 2492,
      "प्राइ": 2493,
      "३१": 2494,
      "बंधन": 2495,
      "यूनिवर्सिटी": 2496,
      "ट्यू": 2497,
      "सुनिश्चित": 2498,
      "मंजू": 2499,
      "धीश": 2500,
      "वास्तव": 2501,
      "गोल": 2502,
      "नुक": 2503,
      "रजि": 2504,
      "चाहता": 2505,
      "नियंत्रण": 2506,
      "घन": 2507,
      "सों": 2508,
      "मजबूत": 2509,
      "कप्तान": 2510,
      "पसंद": 2511,
      "ृत": 2512,
      "खिलाड़ियों": 2513,
      "अंदर": 2514,
      "विद्यार्थियों": 2515,
      "सलाह": 2516,
      "बनाई": 2517,
      "आगा": 2518,
      "पात": 2519,
      "ँच": 2520,
      "वनी": 2521,
      "लीग": 2522,
      "पटना": 2523,
      "रिश्": 2524,
      "निश": 2525,
      "संवाददाता": 2526,
      "असल": 2527,
      "शव": 2528,
      "चक": 2529,
      "मिलेगी": 2530,
      "श्रृंखला": 2531,
      "कीमत": 2532,
      "चयन": 2533,
      "रिकॉ": 2534,
      "गार": 2535,
      "नुकसान": 2536,
      "बज": 2537,
      "आईटी": 2538,
      "बेहद": 2539,
      "वितरण": 2540,
      "आदित्य": 2541,
      "मिलकर": 2542,
      "कित": 2543,
      "प्रतिबंध": 2544,
      "जोड़": 2545,
      "ूँ": 2546,
      "ूड": 2547,
      "पत्ति": 2548,
      "ओल": 2549,
      "कड़ी": 2550,
      "प्रताप": 2551,
      "कही": 2552,
      "पारी": 2553,
      "शीर्ष": 2554,
      "किलोमीटर": 2555,
      "विपक्ष": 2556,
      "वारा": 2557,
      "लक्ष्": 2558,
      "दिखाई": 2559,
      "उन्": 2560,
      "वासियों": 2561,
      "दावा": 2562,
      "बारिश": 2563,
      "लंका": 2564,
      "किशो": 2565,
      "साफ": 2566,
      "कहीं": 2567,
      "सरा": 2568,
      "वर्षीय": 2569,
      "इलेक्": 2570,
      "उल्लेख": 2571,
      "लिस्ट": 2572,
      "सुना": 2573,
      "फिल": 2574,
      "रहेंगे": 2575,
      "ग्रहण": 2576,
      "अल्": 2577,
      "भीड़": 2578,
      "शायद": 2579,
      "स्टार": 2580,
      "गुण": 2581,
      "चुनौ": 2582,
      "लड़ा": 2583,
      "वर्तन": 2584,
      "संस्कृति": 2585,
      "ानिस्तान": 2586,
      "बाग": 2587,
      "वधान": 2588,
      "राहत": 2589,
      "नियुक्त": 2590,
      "शू": 2591,
      "आखि": 2592,
      "प्रारंभ": 2593,
      "कपूर": 2594,
      "प्रेम": 2595,
      "क्लब": 2596,
      "अकादमी": 2597,
      "फ़ी": 2598,
      "जिम्मेदारी": 2599,
      "छि": 2600,
      "सेन": 2601,
      "आती": 2602,
      "व्यक्त": 2603,
      "प्रेर": 2604,
      "धार्": 2605,
      "उत्पादन": 2606,
      "दारों": 2607,
      "अपील": 2608,
      "समाप्त": 2609,
      "फ्रा": 2610,
      "तीश": 2611,
      "प्रखंड": 2612,
      "पदक": 2613,
      "पदों": 2614,
      "समान": 2615,
      "पूर्वी": 2616,
      "जिन्होंने": 2617,
      "धार्मिक": 2618,
      "महान": 2619,
      "ट्वी": 2620,
      "रहेगी": 2621,
      "प्रमाण": 2622,
      "कलाकार": 2623,
      "दूरी": 2624,
      "एजेंसी": 2625,
      "रीय": 2626,
      "दश": 2627,
      "विल": 2628,
      "जुर्": 2629,
      "लपुर": 2630,
      "काउं": 2631,
      "मुक्त": 2632,
      "नेपाल": 2633,
      "लॉकडाउन": 2634,
      "यूरो": 2635,
      "माइ": 2636,
      "कोर": 2637,
      "वनडे": 2638,
      "विजेता": 2639,
      "श्रम": 2640,
      "विकसित": 2641,
      "आय": 2642,
      "तेजी": 2643,
      "भुगतान": 2644,
      "खत्म": 2645,
      "षा": 2646,
      "कारोबार": 2647,
      "परिजनों": 2648,
      "नरे": 2649,
      "नागरि": 2650,
      "काता": 2651,
      "मुश्किल": 2652,
      "चाहती": 2653,
      "१९४": 2654,
      "संबंधी": 2655,
      "पद्": 2656,
      "हल": 2657,
      "दोस्त": 2658,
      "अफग": 2659,
      "बिल": 2660,
      "सूत्रों": 2661,
      "मंत्र": 2662,
      "शिविर": 2663,
      "रैली": 2664,
      "उससे": 2665,
      "न्यायाधीश": 2666,
      "प्रणाली": 2667,
      "्यु": 2668,
      "सक्रि": 2669,
      "ूम": 2670,
      "सॉ": 2671,
      "नाइ": 2672,
      "कने": 2673,
      "टी२०": 2674,
      "स्वच्छ": 2675,
      "जागरण": 2676,
      "योजनाओं": 2677,
      "३५": 2678,
      "पदाधिकारी": 2679,
      "एसोसिएशन": 2680,
      "प्रकाशित": 2681,
      "पंजी": 2682,
      "कालेज": 2683,
      "रिकॉर्ड": 2684,
      "बुक": 2685,
      "मुकद": 2686,
      "कब्": 2687,
      "बदलाव": 2688,
      "नियुक्ति": 2689,
      "मला": 2690,
      "मंच": 2691,
      "कोलकाता": 2692,
      "ब्रे": 2693,
      "होम": 2694,
      "विशेषज्ञ": 2695,
      "६०": 2696,
      "पार्ट": 2697,
      "विद्युत": 2698,
      "मौसम": 2699,
      "स्तरीय": 2700,
      "नौकरी": 2701,
      "मनी": 2702,
      "ट्रांस": 2703,
      "छात्राओं": 2704,
      "स्टेडियम": 2705,
      "श्रीलंका": 2706,
      "केटर": 2707,
      "प्रत्याशी": 2708,
      "गोली": 2709,
      "ट्ट": 2710,
      "पीड़ित": 2711,
      "ोग्रा": 2712,
      "भौ": 2713,
      "खुला": 2714,
      "वर्क": 2715,
      "पत्रकार": 2716,
      "ज़रू": 2717,
      "वर्षों": 2718,
      "वाहनों": 2719,
      "स्वतंत्रता": 2720,
      "बीएस": 2721,
      "लगाई": 2722,
      "ख्य": 2723,
      "मात्र": 2724,
      "तेल": 2725,
      "ट्वीट": 2726,
      "ंदगी": 2727,
      "हवाई": 2728,
      "प्रशास": 2729,
      "रखी": 2730,
      "पाई": 2731,
      "दोष": 2732,
      "पालिका": 2733,
      "बेटी": 2734,
      "नियमित": 2735,
      "पान": 2736,
      "शोध": 2737,
      "वृद्धि": 2738,
      "ल्में": 2739,
      "आयुक्त": 2740,
      "करि": 2741,
      "स्थानों": 2742,
      "नू": 2743,
      "शाखा": 2744,
      "इंद": 2745,
      "वती": 2746,
      "टीकाकरण": 2747,
      "इत": 2748,
      "कोत": 2749,
      "पढ़ें": 2750,
      "७०": 2751,
      "निभा": 2752,
      "सीरीज": 2753,
      "अंग्रेजी": 2754,
      "पाकिस्तानी": 2755,
      "रोकने": 2756,
      "क्रिकेटर": 2757,
      "अने": 2758,
      "श्रेष्ठ": 2759,
      "फुट": 2760,
      "हमने": 2761,
      "दौरे": 2762,
      "युवाओं": 2763,
      "समुदाय": 2764,
      "राजमार्ग": 2765,
      "सर्वे": 2766,
      "क्ला": 2767,
      "पर्यावरण": 2768,
      "प्रवक्ता": 2769,
      "अरब": 2770,
      "गड़": 2771,
      "ष्टा": 2772,
      "गठन": 2773,
      "शुभ": 2774,
      "लिमि": 2775,
      "फिलहाल": 2776,
      "श्रद्धालु": 2777,
      "संसद": 2778,
      "ंपिक": 2779,
      "समाचार": 2780,
      "पकड़": 2781,
      "हाईकोर्ट": 2782,
      "कर्नाटक": 2783,
      "तुमने": 2784,
      "बरा": 2785,
      "२०१५": 2786,
      "बिल्": 2787,
      "चू": 2788,
      "बत": 2789,
      "भूषण": 2790,
      "तोष": 2791,
      "शब्द": 2792,
      "अनिल": 2793,
      "टिकट": 2794,
      "आंक": 2795,
      "आश्": 2796,
      "मशी": 2797,
      "करनी": 2798,
      "आते": 2799,
      "पश्चिमी": 2800,
      "अध्या": 2801,
      "इका": 2802,
      "चय": 2803,
      "मंड": 2804,
      "विदेशी": 2805,
      "अथ": 2806,
      "शर": 2807,
      "समस्याओं": 2808,
      "हाउस": 2809,
      "सारी": 2810,
      "आरोपियों": 2811,
      "संचालित": 2812,
      "संग": 2813,
      "अपराध": 2814,
      "नीचे": 2815,
      "नामक": 2816,
      "संघर्ष": 2817,
      "ओवर": 2818,
      "बान": 2819,
      "पीठ": 2820,
      "संत": 2821,
      "क्षेत्रीय": 2822,
      "सपा": 2823,
      "क्यू": 2824,
      "मोहम्मद": 2825,
      "उम्र": 2826,
      "हिन्दू": 2827,
      "सत्ता": 2828,
      "नागरिक": 2829,
      "पढ़ाई": 2830,
      "जमकर": 2831,
      "साध": 2832,
      "हरे": 2833,
      "वंश": 2834,
      "मनाया": 2835,
      "फैसले": 2836,
      "वेतन": 2837,
      "अजय": 2838,
      "तुम्हारा": 2839,
      "वेट": 2840,
      "गाय": 2841,
      "धिकारियों": 2842,
      "आनंद": 2843,
      "मजदूर": 2844,
      "एसडीएम": 2845,
      "आत्म": 2846,
      "आवश्यकता": 2847,
      "नियमों": 2848,
      "अरु": 2849,
      "दरा": 2850,
      "देंगे": 2851,
      "शानदार": 2852,
      "आसपास": 2853,
      "टेक्": 2854,
      "द्वितीय": 2855,
      "वक्त": 2856,
      "अफ्रीका": 2857,
      "अधीक्षक": 2858,
      "योग्य": 2859,
      "श्या": 2860,
      "जनपद": 2861,
      "बाबा": 2862,
      "घाटन": 2863,
      "जिनमें": 2864,
      "बराम": 2865,
      "ंदन": 2866,
      "जिन्हें": 2867,
      "अच्छे": 2868,
      "पूछता": 2869,
      "अब्": 2870,
      "निष्": 2871,
      "शास्त्र": 2872,
      "स्पि": 2873,
      "लिखित": 2874,
      "शही": 2875,
      "परिवहन": 2876,
      "वानी": 2877,
      "ज़र": 2878,
      "चिंता": 2879,
      "डू": 2880,
      "उट": 2881,
      "त्यु": 2882,
      "फ़्": 2883,
      "परीक्षण": 2884,
      "ज्यो": 2885,
      "बाइक": 2886,
      "वेज": 2887,
      "ंसी": 2888,
      "असर": 2889,
      "पार्क": 2890,
      "ग्रुप": 2891,
      "महासचिव": 2892,
      "पत": 2893,
      "विवि": 2894,
      "ित्व": 2895,
      "प्रिय": 2896,
      "घरे": 2897,
      "लम": 2898,
      "लेते": 2899,
      "रान": 2900,
      "ड़ों": 2901,
      "मेश": 2902,
      "यानी": 2903,
      "वार्ता": 2904,
      "ऊर्जा": 2905,
      "खर्च": 2906,
      "तू": 2907,
      "याँ": 2908,
      "त्सव": 2909,
      "पर्यटन": 2910,
      "पूछताछ": 2911,
      "मृत्यु": 2912,
      "रासत": 2913,
      "फ़ा": 2914,
      "रायपुर": 2915,
      "पशु": 2916,
      "चौक": 2917,
      "हरण": 2918,
      "खराब": 2919,
      "अफसर": 2920,
      "भारती": 2921,
      "इंडियन": 2922,
      "प्रशासनिक": 2923,
      "चैं": 2924,
      "जयपुर": 2925,
      "यंका": 2926,
      "उनसे": 2927,
      "पहा": 2928,
      "पैदा": 2929,
      "ोन": 2930,
      "आपूर्ति": 2931,
      "कॉन्": 2932,
      "दस्ता": 2933,
      "आईसीसी": 2934,
      "प्रियंका": 2935,
      "बनाकर": 2936,
      "क्सीजन": 2937,
      "मौका": 2938,
      "तीनों": 2939,
      "तलब": 2940,
      "कहानी": 2941,
      "तुर्": 2942,
      "दृष्टि": 2943,
      "यौ": 2944,
      "आरोपित": 2945,
      "मुकाबले": 2946,
      "बेड": 2947,
      "उसी": 2948,
      "कथ": 2949,
      "ब्ल्यू": 2950,
      "समझौ": 2951,
      "सिस्टम": 2952,
      "हार्": 2953,
      "शरीर": 2954,
      "गन": 2955,
      "चोरी": 2956,
      "नवी": 2957,
      "नोटिस": 2958,
      "जनरल": 2959,
      "स्पष्ट": 2960,
      "मध्यप्रदेश": 2961,
      "तिथि": 2962,
      "ऑफिस": 2963,
      "पीट": 2964,
      "सत्य": 2965,
      "तीसरे": 2966,
      "लिमिटेड": 2967,
      "योगदान": 2968,
      "प्रौ": 2969,
      "फॉर्म": 2970,
      "गठबंधन": 2971,
      "बेटे": 2972,
      "त्मा": 2973,
      "जिटिव": 2974,
      "आगामी": 2975,
      "रेट": 2976,
      "जिलाधिकारी": 2977,
      "स्त्री": 2978,
      "अंतरि": 2979,
      "ौल": 2980,
      "खार": 2981,
      "जाल": 2982,
      "मन्": 2983,
      "स्ना": 2984,
      "ेन्द्र": 2985,
      "हिंसा": 2986,
      "२०१३": 2987,
      "नक्स": 2988,
      "ग्राह": 2989,
      "हिंदू": 2990,
      "संकट": 2991,
      "इन्होंने": 2992,
      "डब्ल्यू": 2993,
      "कोट": 2994,
      "उड़": 2995,
      "बजट": 2996,
      "बल्लेबाज": 2997,
      "जेक्ट": 2998,
      "वोट": 2999,
      "स्वीकार": 3000,
      "एसटी": 3001,
      "राजेश": 3002,
      "डिजि": 3003,
      "मर्": 3004,
      "यकों": 3005,
      "पर्व": 3006,
      "बीर": 3007,
      "चक्र": 3008,
      "तिहासिक": 3009,
      "उपचार": 3010,
      "केंद्रों": 3011,
      "मूल्य": 3012,
      "क्षर": 3013,
      "गणना": 3014,
      "सलमान": 3015,
      "स्र": 3016,
      "स्टेट": 3017,
      "करो": 3018,
      "बरामद": 3019,
      "तः": 3020,
      "ंची": 3021,
      "अनुर": 3022,
      "हथि": 3023,
      "घरेलू": 3024,
      "परेशानी": 3025,
      "पहल": 3026,
      "माँ": 3027,
      "चढ़": 3028,
      "सिर": 3029,
      "आउट": 3030,
      "दरअसल": 3031,
      "बं": 3032,
      "आपकी": 3033,
      "साबित": 3034,
      "टिश": 3035,
      "खूब": 3036,
      "शौ": 3037,
      "प्रोफे": 3038,
      "उद्घाटन": 3039,
      "लेंगे": 3040,
      "मैने": 3041,
      "स्कर": 3042,
      "मानी": 3043,
      "डीओ": 3044,
      "प्राचीन": 3045,
      "करार": 3046,
      "सैनि": 3047,
      "हराया": 3048,
      "प्रौद्योग": 3049,
      "जीता": 3050,
      "सकेंगे": 3051,
      "इंदौर": 3052,
      "अमरी": 3053,
      "दम": 3054,
      "्यूटर": 3055,
      "अतिथि": 3056,
      "पुराने": 3057,
      "उम्मीदवारों": 3058,
      "मुद्दे": 3059,
      "छू": 3060,
      "सिन्": 3061,
      "स्वरूप": 3062,
      "पहुंचने": 3063,
      "आरपी": 3064,
      "धुनिक": 3065,
      "पद्म": 3066,
      "हथियार": 3067,
      "सक्रिय": 3068,
      "लियन": 3069,
      "लकर": 3070,
      "द्रा": 3071,
      "आकर्": 3072,
      "देता": 3073,
      "ज्योति": 3074,
      "ऊपर": 3075,
      "नाडु": 3076,
      "सामग्री": 3077,
      "स्पी": 3078,
      "्यास": 3079,
      "अधिनियम": 3080,
      "ानु": 3081,
      "नईदुनिया": 3082,
      "मंजूरी": 3083,
      "परिवर्तन": 3084,
      "मिनट": 3085,
      "हल्": 3086,
      "फ्रें": 3087,
      "कियों": 3088,
      "साई": 3089,
      "अफगानिस्तान": 3090,
      "समाधान": 3091,
      "सब्": 3092,
      "नवा": 3093,
      "सामान": 3094,
      "मास्क": 3095,
      "वित्": 3096,
      "प्रस्तुत": 3097,
      "एससी": 3098,
      "मनोज": 3099,
      "ऑपरे": 3100,
      "जिसकी": 3101,
      "दुर्घटना": 3102,
      "संरक्षण": 3103,
      "चेता": 3104,
      "परा": 3105,
      "सजा": 3106,
      "किस": 3107,
      "विद्यालयों": 3108,
      "घरों": 3109,
      "रखते": 3110,
      "नाराज": 3111,
      "८०": 3112,
      "बाई": 3113,
      "ब्लॉक": 3114,
      "सेक्टर": 3115,
      "रंजन": 3116,
      "खाना": 3117,
      "बंदी": 3118,
      "रचना": 3119,
      "लंबित": 3120,
      "अनेक": 3121,
      "अरवि": 3122,
      "प्लेट": 3123,
      "बॉल": 3124,
      "लेट": 3125,
      "उत्पाद": 3126,
      "वली": 3127,
      "किर": 3128,
      "मंडी": 3129,
      "उपभो": 3130,
      "वाड़ा": 3131,
      "मोर्चा": 3132,
      "ऊँ": 3133,
      "वालि": 3134,
      "स्य": 3135,
      "रहती": 3136,
      "कोतवाली": 3137,
      "विरोधी": 3138,
      "ष्टाचार": 3139,
      "ब्रह्": 3140,
      "लगाकर": 3141,
      "चुनावों": 3142,
      "दौरा": 3143,
      "फिल्मों": 3144,
      "मैचों": 3145,
      "तुर": 3146,
      "इतना": 3147,
      "वित्तीय": 3148,
      "बताते": 3149,
      "अमर": 3150,
      "इलाकों": 3151,
      "चुनौती": 3152,
      "इस्ती": 3153,
      "मेह": 3154,
      "ज्ञात": 3155,
      "ऐतिहासिक": 3156,
      "क्का": 3157,
      "राजीव": 3158,
      "डिजिटल": 3159,
      "अभ्य": 3160,
      "पब्": 3161,
      "यंस": 3162,
      "वैश्": 3163,
      "डीसी": 3164,
      "ब्दी": 3165,
      "धाम": 3166,
      "सिविल": 3167,
      "याता": 3168,
      "शाली": 3169,
      "गोरख": 3170,
      "बचाव": 3171,
      "हिस्से": 3172,
      "गांवों": 3173,
      "विजन": 3174,
      "पृथ": 3175,
      "पाने": 3176,
      "अहमद": 3177,
      "ुक": 3178,
      "श्न": 3179,
      "२०११": 3180,
      "पॉजिटिव": 3181,
      "तत्काल": 3182,
      "यातायात": 3183,
      "केरल": 3184,
      "४५": 3185,
      "रेखा": 3186,
      "थ्य": 3187,
      "आदमी": 3188,
      "रावत": 3189,
      "पाली": 3190,
      "शाल": 3191,
      "पुल": 3192,
      "बें": 3193,
      "संशो": 3194,
      "निर्मित": 3195,
      "भक्त": 3196,
      "वर्ल्ड": 3197,
      "अंक": 3198,
      "गरीब": 3199,
      "प्रौद्योगिकी": 3200,
      "वाने": 3201,
      "ओलंपिक": 3202,
      "न्व": 3203,
      "ंती": 3204,
      "ख्त": 3205,
      "चेयर": 3206,
      "ब्रिटिश": 3207,
      "व्यवहार": 3208,
      "फर्जी": 3209,
      "कें": 3210,
      "विवे": 3211,
      "कुमारी": 3212,
      "हाबाद": 3213,
      "आता": 3214,
      "यात्री": 3215,
      "प्रदर्श": 3216,
      "्वी": 3217,
      "चाई": 3218,
      "लोड": 3219,
      "बीते": 3220,
      "अनुसं": 3221,
      "डीए": 3222,
      "कमल": 3223,
      "नती": 3224,
      "ज़ार": 3225,
      "बिनेट": 3226,
      "खाद्य": 3227,
      "सांस्": 3228,
      "करियर": 3229,
      "टें": 3230,
      "कठ": 3231,
      "जनक": 3232,
      "सीटों": 3233,
      "इंजीनिय": 3234,
      "मुकदमा": 3235,
      "कोह": 3236,
      "रीन": 3237,
      "कराए": 3238,
      "नेश": 3239,
      "संस्कृत": 3240,
      "पत्रिका": 3241,
      "कम्प": 3242,
      "रवाना": 3243,
      "बिक्री": 3244,
      "अनुसंधान": 3245,
      "क्षेप": 3246,
      "महाविद्यालय": 3247,
      "पढ़े": 3248,
      "चीनी": 3249,
      "वस्तु": 3250,
      "गाड़ी": 3251,
      "मती": 3252,
      "संविधान": 3253,
      "चालक": 3254,
      "लेना": 3255,
      "खेला": 3256,
      "सैन्य": 3257,
      "गज": 3258,
      "धियों": 3259,
      "२०१२": 3260,
      "स्टै": 3261,
      "तालों": 3262,
      "हिर": 3263,
      "तारा": 3264,
      "दै": 3265,
      "किमी": 3266,
      "धम": 3267,
      "वैश्विक": 3268,
      "डीपी": 3269,
      "भ्रष्टाचार": 3270,
      "टिप्": 3271,
      "पात्र": 3272,
      "ब्ला": 3273,
      "निगर": 3274,
      "सांस्कृतिक": 3275,
      "सुख": 3276,
      "क्कर": 3277,
      "स्टूड": 3278,
      "प्रती": 3279,
      "संभव": 3280,
      "चैंपियन": 3281,
      "म्भ": 3282,
      "आदित्यनाथ": 3283,
      "कानपुर": 3284,
      "पड़ता": 3285,
      "न्यूजी": 3286,
      "मूर्ति": 3287,
      "निगरानी": 3288,
      "अश्": 3289,
      "लक्ष्मी": 3290,
      "राकेश": 3291,
      "क्रमण": 3292,
      "अस्पतालों": 3293,
      "्री": 3294,
      "विवाह": 3295,
      "फेस": 3296,
      "कैबिनेट": 3297,
      "ट्रंप": 3298,
      "मौजू": 3299,
      "रहें": 3300,
      "कथा": 3301,
      "बेच": 3302,
      "प्यार": 3303,
      "सर्वश्रेष्ठ": 3304,
      "न्यूजीलैंड": 3305,
      "तें": 3306,
      "इंस": 3307,
      "श्रीवास्तव": 3308,
      "रुद्ध": 3309,
      "मौजूदा": 3310,
      "न्यास": 3311,
      "मान्यता": 3312,
      "राइ": 3313,
      "२०१०": 3314,
      "वकी": 3315,
      "सवार": 3316,
      "हैदरा": 3317,
      "खाने": 3318,
      "बाला": 3319,
      "ट्रिक": 3320,
      "णे": 3321,
      "पंड": 3322,
      "वेदी": 3323,
      "आजा": 3324,
      "तमाम": 3325,
      "वहाँ": 3326,
      "मात्रा": 3327,
      "मल्": 3328,
      "जोशी": 3329,
      "धर्": 3330,
      "गेट": 3331,
      "सुनील": 3332,
      "मशीन": 3333,
      "द्द": 3334,
      "सूस": 3335,
      "लॉन्": 3336,
      "केजरी": 3337,
      "भरो": 3338,
      "हंगा": 3339,
      "दून": 3340,
      "दायिक": 3341,
      "अर्थव्यवस्था": 3342,
      "रखे": 3343,
      "निरा": 3344,
      "रिली": 3345,
      "रहता": 3346,
      "पांडेय": 3347,
      "सीधे": 3348,
      "प्रोजेक्ट": 3349,
      "कोच": 3350,
      "राजस्व": 3351,
      "हाइ": 3352,
      "केजरीवाल": 3353,
      "जिलाध्यक्ष": 3354,
      "नान": 3355,
      "पाद": 3356,
      "चरित": 3357,
      "हैदराबाद": 3358,
      "उर्": 3359,
      "हड़ताल": 3360,
      "हारी": 3361,
      "लेखक": 3362,
      "रेशन": 3363,
      "महो": 3364,
      "आवा": 3365,
      "सर्वि": 3366,
      "तरित": 3367,
      "संदेश": 3368,
      "नृ": 3369,
      "संपत्ति": 3370,
      "एसएस": 3371,
      "लोनी": 3372,
      "विधायकों": 3373,
      "जुन": 3374,
      "निशाना": 3375,
      "षित": 3376,
      "आतंकी": 3377,
      "सीबीआई": 3378,
      "चेतावनी": 3379,
      "सोच": 3380,
      "यस": 3381,
      "हालत": 3382,
      "सहम": 3383,
      "बैं": 3384,
      "भीतर": 3385,
      "रात्रि": 3386,
      "रूम": 3387,
      "कॉम": 3388,
      "गतिविधियों": 3389,
      "गेंदबाज": 3390,
      "इनकी": 3391,
      "सर्वो": 3392,
      "जैसा": 3393,
      "चेन्न": 3394,
      "गलत": 3395,
      "ईओ": 3396,
      "अंतरिक्ष": 3397,
      "रहीं": 3398,
      "माश": 3399,
      "संतोष": 3400,
      "संगठनों": 3401,
      "मेल": 3402,
      "तल": 3403,
      "योध्या": 3404,
      "आईसी": 3405,
      "पड़ी": 3406,
      "प्ति": 3407,
      "हमारा": 3408,
      "किशोर": 3409,
      "होटल": 3410,
      "कैंप": 3411,
      "ंजलि": 3412,
      "उदा": 3413,
      "साधन": 3414,
      "खेलों": 3415,
      "उल्लं": 3416,
      "ऑक्सीजन": 3417,
      "लापर": 3418,
      "चुनावी": 3419,
      "लाइट": 3420,
      "उत्तरी": 3421,
      "होनी": 3422,
      "तलाश": 3423,
      "पैसे": 3424,
      "नपुर": 3425,
      "अधिकां": 3426,
      "चलने": 3427,
      "तापमान": 3428,
      "पब्लिक": 3429,
      "वाइ": 3430,
      "चैनल": 3431,
      "आशी": 3432,
      "निर": 3433,
      "बोल": 3434,
      "अयोध्या": 3435,
      "आईए": 3436,
      "आधुनिक": 3437,
      "ान्त": 3438,
      "२००८": 3439,
      "अफ़": 3440,
      "सुंदर": 3441,
      "गईं": 3442,
      "पदाधिकारियों": 3443,
      "शपथ": 3444,
      "त्तर": 3445,
      "धिकरण": 3446,
      "णि": 3447,
      "जताई": 3448,
      "मद्": 3449,
      "मंत्रियों": 3450,
      "स्पर्": 3451,
      "बादी": 3452,
      "गैस": 3453,
      "कांत": 3454,
      "बदमाश": 3455,
      "बाकी": 3456,
      "प्रबंधक": 3457,
      "स्टाफ": 3458,
      "ंटा": 3459,
      "मिलता": 3460,
      "नारे": 3461,
      "सूचित": 3462,
      "महिलाएं": 3463,
      "इनका": 3464,
      "वर्ती": 3465,
      "सहयोगी": 3466,
      "जिम्मेदार": 3467,
      "श्याम": 3468,
      "षेक": 3469,
      "मित्र": 3470,
      "चेन्नई": 3471,
      "सेल्": 3472,
      "दलों": 3473,
      "शता": 3474,
      "िंग": 3475,
      "सड़कों": 3476,
      "वासन": 3477,
      "७५": 3478,
      "धरना": 3479,
      "ड्डा": 3480,
      "बीमार": 3481,
      "सिक्": 3482,
      "उल्लंघन": 3483,
      "शॉ": 3484,
      "दाताओं": 3485,
      "अथवा": 3486,
      "औद्योग": 3487,
      "पुष्टि": 3488,
      "शुभार": 3489,
      "वही": 3490,
      "बेल": 3491,
      "समझा": 3492,
      "कमि": 3493,
      "आपका": 3494,
      "सूर्य": 3495,
      "उपकरण": 3496,
      "णसी": 3497,
      "मॉडल": 3498,
      "राजकीय": 3499,
      "क्ताओं": 3500,
      "नागरिकों": 3501,
      "हैया": 3502,
      "क्षी": 3503,
      "एयरपोर्ट": 3504,
      "अखि": 3505,
      "नन": 3506,
      "तकनीकी": 3507,
      "गोरखपुर": 3508,
      "मस्": 3509,
      "पुनर्": 3510,
      "गिरफ्तारी": 3511,
      "बढ़ावा": 3512,
      "वाराणसी": 3513,
      "फार": 3514,
      "सदर": 3515,
      "शहीद": 3516,
      "गार्ड": 3517,
      "साहित्यकार": 3518,
      "प्रोफेसर": 3519,
      "जहाँ": 3520,
      "संचार": 3521,
      "दीपक": 3522,
      "रणनीति": 3523,
      "सारे": 3524,
      "दोबारा": 3525,
      "नम": 3526,
      "असम": 3527,
      "थु": 3528,
      "अना": 3529,
      "चलाया": 3530,
      "विभागों": 3531,
      "अधिकांश": 3532,
      "९०": 3533,
      "जिया": 3534,
      "पड़ेगा": 3535,
      "लीय": 3536,
      "तथ्य": 3537,
      "लंबे": 3538,
      "माध्यमिक": 3539,
      "मिता": 3540,
      "३६": 3541,
      "शिष्ट": 3542,
      "अनिवार": 3543,
      "पदार्थ": 3544,
      "अनिवार्य": 3545,
      "मणि": 3546,
      "वेयर": 3547,
      "जुड़ी": 3548,
      "ब्रिटेन": 3549,
      "महसूस": 3550,
      "गौरतलब": 3551,
      "लेन": 3552,
      "डिप्": 3553,
      "कैं": 3554,
      "व्यवसाय": 3555,
      "पेट": 3556,
      "ानों": 3557,
      "शियों": 3558,
      "ड्स": 3559,
      "इयों": 3560,
      "गोपाल": 3561,
      "बलों": 3562,
      "प्रतिमा": 3563,
      "जवानों": 3564,
      "कस्": 3565,
      "कार्यवाही": 3566,
      "आं": 3567,
      "संस्करण": 3568,
      "दबाव": 3569,
      "अखिलेश": 3570,
      "जला": 3571,
      "विरुद्ध": 3572,
      "अनुभव": 3573,
      "चंडी": 3574,
      "वसू": 3575,
      "औद्योगिक": 3576,
      "कर्ता": 3577,
      "त्कार": 3578,
      "उठाया": 3579,
      "हस्ता": 3580,
      "एमसी": 3581,
      "ेंट्स": 3582,
      "संदिग्": 3583,
      "खेले": 3584,
      "कामना": 3585,
      "होंगी": 3586,
      "पुरानी": 3587,
      "२००९": 3588,
      "लॉजी": 3589,
      "वादियों": 3590,
      "दुष्": 3591,
      "अंग": 3592,
      "सूरत": 3593,
      "रियर": 3594,
      "जोन": 3595,
      "तस्वीर": 3596,
      "डायरे": 3597,
      "दिक": 3598,
      "केदार": 3599,
      "कांड": 3600,
      "डॉलर": 3601,
      "संदिग्ध": 3602,
      "सेव": 3603,
      "तुलना": 3604,
      "जायेगा": 3605,
      "५००": 3606,
      "तरे": 3607,
      "कारात्मक": 3608,
      "व्यक्तिगत": 3609,
      "तुरंत": 3610,
      "चली": 3611,
      "उसमें": 3612,
      "छोटी": 3613,
      "फू": 3614,
      "ट्वि": 3615,
      "लिन": 3616,
      "म्न": 3617,
      "निकट": 3618,
      "गों": 3619,
      "राज्यसभा": 3620,
      "किनारे": 3621,
      "नामित": 3622,
      "कानूनी": 3623,
      "उल्लेखनीय": 3624,
      "लड़ाई": 3625,
      "रोज": 3626,
      "ड्राइ": 3627,
      "खड़े": 3628,
      "मारपीट": 3629,
      "माया": 3630,
      "इलाहाबाद": 3631,
      "विकल्प": 3632,
      "ड्यूटी": 3633,
      "अरविंद": 3634,
      "खुलासा": 3635,
      "सेल": 3636,
      "भोजन": 3637,
      "३३": 3638,
      "नतम": 3639,
      "ममता": 3640,
      "सेज": 3641,
      "सिन्हा": 3642,
      "निर्माता": 3643,
      "पार्षद": 3644,
      "लापरवाही": 3645,
      "वायरल": 3646,
      "समुद्र": 3647,
      "आईपीएल": 3648,
      "कानों": 3649,
      "ताला": 3650,
      "मोटर": 3651,
      "अपर": 3652,
      "कन": 3653,
      "फायर": 3654,
      "प्राधिकरण": 3655,
      "अस": 3656,
      "रियल": 3657,
      "इंतजार": 3658,
      "कथित": 3659,
      "आदर्श": 3660,
      "तान": 3661,
      "इकाई": 3662,
      "मिया": 3663,
      "जयंती": 3664,
      "पुष्": 3665,
      "प्रांत": 3666,
      "वत्ता": 3667,
      "म्ब": 3668,
      "सम्बन्": 3669,
      "क्रांति": 3670,
      "इंजीनियरिंग": 3671,
      "उचित": 3672,
      "कोरिया": 3673,
      "पेंशन": 3674,
      "अब्दु": 3675,
      "क्ल": 3676,
      "इंटरनेशनल": 3677,
      "प्राइवेट": 3678,
      "ओम": 3679,
      "ड्डी": 3680,
      "इंस्पे": 3681,
      "श्रद्धालुओं": 3682,
      "विदा": 3683,
      "रास्ते": 3684,
      "मों": 3685,
      "प्रकरण": 3686,
      "कविता": 3687,
      "नित": 3688,
      "प्रयाग": 3689,
      "प्रदू": 3690,
      "मुद्दों": 3691,
      "टरी": 3692,
      "निप": 3693,
      "अक्सर": 3694,
      "फायदा": 3695,
      "जंग": 3696,
      "विद्यार्थी": 3697,
      "देहरा": 3698,
      "रद्द": 3699,
      "विशाल": 3700,
      "न्यूज": 3701,
      "सुरेश": 3702,
      "चौरा": 3703,
      "गुणवत्ता": 3704,
      "उक्त": 3705,
      "बधा": 3706,
      "पृथ्वी": 3707,
      "शताब्दी": 3708,
      "चौकी": 3709,
      "इमर": 3710,
      "कोहली": 3711,
      "निरीक्षक": 3712,
      "नाक": 3713,
      "महाराज": 3714,
      "जर्स": 3715,
      "अर्जुन": 3716,
      "धित्व": 3717,
      "चरित्र": 3718,
      "हिरासत": 3719,
      "भूत": 3720,
      "उर्फ": 3721,
      "मेट्रो": 3722,
      "वृत्ति": 3723,
      "प्रतिनिधित्व": 3724,
      "जुट": 3725,
      "उतर": 3726,
      "फिया": 3727,
      "सिने": 3728,
      "स्पेशल": 3729,
      "स्क्री": 3730,
      "आगरा": 3731,
      "िर": 3732,
      "स्टॉ": 3733,
      "दाखिल": 3734,
      "डाल": 3735,
      "स्टो": 3736,
      "खाली": 3737,
      "देखकर": 3738,
      "रखना": 3739,
      "उठ": 3740,
      "विनो": 3741,
      "परमाण": 3742,
      "बचाने": 3743,
      "हालात": 3744,
      "सर्च": 3745,
      "व्यापक": 3746,
      "ंचल": 3747,
      "सौंप": 3748,
      "इंटरनेट": 3749,
      "कोण": 3750,
      "चेयरमैन": 3751,
      "लागत": 3752,
      "मतलब": 3753,
      "सौंपा": 3754,
      "शुभारंभ": 3755,
      "पीसी": 3756,
      "खुश": 3757,
      "शहरों": 3758,
      "इंस्पेक्टर": 3759,
      "धारण": 3760,
      "अवधि": 3761,
      "राग": 3762,
      "समर्": 3763,
      "अल्प": 3764,
      "माला": 3765,
      "हजारों": 3766,
      "समाजवादी": 3767,
      "निर्भर": 3768,
      "ख्यात": 3769,
      "पर्याप्त": 3770,
      "टीमों": 3771,
      "प्लांट": 3772,
      "स्नातक": 3773,
      "स्वर्ण": 3774,
      "कार्यक्रमों": 3775,
      "कक्ष": 3776,
      "परमाणु": 3777,
      "पहुंचकर": 3778,
      "डिजा": 3779,
      "आरटी": 3780,
      "झू": 3781,
      "तमिलनाडु": 3782,
      "संस्कार": 3783,
      "ल्ट": 3784,
      "नीतीश": 3785,
      "प्रतिक्रिया": 3786,
      "छोड़कर": 3787,
      "दैनिक": 3788,
      "दस्त": 3789,
      "पाठी": 3790,
      "व्यापारियों": 3791,
      "देहरादून": 3792,
      "आलो": 3793,
      "यूनियन": 3794,
      "मिलते": 3795,
      "र्डर": 3796,
      "शुक्ला": 3797,
      "ल्थ": 3798,
      "प्रतिभा": 3799,
      "करवाया": 3800,
      "मद्दे": 3801,
      "ख़ु": 3802,
      "चंडीगढ़": 3803,
      "एंगे": 3804,
      "कार्यकाल": 3805,
      "ट्रि": 3806,
      "रूस": 3807,
      "ंकिंग": 3808,
      "माहौल": 3809,
      "ब्यूरो": 3810,
      "पूजन": 3811,
      "सुझा": 3812,
      "काउंट": 3813,
      "लाइस": 3814,
      "एनएस": 3815,
      "सैनिक": 3816,
      "नियां": 3817,
      "नृत्य": 3818,
      "किताब": 3819,
      "मुज": 3820,
      "राजनीतिज्ञ": 3821,
      "पंडित": 3822,
      "३२": 3823,
      "३४": 3824,
      "चन्द्र": 3825,
      "सालों": 3826,
      "तीसरी": 3827,
      "प्रगति": 3828,
      "अनुमान": 3829,
      "केन्द्रीय": 3830,
      "मानना": 3831,
      "मधु": 3832,
      "यंत्र": 3833,
      "हंगामा": 3834,
      "रस": 3835,
      "सिस": 3836,
      "ज़न": 3837,
      "हाथों": 3838,
      "फंड": 3839,
      "नेह": 3840,
      "अन्त": 3841,
      "िज": 3842,
      "मश": 3843,
      "निम्न": 3844,
      "जनसंख्या": 3845,
      "बाबू": 3846,
      "संग्रह": 3847,
      "उनमें": 3848,
      "टेक": 3849,
      "चीज़": 3850,
      "योजक": 3851,
      "बड़": 3852,
      "आश्वासन": 3853,
      "प्रावधान": 3854,
      "तत्कालीन": 3855,
      "बायो": 3856,
      "वेंटी": 3857,
      "आबादी": 3858,
      "बातें": 3859,
      "ज़रूरत": 3860,
      "बढ़े": 3861,
      "बरे": 3862,
      "जागरूक": 3863,
      "बेहत": 3864,
      "सदीय": 3865,
      "बधाई": 3866,
      "हादुर": 3867,
      "संसदीय": 3868,
      "शास्त्री": 3869,
      "संशोधन": 3870,
      "ढ़ी": 3871,
      "नेटवर्क": 3872,
      "दुर्गा": 3873,
      "चलाने": 3874,
      "टेलीविजन": 3875,
      "हट": 3876,
      "निवास": 3877,
      "शिवराज": 3878,
      "लौट": 3879,
      "बढ़ने": 3880,
      "काशी": 3881,
      "कुश": 3882,
      "ग्रस्त": 3883,
      "उनको": 3884,
      "तुल": 3885,
      "वैसे": 3886,
      "पूर्वक": 3887,
      "खोज": 3888,
      "दिनेश": 3889,
      "बोले": 3890,
      "संस्थानों": 3891,
      "जीतने": 3892,
      "जागरूकता": 3893,
      "रखें": 3894,
      "डॉक्टरों": 3895,
      "मिलती": 3896,
      "चार्ज": 3897,
      "संके": 3898,
      "जमान": 3899,
      "णु": 3900,
      "क्षम": 3901,
      "रहना": 3902,
      "त्रिपाठी": 3903,
      "दिव्या": 3904,
      "शिकार": 3905,
      "मुजफ्": 3906,
      "संकल्प": 3907,
      "पर्वत": 3908,
      "नेस": 3909,
      "स्वच्छता": 3910,
      "देखी": 3911,
      "फिक": 3912,
      "लोकप्रिय": 3913,
      "तस्वीरें": 3914,
      "दिये": 3915,
      "इस्तीफा": 3916,
      "मेले": 3917,
      "मेला": 3918,
      "फेसबुक": 3919,
      "बहादुर": 3920,
      "प्राकृतिक": 3921,
      "कैप्": 3922,
      "ज्यादातर": 3923,
      "मांगी": 3924,
      "प्रान्त": 3925,
      "खुले": 3926,
      "शिक": 3927,
      "बिलास": 3928,
      "टका": 3929,
      "ौली": 3930,
      "फें": 3931,
      "बीमारी": 3932,
      "धन्य": 3933,
      "रमेश": 3934,
      "साथी": 3935,
      "एंटी": 3936,
      "कड़ों": 3937,
      "कॉल": 3938,
      "शहरी": 3939,
      "विनोद": 3940,
      "फार्म": 3941,
      "षक": 3942,
      "स्को": 3943,
      "ंटी": 3944,
      "संख्य": 3945,
      "कस": 3946,
      "म्यू": 3947,
      "कंप्यूटर": 3948,
      "डोर": 3949,
      "रक्त": 3950,
      "प्रोत्": 3951,
      "समक्ष": 3952,
      "च्छा": 3953,
      "आखिरी": 3954,
      "नही": 3955,
      "वेल": 3956,
      "स्मार्टफोन": 3957,
      "बैठे": 3958,
      "स्थापक": 3959,
      "स्ट्रेशन": 3960,
      "स्टूडेंट्स": 3961,
      "मारे": 3962,
      "इंडी": 3963,
      "विरा": 3964,
      "चिकित्सक": 3965,
      "२००७": 3966,
      "शारी": 3967,
      "व्यक्तियों": 3968,
      "देती": 3969,
      "गोवि": 3970,
      "सेवाएं": 3971,
      "कना": 3972,
      "प्रीमि": 3973,
      "प्रतिनिधियों": 3974,
      "मद्देनजर": 3975,
      "पीय": 3976,
      "जिसने": 3977,
      "लड़की": 3978,
      "प्रेरित": 3979,
      "सप": 3980,
      "गौतम": 3981,
      "नक": 3982,
      "२०००": 3983,
      "शंका": 3984,
      "हटाने": 3985,
      "ुरु": 3986,
      "स्थायी": 3987,
      "ंपरा": 3988,
      "परिवारों": 3989,
      "आरक्षण": 3990,
      "हनु": 3991,
      "लाखों": 3992,
      "उदाहरण": 3993,
      "धू": 3994,
      "टिल": 3995,
      "दया": 3996,
      "व्र": 3997,
      "शासकीय": 3998,
      "मुजफ्फर": 3999,
      "ध्याय": 4000,
      "घोटा": 4001,
      "मण्ड": 4002,
      "प्रतिष्ठ": 4003,
      "इंस्टी": 4004,
      "वापसी": 4005,
      "प्रारंभिक": 4006,
      "पेट्रोल": 4007,
      "पुस्तक": 4008,
      "ारण": 4009,
      "रोह": 4010,
      "बिलासपुर": 4011,
      "फ़े": 4012,
      "सदन": 4013,
      "झु": 4014,
      "जिंग": 4015,
      "बीसी": 4016,
      "पहन": 4017,
      "व्यापारी": 4018,
      "थर": 4019,
      "हादसे": 4020,
      "साझा": 4021,
      "प्रमो": 4022,
      "अचान": 4023,
      "जानी": 4024,
      "आत्": 4025,
      "टिफि": 4026,
      "अंदा": 4027,
      "आंग": 4028,
      "नोट": 4029,
      "अचानक": 4030,
      "परंपरा": 4031,
      "तीर्थ": 4032,
      "आईआर": 4033,
      "सर्वोच्च": 4034,
      "३७": 4035,
      "धिया": 4036,
      "वकील": 4037,
      "अंडर": 4038,
      "वाहिक": 4039,
      "सोनी": 4040,
      "भाग्य": 4041,
      "लॉन्च": 4042,
      "कौन": 4043,
      "प्रदूषण": 4044,
      "सराय": 4045,
      "निर्देशक": 4046,
      "तनाव": 4047,
      "अरुण": 4048,
      "डेट": 4049,
      "टिन": 4050,
      "रिश्ते": 4051,
      "भरा": 4052,
      "रास्ता": 4053,
      "राशन": 4054,
      "ट्विटर": 4055,
      "भरोसा": 4056,
      "बैंकों": 4057,
      "२०२२": 4058,
      "गिक": 4059,
      "पूत": 4060,
      "पिंग": 4061,
      "शाही": 4062,
      "दायर": 4063,
      "लंबी": 4064,
      "ंतु": 4065,
      "धन्यवाद": 4066,
      "मंत्रि": 4067,
      "गणेश": 4068,
      "निकाला": 4069,
      "बेहतरीन": 4070,
      "सुझाव": 4071,
      "द्दीन": 4072,
      "सेंट": 4073,
      "मुझ": 4074,
      "बीमा": 4075,
      "तालि": 4076,
      "धीरे": 4077,
      "जिद": 4078,
      "सिद्": 4079,
      "ट्वेंटी": 4080,
      "शारीरिक": 4081,
      "ईरान": 4082,
      "दशक": 4083,
      "खेलने": 4084,
      "किरा": 4085,
      "सेवाओं": 4086,
      "सीनियर": 4087,
      "घाटी": 4088,
      "गाह": 4089,
      "प्राचार्य": 4090,
      "इंट": 4091,
      "एनसी": 4092,
      "३८": 4093,
      "गाइड": 4094,
      "सॉफ्ट": 4095,
      "इरा": 4096,
      "निस": 4097,
      "हिया": 4098,
      "बनर्जी": 4099,
      "ट्यूट": 4100,
      "गुप्त": 4101,
      "हिंदु": 4102,
      "इतनी": 4103,
      "बिल्कुल": 4104,
      "मुकेश": 4105,
      "उपस्थिति": 4106,
      "आईएस": 4107,
      "उदय": 4108,
      "साइकिल": 4109,
      "उज्": 4110,
      "गठित": 4111,
      "आशा": 4112,
      "घ्र": 4113,
      "बहा": 4114,
      "मांड": 4115,
      "रामपुर": 4116,
      "सैन": 4117,
      "ंजी": 4118,
      "कौशल": 4119,
      "बांध": 4120,
      "गौरव": 4121,
      "मुकाबला": 4122,
      "अके": 4123,
      "रांची": 4124,
      "बढ़ते": 4125,
      "सैनिकों": 4126,
      "मुना": 4127,
      "महोत्सव": 4128,
      "अत्य": 4129,
      "साहू": 4130,
      "एप": 4131,
      "चेक": 4132,
      "आदिवासी": 4133,
      "प्रश्न": 4134,
      "जल्दी": 4135,
      "मपुर": 4136,
      "काय": 4137,
      "अफसरों": 4138,
      "लगने": 4139,
      "ग्वालि": 4140,
      "पश्चा": 4141,
      "बढ़ती": 4142,
      "मच": 4143,
      "हफ्": 4144,
      "फोट": 4145,
      "क्की": 4146,
      "व्हा": 4147,
      "लाश": 4148,
      "छापे": 4149,
      "मांगों": 4150,
      "अखिल": 4151,
      "आकर": 4152,
      "साहि": 4153,
      "वृत्त": 4154,
      "कारियों": 4155,
      "ष्णु": 4156,
      "मेरठ": 4157,
      "लाइसेंस": 4158,
      "किट": 4159,
      "ग्वालियर": 4160,
      "सहमति": 4161,
      "एटी": 4162,
      "उद्या": 4163,
      "टॉप": 4164,
      "स्मृ": 4165,
      "पाठ्य": 4166,
      "निकाली": 4167,
      "स्टिक": 4168,
      "ंग्स": 4169,
      "नरेन्द्र": 4170,
      "राजेंद्र": 4171,
      "खाते": 4172,
      "शिमला": 4173,
      "शीघ्र": 4174,
      "एट": 4175,
      "कार्यरत": 4176,
      "अज्ञात": 4177,
      "र्ज": 4178,
      "जस्टि": 4179,
      "संस्थापक": 4180,
      "रिटी": 4181,
      "सिनेमा": 4182,
      "अक्ष": 4183,
      "परिक": 4184,
      "जुड़": 4185,
      "एचसी": 4186,
      "घुस": 4187,
      "ग्राहकों": 4188,
      "काने": 4189,
      "चारों": 4190,
      "करवाने": 4191,
      "आंध": 4192,
      "उधर": 4193,
      "खड़ा": 4194,
      "हिता": 4195,
      "दुकानों": 4196,
      "धारी": 4197,
      "तट": 4198,
      "जापान": 4199,
      "हस्ताक्षर": 4200,
      "मास्टर": 4201,
      "जब्": 4202,
      "ान्": 4203,
      "सख्त": 4204,
      "मतदाता": 4205,
      "संचालक": 4206,
      "आसान": 4207,
      "षिक": 4208,
      "ट्रेस": 4209,
      "दौड़": 4210,
      "टिया": 4211,
      "ध्": 4212,
      "सर्वा": 4213,
      "काला": 4214,
      "न्यूनतम": 4215,
      "स्पर्धा": 4216,
      "उत्पन्न": 4217,
      "ट्टा": 4218,
      "सारा": 4219,
      "पैसा": 4220,
      "वानि": 4221,
      "बाड़ी": 4222,
      "मनीष": 4223,
      "४८": 4224,
      "अभियं": 4225,
      "चिकित्स": 4226,
      "वाणि": 4227,
      "अभिषेक": 4228,
      "विस्": 4229,
      "ट्रक": 4230,
      "मृतक": 4231,
      "विराट": 4232,
      "र्ण": 4233,
      "स्वस्थ": 4234,
      "पावर": 4235,
      "हवा": 4236,
      "मानसिक": 4237,
      "प्रधाना": 4238,
      "लंदन": 4239,
      "वाणिज्य": 4240,
      "वाया": 4241,
      "्राज्य": 4242,
      "ट्रॉफी": 4243,
      "ेंगी": 4244,
      "विशिष्ट": 4245,
      "दिक्": 4246,
      "भाषण": 4247,
      "आचार्य": 4248,
      "आशंका": 4249,
      "कूल": 4250,
      "बम": 4251,
      "सामु": 4252,
      "लाना": 4253,
      "कार्यकारी": 4254,
      "चारिक": 4255,
      "बनाना": 4256,
      "ूर": 4257,
      "कंट्रोल": 4258,
      "मगर": 4259,
      "पड़ो": 4260,
      "प्रस्तावित": 4261,
      "ड़िया": 4262,
      "सराह": 4263,
      "विधे": 4264,
      "बेडकर": 4265,
      "स्रो": 4266,
      "पेय": 4267,
      "पोर्टल": 4268,
      "अभिनय": 4269,
      "फ़िल्में": 4270,
      "एसी": 4271,
      "लिप": 4272,
      "प्टर": 4273,
      "श्रद्धांजलि": 4274,
      "यौगिक": 4275,
      "ऑटो": 4276,
      "लेशन": 4277,
      "ड्ड": 4278,
      "खुशी": 4279,
      "कुलपति": 4280,
      "विद्": 4281,
      "दिरा": 4282,
      "संपन्न": 4283,
      "विस्तृत": 4284,
      "रिलीज": 4285,
      "बहन": 4286,
      "निर्देशित": 4287,
      "शिवसेना": 4288,
      "वास्तविक": 4289,
      "छूट": 4290,
      "दलित": 4291,
      "पत्रकारों": 4292,
      "डिजाइन": 4293,
      "बरेली": 4294,
      "उतार": 4295,
      "खारिज": 4296,
      "दक्षिणी": 4297,
      "उत्तराखण्ड": 4298,
      "स्थितियों": 4299,
      "फोर्स": 4300,
      "तत्व": 4301,
      "दुष्कर्म": 4302,
      "जूनियर": 4303,
      "स्पति": 4304,
      "दिखाया": 4305,
      "कोर्स": 4306,
      "हनुमान": 4307,
      "प्ल": 4308,
      "तकनीक": 4309,
      "स्कॉ": 4310,
      "काट": 4311,
      "ब्लै": 4312,
      "उद्य": 4313,
      "भंड": 4314,
      "अधिवक्ता": 4315,
      "पारि": 4316,
      "इंडीज": 4317,
      "स्मृति": 4318,
      "विंग": 4319,
      "वर्धन": 4320,
      "आंध्र": 4321,
      "चाल": 4322,
      "लूट": 4323,
      "कब": 4324,
      "बाढ़": 4325,
      "शियल": 4326,
      "जबलपुर": 4327,
      "फूल": 4328,
      "बसपा": 4329,
      "माइक्रो": 4330,
      "ट्रेनों": 4331,
      "राजपूत": 4332,
      "समीप": 4333,
      "ऑफ़": 4334,
      "नगरी": 4335,
      "श्रा": 4336,
      "गह": 4337,
      "पणी": 4338,
      "बालिका": 4339,
      "थोड़ा": 4340,
      "आवं": 4341,
      "तीसरा": 4342,
      "सत्या": 4343,
      "आतंकवादी": 4344,
      "जमानत": 4345,
      "गवर्": 4346,
      "तभी": 4347,
      "सेवानि": 4348,
      "अम्": 4349,
      "प्रदीप": 4350,
      "प्लान": 4351,
      "गुला": 4352,
      "गोल्ड": 4353,
      "कन्या": 4354,
      "साब": 4355,
      "शिक्षण": 4356,
      "गणित": 4357,
      "टिप्पणी": 4358,
      "मारा": 4359,
      "अनुप": 4360,
      "सुविधाएं": 4361,
      "सौर": 4362,
      "सेट": 4363,
      "दिलाने": 4364,
      "जानते": 4365,
      "मन्दिर": 4366,
      "क्वार": 4367,
      "फुटबॉल": 4368,
      "श्त": 4369,
      "ढ़े": 4370,
      "लगाते": 4371,
      "एग्": 4372,
      "मिट": 4373,
      "डाला": 4374,
      "जेएन": 4375,
      "महेंद्र": 4376,
      "भागीय": 4377,
      "सैकड़ों": 4378,
      "शैली": 4379,
      "व्यू": 4380,
      "वार्षिक": 4381,
      "ध्व": 4382,
      "मार्केट": 4383,
      "नियंत्रित": 4384,
      "डीजी": 4385,
      "बिया": 4386,
      "राणा": 4387,
      "मुहैया": 4388,
      "उथ": 4389,
      "अंग्रेज़ी": 4390,
      "कुर्": 4391,
      "जॉन": 4392,
      "तालिबान": 4393,
      "सुभाष": 4394,
      "फरार": 4395,
      "बूथ": 4396,
      "िए": 4397,
      "नीत": 4398,
      "साम्राज्य": 4399,
      "बजाय": 4400,
      "लीला": 4401,
      "लोर": 4402,
      "बुला": 4403,
      "उपायुक्त": 4404,
      "तारीख": 4405,
      "बढ़ो": 4406,
      "ंकियों": 4407,
      "कोड": 4408,
      "प्रका": 4409,
      "ऑपरेशन": 4410,
      "प्रभावी": 4411,
      "मले": 4412,
      "डायरेक्टर": 4413,
      "रजिस्ट्रेशन": 4414,
      "वादा": 4415,
      "ट्रल": 4416,
      "रोहित": 4417,
      "एक्ट": 4418,
      "मरी": 4419,
      "ज़े": 4420,
      "सुविधाओं": 4421,
      "टाई": 4422,
      "सकें": 4423,
      "लड़कियों": 4424,
      "मुफ्": 4425,
      "आखिर": 4426,
      "जबर": 4427,
      "टैक्स": 4428,
      "संसाधन": 4429,
      "आतंकवाद": 4430,
      "फरी": 4431,
      "मजदूरों": 4432,
      "राजकुमार": 4433,
      "संतु": 4434,
      "जाएं": 4435,
      "लियां": 4436,
      "प्राथमिकता": 4437,
      "कब्जा": 4438,
      "फसल": 4439,
      "समन्व": 4440,
      "यॉ": 4441,
      "विभागीय": 4442,
      "मेन": 4443,
      "मार्टम": 4444,
      "ंदे": 4445,
      "मकान": 4446,
      "प्रोग्रा": 4447,
      "प्रतिदिन": 4448,
      "ऋषि": 4449,
      "विन": 4450,
      "पारित": 4451,
      "उद्यान": 4452,
      "देगा": 4453,
      "लहर": 4454,
      "स्की": 4455,
      "सचिन": 4456,
      "कॉलेजों": 4457,
      "पोस्टमार्टम": 4458,
      "खतरा": 4459,
      "श्रीनगर": 4460,
      "पहुंचाने": 4461,
      "ब्लाक": 4462,
      "५५": 4463,
      "भेजे": 4464,
      "वाणी": 4465,
      "निकले": 4466,
      "नवीन": 4467,
      "रावट": 4468,
      "जब्त": 4469,
      "रोचक": 4470,
      "अतिक्रमण": 4471,
      "आना": 4472,
      "क्षति": 4473,
      "धारावाहिक": 4474,
      "अल्पसंख्य": 4475,
      "सुल": 4476,
      "ऑस्ट्रेलियाई": 4477,
      "सामुदायिक": 4478,
      "जन्मदिन": 4479,
      "कांग": 4480,
      "ार्ट": 4481,
      "उड़ान": 4482,
      "दिसम्": 4483,
      "तिन": 4484,
      "इंडस्ट्री": 4485,
      "पंचायतों": 4486,
      "रॉय": 4487,
      "निलंबित": 4488,
      "एसई": 4489,
      "ऐलान": 4490,
      "गिरावट": 4491,
      "महानि": 4492,
      "दिसम्बर": 4493,
      "कन्न": 4494,
      "आपने": 4495,
      "भेद": 4496,
      "जद": 4497,
      "संजीव": 4498,
      "निपटने": 4499,
      "पाक": 4500,
      "टाटा": 4501,
      "अभियंता": 4502,
      "दर्जन": 4503,
      "इंजीनियर": 4504,
      "विधेयक": 4505,
      "विवरण": 4506,
      "लिटी": 4507,
      "दाम": 4508,
      "आपदा": 4509,
      "जताया": 4510,
      "नेहरू": 4511,
      "कन्": 4512,
      "खेती": 4513,
      "ंश": 4514,
      "इजा": 4515,
      "गीता": 4516,
      "फ्रेंस": 4517,
      "उन्होने": 4518,
      "दत्त": 4519,
      "कंपनियां": 4520,
      "कार्ब": 4521,
      "रिसर्च": 4522,
      "२००६": 4523,
      "दरवा": 4524,
      "२००४": 4525,
      "३९": 4526,
      "महत्या": 4527,
      "वाय": 4528,
      "संकेत": 4529,
      "सीओ": 4530,
      "चीफ": 4531,
      "समस्त": 4532,
      "बुलेंस": 4533,
      "आइस": 4534,
      "पीजी": 4535,
      "महामंत्री": 4536,
      "तुमसे": 4537,
      "डै": 4538,
      "बेस": 4539,
      "मेट": 4540,
      "आत्महत्या": 4541,
      "लीप": 4542,
      "दर्द": 4543,
      "व्याव": 4544,
      "ण्य": 4545,
      "राउंड": 4546,
      "मुखिया": 4547,
      "बुजुर्": 4548,
      "सर्जन": 4549,
      "सोनिया": 4550,
      "डें": 4551,
      "नयी": 4552,
      "जं": 4553,
      "स्टोर": 4554,
      "जरूर": 4555,
      "विपक्षी": 4556,
      "जस्टिस": 4557,
      "खोलने": 4558,
      "किरदार": 4559,
      "बतौर": 4560,
      "काफ़ी": 4561,
      "सिद्धा": 4562,
      "दोषी": 4563,
      "बुलाया": 4564,
      "गिरि": 4565,
      "जर्म": 4566,
      "एडा": 4567,
      "फर्": 4568,
      "जात": 4569,
      "वंत": 4570,
      "बौद्ध": 4571,
      "सरस्व": 4572,
      "ग्रं": 4573,
      "अभिभाव": 4574,
      "पारा": 4575,
      "यें": 4576,
      "न्तु": 4577,
      "घटनाओं": 4578,
      "पॉलि": 4579,
      "जिनके": 4580,
      "रोध": 4581,
      "शेखर": 4582,
      "महात्मा": 4583,
      "ट्रैक्टर": 4584,
      "शरण": 4585,
      "सीजन": 4586,
      "शासित": 4587,
      "वर्गी": 4588,
      "कमजोर": 4589,
      "गंग": 4590,
      "ऑल": 4591,
      "म्मत": 4592,
      "एमएस": 4593,
      "हस्त": 4594,
      "स्कृत": 4595,
      "सरस्वती": 4596,
      "बंग": 4597,
      "चिंग": 4598,
      "पकड़ा": 4599,
      "कार्बनिक": 4600,
      "तहसीलदार": 4601,
      "अधिकतम": 4602,
      "इमार": 4603,
      "उपन्यास": 4604,
      "जर्मनी": 4605,
      "प्रशांत": 4606,
      "एशियाई": 4607,
      "आलोचना": 4608,
      "आये": 4609,
      "र्द": 4610,
      "प्रभु": 4611,
      "भूगोल": 4612,
      "टु": 4613,
      "एकमात्र": 4614,
      "ट्रस्ट": 4615,
      "फिल्में": 4616,
      "आपत्ति": 4617,
      "ोध": 4618,
      "क्वाली": 4619,
      "ध्र": 4620,
      "मार्क": 4621,
      "हेल्थ": 4622,
      "स्टैंड": 4623,
      "काया": 4624,
      "आयुर्": 4625,
      "चुने": 4626,
      "रेडियो": 4627,
      "गैंग": 4628,
      "निर्वाचित": 4629,
      "पोषण": 4630,
      "देखना": 4631,
      "इलेक्ट्रॉ": 4632,
      "आह्": 4633,
      "घूम": 4634,
      "सक्षम": 4635,
      "अहमदाबाद": 4636,
      "अवगत": 4637,
      "आमंत्र": 4638,
      "तिर": 4639,
      "अनुरोध": 4640,
      "बैक": 4641,
      "गित": 4642,
      "फ्यू": 4643,
      "विष्णु": 4644,
      "बोली": 4645,
      "पाठ्यक्रम": 4646,
      "शिंग": 4647,
      "पुरस्कृत": 4648,
      "एक्ट्रेस": 4649,
      "टर्": 4650,
      "पायल": 4651,
      "जाएंगी": 4652,
      "आतंकियों": 4653,
      "सलाहकार": 4654,
      "मण्डल": 4655,
      "स्पिटल": 4656,
      "ट्रेनिंग": 4657,
      "फैक्": 4658,
      "स्ट्रेट": 4659,
      "स्ति": 4660,
      "उत्सव": 4661,
      "शौचा": 4662,
      "सिद्धांत": 4663,
      "अमृत": 4664,
      "अर्चना": 4665,
      "मेगा": 4666,
      "अज": 4667,
      "कमिश्": 4668,
      "पृष्ठ": 4669,
      "सर्विस": 4670,
      "पोर्": 4671,
      "सामू": 4672,
      "मजि": 4673,
      "मुसलमान": 4674,
      "नोएडा": 4675,
      "अवार्ड": 4676,
      "रथ": 4677,
      "६५": 4678,
      "१९०": 4679,
      "गिरी": 4680,
      "प्रकाशन": 4681,
      "भोज": 4682,
      "सेस": 4683,
      "आवाज": 4684,
      "एके": 4685,
      "ेक्षा": 4686,
      "हफ्ते": 4687,
      "गिरा": 4688,
      "इश": 4689,
      "कार्या": 4690,
      "स्थलों": 4691,
      "इंस्टीट्यूट": 4692,
      "आह्वान": 4693,
      "सकारात्मक": 4694,
      "समापन": 4695,
      "जगत": 4696,
      "मालिक": 4697,
      "जुर्माना": 4698,
      "नज": 4699,
      "नाय": 4700,
      "पहुँच": 4701,
      "पुरुषों": 4702,
      "रघु": 4703,
      "सकेगा": 4704,
      "गुजर": 4705,
      "फ्रांस": 4706,
      "हिसाब": 4707,
      "कर्ताओं": 4708,
      "क़ा": 4709,
      "मुद्रा": 4710,
      "फाइ": 4711,
      "विषयों": 4712,
      "आग्रह": 4713,
      "शतक": 4714,
      "नायक": 4715,
      "सर्वाधिक": 4716,
      "दुबे": 4717,
      "पवन": 4718,
      "मुरा": 4719,
      "मुद्दा": 4720,
      "ार्पण": 4721,
      "प्रॉ": 4722,
      "महेश": 4723,
      "सका": 4724,
      "तिया": 4725,
      "ढे": 4726,
      "सेवक": 4727,
      "मरे": 4728,
      "उल": 4729,
      "पचारिक": 4730,
      "पुलिसकर्मियों": 4731,
      "ख़ि": 4732,
      "स्ट्रा": 4733,
      "लड़ने": 4734,
      "साहिब": 4735,
      "सामूहिक": 4736,
      "रिस": 4737,
      "गुल": 4738,
      "विश्ले": 4739,
      "ब्रांड": 4740,
      "उत्साह": 4741,
      "यर्स": 4742,
      "डिप्टी": 4743,
      "पेपर": 4744,
      "इम": 4745,
      "इधर": 4746,
      "छापेमारी": 4747,
      "कोटा": 4748,
      "आरसी": 4749,
      "विज": 4750,
      "स्थगित": 4751,
      "मंदिरों": 4752,
      "उपाध्याय": 4753,
      "ब्राह्": 4754,
      "एकत्र": 4755,
      "मय": 4756,
      "प्रवासी": 4757,
      "सीमित": 4758,
      "शनल": 4759,
      "एचडी": 4760,
      "सिलसि": 4761,
      "क्षणिक": 4762,
      "स्पोर्ट": 4763,
      "फिल्": 4764,
      "२००५": 4765,
      "ैर": 4766,
      "सीन": 4767,
      "चिकित्सकों": 4768,
      "लिग": 4769,
      "ंत्रिक": 4770,
      "सेंट्रल": 4771,
      "पंक": 4772,
      "रेड": 4773,
      "एथ": 4774,
      "संक्षेप": 4775,
      "जोध": 4776,
      "च्चा": 4777,
      "कॉलोनी": 4778,
      "अधिकतर": 4779,
      "परीक्ष": 4780,
      "नये": 4781,
      "यूरोपीय": 4782,
      "दस्तावेज": 4783,
      "हर्ष": 4784,
      "निभाई": 4785,
      "भेड़": 4786,
      "न्त": 4787,
      "चैंपियनशिप": 4788,
      "हीन": 4789,
      "संवेदन": 4790,
      "विकि": 4791,
      "उठाने": 4792,
      "सीटें": 4793,
      "सेक्स": 4794,
      "ग्राउंड": 4795,
      "देगी": 4796,
      "ंद्रा": 4797,
      "इंदिरा": 4798,
      "संरचना": 4799,
      "धमकी": 4800,
      "पठ": 4801,
      "मुक्ति": 4802,
      "रिजर्": 4803,
      "रेन": 4804,
      "अंजाम": 4805,
      "२००३": 4806,
      "लिखी": 4807,
      "बदमाशों": 4808,
      "रिजल्": 4809,
      "सीता": 4810,
      "बिन": 4811,
      "एसएसपी": 4812,
      "उत्पादों": 4813,
      "विक्रम": 4814,
      "हिन्दु": 4815,
      "्युनि": 4816,
      "क्रमा": 4817,
      "गुस्": 4818,
      "आएंगे": 4819,
      "फाउ": 4820,
      "न्यायिक": 4821,
      "समझौते": 4822,
      "सच": 4823,
      "सश": 4824,
      "उठाए": 4825,
      "मंत्रिमंडल": 4826,
      "र्त": 4827,
      "प्रयागराज": 4828,
      "बस्ती": 4829,
      "ंडेशन": 4830,
      "स्थाना": 4831,
      "जगहों": 4832,
      "वैक्सीनेशन": 4833,
      "कमिश्नर": 4834,
      "अग्": 4835,
      "फान": 4836,
      "इसको": 4837,
      "बिर": 4838,
      "बानी": 4839,
      "लम्": 4840,
      "३००": 4841,
      "प्रार्थ": 4842,
      "जेट": 4843,
      "गोयल": 4844,
      "जरिये": 4845,
      "सेमी": 4846,
      "डेटा": 4847,
      "गुरू": 4848,
      "प्रीमियर": 4849,
      "जोधपुर": 4850,
      "रिजल्ट": 4851,
      "अनुसूचित": 4852,
      "४४": 4853,
      "बेट": 4854,
      "शैक्षणिक": 4855,
      "मिकों": 4856,
      "वीय": 4857,
      "कामया": 4858,
      "भाषाओं": 4859,
      "मस": 4860,
      "निर्देशन": 4861,
      "युवती": 4862,
      "यूरोप": 4863,
      "बढ़ी": 4864,
      "राधा": 4865,
      "डिस्": 4866,
      "स्टल": 4867,
      "हेड": 4868,
      "आपात": 4869,
      "धोखा": 4870,
      "महत्": 4871,
      "त्यो": 4872,
      "नैतिक": 4873,
      "निकालने": 4874,
      "कमान": 4875,
      "र्थियों": 4876,
      "करेंगी": 4877,
      "प्रार्थना": 4878,
      "सीईओ": 4879,
      "मंद": 4880,
      "लोकतंत्र": 4881,
      "लायंस": 4882,
      "भाल": 4883,
      "गुना": 4884,
      "िन": 4885,
      "हरिद्वार": 4886,
      "संयोजक": 4887,
      "आरपीएफ": 4888,
      "मुठ": 4889,
      "मेहन": 4890,
      "ओपन": 4891,
      "हूर": 4892,
      "मृत": 4893,
      "साइड": 4894,
      "भेजने": 4895,
      "भट्ट": 4896,
      "पीएस": 4897,
      "न्यायम": 4898,
      "लिहा": 4899,
      "१२वीं": 4900,
      "निधि": 4901,
      "चोपड़ा": 4902,
      "मुखर्जी": 4903,
      "वाहा": 4904,
      "सिपा": 4905,
      "बल्लेबाजी": 4906,
      "रचित": 4907,
      "पत्थर": 4908,
      "कनाडा": 4909,
      "जंगल": 4910,
      "हिम": 4911,
      "पैरा": 4912,
      "ड्डे": 4913,
      "पेयजल": 4914,
      "छोटा": 4915,
      "दिव्यांग": 4916,
      "रम": 4917,
      "देह": 4918,
      "वर्ड": 4919,
      "समर्थकों": 4920,
      "अभ्यर्थियों": 4921,
      "टकों": 4922,
      "लियम": 4923,
      "मनोहर": 4924,
      "दिग्गज": 4925,
      "फ़ोन": 4926,
      "मांगा": 4927,
      "क्के": 4928,
      "सीख": 4929,
      "पंकज": 4930,
      "ूर्ति": 4931,
      "कोय": 4932,
      "क्लास": 4933,
      "पहुँ": 4934,
      "दपुर": 4935,
      "नाराजगी": 4936,
      "बृह": 4937,
      "सिन": 4938,
      "जीएसटी": 4939,
      "आसानी": 4940,
      "राठ": 4941,
      "बिग": 4942,
      "पिका": 4943,
      "वेस्टइंडीज": 4944,
      "सिड": 4945,
      "संबंधों": 4946,
      "दावे": 4947,
      "पेशे": 4948,
      "परिचय": 4949,
      "गोवा": 4950,
      "टेनिस": 4951,
      "खरीदने": 4952,
      "ग्रंथ": 4953,
      "शुक्रिया": 4954,
      "दृश्य": 4955,
      "इस्लाम": 4956,
      "अमरीका": 4957,
      "शासक": 4958,
      "फॉर": 4959,
      "चाइ": 4960,
      "इंस्टा": 4961,
      "न्यायमूर्ति": 4962,
      "साधारण": 4963,
      "डिट": 4964,
      "जुटा": 4965,
      "छेड़": 4966,
      "रत्": 4967,
      "महंगा": 4968,
      "तैयारियों": 4969,
      "जायजा": 4970,
      "मजिस्ट्रेट": 4971,
      "लता": 4972,
      "ंडो": 4973,
      "कौर": 4974,
      "जुड़ा": 4975,
      "डेढ़": 4976,
      "जौ": 4977,
      "िणी": 4978,
      "१९९०": 4979,
      "बला": 4980,
      "धीन": 4981,
      "कच": 4982,
      "खिताब": 4983,
      "फीस": 4984,
      "अगु": 4985,
      "आकाश": 4986,
      "रेज": 4987,
      "बुनिया": 4988,
      "ज़िंदगी": 4989,
      "राह": 4990,
      "संग्र": 4991,
      "बिहारी": 4992,
      "डीआर": 4993,
      "आईजी": 4994,
      "प्राय": 4995,
      "कॉर्": 4996,
      "स्रोत": 4997,
      "खनन": 4998,
      "९९": 4999,
      "सिख": 5000,
      "चोट": 5001,
      "थोड़ी": 5002,
      "मस्जिद": 5003,
      "अकाउंट": 5004,
      "चतुर्": 5005,
      "स्क्रीन": 5006,
      "प्रसारण": 5007,
      "जहा": 5008,
      "भक्ति": 5009,
      "साढ़े": 5010,
      "संदीप": 5011,
      "जिश": 5012,
      "डेस्क": 5013,
      "स्वीकृति": 5014,
      "नारेबाजी": 5015,
      "पश्चात": 5016,
      "शुरुआती": 5017,
      "गेंदबाजी": 5018,
      "धूम": 5019,
      "साव": 5020,
      "वारदा": 5021,
      "मानते": 5022,
      "मतदाताओं": 5023,
      "अपराधियों": 5024,
      "आरंभ": 5025,
      "सैंप": 5026,
      "क्रोश": 5027,
      "संवेदनशील": 5028,
      "चढ़ा": 5029,
      "हेली": 5030,
      "खेलते": 5031,
      "पाठक": 5032,
      "अन्तर्गत": 5033,
      "झी": 5034,
      "उपभोक्ता": 5035,
      "फते": 5036,
      "स्वि": 5037,
      "थानाध्यक्ष": 5038,
      "प्रदर्शित": 5039,
      "एक्शन": 5040,
      "वाता": 5041,
      "हुसैन": 5042,
      "डि़": 5043,
      "वरों": 5044,
      "अड्डे": 5045,
      "भव्य": 5046,
      "कब्जे": 5047,
      "आशीष": 5048,
      "मचा": 5049,
      "ल्ल": 5050,
      "युवकों": 5051,
      "आयर": 5052,
      "टक्कर": 5053,
      "ष्कार": 5054,
      "स्थिर": 5055,
      "लगेगा": 5056,
      "भड़": 5057,
      "संस्थाओं": 5058,
      "यॉर्क": 5059,
      "आर्य": 5060,
      "क्ली": 5061,
      "लाइफ": 5062,
      "आंगन": 5063,
      "अभ्यास": 5064,
      "बदलने": 5065,
      "सर्वेक्षण": 5066,
      "ौती": 5067,
      "ट्रैफिक": 5068,
      "भागीदारी": 5069,
      "चुन": 5070,
      "मुझसे": 5071,
      "जमेंट": 5072,
      "भगत": 5073,
      "मौजूदगी": 5074,
      "आन्": 5075,
      "एगा": 5076,
      "नामी": 5077,
      "ग्लो": 5078,
      "बेचने": 5079,
      "अक्षय": 5080,
      "१५०": 5081,
      "सीसीटीवी": 5082,
      "मशहूर": 5083,
      "बढ़ोतरी": 5084,
      "क्ष्य": 5085,
      "जीते": 5086,
      "हिस्सों": 5087,
      "इच्छा": 5088,
      "होली": 5089,
      "कनेक्शन": 5090,
      "आश्रम": 5091,
      "कानूनों": 5092,
      "प्रत्याशियों": 5093,
      "उपभोक्ताओं": 5094,
      "भक्तों": 5095,
      "सूर": 5096,
      "समझौता": 5097,
      "फाउंडेशन": 5098,
      "कल्": 5099,
      "लघु": 5100,
      "पंजीकरण": 5101,
      "थुरा": 5102,
      "कैप्टन": 5103,
      "तहरी": 5104,
      "कराना": 5105,
      "आक्रोश": 5106,
      "न्थ": 5107,
      "जाहिर": 5108,
      "डोना": 5109,
      "अंध": 5110,
      "थाम": 5111,
      "रोमा": 5112,
      "धीर": 5113,
      "सफर": 5114,
      "किस्": 5115,
      "सरपंच": 5116,
      "बीसीसी": 5117,
      "फाइल": 5118,
      "कृष्ट": 5119,
      "भरने": 5120,
      "ग्रीन": 5121,
      "कितना": 5122,
      "ख़ा": 5123,
      "ब्लैक": 5124,
      "मुठभेड़": 5125,
      "विख्यात": 5126,
      "ष्णा": 5127,
      "अधीन": 5128,
      "संपाद": 5129,
      "परिस्थितियों": 5130,
      "हॉकी": 5131,
      "आमंत्रित": 5132,
      "श्रीराम": 5133,
      "मेहनत": 5134,
      "दर्जा": 5135,
      "प्पा": 5136,
      "मथुरा": 5137,
      "टिक्स": 5138,
      "२००१": 5139,
      "ल्यांकन": 5140,
      "पहुंचाया": 5141,
      "चें": 5142,
      "नज़र": 5143,
      "१९९८": 5144,
      "समीक्षाएँ": 5145,
      "वाड़": 5146,
      "दर्शा": 5147,
      "दर्शकों": 5148,
      "विवेक": 5149,
      "उड़ा": 5150,
      "जिनका": 5151,
      "ओपी": 5152,
      "२००२": 5153,
      "तालाब": 5154,
      "सप्": 5155,
      "विज्ञापन": 5156,
      "लियो": 5157,
      "पूछा": 5158,
      "फ्रे": 5159,
      "ताकत": 5160,
      "उपचुनाव": 5161,
      "अन्तर": 5162,
      "निंदा": 5163,
      "अनुवाद": 5164,
      "चौथे": 5165,
      "नग": 5166,
      "अख": 5167,
      "पुराना": 5168,
      "ौरा": 5169,
      "इतने": 5170,
      "श्रीमती": 5171,
      "निकाय": 5172,
      "सिम": 5173,
      "ोगी": 5174,
      "बुद्ध": 5175,
      "हॉस्पिटल": 5176,
      "बौक्स": 5177,
      "खड़ी": 5178,
      "सोना": 5179,
      "समर्पित": 5180,
      "ंगाना": 5181,
      "पुणे": 5182,
      "पीड़िता": 5183,
      "हद": 5184,
      "इनकार": 5185,
      "यूनिट": 5186,
      "भरे": 5187,
      "प्रेरणा": 5188,
      "बिंद": 5189,
      "किशन": 5190,
      "शूटिंग": 5191,
      "तृतीय": 5192,
      "दुर्ग": 5193,
      "भौतिक": 5194,
      "भीम": 5195,
      "दिक्कत": 5196,
      "सतीश": 5197,
      "चाहे": 5198,
      "बीआई": 5199,
      "ब्लू": 5200,
      "मिंग": 5201,
      "इमरान": 5202,
      "ार्क": 5203,
      "प्रयासों": 5204,
      "रिजर्व": 5205,
      "रिट": 5206,
      "धानिक": 5207,
      "शंसा": 5208,
      "प्रोग्राम": 5209,
      "कृष्णा": 5210,
      "यश": 5211,
      "सांख्य": 5212,
      "लक्षण": 5213,
      "४६": 5214,
      "ऋण": 5215,
      "साइंस": 5216,
      "मुह": 5217,
      "देन": 5218,
      "डेय": 5219,
      "नर्": 5220,
      "बच्चन": 5221,
      "वितरित": 5222,
      "पिल": 5223,
      "निकलने": 5224,
      "वैधानिक": 5225,
      "काव्य": 5226,
      "नाबा": 5227,
      "विद्वान": 5228,
      "टीन": 5229,
      "रामा": 5230,
      "आएगी": 5231,
      "एकल": 5232,
      "बदले": 5233,
      "कारोबारी": 5234,
      "ंबा": 5235,
      "ठो": 5236,
      "भरी": 5237,
      "जाओ": 5238,
      "परियोजनाओं": 5239,
      "तेलंगाना": 5240,
      "दिला": 5241,
      "प्रोड": 5242,
      "अटल": 5243,
      "ड्रे": 5244,
      "भास्कर": 5245,
      "बताई": 5246,
      "भेंट": 5247,
      "४७": 5248,
      "फ़र": 5249,
      "टेक्नो": 5250,
      "आजादी": 5251,
      "निस्त": 5252,
      "फ्तार": 5253,
      "सितम्बर": 5254,
      "चर्स": 5255,
      "मंग": 5256,
      "ऐप": 5257,
      "डेन": 5258,
      "शौचालय": 5259,
      "गंभीरता": 5260,
      "घि": 5261,
      "सृ": 5262,
      "वैज्ञानिकों": 5263,
      "रवी": 5264,
      "निशा": 5265,
      "ट्रेट": 5266,
      "कैंसर": 5267,
      "लैण्ड": 5268,
      "संभावित": 5269,
      "विशेषज्ञों": 5270,
      "ढंग": 5271,
      "सोन": 5272,
      "ब्रह्म": 5273,
      "ेंड": 5274,
      "अब्दुल": 5275,
      "स्मार": 5276,
      "दिलच": 5277,
      "दंड": 5278,
      "फ़ो": 5279,
      "वातावरण": 5280,
      "आँ": 5281,
      "कड़ा": 5282,
      "द्दा": 5283,
      "नाई": 5284,
      "साउथ": 5285,
      "पवि": 5286,
      "दिलीप": 5287,
      "सीए": 5288,
      "ुण": 5289,
      "अस्त": 5290,
      "चिन्ह": 5291,
      "कोवि": 5292,
      "सियस": 5293,
      "योग्यता": 5294,
      "शियन": 5295,
      "श्वरी": 5296,
      "हियों": 5297,
      "मीटिंग": 5298,
      "डाटा": 5299,
      "ब्राह्मण": 5300,
      "अधिकारों": 5301,
      "गायक": 5302,
      "सुल्": 5303,
      "सिंधिया": 5304,
      "नाइटेड": 5305,
      "बरी": 5306,
      "त्रु": 5307,
      "नवम्बर": 5308,
      "टीमें": 5309,
      "घोटाले": 5310,
      "अवि": 5311,
      "नंद": 5312,
      "वट": 5313,
      "संहिता": 5314,
      "दीपा": 5315,
      "बेन": 5316,
      "लोत": 5317,
      "शुभकामना": 5318,
      "रोल": 5319,
      "कपड़े": 5320,
      "मिं": 5321,
      "जनजाति": 5322,
      "सौंपी": 5323,
      "ओडि": 5324,
      "आरोपों": 5325,
      "तैयारियां": 5326,
      "अगली": 5327,
      "क्वि": 5328,
      "जियो": 5329,
      "सिफार": 5330,
      "भेजी": 5331,
      "मैनेजर": 5332,
      "आकार": 5333,
      "जमी": 5334,
      "मानक": 5335,
      "डिवी": 5336,
      "कैलाश": 5337,
      "सिद्धार्थ": 5338,
      "पहाड़ी": 5339,
      "मूल्यांकन": 5340,
      "बिजनेस": 5341,
      "आंख": 5342,
      "दयाल": 5343,
      "खतर": 5344,
      "मिट्टी": 5345,
      "कॉप्टर": 5346,
      "कुं": 5347,
      "मिलेंगे": 5348,
      "व्यस्त": 5349,
      "इंस्टाग्राम": 5350,
      "अमिता": 5351,
      "इंच": 5352,
      "लिखे": 5353,
      "नक्सलियों": 5354,
      "सिफारिश": 5355,
      "ईडी": 5356,
      "सनी": 5357,
      "र्ता": 5358,
      "तेलु": 5359,
      "गिल": 5360,
      "बनकर": 5361,
      "एफआईआर": 5362,
      "१९९६": 5363,
      "जोड़ने": 5364,
      "ंडि": 5365,
      "कम्युनि": 5366,
      "टाइम": 5367,
      "फ़ै": 5368,
      "४९": 5369,
      "व्यावसाय": 5370,
      "विभा": 5371,
      "सराहना": 5372,
      "युग": 5373,
      "स्पोर्ट्स": 5374,
      "महीनों": 5375,
      "पायलट": 5376,
      "सत्": 5377,
      "पार्किंग": 5378,
      "मजबूर": 5379,
      "परीक्षाओं": 5380,
      "किम": 5381,
      "इंसान": 5382,
      "फ्लै": 5383,
      "चेहरे": 5384,
      "नौकर": 5385,
      "पक्षों": 5386,
      "चर्": 5387,
      "वियत": 5388,
      "बसों": 5389,
      "सीएमओ": 5390,
      "स्थानां": 5391,
      "क्लि": 5392,
      "डीएस": 5393,
      "चलता": 5394,
      "ानुसार": 5395,
      "लिश": 5396,
      "चालन": 5397,
      "औसत": 5398,
      "निर्मा": 5399,
      "डीजल": 5400,
      "पोस्टर": 5401,
      "पेयी": 5402,
      "बृहस्पति": 5403,
      "ेंडर": 5404,
      "कर्ज": 5405,
      "ट्रैक": 5406,
      "प्रस्तुति": 5407,
      "नजदी": 5408,
      "देशभर": 5409,
      "उर्दू": 5410,
      "डम": 5411,
      "टेज": 5412,
      "इंतजाम": 5413,
      "ूँगा": 5414,
      "स्कोर": 5415,
      "मुआव": 5416,
      "इंजन": 5417,
      "बुरा": 5418,
      "जानिए": 5419,
      "लिंक": 5420,
      "खुल": 5421,
      "स्टेबल": 5422,
      "साइबर": 5423,
      "काले": 5424,
      "अलीगढ़": 5425,
      "पाँच": 5426,
      "राज्यमंत्री": 5427,
      "कैमरा": 5428,
      "देशक": 5429,
      "मुखी": 5430,
      "व्यावसायिक": 5431,
      "हुईं": 5432,
      "एकता": 5433,
      "चालू": 5434,
      "सूरज": 5435,
      "विविध": 5436,
      "पवित्र": 5437,
      "१९९९": 5438,
      "आतंकवादियों": 5439,
      "प्रश": 5440,
      "दूध": 5441,
      "घट": 5442,
      "बीए": 5443,
      "ग्रन्थ": 5444,
      "मारने": 5445,
      "आर्ट": 5446,
      "४००": 5447,
      "दीवार": 5448,
      "शिला": 5449,
      "ज़्": 5450,
      "अर्पित": 5451,
      "प्रतीक": 5452,
      "सभाग": 5453,
      "वाइस": 5454,
      "निरं": 5455,
      "हुये": 5456,
      "क्रॉ": 5457,
      "तृण": 5458,
      "मनोरंजन": 5459,
      "अल्पसंख्यक": 5460,
      "डोनाल्ड": 5461,
      "५७": 5462,
      "मैनेजमेंट": 5463,
      "त्योहार": 5464,
      "काज": 5465,
      "सुशील": 5466,
      "पिन": 5467,
      "कलाकारों": 5468,
      "मिलाकर": 5469,
      "गुर्": 5470,
      "जलवायु": 5471,
      "आजाद": 5472,
      "पड़ोसी": 5473,
      "स्पा": 5474,
      "थाई": 5475,
      "रियों": 5476,
      "पासवान": 5477,
      "व्याख्या": 5478,
      "उत्कृष्ट": 5479,
      "प्रको": 5480,
      "चैम्": 5481,
      "सॉफ्टवेयर": 5482,
      "प्रीत": 5483,
      "जवाहर": 5484,
      "४२": 5485,
      "मिस": 5486,
      "कार्यशाला": 5487,
      "धोनी": 5488,
      "दस्तावे": 5489,
      "गहलोत": 5490,
      "हक": 5491,
      "उपलब्धि": 5492,
      "चम": 5493,
      "बघे": 5494,
      "नीला": 5495,
      "मंत": 5496,
      "गोविंद": 5497,
      "एप्": 5498,
      "जस": 5499,
      "५६": 5500,
      "र्ग": 5501,
      "हॉल": 5502,
      "सेल्सियस": 5503,
      "रफ्तार": 5504,
      "शिंगटन": 5505,
      "एरिया": 5506,
      "गर्मी": 5507,
      "तृणमूल": 5508,
      "केयर": 5509,
      "आंकड़ों": 5510,
      "आलोक": 5511,
      "भद्र": 5512,
      "शिखर": 5513,
      "पुरम": 5514,
      "ल्लू": 5515,
      "दुकानें": 5516,
      "तुर्की": 5517,
      "एम्": 5518,
      "सायन": 5519,
      "श्रमिकों": 5520,
      "पकड़े": 5521,
      "फुल": 5522,
      "तस्": 5523,
      "क्य": 5524,
      "दोस्तों": 5525,
      "महल": 5526,
      "कारणों": 5527,
      "गाने": 5528,
      "भाषाएँ": 5529,
      "तहरीर": 5530,
      "विज्ञ": 5531,
      "डाक": 5532,
      "१९९१": 5533,
      "बहि": 5534,
      "लोन": 5535,
      "शीत": 5536,
      "डाक्टर": 5537,
      "बाजारों": 5538,
      "मायावती": 5539,
      "प्रधानाचार्य": 5540,
      "मेजब": 5541,
      "एसआई": 5542,
      "आजम": 5543,
      "अनुरूप": 5544,
      "रिटा": 5545,
      "ंचित": 5546,
      "१९९२": 5547,
      "क्षु": 5548,
      "केंड": 5549,
      "जिए": 5550,
      "बनाये": 5551,
      "उच्चतम": 5552,
      "सकी": 5553,
      "डीह": 5554,
      "टिका": 5555,
      "मुजफ्फरपुर": 5556,
      "ऊंचा": 5557,
      "परिजन": 5558,
      "आरा": 5559,
      "एंबुलेंस": 5560,
      "बीसीसीआई": 5561,
      "सप्लाई": 5562,
      "फील्ड": 5563,
      "आंगनबाड़ी": 5564,
      "दह": 5565,
      "कैमरे": 5566,
      "शेख": 5567,
      "प्रिं": 5568,
      "पुस्तकें": 5569,
      "तने": 5570,
      "प्रवी": 5571,
      "मानवा": 5572,
      "बढ़ाया": 5573,
      "लेटर": 5574,
      "अत्या": 5575,
      "सदस्यता": 5576,
      "दाद": 5577,
      "पौध": 5578,
      "अमरीकी": 5579,
      "मुफ्त": 5580,
      "्याज": 5581,
      "पुलिसकर्मी": 5582,
      "पोरेशन": 5583,
      "प्रतिबंधित": 5584,
      "दूत": 5585,
      "प्रसारित": 5586,
      "कितनी": 5587,
      "वसूली": 5588,
      "दुर": 5589,
      "सेवी": 5590,
      "अपेक्षा": 5591,
      "सरकारों": 5592,
      "ओडिशा": 5593,
      "करोड़ों": 5594,
      "भ्रमण": 5595,
      "नरेश": 5596,
      "ष्य": 5597,
      "नेशिया": 5598,
      "करवाई": 5599,
      "माय": 5600,
      "बघेल": 5601,
      "निरस्त": 5602,
      "उन्न": 5603,
      "आईडी": 5604,
      "आपरा": 5605,
      "डिवीजन": 5606,
      "सांसदों": 5607,
      "चयनित": 5608,
      "राजनेता": 5609,
      "शिवा": 5610,
      "लेस": 5611,
      "प्लस": 5612,
      "कंड": 5613,
      "यती": 5614,
      "रुख": 5615,
      "नोबेल": 5616,
      "फैला": 5617,
      "यौन": 5618,
      "मुरादाबाद": 5619,
      "मानवाधिकार": 5620,
      "लाह": 5621,
      "सेवानिवृत्त": 5622,
      "ललित": 5623,
      "बिता": 5624,
      "देवेंद्र": 5625,
      "सिंचाई": 5626,
      "शेर": 5627,
      "परीत": 5628,
      "छोड़ने": 5629,
      "सभागार": 5630,
      "रेख": 5631,
      "यहीं": 5632,
      "रूसी": 5633,
      "तैनाती": 5634,
      "संभ": 5635,
      "पीपी": 5636,
      "प्रतिभाग": 5637,
      "इंद्र": 5638,
      "दलीय": 5639,
      "मलिक": 5640,
      "दिमा": 5641,
      "शुद्ध": 5642,
      "गूगल": 5643,
      "पेन": 5644,
      "एनजी": 5645,
      "फोड़": 5646,
      "आपराधिक": 5647,
      "फायरिंग": 5648,
      "साक्षा": 5649,
      "ठाकरे": 5650,
      "विपरीत": 5651,
      "न्नी": 5652,
      "सास": 5653,
      "आईएम": 5654,
      "वन्य": 5655,
      "निर्देशों": 5656,
      "फेल": 5657,
      "हराकर": 5658,
      "नाश": 5659,
      "बीन": 5660,
      "पड़ने": 5661,
      "ब्रिज": 5662,
      "काउंसिल": 5663,
      "राजनाथ": 5664,
      "सरदार": 5665,
      "कूट": 5666,
      "नर्स": 5667,
      "ौज": 5668,
      "ंचे": 5669,
      "लैब": 5670,
      "सुल्तान": 5671,
      "भूल": 5672,
      "१९९३": 5673,
      "नाबालिग": 5674,
      "क्ट्रेट": 5675,
      "जिक्र": 5676,
      "समृ": 5677,
      "कुंभ": 5678,
      "खेत": 5679,
      "आरती": 5680,
      "बुनियादी": 5681,
      "सैंपल": 5682,
      "रौ": 5683,
      "डांस": 5684,
      "प्रोटो": 5685,
      "ध्वज": 5686,
      "थन": 5687,
      "कायम": 5688,
      "लील": 5689,
      "कितने": 5690,
      "हिस्सेदारी": 5691,
      "बेंगल": 5692,
      "लालू": 5693,
      "जगदी": 5694,
      "जज": 5695,
      "ढूँ": 5696,
      "जिंदगी": 5697,
      "जिनकी": 5698,
      "समर्थक": 5699,
      "नागरिकता": 5700,
      "बली": 5701,
      "ूंगा": 5702,
      "क्वा": 5703,
      "जिकल": 5704,
      "१९८०": 5705,
      "साझे": 5706,
      "डाउनलोड": 5707,
      "प्लास्टिक": 5708,
      "जरा": 5709,
      "सच्": 5710,
      "नीतियों": 5711,
      "गणतंत्र": 5712,
      "जानें": 5713,
      "स्नान": 5714,
      "राजे": 5715,
      "ंका": 5716,
      "धव": 5717,
      "साजिश": 5718,
      "बच्ची": 5719,
      "मिनी": 5720,
      "छाड़": 5721,
      "टीसी": 5722,
      "जोखि": 5723,
      "फतेह": 5724,
      "मतगणना": 5725,
      "महानगर": 5726,
      "अमिताभ": 5727,
      "ंपरिक": 5728,
      "अजीत": 5729,
      "कारिणी": 5730,
      "ढ़ा": 5731,
      "बोला": 5732,
      "कमरे": 5733,
      "प्रमोद": 5734,
      "लव": 5735,
      "क्यो": 5736,
      "भागलपुर": 5737,
      "यूनाइटेड": 5738,
      "शुरूआत": 5739,
      "तरीका": 5740,
      "रुचि": 5741,
      "गर्भव": 5742,
      "आभार": 5743,
      "विद्र": 5744,
      "हालय": 5745,
      "बृ": 5746,
      "देशी": 5747,
      "मिलना": 5748,
      "अखबार": 5749,
      "दीक्षित": 5750,
      "वर्षा": 5751,
      "पारंपरिक": 5752,
      "खूबसूरत": 5753,
      "सब्जी": 5754,
      "निस्तारण": 5755,
      "थियों": 5756,
      "फं": 5757,
      "मीना": 5758,
      "मछ": 5759,
      "ैया": 5760,
      "५१": 5761,
      "जनगणना": 5762,
      "महासागर": 5763,
      "सुनाई": 5764,
      "मेहता": 5765,
      "जगदीश": 5766,
      "ँगा": 5767,
      "औपचारिक": 5768,
      "मास": 5769,
      "वारिक": 5770,
      "प्राप्ति": 5771,
      "सांख्यिकी": 5772,
      "हानि": 5773,
      "्रि": 5774,
      "र्ख": 5775,
      "चुअल": 5776,
      "उपाय": 5777,
      "लखी": 5778,
      "सिपाही": 5779,
      "६८": 5780,
      "रामन": 5781,
      "देरी": 5782,
      "रिलायंस": 5783,
      "जोड़ा": 5784,
      "एजेंसियों": 5785,
      "इस्लामी": 5786,
      "प्रदर्शनी": 5787,
      "सलों": 5788,
      "ख़ान": 5789,
      "आधा": 5790,
      "शिर": 5791,
      "ब्वे": 5792,
      "मध्यम": 5793,
      "१९८९": 5794,
      "अंदाज": 5795,
      "टेक्नोलॉजी": 5796,
      "मुर": 5797,
      "रिकार्ड": 5798,
      "म्बई": 5799,
      "गवर्नर": 5800,
      "पला": 5801,
      "क्षिक": 5802,
      "पूंजी": 5803,
      "केंद्रित": 5804,
      "महानिदेशक": 5805,
      "माफ़": 5806,
      "ष्म": 5807,
      "पारिवारिक": 5808,
      "प्रजा": 5809,
      "निर्यात": 5810,
      "बुरी": 5811,
      "बढ़कर": 5812,
      "दायित्व": 5813,
      "बीमारियों": 5814,
      "संग्रहालय": 5815,
      "नेपाली": 5816,
      "तिमा": 5817,
      "मिसाइ": 5818,
      "अकेले": 5819,
      "रसायन": 5820,
      "दीपिका": 5821,
      "ग्रै": 5822,
      "मराठी": 5823,
      "न्त्र": 5824,
      "देखभाल": 5825,
      "दिखाने": 5826,
      "वारदात": 5827,
      "लह": 5828,
      "शुक्ल": 5829,
      "खोल": 5830,
      "रोकथाम": 5831,
      "वायुसेना": 5832,
      "नाइट": 5833,
      "चिह्": 5834,
      "दुख": 5835,
      "पोल": 5836,
      "पक्षीय": 5837,
      "मेश्वर": 5838,
      "अंसारी": 5839,
      "औष": 5840,
      "पैमाने": 5841,
      "टेबल": 5842,
      "सोने": 5843,
      "जितेंद्र": 5844,
      "निम्नलिखित": 5845,
      "आंत": 5846,
      "किरण": 5847,
      "बाइ": 5848,
      "देखो": 5849,
      "पढ़ने": 5850,
      "छुट्टी": 5851,
      "पार्टियों": 5852,
      "प्लेटफॉर्म": 5853,
      "इंटरव्यू": 5854,
      "छवि": 5855,
      "६४": 5856,
      "गां": 5857,
      "आएगा": 5858,
      "लुक": 5859,
      "आवेद": 5860,
      "क्ष्": 5861,
      "तिब्": 5862,
      "पेड़": 5863,
      "बचने": 5864,
      "गुस्सा": 5865,
      "सेक्सी": 5866,
      "वेशन": 5867,
      "रेगा": 5868,
      "हसन": 5869,
      "५८": 5870,
      "ष्ठा": 5871,
      "न्यूयॉर्क": 5872,
      "शोभा": 5873,
      "रैंकिंग": 5874,
      "अरुणा": 5875,
      "कियां": 5876,
      "साधनों": 5877,
      "पदार्पण": 5878,
      "सहार": 5879,
      "लगाना": 5880,
      "अलर्ट": 5881,
      "गर्भवती": 5882,
      "ंटों": 5883,
      "बीपी": 5884,
      "पत्रों": 5885,
      "पों": 5886,
      "परंतु": 5887,
      "चिंत": 5888,
      "मीरपुर": 5889,
      "खतरे": 5890,
      "ल्यू": 5891,
      "बनाते": 5892,
      "कलन": 5893,
      "मिथ": 5894,
      "फ्रंट": 5895,
      "हाईवे": 5896,
      "पट्टी": 5897,
      "न्दर": 5898,
      "बैड": 5899,
      "पिछली": 5900,
      "सायनिक": 5901,
      "मदन": 5902,
      "दिखे": 5903,
      "मल्टी": 5904,
      "जना": 5905,
      "शार": 5906,
      "टेनमेंट": 5907,
      "प्रतिष्ठित": 5908,
      "आइसो": 5909,
      "आला": 5910,
      "्यार": 5911,
      "पंजीकृत": 5912,
      "मिनि": 5913,
      "कार्यकारिणी": 5914,
      "एमपी": 5915,
      "ग्राहक": 5916,
      "एकजुट": 5917,
      "सना": 5918,
      "फेयर": 5919,
      "गृहमंत्री": 5920,
      "स्मारक": 5921,
      "ईरानी": 5922,
      "ालय": 5923,
      "जोड़ी": 5924,
      "हेल्प": 5925,
      "चैम्पियन": 5926,
      "वंशी": 5927,
      "अनुकूल": 5928,
      "बुद्धि": 5929,
      "१९९७": 5930,
      "शय": 5931,
      "कैरियर": 5932,
      "फोर्": 5933,
      "पंप": 5934,
      "बर्ट": 5935,
      "टेलि": 5936,
      "प्रतिबद्ध": 5937,
      "कपा": 5938,
      "कपिल": 5939,
      "दफ्": 5940,
      "ुष्य": 5941,
      "ढाई": 5942,
      "काउंटर": 5943,
      "जोखिम": 5944,
      "विहार": 5945,
      "दीर्": 5946,
      "अह": 5947,
      "बाब्वे": 5948,
      "रेप": 5949,
      "लक्ष्मण": 5950,
      "हृ": 5951,
      "मनमोहन": 5952,
      "गुजरा": 5953,
      "बुलंद": 5954,
      "गायब": 5955,
      "र्वाद": 5956,
      "क्लो": 5957,
      "बाधा": 5958,
      "गेम": 5959,
      "नागपुर": 5960,
      "चिकित्सालय": 5961,
      "लाइव": 5962,
      "ख्ती": 5963,
      "चलो": 5964,
      "डालने": 5965,
      "१९९४": 5966,
      "ल्लाह": 5967,
      "जायेगी": 5968,
      "ताज": 5969,
      "बेस्ट": 5970,
      "सदस्यीय": 5971,
      "प्स": 5972,
      "मनुष्य": 5973,
      "९८": 5974,
      "हैंड": 5975,
      "घाय": 5976,
      "संभाल": 5977,
      "सपना": 5978,
      "एम्स": 5979,
      "रोका": 5980,
      "बिगड़": 5981,
      "सोसाय": 5982,
      "अर्ध": 5983,
      "सेमीफाइनल": 5984,
      "दफ्तर": 5985,
      "''": 5986,
      "गमन": 5987,
      "इसने": 5988,
      "इंग": 5989,
      "वासीय": 5990,
      "मनाने": 5991,
      "बुजुर्ग": 5992,
      "यज्ञ": 5993,
      "ोनेशिया": 5994,
      "लीटर": 5995,
      "तियां": 5996,
      "गाजिया": 5997,
      "जत": 5998,
      "जाट": 5999,
      "कुशल": 6000,
      "छापा": 6001,
      "ट्टर": 6002,
      "लिखकर": 6003,
      "प्रभार": 6004,
      "क्तू": 6005,
      "नोडल": 6006,
      "गाजियाबाद": 6007,
      "७२": 6008,
      "कुंड": 6009,
      "अर्था": 6010,
      "आर्मी": 6011,
      "कमलनाथ": 6012,
      "तोमर": 6013,
      "इसीलिए": 6014,
      "स्ट्रि": 6015,
      "क्राइम": 6016,
      "मिकी": 6017,
      "राजनैतिक": 6018,
      "टेशन": 6019,
      "अभिभावकों": 6020,
      "सेहत": 6021,
      "सक्": 6022,
      "नीरज": 6023,
      "मानु": 6024,
      "कर्स": 6025,
      "कामकाज": 6026,
      "विवादित": 6027,
      "बृहस्पतिवार": 6028,
      "फांसी": 6029,
      "स्कूली": 6030,
      "अक्तू": 6031,
      "आवासीय": 6032,
      "निशान": 6033,
      "साधा": 6034,
      "रेफर": 6035,
      "रखकर": 6036,
      "खोला": 6037,
      "पर्यटकों": 6038,
      "बराबर": 6039,
      "साक्षात्कार": 6040,
      "क्चर": 6041,
      "तांत्रिक": 6042,
      "सीरिया": 6043,
      "स्वीकृत": 6044,
      "बनेगा": 6045,
      "विस्फोट": 6046,
      "गहरा": 6047,
      "पूर्वो": 6048,
      "शब्दों": 6049,
      "आशीर्वाद": 6050,
      "तिरु": 6051,
      "जेशन": 6052,
      "अनुबंध": 6053,
      "अगुवाई": 6054,
      "र्थी": 6055,
      "सिर्": 6056,
      "डिस्ट": 6057,
      "कोयला": 6058,
      "७७": 6059,
      "विनय": 6060,
      "लिपि": 6061,
      "फॉर्": 6062,
      "अभाव": 6063,
      "आमत": 6064,
      "डन": 6065,
      "शक": 6066,
      "ूं": 6067,
      "कोष": 6068,
      "कोषा": 6069,
      "संवैधानिक": 6070,
      "बढ़िया": 6071,
      "ईद": 6072,
      "ईश्वर": 6073,
      "जाया": 6074,
      "गाड़": 6075,
      "मेडल": 6076,
      "खेड़ा": 6077,
      "ज़िम्": 6078,
      "इलेक्ट्रिक": 6079,
      "फ्रां": 6080,
      "प्रोत्साहित": 6081,
      "अजी": 6082,
      "आलम": 6083,
      "प्रजाति": 6084,
      "परिचालन": 6085,
      "अनुराग": 6086,
      "जुटे": 6087,
      "लूस": 6088,
      "समूहों": 6089,
      "पाएंगे": 6090,
      "इच्छ": 6091,
      "भले": 6092,
      "ंगर": 6093,
      "सुरेंद्र": 6094,
      "अगला": 6095,
      "कटौती": 6096,
      "वीरेंद्र": 6097,
      "हिमालय": 6098,
      "आकर्षण": 6099,
      "व्रत": 6100,
      "घायलों": 6101,
      "आमतौर": 6102,
      "क्वार्": 6103,
      "बहुमत": 6104,
      "लेखन": 6105,
      "बर्फ": 6106,
      "ून": 6107,
      "प्रकृति": 6108,
      "मुम्बई": 6109,
      "मैक": 6110,
      "यानि": 6111,
      "प्रिया": 6112,
      "मार्गदर्शन": 6113,
      "समस्याएं": 6114,
      "आरोपितों": 6115,
      "महादेव": 6116,
      "निरंतर": 6117,
      "अक्तूबर": 6118,
      "खन्ना": 6119,
      "संपूर्ण": 6120,
      "मोर": 6121,
      "असली": 6122,
      "तावास": 6123,
      "अपमान": 6124,
      "नौसेना": 6125,
      "कस्बे": 6126,
      "४३": 6127,
      "८८": 6128,
      "राजद": 6129,
      "टूट": 6130,
      "चलेगा": 6131,
      "फ्रेंड": 6132,
      "हमीरपुर": 6133,
      "सेवन": 6134,
      "मिलियन": 6135,
      "दूतावास": 6136,
      "पुष्प": 6137,
      "वर्गीय": 6138,
      "पौर": 6139,
      "प्रण": 6140,
      "१९८४": 6141,
      "मलेशिया": 6142,
      "पेट्रो": 6143,
      "पैके": 6144,
      "रासायनिक": 6145,
      "शीट": 6146,
      "रखता": 6147,
      "एचओ": 6148,
      "पंजाबी": 6149,
      "व्ही": 6150,
      "९५": 6151,
      "रेड्डी": 6152,
      "निवेशकों": 6153,
      "सख्ती": 6154,
      "संयंत्र": 6155,
      "तेंदु": 6156,
      "राजेन्द्र": 6157,
      "बादल": 6158,
      "श्रमिक": 6159,
      "जाएँ": 6160,
      "बारह": 6161,
      "वों": 6162,
      "त्ते": 6163,
      "राजनय": 6164,
      "भरत": 6165,
      "बॉक्स": 6166,
      "वाजपेयी": 6167,
      "सहारनपुर": 6168,
      "िमा": 6169,
      "सिंगा": 6170,
      "बैनर": 6171,
      "नर्म": 6172,
      "लेखा": 6173,
      "पौधे": 6174,
      "वस्तुओं": 6175,
      "फैक्ट्री": 6176,
      "आयरलैंड": 6177,
      "क्सि": 6178,
      "बेटा": 6179,
      "प्रतिस्पर्धा": 6180,
      "इत्या": 6181,
      "वाहि": 6182,
      "अस्तित्व": 6183,
      "एजु": 6184,
      "खड़": 6185,
      "जेक्शन": 6186,
      "जेएनएन": 6187,
      "ल्ले": 6188,
      "सुने": 6189,
      "सबू": 6190,
      "कूद": 6191,
      "टी२०ई": 6192,
      "अभ्यर्थी": 6193,
      "वण": 6194,
      "देखे": 6195,
      "अफ़्री": 6196,
      "एह": 6197,
      "परीक्षाएं": 6198,
      "दुकानदारों": 6199,
      "जीपुर": 6200,
      "अध्यापक": 6201,
      "क्वालीफायर": 6202,
      "लूम": 6203,
      "ग्लोबल": 6204,
      "गर्म": 6205,
      "नितिन": 6206,
      "रिय": 6207,
      "एफसी": 6208,
      "पाइ": 6209,
      "द्विवेदी": 6210,
      "मुसलमानों": 6211,
      "धर्मशाला": 6212,
      "विश्लेषण": 6213,
      "्न": 6214,
      "६६": 6215,
      "कोशिका": 6216,
      "वाड़ी": 6217,
      "समित": 6218,
      "शिलान": 6219,
      "साहब": 6220,
      "प्रवीण": 6221,
      "झील": 6222,
      "ंगना": 6223,
      "परो": 6224,
      "बरकरार": 6225,
      "लगती": 6226,
      "पीड़न": 6227,
      "राजू": 6228,
      "जुलूस": 6229,
      "कमांडर": 6230,
      "देखि": 6231,
      "अवकाश": 6232,
      "सोसायटी": 6233,
      "नहर": 6234,
      "अधिसूचना": 6235,
      "धारणा": 6236,
      "निकली": 6237,
      "सीबीएसई": 6238,
      "धोखाध": 6239,
      "प्राण": 6240,
      "डेमो": 6241,
      "प्रदर्शनकारियों": 6242,
      "कांस्टेबल": 6243,
      "बच्चा": 6244,
      "कठिन": 6245,
      "आफ": 6246,
      "जुटी": 6247,
      "छेद": 6248,
      "कश्मी": 6249,
      "स्टेशनों": 6250,
      "हस्तक्षेप": 6251,
      "सिर्फ़": 6252,
      "राजनयिक": 6253,
      "चक्कर": 6254,
      "माफी": 6255,
      "रोजाना": 6256,
      "बंदर": 6257,
      "न्वयन": 6258,
      "गेहूं": 6259,
      "शिलान्यास": 6260,
      "उग्र": 6261,
      "खरीदी": 6262,
      "ख़िला": 6263,
      "कीन": 6264,
      "पीयू": 6265,
      "सून": 6266,
      "एक्टर": 6267,
      "ड़की": 6268,
      "ग्स": 6269,
      "मिलित": 6270,
      "पुत्री": 6271,
      "बैंकिंग": 6272,
      "आईआईटी": 6273,
      "महतो": 6274,
      "१०वीं": 6275,
      "मरम्मत": 6276,
      "वंचित": 6277,
      "र्श": 6278,
      "जानता": 6279,
      "कहान": 6280,
      "बंगाली": 6281,
      "दिग्विजय": 6282,
      "शरीफ": 6283,
      "सहारा": 6284,
      "किंग्स": 6285,
      "ड्रो": 6286,
      "सत्यापन": 6287,
      "इत्यादि": 6288,
      "एडि": 6289,
      "बार्": 6290,
      "ंगु": 6291,
      "आरम्भ": 6292,
      "उज्जैन": 6293,
      "समन्वय": 6294,
      "बलात्कार": 6295,
      "खतरनाक": 6296,
      "हरीश": 6297,
      "प्रतिनिधिमंडल": 6298,
      "फायदे": 6299,
      "जर्मन": 6300,
      "धोखाधड़ी": 6301,
      "अपहरण": 6302,
      "एग्जाम": 6303,
      "बहाल": 6304,
      "सम्मिलित": 6305,
      "उमा": 6306,
      "गली": 6307,
      "शह": 6308,
      "तकर्ता": 6309,
      "महंत": 6310,
      "एनएच": 6311,
      "शैक्षिक": 6312,
      "खींच": 6313,
      "ध्रु": 6314,
      "मेडि": 6315,
      "हरु": 6316,
      "नगरीय": 6317,
      "कम्": 6318,
      "प्रशंसा": 6319,
      "महापौर": 6320,
      "िम": 6321,
      "्यो": 6322,
      "हितों": 6323,
      "बताए": 6324,
      "खुफिया": 6325,
      "प्रिंट": 6326,
      "जमशे": 6327,
      "दार्": 6328,
      "अनुदान": 6329,
      "चैलें": 6330,
      "प्रत्यक्ष": 6331,
      "दर्जनों": 6332,
      "हेल": 6333,
      "मांगे": 6334,
      "तत्वा": 6335,
      "शरद": 6336,
      "वालय": 6337,
      "अधिग्रहण": 6338,
      "ग्रेड": 6339,
      "घंटों": 6340,
      "टर्स": 6341,
      "शृंखला": 6342,
      "शत्रु": 6343,
      "६७": 6344,
      "क्रय": 6345,
      "डेविड": 6346,
      "आंकड़े": 6347,
      "संबद्ध": 6348,
      "रोशन": 6349,
      "मेयर": 6350,
      "उत्पीड़न": 6351,
      "दुश्": 6352,
      "बोध": 6353,
      "सहकारी": 6354,
      "१९९५": 6355,
      "विचारों": 6356,
      "कीमतों": 6357,
      "इमारत": 6358,
      "डेवल": 6359,
      "सैनी": 6360,
      "ष्ठी": 6361,
      "अट": 6362,
      "खाता": 6363,
      "शिकायतों": 6364,
      "रेंज": 6365,
      "एजुकेशन": 6366,
      "आराम": 6367,
      "प्रच": 6368,
      "टाउन": 6369,
      "सिक्यो": 6370,
      "शुभकामनाएं": 6371,
      "ठिका": 6372,
      "जाँच": 6373,
      "ंसल": 6374,
      "अग्नि": 6375,
      "क्लिक": 6376,
      "कुलदीप": 6377,
      "जंक्शन": 6378,
      "कटि": 6379,
      "सीएचसी": 6380,
      "जिल": 6381,
      "बिका": 6382,
      "पंथी": 6383,
      "पैदल": 6384,
      "ग्रो": 6385,
      "हवाला": 6386,
      "सरों": 6387,
      "सुशांत": 6388,
      "मोड़": 6389,
      "हॉट": 6390,
      "बहिष्कार": 6391,
      "आत्मा": 6392,
      "हवाले": 6393,
      "९७": 6394,
      "मालि": 6395,
      "५२": 6396,
      "बीडीओ": 6397,
      "सर्टिफि": 6398,
      "केन्द्रों": 6399,
      "क्रू": 6400,
      "चालान": 6401,
      "स्थाई": 6402,
      "स्पॉ": 6403,
      "स्टील": 6404,
      "ड्राइवर": 6405,
      "एल्": 6406,
      "रूपये": 6407,
      "जितना": 6408,
      "आकर्षित": 6409,
      "पेशेवर": 6410,
      "छाया": 6411,
      "एडमिशन": 6412,
      "नेश्वर": 6413,
      "मेंद्र": 6414,
      "चालकों": 6415,
      "सरो": 6416,
      "४१": 6417,
      "काग": 6418,
      "शास्": 6419,
      "आस्था": 6420,
      "जातीय": 6421,
      "शिशु": 6422,
      "निकला": 6423,
      "लाइंस": 6424,
      "सियासी": 6425,
      "नमू": 6426,
      "भजन": 6427,
      "विज़न": 6428,
      "बांट": 6429,
      "सन्न": 6430,
      "बनना": 6431,
      "निदेशालय": 6432,
      "सांस": 6433,
      "संग्राम": 6434,
      "बीज": 6435,
      "महंगाई": 6436,
      "आस्ट्रेलिया": 6437,
      "बैठा": 6438,
      "नक्सली": 6439,
      "विद": 6440,
      "दिलाया": 6441,
      "कहने": 6442,
      "उपाधि": 6443,
      "ठेकेदार": 6444,
      "गड़बड़ी": 6445,
      "स्कॉट": 6446,
      "गुर्जर": 6447,
      "अक": 6448,
      "कश्य": 6449,
      "सऊ": 6450,
      "लांग": 6451,
      "मौर्य": 6452,
      "हत्याकांड": 6453,
      "गरीबों": 6454,
      "द्वं": 6455,
      "मनरेगा": 6456,
      "बातों": 6457,
      "बॉर्डर": 6458,
      "सम्बन्ध": 6459,
      "लरी": 6460,
      "वास्तु": 6461,
      "रुद्र": 6462,
      "अनंत": 6463,
      "प्शन": 6464,
      "त्तम": 6465,
      "पीने": 6466,
      "आपसी": 6467,
      "१९८६": 6468,
      "अमी": 6469,
      "साहन": 6470,
      "चर्च": 6471,
      "शशि": 6472,
      "माबाद": 6473,
      "सेकेंड": 6474,
      "भागवत": 6475,
      "फोर्ड": 6476,
      "१९७१": 6477,
      "छेड़छाड़": 6478,
      "मासिक": 6479,
      "संज्ञान": 6480,
      "एकड़": 6481,
      "अंकित": 6482,
      "ग्रीष्म": 6483,
      "इटली": 6484,
      "ंजन": 6485,
      "कड़े": 6486,
      "जियम": 6487,
      "फ़्र": 6488,
      "चैन": 6489,
      "डोज": 6490,
      "जायसवाल": 6491,
      "नें": 6492,
      "पराम": 6493,
      "किन्तु": 6494,
      "रियो": 6495,
      "श्ती": 6496,
      "गिरोह": 6497,
      "ट्रेड": 6498,
      "पैर": 6499,
      "सावधानी": 6500,
      "कश्यप": 6501,
      "नष्ट": 6502,
      "महज": 6503,
      "फीसद": 6504,
      "दित्य": 6505,
      "८५": 6506,
      "बताने": 6507,
      "पेक्ष": 6508,
      "डेब्यू": 6509,
      "गिनी": 6510,
      "चौराहे": 6511,
      "पूर्वोत्तर": 6512,
      "ईमान": 6513,
      "चाय": 6514,
      "प्रयोगशाला": 6515,
      "ंटाइन": 6516,
      "प्रोत्साहन": 6517,
      "तस्करी": 6518,
      "साथियों": 6519,
      "कांग्रेसी": 6520,
      "चौथी": 6521,
      "फेड": 6522,
      "क्रेडिट": 6523,
      "उच्चा": 6524,
      "पमेंट": 6525,
      "पूर्वा": 6526,
      "सिंगापुर": 6527,
      "रजनी": 6528,
      "समुद्री": 6529,
      "तव्य": 6530,
      "बालक": 6531,
      "नैनी": 6532,
      "हथियारों": 6533,
      "वक्ताओं": 6534,
      "चलाई": 6535,
      "रनों": 6536,
      "रहकर": 6537,
      "सैम": 6538,
      "वाहक": 6539,
      "प्रशिक्षित": 6540,
      "सचिवालय": 6541,
      "गोलीबारी": 6542,
      "राक": 6543,
      "अपलोड": 6544,
      "पूर्णिमा": 6545,
      "रॉयल": 6546,
      "इच्छुक": 6547,
      "पद्ध": 6548,
      "बाधित": 6549,
      "सुमन": 6550,
      "विमर्": 6551,
      "वाल्": 6552,
      "टी२०आई": 6553,
      "स्टॉक": 6554,
      "क्वार्टर": 6555,
      "ख़िलाफ़": 6556,
      "उद्ध": 6557,
      "प्रदाय": 6558,
      "हीरो": 6559,
      "माफिया": 6560,
      "सीएस": 6561,
      "पाण्": 6562,
      "दरबार": 6563,
      "सिलेंडर": 6564,
      "प्राथमिकी": 6565,
      "कल्पना": 6566,
      "पवार": 6567,
      "पहना": 6568,
      "लगते": 6569,
      "व्यवसा": 6570,
      "फ़िल्मों": 6571,
      "जोरदार": 6572,
      "आंतरिक": 6573,
      "ऩे": 6574,
      "प्रेमी": 6575,
      "उदयपुर": 6576,
      "धमा": 6577,
      "नसी": 6578,
      "कराकर": 6579,
      "धरती": 6580,
      "१९८८": 6581,
      "सैनिटाइ": 6582,
      "एटीएम": 6583,
      "सीधा": 6584,
      "हड़कंप": 6585,
      "नशे": 6586,
      "क्ले": 6587,
      "मिंटन": 6588,
      "असिस्ट": 6589,
      "थान": 6590,
      "जूझ": 6591,
      "पासपोर्ट": 6592,
      "सम्बन्धित": 6593,
      "निशाने": 6594,
      "सिक्योरिटी": 6595,
      "विमर्श": 6596,
      "उतरे": 6597,
      "मदर": 6598,
      "होश": 6599,
      "तारीफ": 6600,
      "ख़ुद": 6601,
      "लाए": 6602,
      "सूबे": 6603,
      "जानने": 6604,
      "पहाड़": 6605,
      "चक्रवर्ती": 6606,
      "झटका": 6607,
      "सूक्ष्": 6608,
      "उद्योगों": 6609,
      "जमशेदपुर": 6610,
      "जीती": 6611,
      "सऊदी": 6612,
      "बैंड": 6613,
      "ज्वाला": 6614,
      "मुंह": 6615,
      "आकर्षक": 6616,
      "कम्प्यूटर": 6617,
      "श्वे": 6618,
      "कुशी": 6619,
      "नगरपालिका": 6620,
      "ोग्राफी": 6621,
      "विरासत": 6622,
      "बामा": 6623,
      "पेज": 6624,
      "जारा": 6625,
      "अपराधी": 6626,
      "ब्लड": 6627,
      "दीपावली": 6628,
      "अड्डा": 6629,
      "सज्": 6630,
      "अपडेट": 6631,
      "हेमंत": 6632,
      "मिर्जा": 6633,
      "सिपल": 6634,
      "मारकर": 6635,
      "महासभा": 6636,
      "ट्यूब": 6637,
      "गाइडलाइन": 6638,
      "बीस": 6639,
      "एंट्री": 6640,
      "१९८५": 6641,
      "सुनने": 6642,
      "स्पेस": 6643,
      "एसडीओ": 6644,
      "गणराज्य": 6645,
      "खबरों": 6646,
      "मिर": 6647,
      "भौति": 6648,
      "जालस्थल": 6649,
      "मुहम्मद": 6650,
      "हज़ार": 6651,
      "कीपर": 6652,
      "पाय": 6653,
      "टीके": 6654,
      "गीर": 6655,
      "प्रतिद्वं": 6656,
      "स्ट्रो": 6657,
      "ट्रायल": 6658,
      "मुआवजा": 6659,
      "गेटिव": 6660,
      "मुलायम": 6661,
      "मिसाइल": 6662,
      "डेंट": 6663,
      "२५०": 6664,
      "मीणा": 6665,
      "बैडमिंटन": 6666,
      "यमुना": 6667,
      "देनी": 6668,
      "किशोरी": 6669,
      "अजमेर": 6670,
      "अरो": 6671,
      "सिल्": 6672,
      "बहस": 6673,
      "विचारधारा": 6674,
      "स्टाइल": 6675,
      "तत्वों": 6676,
      "नर्मदा": 6677,
      "तर्क": 6678,
      "कर्तव्य": 6679,
      "बिंदु": 6680,
      "६२": 6681,
      "प्रदायिक": 6682,
      "द्वाज": 6683,
      "एंट": 6684,
      "गर्भ": 6685,
      "क्षतिग्रस्त": 6686,
      "उद": 6687,
      "तबाद": 6688,
      "य़": 6689,
      "वड़ा": 6690,
      "धरने": 6691,
      "रजत": 6692,
      "खून": 6693,
      "सर्टिफिकेट": 6694,
      "गोला": 6695,
      "मप्र": 6696,
      "सीपी": 6697,
      "ट्ठा": 6698,
      "वेंट": 6699,
      "कुशवाहा": 6700,
      "६९": 6701,
      "दवाओं": 6702,
      "ताजा": 6703,
      "गर्ग": 6704,
      "विधिक": 6705,
      "खासकर": 6706,
      "सेनानी": 6707,
      "कामयाब": 6708,
      "कहां": 6709,
      "खेली": 6710,
      "पत्रकारिता": 6711,
      "फंसे": 6712,
      "गड": 6713,
      "कर्मा": 6714,
      "अन्न": 6715,
      "पटा": 6716,
      "सोसाइ": 6717,
      "करीबी": 6718,
      "मजबूती": 6719,
      "भारतीयों": 6720,
      "क्वारंटाइन": 6721,
      "सक्सेना": 6722,
      "निर्दलीय": 6723,
      "सम्बंध": 6724,
      "बकाया": 6725,
      "महार": 6726,
      "वाइंट": 6727,
      "तुलसी": 6728,
      "आवंट": 6729,
      "सोसाइटी": 6730,
      "निको": 6731,
      "जाबाद": 6732,
      "दिलाई": 6733,
      "टोल": 6734,
      "ठोस": 6735,
      "धना": 6736,
      "बसा": 6737,
      "१०००": 6738,
      "कॉन्फ्रेंस": 6739,
      "उपकरणों": 6740,
      "प्रकट": 6741,
      "जीएम": 6742,
      "जनसभा": 6743,
      "लोकार्": 6744,
      "सोचा": 6745,
      "परामर्श": 6746,
      "सिखा": 6747,
      "टाइम्स": 6748,
      "जबरदस्त": 6749,
      "आवागमन": 6750,
      "बाँ": 6751,
      "ंगाबाद": 6752,
      "मरण": 6753,
      "स्पेन": 6754,
      "ॉर्ड": 6755,
      "काबू": 6756,
      "चांद": 6757,
      "चेहरा": 6758,
      "परेड": 6759,
      "बिल्डिंग": 6760,
      "शायर": 6761,
      "हमलों": 6762,
      "विश्वविद्यालयों": 6763,
      "व्यास": 6764,
      "सिद्धू": 6765,
      "म्पिक": 6766,
      "पकों": 6767,
      "घटनास्थल": 6768,
      "त्याग": 6769,
      "७८": 6770,
      "करों": 6771,
      "प्रक्षे": 6772,
      "लोगो": 6773,
      "सूक्ष्म": 6774,
      "जानकार": 6775,
      "जेंसी": 6776,
      "शांतिपूर्ण": 6777,
      "संपादक": 6778,
      "भय": 6779,
      "लाकर": 6780,
      "दादा": 6781,
      "टिवि": 6782,
      "सबको": 6783,
      "कहला": 6784,
      "विमानक्षेत्र": 6785,
      "ाराम": 6786,
      "६३": 6787,
      "दुकानदार": 6788,
      "अफ्रीकी": 6789,
      "दस्तावेजों": 6790,
      "बलि": 6791,
      "हौ": 6792,
      "एपी": 6793,
      "वाशिंगटन": 6794,
      "जिट": 6795,
      "अवस्था": 6796,
      "पारदर्": 6797,
      "बचपन": 6798,
      "पदार्थों": 6799,
      "आवंटन": 6800,
      "वृक्ष": 6801,
      "मूवी": 6802,
      "जॉर्ज": 6803,
      "नमा": 6804,
      "टाने": 6805,
      "इलेक्ट्रॉनिक": 6806,
      "ूक": 6807,
      "५९": 6808,
      "उपग्रह": 6809,
      "पुराण": 6810,
      "वर्णन": 6811,
      "रत्न": 6812,
      "अंचल": 6813,
      "उत": 6814,
      "पया": 6815,
      "गोष्ठी": 6816,
      "अवध": 6817,
      "बर्ग": 6818,
      "अग्रणी": 6819,
      "शीतकालीन": 6820,
      "पूछे": 6821,
      "१९८७": 6822,
      "रिश्वत": 6823,
      "चेंज": 6824,
      "अनूप": 6825,
      "च्छेद": 6826,
      "कार्तिक": 6827,
      "ग्रीष्मकालीन": 6828,
      "सीआरपीएफ": 6829,
      "ार्ज": 6830,
      "भारद्वाज": 6831,
      "यूं": 6832,
      "अभियुक्त": 6833,
      "जीतकर": 6834,
      "मकसद": 6835,
      "कम्पनी": 6836,
      "साझेदारी": 6837,
      "ओबामा": 6838,
      "विक्रे": 6839,
      "पिक्स": 6840,
      "पर्सन": 6841,
      "तोड़ने": 6842,
      "कश": 6843,
      "रकम": 6844,
      "सम्रा": 6845,
      "प्ली": 6846,
      "रमन": 6847,
      "लेवल": 6848,
      "लोकतांत्रिक": 6849,
      "लौटने": 6850,
      "तेजस्वी": 6851,
      "ड्रि": 6852,
      "प्रारूप": 6853,
      "लोकार्पण": 6854,
      "गान": 6855,
      "शनी": 6856,
      "स्कै": 6857,
      "डीएसपी": 6858,
      "प्रां": 6859,
      "धारकों": 6860,
      "गर्ल": 6861,
      "जैव": 6862,
      "जिम्बाब्वे": 6863,
      "रोगियों": 6864,
      "झो": 6865,
      "र्या": 6866,
      "बैग": 6867,
      "धनराशि": 6868,
      "फैल": 6869,
      "गौरी": 6870,
      "पकड़ने": 6871,
      "नतीजे": 6872,
      "सबूत": 6873,
      "गुट": 6874,
      "फर्म": 6875,
      "५४": 6876,
      "भरपूर": 6877,
      "असिस्टेंट": 6878,
      "इले": 6879,
      "फूड": 6880,
      "क्टे": 6881,
      "क्षिका": 6882,
      "चतुर्वेदी": 6883,
      "भोग": 6884,
      "क्वालि": 6885,
      "बाह": 6886,
      "गोप": 6887,
      "सिद्धान": 6888,
      "अत्यधिक": 6889,
      "विफल": 6890,
      "दिनी": 6891,
      "संभाग": 6892,
      "परिवर्त": 6893,
      "यूएस": 6894,
      "देखरेख": 6895,
      "चलती": 6896,
      "पीड़ितों": 6897,
      "भौतिकी": 6898,
      "राइड": 6899,
      "दाश्त": 6900,
      "रूट": 6901,
      "आरके": 6902,
      "मातृ": 6903,
      "पाट": 6904,
      "महावीर": 6905,
      "सैयद": 6906,
      "जेटली": 6907,
      "ँकि": 6908,
      "ईस्ट": 6909,
      "कारोबारियों": 6910,
      "पुण्य": 6911,
      "बैंग": 6912,
      "ड्यूल": 6913,
      "आत्मनिर्भर": 6914,
      "शैल": 6915,
      "मानें": 6916,
      "आईं": 6917,
      "चीज़ें": 6918,
      "खास्त": 6919,
      "कैद": 6920,
      "फैलाने": 6921,
      "सावधान": 6922,
      "टरों": 6923,
      "स्ट्रीट": 6924,
      "५३": 6925,
      "संविदा": 6926,
      "खोले": 6927,
      "गलती": 6928,
      "मलया": 6929,
      "डीजीपी": 6930,
      "पॉलिसी": 6931,
      "पैकेज": 6932,
      "ूद": 6933,
      "डिपार्ट": 6934,
      "शोषण": 6935,
      "ब्रॉ": 6936,
      "व्हाइट": 6937,
      "बुर": 6938,
      "हेज": 6939,
      "बर्बाद": 6940,
      "डेमोक्रे": 6941,
      "गाड़ियों": 6942,
      "बेसिक": 6943,
      "द्विपक्षीय": 6944,
      "महत्त्व": 6945,
      "आवंटित": 6946,
      "बॉडी": 6947,
      "१९७७": 6948,
      "व्यक्तित्व": 6949,
      "पिक": 6950,
      "बढ": 6951,
      "कालोनी": 6952,
      "ानंद": 6953,
      "नीता": 6954,
      "वीएम": 6955,
      "ज़ोर": 6956,
      "दृष्टिकोण": 6957,
      "शिरकत": 6958,
      "):": 6959,
      "लांच": 6960,
      "पाटी": 6961,
      "्राम": 6962,
      "मिस्टर": 6963,
      "यूजर्स": 6964,
      "छात्राएं": 6965,
      "इण्ड": 6966,
      "वियों": 6967,
      "संसाधनों": 6968,
      "जेम्स": 6969,
      "धातु": 6970,
      "सूच": 6971,
      "बों": 6972,
      "लापता": 6973,
      "रीज़": 6974,
      "रेस": 6975,
      "मोर्": 6976,
      "प्रदेशों": 6977,
      "बोलने": 6978,
      "धनबाद": 6979,
      "हालाँकि": 6980,
      "इस्लामिक": 6981,
      "फार्मा": 6982,
      "गुजराती": 6983,
      "तस्कर": 6984,
      "नेगी": 6985,
      "मांस": 6986,
      "रिहा": 6987,
      "ल्डर": 6988,
      "इंतज़ार": 6989,
      "एव": 6990,
      "नाला": 6991,
      "लाम": 6992,
      "निक्स": 6993,
      "शिफ्ट": 6994,
      "सर्जरी": 6995,
      "ध्यापक": 6996,
      "ऑफिसर": 6997,
      "तिमाही": 6998,
      "देखिए": 6999,
      "कश्मीरी": 7000,
      "एलि": 7001,
      "क्टो": 7002,
      "वाकर": 7003,
      "रुक": 7004,
      "ब्रेक": 7005,
      "बोलते": 7006,
      "पदो": 7007,
      "लद्दा": 7008,
      "पायर": 7009,
      "ल्हा": 7010,
      "दोलन": 7011,
      "आरएसएस": 7012,
      "बर्खास्त": 7013,
      "निराकरण": 7014,
      "पहुँचा": 7015,
      "ओसी": 7016,
      "राजवंश": 7017,
      "मील": 7018,
      "सुष": 7019,
      "जेई": 7020,
      "सूद": 7021,
      "स्थानांतरित": 7022,
      "हृदय": 7023,
      "घू": 7024,
      "७४": 7025,
      "जीन": 7026,
      "त्रिपुरा": 7027,
      "दूरसंचार": 7028,
      "मठ": 7029,
      "आरक्षित": 7030,
      "श्रीकृष्ण": 7031,
      "चरम": 7032,
      "चैम्पियनशिप": 7033,
      "आश्र": 7034,
      "कच्": 7035,
      "डमी": 7036,
      "कोत्तर": 7037,
      "संगम": 7038,
      "ोगे": 7039,
      "सुधीर": 7040,
      "बेरोजगार": 7041,
      "उपरा": 7042,
      "लगंज": 7043,
      "ब्रांच": 7044,
      "हार्दिक": 7045,
      "छोड़ा": 7046,
      "नवरा": 7047,
      "हेलीकॉप्टर": 7048,
      "आशु": 7049,
      "पादन": 7050,
      "सुरा": 7051,
      "जानती": 7052,
      "चेकिंग": 7053,
      "पैनल": 7054,
      "पर्यवे": 7055,
      "इस्लामाबाद": 7056,
      "स्पीकर": 7057,
      "अमृतसर": 7058,
      "अखा": 7059,
      "शिल्प": 7060,
      "बेव": 7061,
      "ीयू": 7062,
      "बनाम": 7063,
      "खुली": 7064,
      "बढ़ाकर": 7065,
      "पीढ़ी": 7066,
      "प्ट": 7067,
      "फिट": 7068,
      "महासंघ": 7069,
      "सिलसिला": 7070,
      "बेंगलुरु": 7071,
      "अनियमित": 7072,
      "कवर": 7073,
      "खरा": 7074,
      "बिक": 7075,
      "वस्त्र": 7076,
      "ेश्वर": 7077,
      "ड़ि": 7078,
      "प्रतिष्ठा": 7079,
      "एमएल": 7080,
      "कमांड": 7081,
      "कार्यालयों": 7082,
      "नीलामी": 7083,
      "उपरांत": 7084,
      "ेंसिंग": 7085,
      "क्शा": 7086,
      "टीआई": 7087,
      "स्टडी": 7088,
      "रेस्ट": 7089,
      "बचे": 7090,
      "९६": 7091,
      "काव": 7092,
      "आरएस": 7093,
      "फैंस": 7094,
      "खों": 7095,
      "संध्या": 7096,
      "बनार": 7097,
      "सकेगी": 7098,
      "पहलवान": 7099,
      "कैंपस": 7100,
      "कतों": 7101,
      "सुर्ख": 7102,
      "स्वत": 7103,
      "एथली": 7104,
      "राठौर": 7105,
      "विलय": 7106,
      "हाट": 7107,
      "खाद": 7108,
      "१९६२": 7109,
      "डिप्लो": 7110,
      "पठान": 7111,
      "आक्रमण": 7112,
      "य्य": 7113,
      "भाजित": 7114,
      "प्रभात": 7115,
      "डिपार्टमेंट": 7116,
      "दिना": 7117,
      "वर्चुअल": 7118,
      "पैठ": 7119,
      "पड़ताल": 7120,
      "तले": 7121,
      "माओ": 7122,
      "एनए": 7123,
      "स्कीम": 7124,
      "लगाव": 7125,
      "दुबई": 7126,
      "लौटे": 7127,
      "सिद्धान्त": 7128,
      "कमाई": 7129,
      "ऊँगा": 7130,
      "समर्पण": 7131,
      "ारों": 7132,
      "मेंस": 7133,
      "ंकित": 7134,
      "अफ़्रीका": 7135,
      "नंदन": 7136,
      "प्रसन्न": 7137,
      "लीन": 7138,
      "श्व": 7139,
      "विश्वनाथ": 7140,
      "शक्तिशाली": 7141,
      "नर्सिंग": 7142,
      "चर्चित": 7143,
      "बां": 7144,
      "मोड़ा": 7145,
      "बैठकर": 7146,
      "सौदा": 7147,
      "वला": 7148,
      "कोचिंग": 7149,
      "न्ट": 7150,
      "भूति": 7151,
      "रोडवेज": 7152,
      "पुनः": 7153,
      "संक्रमितों": 7154,
      "निष्पक्ष": 7155,
      "कॉमर्स": 7156,
      "७६": 7157,
      "राजदूत": 7158,
      "दायक": 7159,
      "अत्यंत": 7160,
      "व्हाट्स": 7161,
      "पाकर": 7162,
      "पांड": 7163,
      "गोस्वामी": 7164,
      "मांगने": 7165,
      "आइए": 7166,
      "पलट": 7167,
      "अरुणाचल": 7168,
      "ङ्": 7169,
      "सवालों": 7170,
      "हिल": 7171,
      "प्पी": 7172,
      "वोटों": 7173,
      "आयकर": 7174,
      "आवाज़": 7175,
      "हिद": 7176,
      "जनसांख्यिकी": 7177,
      "अवतार": 7178,
      "देवता": 7179,
      "लड़के": 7180,
      "आइसोलेशन": 7181,
      "बलू": 7182,
      "पुरात": 7183,
      "एकत्रित": 7184,
      "चिक": 7185,
      "आरओ": 7186,
      "तस्वीरों": 7187,
      "हाइड्रो": 7188,
      "कालिक": 7189,
      "राई": 7190,
      "मोती": 7191,
      "बताना": 7192,
      "ब्याज": 7193,
      "मिका": 7194,
      "स्वामित": 7195,
      "चंद्रशेखर": 7196,
      "मोहल्ला": 7197,
      "सुलझा": 7198,
      "सुषमा": 7199,
      "अद": 7200,
      "दूसरों": 7201,
      "कैलि": 7202,
      "लंबा": 7203,
      "ट्रांसफर": 7204,
      "आंकड़ा": 7205,
      "प्रतिभागियों": 7206,
      "चपेट": 7207,
      "चावल": 7208,
      "ज़िम्मे": 7209,
      "आध्या": 7210,
      "दीक्षा": 7211,
      "जीविका": 7212,
      "कॉम्": 7213,
      "चलाए": 7214,
      "दायरे": 7215,
      "दर्शक": 7216,
      "भूतपूर्व": 7217,
      "पाते": 7218,
      "चांदी": 7219,
      "ष्टी": 7220,
      "उपमुख्यमंत्री": 7221,
      "आगमन": 7222,
      "रवै": 7223,
      "पंत": 7224,
      "स्नात": 7225,
      "बगैर": 7226,
      "वेरि": 7227,
      "महाभारत": 7228,
      "अमरि": 7229,
      "घटनाएँ": 7230,
      "शून्य": 7231,
      "उमेश": 7232,
      "परीक्षार्थी": 7233,
      "ाध्यक्ष": 7234,
      "मुंगे": 7235,
      "प्रारम्भ": 7236,
      "ज़रूरी": 7237,
      "जदयू": 7238,
      "ष्मान": 7239,
      "योजनाएं": 7240,
      "बैठने": 7241,
      "इम्": 7242,
      "द्दी": 7243,
      "पीएचडी": 7244,
      "अंकों": 7245,
      "एडमिट": 7246,
      "पद्मश्री": 7247,
      "रोज़": 7248,
      "स्वामित्व": 7249,
      "कण": 7250,
      "खल": 7251,
      "दबा": 7252,
      "पराज": 7253,
      "षी": 7254,
      "महाराजा": 7255,
      "शिकायतें": 7256,
      "आयुर्वेद": 7257,
      "मेडी": 7258,
      "पुरो": 7259,
      "स्वराज": 7260,
      "फेर": 7261,
      "छात्रावास": 7262,
      "कन्नड़": 7263,
      "पद्धति": 7264,
      "पाण्डेय": 7265,
      "फसलों": 7266,
      "ानगर": 7267,
      "राघ": 7268,
      "तलाशी": 7269,
      "लखीमपुर": 7270,
      "त्मिक": 7271,
      "अनुच्छेद": 7272,
      "आयुष्मान": 7273,
      "आब": 7274,
      "मिलि": 7275,
      "राजन": 7276,
      "विकासखंड": 7277,
      "रायगढ़": 7278,
      "इन्हीं": 7279,
      "तत्वावधान": 7280,
      "प्रांतीय": 7281,
      "स्नातकोत्तर": 7282,
      "गना": 7283,
      "ढूं": 7284,
      "जनहित": 7285,
      "बोस": 7286,
      "इंडोनेशिया": 7287,
      "पर्यटक": 7288,
      "आईएएस": 7289,
      "बग": 7290,
      "ोपण": 7291,
      "परम": 7292,
      "जीवनी": 7293,
      "आन्दोलन": 7294,
      "भंग": 7295,
      "वेंद्र": 7296,
      "कीर्ति": 7297,
      "लोग्राम": 7298,
      "उत्साहित": 7299,
      "भागों": 7300,
      "१९६७": 7301,
      "--": 7302,
      "मालूम": 7303,
      "देहा": 7304,
      "रूपा": 7305,
      "खुलने": 7306,
      "ग्रैंड": 7307,
      "चम्": 7308,
      "कुमा": 7309,
      "टिफिकेशन": 7310,
      "नेत्र": 7311,
      "प्रै": 7312,
      "साप्ता": 7313,
      "दिश": 7314,
      "रिपोर्": 7315,
      "बढ़ता": 7316,
      "एक्टिव": 7317,
      "शास्त्रीय": 7318,
      "नैनीताल": 7319,
      "गन्ना": 7320,
      "जिम": 7321,
      "युगल": 7322,
      "स्पीड": 7323,
      "रहेंगी": 7324,
      "मेजबानी": 7325,
      "बजर": 7326,
      "हंस": 7327,
      "६१": 7328,
      "मुर्": 7329,
      "जील": 7330,
      "वीन": 7331,
      "पोरेट": 7332,
      "गोलिक": 7333,
      "शेट्टी": 7334,
      "हाईस्कूल": 7335,
      "१९७०": 7336,
      "पड़ेगी": 7337,
      "क्टी": 7338,
      "वाटर": 7339,
      "ग्रि": 7340,
      "व्यापी": 7341,
      "गायत्री": 7342,
      "सिक्किम": 7343,
      "७३": 7344,
      "प्रयुक्त": 7345,
      "फैशन": 7346,
      "ख़त्म": 7347,
      "सहाय": 7348,
      "अल्मोड़ा": 7349,
      "नायडू": 7350,
      "आयी": 7351,
      "कांस्य": 7352,
      "संरक्षित": 7353,
      "काउंटी": 7354,
      "धर्मेंद्र": 7355,
      "लिहाजा": 7356,
      "पने": 7357,
      "बस्तर": 7358,
      "वाम": 7359,
      "ज्म": 7360,
      "कराते": 7361,
      "यारा": 7362,
      "गुरुग्राम": 7363,
      "पक्षी": 7364,
      "१९८३": 7365,
      "ग्रेजु": 7366,
      "बेटियों": 7367,
      "एकी": 7368,
      "लकों": 7369,
      "ब्स": 7370,
      "भेदभाव": 7371,
      "साप्ताहिक": 7372,
      "चट": 7373,
      "रित": 7374,
      "सरल": 7375,
      "कर्फ्यू": 7376,
      "त्वचा": 7377,
      "उपलब्धता": 7378,
      "मनाई": 7379,
      "अफ़ग़": 7380,
      "मोटरसाइकिल": 7381,
      "रक्तदान": 7382,
      "एबी": 7383,
      "जापानी": 7384,
      "गाजीपुर": 7385,
      "आनलाइन": 7386,
      "खबरें": 7387,
      "मणिपुर": 7388,
      "सत्तार": 7389,
      "सम्राट": 7390,
      "पालक": 7391,
      "लॉग": 7392,
      "हादसा": 7393,
      "भौगोलिक": 7394,
      "बटा": 7395,
      "तालिका": 7396,
      "मिठा": 7397,
      "मुनि": 7398,
      "पेशकश": 7399,
      "कोषाध्यक्ष": 7400,
      "नाना": 7401,
      "बास": 7402,
      "बाज़": 7403,
      "इंजेक्शन": 7404,
      "वैष्ण": 7405,
      "कार्बन": 7406,
      "लाभार्थियों": 7407,
      "कलेक्ट्रेट": 7408,
      "तं": 7409,
      "ंगिक": 7410,
      "भूपेश": 7411,
      "ख़बर": 7412,
      "निर्धारण": 7413,
      "जश्न": 7414,
      "जनप्रतिनिधियों": 7415,
      "एजेंट": 7416,
      "सिलसिले": 7417,
      "इयां": 7418,
      "णिक": 7419,
      "वजन": 7420,
      "विवा": 7421,
      "शर्त": 7422,
      "इमरजेंसी": 7423,
      "अनिश्चित": 7424,
      "लिता": 7425,
      "कारक": 7426,
      "स्टन": 7427,
      "क्रमश": 7428,
      "चौथा": 7429,
      "नजदीक": 7430,
      "ऊंचाई": 7431,
      "एआई": 7432,
      "६००": 7433,
      "स्का": 7434,
      "किलोग्राम": 7435,
      "जिसमे": 7436,
      "रिपब्लिक": 7437,
      "मेमो": 7438,
      "सौंद": 7439,
      "१९८२": 7440,
      "बन्ध": 7441,
      "नवरात्र": 7442,
      "दस्ते": 7443,
      "फट": 7444,
      "मेजर": 7445,
      "क्षेत्रफल": 7446,
      "ट्ठी": 7447,
      "मॉड": 7448,
      "निभाने": 7449,
      "बढ़ेगी": 7450,
      "ड्रेस": 7451,
      "प्रोटोकॉल": 7452,
      "अंबेडकर": 7453,
      "सौरभ": 7454,
      "फेडरेशन": 7455,
      "रसो": 7456,
      "लाठी": 7457,
      "दीं": 7458,
      "मरने": 7459,
      "फतेहपुर": 7460,
      "ऑर्": 7461,
      "पहिया": 7462,
      "सपोर्ट": 7463,
      "रखेंगे": 7464,
      "प्रवर्तन": 7465,
      "न्दु": 7466,
      "संदेह": 7467,
      "पुस्तका": 7468,
      "अब्दुल्ला": 7469,
      "ओमप्रकाश": 7470,
      "दिमाग": 7471,
      "समितियों": 7472,
      "आधे": 7473,
      "एएन": 7474,
      "ह्यू": 7475,
      "मिस्र": 7476,
      "जीरिया": 7477,
      "पंचायती": 7478,
      "ूँगी": 7479,
      "व्यवसायी": 7480,
      "अमीर": 7481,
      "स्मिथ": 7482,
      "स्टिंग": 7483,
      "कप्तानी": 7484,
      "सशस्त्र": 7485,
      "हाना": 7486,
      "लेश्वर": 7487,
      "सिद्धि": 7488,
      "स्थी": 7489,
      "डिय़": 7490,
      "अवॉर्ड": 7491,
      "लिखने": 7492,
      "निकालकर": 7493,
      "ईटी": 7494,
      "्रो": 7495,
      "मिड": 7496,
      "कृपया": 7497,
      "म्परा": 7498,
      "प्लेस": 7499,
      "टनेस": 7500,
      "अन्ना": 7501,
      "भ्य": 7502,
      "लिय": 7503,
      "हाली": 7504,
      "सिग": 7505,
      "तकों": 7506,
      "एंटर": 7507,
      "घेर": 7508,
      "उन्हीं": 7509,
      "रामायण": 7510,
      "लाहौर": 7511,
      "निपट": 7512,
      "गिरने": 7513,
      "१८८": 7514,
      "फ्रेंसिंग": 7515,
      "मुंडा": 7516,
      "ंडन": 7517,
      "ज़रा": 7518,
      "अधिकृत": 7519,
      "कॉर": 7520,
      "संचालकों": 7521,
      "केशव": 7522,
      "टिनेंट": 7523,
      "मछली": 7524,
      "इको": 7525,
      "नारी": 7526,
      "९४": 7527,
      "न्नति": 7528,
      "ओलम्पिक": 7529,
      "मलयालम": 7530,
      "टर्न": 7531,
      "वय": 7532,
      "नाकाम": 7533,
      "देय": 7534,
      "गढ़वाल": 7535,
      "ट्रां": 7536,
      "१९७२": 7537,
      "क्रामक": 7538,
      "टरिंग": 7539,
      "लेफ्": 7540,
      "हिं": 7541,
      "सुमित": 7542,
      "बरतने": 7543,
      "गतिविधियां": 7544,
      "कवा": 7545,
      "दशा": 7546,
      "शिक्षिका": 7547,
      "म्बे": 7548,
      "प्रतिपक्ष": 7549,
      "उत्तम": 7550,
      "बुखार": 7551,
      "कैश": 7552,
      "१९६०": 7553,
      "द्वीपसमूह": 7554,
      "मराह": 7555,
      "प्रजापति": 7556,
      "रेश": 7557,
      "एनडीए": 7558,
      "पड़ती": 7559,
      "पॉली": 7560,
      "रोधक": 7561,
      "नकारात्मक": 7562,
      "सिंघ": 7563,
      "जेश": 7564,
      "कर्नल": 7565,
      "बर्दाश्त": 7566,
      "नोटबंदी": 7567,
      "किराए": 7568,
      "कोविंद": 7569,
      "आंखों": 7570,
      "धुर": 7571,
      "परम्परा": 7572,
      "ंगत": 7573,
      "शाहरु": 7574,
      "दाई": 7575,
      "आखिरकार": 7576,
      "एकदिवसीय": 7577,
      "१९५२": 7578,
      "इजाजत": 7579,
      "डिस्टेंसिंग": 7580,
      "काटने": 7581,
      "लगाम": 7582,
      "फेस्टि": 7583,
      "पुस्तकालय": 7584,
      "हर्": 7585,
      "स्ड": 7586,
      "विस": 7587,
      "डिली": 7588,
      "पाइप": 7589,
      "स्पॉट": 7590,
      "ठप": 7591,
      "लभ": 7592,
      "दाखिला": 7593,
      "ब्रो": 7594,
      "क्षिप्त": 7595,
      "संभालने": 7596,
      "विवेकान": 7597,
      "आध्यात्मिक": 7598,
      "गंदगी": 7599,
      "न्दा": 7600,
      "चिद": 7601,
      "गुहार": 7602,
      "वैदिक": 7603,
      "सम्पूर्ण": 7604,
      "चोर": 7605,
      "संरक्षक": 7606,
      "मुकदमे": 7607,
      "विभाजन": 7608,
      "पाटिल": 7609,
      "यूजी": 7610,
      "छात्रवृत्ति": 7611,
      "व्यवस्थाओं": 7612,
      "कमीशन": 7613,
      "१९४७": 7614,
      "दोषियों": 7615,
      "अस्थायी": 7616,
      "धवन": 7617,
      "िताओं": 7618,
      "९२": 7619,
      "स्तन": 7620,
      "खाड़ी": 7621,
      "ट्टे": 7622,
      "रामनाथ": 7623,
      "त्यागी": 7624,
      "फरीदाबाद": 7625,
      "वात": 7626,
      "कोरोनावायरस": 7627,
      "व्यापारिक": 7628,
      "विमानों": 7629,
      "चूंकि": 7630,
      "डिप्लोमा": 7631,
      "पटक": 7632,
      "बाय": 7633,
      "मिक्स": 7634,
      "मैसेज": 7635,
      "गोर": 7636,
      "नोटिफिकेशन": 7637,
      "अवश्य": 7638,
      "सुनकर": 7639,
      "भावनाओं": 7640,
      "अकबर": 7641,
      "रिच": 7642,
      "कैपि": 7643,
      "नामों": 7644,
      "पिछड़ा": 7645,
      "भुव": 7646,
      "आयात": 7647,
      "धाराओं": 7648,
      "ौड़": 7649,
      "मुख्या": 7650,
      "पर्टी": 7651,
      "साहित्यिक": 7652,
      "ट्रेनें": 7653,
      "प्लेटफार्म": 7654,
      "ंकर": 7655,
      "वसु": 7656,
      "जाज": 7657,
      "परिष": 7658,
      "जेड": 7659,
      "गुज़र": 7660,
      "कॉपी": 7661,
      "मार्क्स": 7662,
      "धूमधाम": 7663,
      "ँगी": 7664,
      "ईसाई": 7665,
      "७१": 7666,
      "मानसून": 7667,
      "जानना": 7668,
      "१९५७": 7669,
      "नागा": 7670,
      "रोशनी": 7671,
      "ज़ो": 7672,
      "बेगू": 7673,
      "टेंडर": 7674,
      "आईएएनएस": 7675,
      "०१": 7676,
      "प्रता": 7677,
      "शीला": 7678,
      "भूकंप": 7679,
      "घटनाएं": 7680,
      "चरणों": 7681,
      "गार्": 7682,
      "स्तियों": 7683,
      "कुल्लू": 7684,
      "टोक्यो": 7685,
      "क्टर्स": 7686,
      "उन्ना": 7687,
      "हीरा": 7688,
      "इंकार": 7689,
      "चौराहा": 7690,
      "परीक्षार्थियों": 7691,
      "त्वर": 7692,
      "ष्क": 7693,
      "गेश्वर": 7694,
      "ुरुस्त": 7695,
      "अख्": 7696,
      "राने": 7697,
      "मुहिम": 7698,
      "लगवाने": 7699,
      "लैस": 7700,
      "शोर": 7701,
      "कम्युनिस्ट": 7702,
      "पिक्सल": 7703,
      "क्टेयर": 7704,
      "ढो": 7705,
      "बाघ": 7706,
      "तीर्ण": 7707,
      "बुलाई": 7708,
      "टिविटी": 7709,
      "चीजों": 7710,
      "जैविक": 7711,
      "जितनी": 7712,
      "सद्": 7713,
      "परवाह": 7714,
      "ल्टी": 7715,
      "द्वानी": 7716,
      "रोहि": 7717,
      "मेक": 7718,
      "सोवियत": 7719,
      "मौलाना": 7720,
      "कराएं": 7721,
      "खरीदारी": 7722,
      "केदारनाथ": 7723,
      "क्रमांक": 7724,
      "ठहराया": 7725,
      "जापुर": 7726,
      "दीय": 7727,
      "मेघा": 7728,
      "रतन": 7729,
      "श्रेय": 7730,
      "समझने": 7731,
      "ललिता": 7732,
      "केटिंग": 7733,
      "लेता": 7734,
      "प्रिंसिपल": 7735,
      "मासू": 7736,
      "वारि": 7737,
      "खां": 7738,
      "एनटी": 7739,
      "पैसें": 7740,
      "पंजीयन": 7741,
      "बीबीसी": 7742,
      "सलामी": 7743,
      "मेहमान": 7744,
      "कठोर": 7745,
      "बढ़ेगा": 7746,
      "डेंगू": 7747,
      "आचार": 7748,
      "पेंद्र": 7749,
      "केके": 7750,
      "लेती": 7751,
      "निः": 7752,
      "वेन्द्र": 7753,
      "पेरिस": 7754,
      "महाद्वीप": 7755,
      "इजाफा": 7756,
      "दबो": 7757,
      "रखती": 7758,
      "विशेषता": 7759,
      "पत्तियों": 7760,
      "बढ़ाई": 7761,
      "ष्टमी": 7762,
      "लाइब्रे": 7763,
      "हटाया": 7764,
      "हल्द्वानी": 7765,
      "अतुल": 7766,
      "गड़ा": 7767,
      "मज़ा": 7768,
      "सफे": 7769,
      "लेगा": 7770,
      "पीडिया": 7771,
      "पुट": 7772,
      "मानवीय": 7773,
      "चोरों": 7774,
      "भोजपुरी": 7775,
      "उद्धव": 7776,
      "बिष्ट": 7777,
      "उपयुक्त": 7778,
      "जयराम": 7779,
      "दुर्भाग्य": 7780,
      "समन्वयक": 7781,
      "्ति": 7782,
      "सेकंड": 7783,
      "सुरक्षाबलों": 7784,
      "संगठित": 7785,
      "स्पिनर": 7786,
      "हिंदुस्तान": 7787,
      "ुति": 7788,
      "संगत": 7789,
      "रामलीला": 7790,
      "अमीरात": 7791,
      "ताना": 7792,
      "बलिया": 7793,
      "नेहा": 7794,
      "गुरुद्वारा": 7795,
      "रैना": 7796,
      "आजमगढ़": 7797,
      "आशुतोष": 7798,
      "कंगना": 7799,
      "निज": 7800,
      "माई": 7801,
      "टीना": 7802,
      "चारा": 7803,
      "१९७५": 7804,
      "अर्थशास्त्र": 7805,
      "ओएस": 7806,
      "केल": 7807,
      "साहे": 7808,
      "ज़ु": 7809,
      "निर्मला": 7810,
      "बनेंगे": 7811,
      "एडीएम": 7812,
      "मत्": 7813,
      "सेमे": 7814,
      "कोश": 7815,
      "साक्ष्य": 7816,
      "जोड़े": 7817,
      "बनता": 7818,
      "विषा": 7819,
      "कट्टर": 7820,
      "दानी": 7821,
      "बक": 7822,
      "वामा": 7823,
      "वेन": 7824,
      "पुजारी": 7825,
      "पौरा": 7826,
      "नक्सल": 7827,
      "लद्दाख": 7828,
      "बेगूसराय": 7829,
      "उतारा": 7830,
      "झंडी": 7831,
      "सिडी": 7832,
      "मैक्स": 7833,
      "डाली": 7834,
      "कमलेश": 7835,
      "पदस्थ": 7836,
      "ंत्रिकी": 7837,
      "झूठ": 7838,
      "बनारस": 7839,
      "ंगों": 7840,
      "अंबिका": 7841,
      "आपसे": 7842,
      "सांप्रदायिक": 7843,
      "घंटा": 7844,
      "०५": 7845,
      "रोष": 7846,
      "प्रोसे": 7847,
      "संशोधित": 7848,
      "पेट्रोलियम": 7849,
      "स्कॉटलैंड": 7850,
      "तीत": 7851,
      "हिदा": 7852,
      "व्यय": 7853,
      "झांसी": 7854,
      "कन्हैया": 7855,
      "सदा": 7856,
      "किस्तान": 7857,
      "किंतु": 7858,
      "पांचवें": 7859,
      "नकली": 7860,
      "अरोड़ा": 7861,
      "डों": 7862,
      "उत्तरप्रदेश": 7863,
      "नियामक": 7864,
      "लोकन": 7865,
      "दृढ़": 7866,
      "ण्डा": 7867,
      "अंधे": 7868,
      "बंट": 7869,
      "दिवाली": 7870,
      "पाये": 7871,
      "ष्का": 7872,
      "सोनू": 7873,
      "लियाँ": 7874,
      "पर्स": 7875,
      "लैंगिक": 7876,
      "इकाइयों": 7877,
      "गडकरी": 7878,
      "तड़": 7879,
      "देवा": 7880,
      "उद्योगपति": 7881,
      "समानता": 7882,
      "ऑर्डर": 7883,
      "कमाल": 7884,
      "नदियों": 7885,
      "बसें": 7886,
      "विभाजित": 7887,
      "मेघ": 7888,
      "डीएफ": 7889,
      "एमबी": 7890,
      "पटरी": 7891,
      "विज्ञानी": 7892,
      "ंगुली": 7893,
      "सेफ": 7894,
      "जाही": 7895,
      "पिटाई": 7896,
      "अंबानी": 7897,
      "उपयोगी": 7898,
      "दोग": 7899,
      "शनि": 7900,
      "स्वर": 7901,
      "माद": 7902,
      "विश्वकर्मा": 7903,
      "मित्त": 7904,
      "क़ी": 7905,
      "छीन": 7906,
      "आईपीएस": 7907,
      "ंदेल": 7908,
      "अर्थात": 7909,
      "एगी": 7910,
      "ठंड": 7911,
      "पचा": 7912,
      "यड": 7913,
      "ैन": 7914,
      "कांव": 7915,
      "मेशन": 7916,
      "चेन": 7917,
      "मतों": 7918,
      "एंड्र": 7919,
      "प्रतापगढ़": 7920,
      "किराया": 7921,
      "बुलंदशहर": 7922,
      "लेफ्टिनेंट": 7923,
      "पौराणिक": 7924,
      "छठ": 7925,
      "जड़": 7926,
      "गांगुली": 7927,
      "मानकों": 7928,
      "एसके": 7929,
      "क्रियान्वयन": 7930,
      "काउंस": 7931,
      "स्वयंसेवक": 7932,
      "नदिया": 7933,
      "बंसल": 7934,
      "पूनम": 7935,
      "बढ़त": 7936,
      "शहीदों": 7937,
      "अजीब": 7938,
      "चतु": 7939,
      "याम": 7940,
      "वाट": 7941,
      "दोहरा": 7942,
      "फ्लो": 7943,
      "सेमेस्टर": 7944,
      "इर": 7945,
      "ससुरा": 7946,
      "मिनल": 7947,
      "रहमान": 7948,
      "ड्रोन": 7949,
      "तर्ज": 7950,
      "थल": 7951,
      "मेंट्स": 7952,
      "कुश्ती": 7953,
      "बिश": 7954,
      "अंश": 7955,
      "अन्तर्राष्ट्रीय": 7956,
      "तेलुगु": 7957,
      "एन्": 7958,
      "योगा": 7959,
      "योद्धा": 7960,
      "कर्ण": 7961,
      "फीट": 7962,
      "परेशानियों": 7963,
      "मुजफ्फरनगर": 7964,
      "मानुसार": 7965,
      "उजागर": 7966,
      "गले": 7967,
      "ूढ़": 7968,
      "किला": 7969,
      "हाजि": 7970,
      "बाड़": 7971,
      "शासी": 7972,
      "बताओ": 7973,
      "एमओ": 7974,
      "१०८": 7975,
      "सतर्क": 7976,
      "कस्बा": 7977,
      "पौधों": 7978,
      "णवी": 7979,
      "हरकत": 7980,
      "आपस": 7981,
      "डेरा": 7982,
      "कल्पिक": 7983,
      "९१": 7984,
      "नीदर": 7985,
      "पीडि़": 7986,
      "उपराष्ट्रपति": 7987,
      "समाजसेवी": 7988,
      "जताते": 7989,
      "दिलचस्प": 7990,
      "औषधि": 7991,
      "शाहरुख": 7992,
      "साहेब": 7993,
      "माव": 7994,
      "संकाय": 7995,
      "स्टू": 7996,
      "स्टार्ट": 7997,
      "बुकिंग": 7998,
      "ढांचे": 7999,
      "पुलवामा": 8000,
      "बैच": 8001,
      "फ्लाइट": 8002,
      "वैकल्पिक": 8003,
      "लंब": 8004,
      "ंटिक": 8005,
      "लुओं": 8006,
      "प्रतियोगिताओं": 8007,
      "चिंतित": 8008,
      "धवा": 8009,
      "फन": 8010,
      "भंगा": 8011,
      "१२०": 8012,
      "परन्तु": 8013,
      "तीव्र": 8014,
      "शिता": 8015,
      "अभयार": 8016,
      "अश्लील": 8017,
      "आहार": 8018,
      "गढ": 8019,
      "टकरा": 8020,
      "बसे": 8021,
      "भती": 8022,
      "विलियम": 8023,
      "मुक्के": 8024,
      "बिस्तर": 8025,
      "बैक्टी": 8026,
      "डाइ": 8027,
      "भागने": 8028,
      "गेंदबाजों": 8029,
      "ढूँढ": 8030,
      "चर्य": 8031,
      "दुरुस्त": 8032,
      "सली": 8033,
      "गाली": 8034,
      "बीएच": 8035,
      "र्मल": 8036,
      "कुरु": 8037,
      "तलाक": 8038,
      "चलेगी": 8039,
      "स्क्रीनिंग": 8040,
      "दिलचस्पी": 8041,
      "हेल्पलाइन": 8042,
      "ईवीएम": 8043,
      "जख्": 8044,
      "ंधा": 8045,
      "टूर": 8046,
      "अग्रिम": 8047,
      "नॉर्थ": 8048,
      "सभ्य": 8049,
      "लेगी": 8050,
      "सोरेन": 8051,
      "फीचर": 8052,
      "ब्राजील": 8053,
      "इकट्ठा": 8054,
      "चुनौतियों": 8055,
      "अध्यापकों": 8056,
      "उन्नाव": 8057,
      "लिप्त": 8058,
      "संवेद": 8059,
      "णाधीन": 8060,
      "वोटिंग": 8061,
      "दिखाकर": 8062,
      "शूट": 8063,
      "पृष्ठभूमि": 8064,
      "नस्": 8065,
      "करूंगा": 8066,
      "निशुल्क": 8067,
      "डालकर": 8068,
      "सबके": 8069,
      "कलश": 8070,
      "१९७९": 8071,
      "संबोधन": 8072,
      "पार्टनर": 8073,
      "कवायद": 8074,
      "अभयारण्य": 8075,
      "चीजें": 8076,
      "चलकर": 8077,
      "पैड": 8078,
      "झेल": 8079,
      "ट्रांसपोर्ट": 8080,
      "पन्ना": 8081,
      "रमा": 8082,
      "केन": 8083,
      "नेटर": 8084,
      "राजभवन": 8085,
      "वीपी": 8086,
      "फ़ॉ": 8087,
      "दुनियाभर": 8088,
      "माइकल": 8089,
      "संतुष्ट": 8090,
      "आल": 8091,
      "आकलन": 8092,
      "केला": 8093,
      "नाट": 8094,
      "जिंदा": 8095,
      "श्योर": 8096,
      "डीपीओ": 8097,
      "डेवलपमेंट": 8098,
      "भै": 8099,
      "महम": 8100,
      "विराम": 8101,
      "सीरीज़": 8102,
      "वीसी": 8103,
      "२०२३": 8104,
      "सालाना": 8105,
      "ठहरा": 8106,
      "करूँगा": 8107,
      "तिल": 8108,
      "होत्रा": 8109,
      "१९७६": 8110,
      "मित्रों": 8111,
      "क्ट्स": 8112,
      "संधि": 8113,
      "भाइयों": 8114,
      "रोधी": 8115,
      "पुतला": 8116,
      "कार्यो": 8117,
      "कमला": 8118,
      "घटनाक्रम": 8119,
      "परिवर्तित": 8120,
      "आड": 8121,
      "सवा": 8122,
      "प्रवाह": 8123,
      "जीबी": 8124,
      "वैसी": 8125,
      "इंचार्ज": 8126,
      "दीर्घा": 8127,
      "नड्डा": 8128,
      "डिफ": 8129,
      "पिथ": 8130,
      "फोकस": 8131,
      "टाइगर": 8132,
      "संभाला": 8133,
      "पुस्तकों": 8134,
      "दिखने": 8135,
      "हिंसक": 8136,
      "मज़": 8137,
      "परिस्थिति": 8138,
      "सूरी": 8139,
      "पेशा": 8140,
      "क़ान": 8141,
      "सतर्": 8142,
      "तेंदुलकर": 8143,
      "फेस्टिवल": 8144,
      "फंस": 8145,
      "काबुल": 8146,
      "व्यंजन": 8147,
      "कॉमेडी": 8148,
      "फ्रै": 8149,
      "तरीकों": 8150,
      "गार्डन": 8151,
      "चिदंबर": 8152,
      "उमर": 8153,
      "कस्ट": 8154,
      "प्रथा": 8155,
      "देही": 8156,
      "चुम्ब": 8157,
      "बल्लेबाजों": 8158,
      "एकेडमी": 8159,
      "एका": 8160,
      "नानी": 8161,
      "फिटनेस": 8162,
      "गुड": 8163,
      "डेट्स": 8164,
      "दिवंगत": 8165,
      "अंग्रेजों": 8166,
      "माँग": 8167,
      "रिलीज़": 8168,
      "दंप": 8169,
      "धौ": 8170,
      "क्षत्र": 8171,
      "वैद्य": 8172,
      "उठाई": 8173,
      "प्रभावशाली": 8174,
      "आवाजाही": 8175,
      "घुसपैठ": 8176,
      "रामनगर": 8177,
      "आबकारी": 8178,
      "सफेद": 8179,
      "अमन": 8180,
      "३७०": 8181,
      "दिव्य": 8182,
      "समस": 8183,
      "एनएल": 8184,
      "शेयरों": 8185,
      "क्सिको": 8186,
      "अधू": 8187,
      "शमी": 8188,
      "ेय": 8189,
      "राबाद": 8190,
      "लेनी": 8191,
      "मीरा": 8192,
      "वृद्ध": 8193,
      "१९७४": 8194,
      "चिन्हित": 8195,
      "सतर्कता": 8196,
      "चंबा": 8197,
      "यकीन": 8198,
      "सटी": 8199,
      "हता": 8200,
      "९३": 8201,
      "वाकां": 8202,
      "सुधा": 8203,
      "चौबे": 8204,
      "मार्गों": 8205,
      "प्लेक्स": 8206,
      "१९६५": 8207,
      "चंदन": 8208,
      "आश्चर्य": 8209,
      "डऩे": 8210,
      "नरी": 8211,
      "वंद": 8212,
      "केर": 8213,
      "क्सर": 8214,
      "साक्षर": 8215,
      "मुसी": 8216,
      "दायी": 8217,
      "फिकेशन": 8218,
      "खरीदा": 8219,
      "चिदंबरम": 8220,
      "पाना": 8221,
      "वश": 8222,
      "मात": 8223,
      "उसको": 8224,
      "भूपेंद्र": 8225,
      "सम्पन्न": 8226,
      "बलरामपुर": 8227,
      "बॉय": 8228,
      "गारंटी": 8229,
      "त्वरित": 8230,
      "अटै": 8231,
      "कोलं": 8232,
      "किले": 8233,
      "समग्र": 8234,
      "क्रै": 8235,
      "गोद": 8236,
      "चंद्रा": 8237,
      "आइटी": 8238,
      "रोगी": 8239,
      "बीएसएफ": 8240,
      "लिहाज": 8241,
      "आज़ा": 8242,
      "८००": 8243,
      "वाए": 8244,
      "बिजन": 8245,
      "गुणा": 8246,
      "दरभंगा": 8247,
      "१९७८": 8248,
      "ख्ता": 8249,
      "पटिया": 8250,
      "फेंक": 8251,
      "उतना": 8252,
      "जोग": 8253,
      "माउ": 8254,
      "टीएमसी": 8255,
      "तरफ़": 8256,
      "निराशा": 8257,
      "कुर्सी": 8258,
      "अकार्बनिक": 8259,
      "प्राणी": 8260,
      "एमडी": 8261,
      "१९८१": 8262,
      "एक्सचेंज": 8263,
      "एई": 8264,
      "खुर": 8265,
      "भान": 8266,
      "कीं": 8267,
      "रादित्य": 8268,
      "प्राप्": 8269,
      "रैंक": 8270,
      "जायेंगे": 8271,
      "सत्तारूढ़": 8272,
      "माधव": 8273,
      "फ्टी": 8274,
      "रिपोर्ट्स": 8275,
      "बनेगी": 8276,
      "बदलकर": 8277,
      "रजिस्ट्र": 8278,
      "कानेर": 8279,
      "ऋषिकेश": 8280,
      "निर्माणाधीन": 8281,
      "सरत": 8282,
      "सुन्दर": 8283,
      "मानने": 8284,
      "भिषेक": 8285,
      "देवताओं": 8286,
      "स्टूडेंट": 8287,
      "पहनने": 8288,
      "हिन्दुस्तान": 8289,
      "हिदायत": 8290,
      "थै": 8291,
      "सस्प": 8292,
      "ंगार": 8293,
      "यूथ": 8294,
      "चेरी": 8295,
      "अवलोकन": 8296,
      "लॉजि": 8297,
      "सौदे": 8298,
      "आनन्द": 8299,
      "जबरन": 8300,
      "मकर": 8301,
      "कान्": 8302,
      "प्रश्": 8303,
      "नागर": 8304,
      "हिम्मत": 8305,
      "अभद्र": 8306,
      "ढेर": 8307,
      "एकाद": 8308,
      "चं": 8309,
      "टुक": 8310,
      "पंडा": 8311,
      "बहरा": 8312,
      "सिग्": 8313,
      "गेम्स": 8314,
      "डिवाइस": 8315,
      "१९६९": 8316,
      "जौनपुर": 8317,
      "रिटायर": 8318,
      "बंदरगाह": 8319,
      "श्योरेंस": 8320,
      "विरू": 8321,
      "हांग": 8322,
      "रिज": 8323,
      "उत्तीर्ण": 8324,
      "रॉकेट": 8325,
      "ख्स": 8326,
      "युर": 8327,
      "बाज़ार": 8328,
      "गाई": 8329,
      "बीएल": 8330,
      "खेर": 8331,
      "पहुंचते": 8332,
      "फ़िलि": 8333,
      "१९५६": 8334,
      "छुट्ट": 8335,
      "छिड़": 8336,
      "पशुओं": 8337,
      "उतरने": 8338,
      "कांगड़ा": 8339,
      "कसा": 8340,
      "लेंस": 8341,
      "ल्टर": 8342,
      "अनुमो": 8343,
      "ख्याल": 8344,
      "करीबन": 8345,
      "अमेठी": 8346,
      "ज्योतिरादित्य": 8347,
      "किताबें": 8348,
      "मुंगेर": 8349,
      "भुवनेश्वर": 8350,
      "लाइब्रेरी": 8351,
      "अनुशासन": 8352,
      "अतिथियों": 8353,
      "१९७३": 8354,
      "मंजूर": 8355,
      "क्रांतिकारी": 8356,
      "रिश्तेदार": 8357,
      "अद्": 8358,
      "ईस": 8359,
      "उर": 8360,
      "जाव": 8361,
      "जादू": 8362,
      "भीषण": 8363,
      "ंधे": 8364,
      "अनुष्का": 8365,
      "जैक": 8366,
      "ड्रामा": 8367,
      "हार्ट": 8368,
      "तेलुगू": 8369,
      "यथा": 8370,
      "पुरू": 8371,
      "हेक्टेयर": 8372,
      "उठाते": 8373,
      "खीरी": 8374,
      "वकीलों": 8375,
      "अमरिंदर": 8376,
      "नीदरलैंड": 8377,
      "रियन": 8378,
      "ंधन": 8379,
      "मिलन": 8380,
      "अवधारणा": 8381,
      "गाँधी": 8382,
      "ओड़ि": 8383,
      "थॉ": 8384,
      "मऊ": 8385,
      "ूली": 8386,
      "बीकानेर": 8387,
      "वर्स": 8388,
      "ग्रेस": 8389,
      "कामयाबी": 8390,
      "प्रकोष्ठ": 8391,
      "डेमोक्रेटिक": 8392,
      "उभर": 8393,
      "शनिक": 8394,
      "न्नाथ": 8395,
      "पीछा": 8396,
      "बनाता": 8397,
      "इंग्लिश": 8398,
      "ठेके": 8399,
      "ज़रूर": 8400,
      "प्रकोप": 8401,
      "इजरा": 8402,
      "१९५०": 8403,
      "द्री": 8404,
      "रूपए": 8405,
      "महागठबंधन": 8406,
      "तोड़फोड़": 8407,
      "घेराव": 8408,
      "तूफान": 8409,
      "निर्माताओं": 8410,
      "पर्ट": 8411,
      "यर्ड": 8412,
      "शर्म": 8413,
      "सीज़न": 8414,
      "वरुण": 8415,
      "डेड": 8416,
      "रॉबर्ट": 8417,
      "मल्होत्रा": 8418,
      "थुन": 8419,
      "सृजन": 8420,
      "शिवाजी": 8421,
      "खदान": 8422,
      "पिया": 8423,
      "साउंड": 8424,
      "दीकी": 8425,
      "गेस्ट": 8426,
      "जानवरों": 8427,
      "कांफ्रेंस": 8428,
      "प्रचलित": 8429,
      "र्षि": 8430,
      "र्डिंग": 8431,
      "लाद": 8432,
      "कारिता": 8433,
      "हिट": 8434,
      "कॉन": 8435,
      "स्ट्रक्चर": 8436,
      "दीनदयाल": 8437,
      "छान": 8438,
      "नशा": 8439,
      "शख्स": 8440,
      "विया": 8441,
      "भवनों": 8442,
      "विवादों": 8443,
      "रजिस्टर": 8444,
      "गुलाब": 8445,
      "पिथौरा": 8446,
      "ग्यार": 8447,
      "सेलि": 8448,
      "टीचर": 8449,
      "कैंडि": 8450,
      "त्तरी": 8451,
      "शाहजहां": 8452,
      "भेजकर": 8453,
      "विद्रोह": 8454,
      "दार्शनिक": 8455,
      "उड": 8456,
      "नकल": 8457,
      "पक्का": 8458,
      "वारे": 8459,
      "बोर": 8460,
      "रायबरेली": 8461,
      "वर्गों": 8462,
      "पाठशाला": 8463,
      "नतीजा": 8464,
      "कचरा": 8465,
      "जाएँगे": 8466,
      "इवेंट": 8467,
      "संक्षिप्त": 8468,
      "अनदेखी": 8469,
      "शील्ड": 8470,
      "आदिवासियों": 8471,
      "दसवीं": 8472,
      "साधना": 8473,
      "गुरूवार": 8474,
      "तिब्बत": 8475,
      "दत्ता": 8476,
      "वचन": 8477,
      "साइन": 8478,
      "अभय": 8479,
      "सुधारने": 8480,
      "प्रमाणपत्र": 8481,
      "अनाज": 8482,
      "उठाना": 8483,
      "ख़ास": 8484,
      "उजा": 8485,
      "ौरी": 8486,
      "ताइ": 8487,
      "बुन": 8488,
      "कैम्प": 8489,
      "धारक": 8490,
      "रियासत": 8491,
      "अभिलेख": 8492,
      "व्यवस्थित": 8493,
      "जगन्नाथ": 8494,
      "अपराधों": 8495,
      "ष्टीकरण": 8496,
      "ओलि": 8497,
      "नियो": 8498,
      "माली": 8499,
      "सीना": 8500,
      "मोड": 8501,
      "अनुपालन": 8502,
      "फोर": 8503,
      "लौटा": 8504,
      "सहमत": 8505,
      "स्थिरता": 8506,
      "कव": 8507,
      "कोटे": 8508,
      "नासा": 8509,
      "ग्रहों": 8510,
      "स्वदेशी": 8511,
      "रंजीत": 8512,
      "शीर्षक": 8513,
      "एएसपी": 8514,
      "ोली": 8515,
      "हाथी": 8516,
      "रोपण": 8517,
      "अनशन": 8518,
      "क्रिसमस": 8519,
      "मजदूरी": 8520,
      "क्रॉस": 8521,
      "गहरी": 8522,
      "झड़": 8523,
      "सांग": 8524,
      "पहने": 8525,
      "पसंदी": 8526,
      "सब्जि": 8527,
      "आक्रोशित": 8528,
      "रोमांच": 8529,
      "अफ़ग़ानिस्तान": 8530,
      "टार": 8531,
      "नम्बर": 8532,
      "काठ": 8533,
      "वाइन": 8534,
      "शिल्": 8535,
      "मानस": 8536,
      "बंधक": 8537,
      "एलान": 8538,
      "प्रशंस": 8539,
      "मोर्चे": 8540,
      "जटिल": 8541,
      "थानों": 8542,
      "नं": 8543,
      "बैटरी": 8544,
      "बूझ": 8545,
      "इस्तीफे": 8546,
      "गॉ": 8547,
      "विगत": 8548,
      "निष्ठ": 8549,
      "टीज": 8550,
      "लकड़ी": 8551,
      "ार्टमेंट": 8552,
      "मेघालय": 8553,
      "आडवाणी": 8554,
      "८३": 8555,
      "निकी": 8556,
      "बाबत": 8557,
      "श्रवण": 8558,
      "निवारण": 8559,
      "रोजगारी": 8560,
      "मंडला": 8561,
      "बृज": 8562,
      "बजरंग": 8563,
      "अलगाव": 8564,
      "आक्सीजन": 8565,
      "सेशन": 8566,
      "वाड़े": 8567,
      "ज्योतिष": 8568,
      "७००": 8569,
      "निर्णा": 8570,
      "डीन": 8571,
      "चिन्": 8572,
      "गोदाम": 8573,
      "स्पद": 8574,
      "नवदुनिया": 8575,
      "प्रोडक्शन": 8576,
      "एना": 8577,
      "ुआ": 8578,
      "तिलक": 8579,
      "फ़्रा": 8580,
      "डाले": 8581,
      "रामदेव": 8582,
      "संतान": 8583,
      "बेंच": 8584,
      "बहाली": 8585,
      "विस्फो": 8586,
      "पुरोहित": 8587,
      "आमिर": 8588,
      "उड़ी": 8589,
      "विं": 8590,
      "शिक्षित": 8591,
      "दोई": 8592,
      "बनाएं": 8593,
      "हॉलीवुड": 8594,
      "विवेकानंद": 8595,
      "बख्": 8596,
      "तात्": 8597,
      "लायक": 8598,
      "सीम": 8599,
      "सर्किट": 8600,
      "बंदूक": 8601,
      "कार्टू": 8602,
      "समीकरण": 8603,
      "टमेंट": 8604,
      "नज़": 8605,
      "बेरोजगारी": 8606,
      "दूँगा": 8607,
      "घात": 8608,
      "बॉस": 8609,
      "अर्जित": 8610,
      "प्रियता": 8611,
      "प्रीति": 8612,
      "कौशिक": 8613,
      "बर्फबारी": 8614,
      "सीधी": 8615,
      "एमए": 8616,
      "मामूली": 8617,
      "सम्पर्क": 8618,
      "एक्सपर्ट": 8619,
      "टैक्सी": 8620,
      "प्राइमरी": 8621,
      "दोगु": 8622,
      "कतार": 8623,
      "वक़": 8624,
      "साक्षी": 8625,
      "सुचार": 8626,
      "सेंसर": 8627,
      "नियमानुसार": 8628,
      "मॉल": 8629,
      "अभिभावक": 8630,
      "ंतर": 8631,
      "आधी": 8632,
      "७९": 8633,
      "काजी": 8634,
      "हास्य": 8635,
      "साफ़": 8636,
      "मेधा": 8637,
      "मेरिट": 8638,
      "म्यां": 8639,
      "मार्शल": 8640,
      "अमल": 8641,
      "जन्मभूमि": 8642,
      "कलक": 8643,
      "सातवें": 8644,
      "घबरा": 8645,
      "काे": 8646,
      "ट्रम्प": 8647,
      "खातों": 8648,
      "बचाओ": 8649,
      "नूर": 8650,
      "इंडस्ट्रीज": 8651,
      "मुरली": 8652,
      "आति": 8653,
      "ज्यू": 8654,
      "०२": 8655,
      "शिष्य": 8656,
      "पीटर": 8657,
      "पीएफ": 8658,
      "पीएचसी": 8659,
      "कहाँ": 8660,
      "दोस्ती": 8661,
      "टाला": 8662,
      "झारखण्ड": 8663,
      "बेवकू": 8664,
      "पराजित": 8665,
      "देहात": 8666,
      "क्कड़": 8667,
      "मुहर": 8668,
      "वेल्स": 8669,
      "जेंस": 8670,
      "गायिका": 8671,
      "आपातकालीन": 8672,
      "बैंगलोर": 8673,
      "मासूम": 8674,
      "डिफेंस": 8675,
      "च्चार": 8676,
      "स्वाय": 8677,
      "ड्रग्स": 8678,
      "इमाम": 8679,
      "हैरान": 8680,
      "लेक्सी": 8681,
      "मनमानी": 8682,
      "गर्व": 8683,
      "फ्रांसीसी": 8684,
      "अख्तर": 8685,
      "मित्तल": 8686,
      "जख्मी": 8687,
      "गला": 8688,
      "छित": 8689,
      "मुस्त": 8690,
      "अप्": 8691,
      "निर्मल": 8692,
      "खासी": 8693,
      "अनुभ": 8694,
      "चलाकर": 8695,
      "सफलतापूर्वक": 8696,
      "डिस्प्ले": 8697,
      "उन्नत": 8698,
      "शोभायात्रा": 8699,
      "सुर्खियों": 8700,
      "गाना": 8701,
      "इंश्योरेंस": 8702,
      "अपनाया": 8703,
      "ड्रॉ": 8704,
      "संतुलन": 8705,
      "वंदना": 8706,
      "अंकुश": 8707,
      "रविंद्र": 8708,
      "रखाव": 8709,
      "फर्स्ट": 8710,
      "सशक्त": 8711,
      "रसोई": 8712,
      "डिलीवरी": 8713,
      "कबीर": 8714,
      "खगोल": 8715,
      "मजा": 8716,
      "ंगण": 8717,
      "उपायों": 8718,
      "सुनीता": 8719,
      "मुसीबत": 8720,
      "रस्": 8721,
      "विलास": 8722,
      "निवासियों": 8723,
      "सियत": 8724,
      "प्रदेशाध्यक्ष": 8725,
      "रामगढ़": 8726,
      "अवस्थी": 8727,
      "टोला": 8728,
      "फुटेज": 8729,
      "विकेटकीपर": 8730,
      "बदा": 8731,
      "सेले": 8732,
      "किन्न": 8733,
      "लीक": 8734,
      "सिसो": 8735,
      "तोड़ा": 8736,
      "बोन": 8737,
      "ब्रज": 8738,
      "ंटीन": 8739,
      "विविधता": 8740,
      "दुश्मन": 8741,
      "बिजनौर": 8742,
      "ऑफर": 8743,
      "विपिन": 8744,
      "पाती": 8745,
      "मुन्ना": 8746,
      "अंपायर": 8747,
      "कैसा": 8748,
      "प्रोटीन": 8749,
      "ब्रै": 8750,
      "रिश्ता": 8751,
      "दिनांक": 8752,
      "बती": 8753,
      "अनो": 8754,
      "तोह": 8755,
      "हितग्रा": 8756,
      "श्रीकांत": 8757,
      "उठाकर": 8758,
      "घोटाला": 8759,
      "दरवाजा": 8760,
      "महत्वाकां": 8761,
      "चिह्नित": 8762,
      "पसंदीदा": 8763,
      "मसा": 8764,
      "लट": 8765,
      "८४": 8766,
      "प्रसव": 8767,
      "लेक्स": 8768,
      "हायर": 8769,
      "उपक्रम": 8770,
      "कक्षाओं": 8771,
      "प्राप्तकर्ता": 8772,
      "म्यांमार": 8773,
      "८१": 8774,
      "जीवी": 8775,
      "कार्यभार": 8776,
      "लोका": 8777,
      "उपनाम": 8778,
      "सोलह": 8779,
      "कामगार": 8780,
      "निकायों": 8781,
      "पटकथा": 8782,
      "प्रताड़": 8783,
      "(,": 8784,
      "दक्ष": 8785,
      "धरो": 8786,
      "हनी": 8787,
      "ल्टा": 8788,
      "परिचित": 8789,
      "सभापति": 8790,
      "खेतों": 8791,
      "१९६१": 8792,
      "ड्रग": 8793,
      "कलकत्ता": 8794,
      "ऊंगा": 8795,
      "हरदोई": 8796,
      "कर्ष": 8797,
      "रुड़की": 8798,
      "लोकप्रियता": 8799,
      "फैलने": 8800,
      "शिवरात्रि": 8801,
      "मोहल्ले": 8802,
      "निकाले": 8803,
      "वार्डों": 8804,
      "अल्ट्रा": 8805,
      "घूमने": 8806,
      "पिथौरागढ़": 8807,
      "इच": 8808,
      "साधु": 8809,
      "दायों": 8810,
      "डिज़ा": 8811,
      "विदेशों": 8812,
      "आत्मविश्वास": 8813,
      "भरोसे": 8814,
      "हार्ड": 8815,
      "निचले": 8816,
      "सिरे": 8817,
      "मोहित": 8818,
      "एसओ": 8819,
      "बनाती": 8820,
      "रविशंकर": 8821,
      "हॉस्टल": 8822,
      "चित्रकूट": 8823,
      "फार्मर": 8824,
      "१९४८": 8825,
      "क्वारंटीन": 8826,
      "ढूंढ": 8827,
      "खरे": 8828,
      "तकरीबन": 8829,
      "पुख्ता": 8830,
      "टूरि": 8831,
      "सहज": 8832,
      "संघीय": 8833,
      "खेलना": 8834,
      "शिवपुरी": 8835,
      "ब्रिगे": 8836,
      "संगीतकार": 8837,
      "आयुष": 8838,
      "निराश": 8839,
      "पुरूष": 8840,
      "अनुभवी": 8841,
      "खनिज": 8842,
      "०९": 8843,
      "मियां": 8844,
      "शाहिद": 8845,
      "रोमन": 8846,
      "फास्ट": 8847,
      "अर्जी": 8848,
      "प्रमोशन": 8849,
      "डबल": 8850,
      "मौर": 8851,
      "जावेद": 8852,
      "लोहिया": 8853,
      "सबका": 8854,
      "जरुर": 8855,
      "दिखाते": 8856,
      "भंडार": 8857,
      "ध्वस्त": 8858,
      "छत": 8859,
      "डील": 8860,
      "बैन": 8861,
      "पेड": 8862,
      "अपनाने": 8863,
      "१२५": 8864,
      "निर्णायक": 8865,
      "ईयर": 8866,
      "ईंधन": 8867,
      "कहे": 8868,
      "ढि": 8869,
      "८७": 8870,
      "कीर्": 8871,
      "दांत": 8872,
      "पीली": 8873,
      "प्वाइंट": 8874,
      "फ्लू": 8875,
      "निकासी": 8876,
      "छुट": 8877,
      "हल्की": 8878,
      "दं": 8879,
      "विपण": 8880,
      "ंधर": 8881,
      "जेने": 8882,
      "आरडी": 8883,
      "रामचंद्र": 8884,
      "अवशेष": 8885,
      "आजकल": 8886,
      "देवरिया": 8887,
      "समुचित": 8888,
      "निकटतम": 8889,
      "ओपीडी": 8890,
      "समृद्ध": 8891,
      "कपड़ा": 8892,
      "हथ": 8893,
      "रियम": 8894,
      "प्रतिवर्ष": 8895,
      "कैल": 8896,
      "ताराम": 8897,
      "जेएनयू": 8898,
      "फिल्मी": 8899,
      "पीयूष": 8900,
      "मिर्जापुर": 8901,
      "पुरातत्व": 8902,
      "सेक्रे": 8903,
      "हावड़ा": 8904,
      "सीतार": 8905,
      "संवाददाताओं": 8906,
      "मांझी": 8907,
      "नाइजीरिया": 8908,
      "अनुपस्थित": 8909,
      "हांगकांग": 8910,
      "अवर": 8911,
      "उपह": 8912,
      "गड्": 8913,
      "कीजिए": 8914,
      "रिडोर": 8915,
      "ार्स": 8916,
      "चाहिये": 8917,
      "लड़कियां": 8918,
      "एँगे": 8919,
      "फ़्तार": 8920,
      "नवाब": 8921,
      "पार्षदों": 8922,
      "ख़ुशी": 8923,
      "कल्चर": 8924,
      "फ्लैट": 8925,
      "गांठ": 8926,
      "इलेवन": 8927,
      "नक्षत्र": 8928,
      "बया": 8929,
      "लती": 8930,
      "दिखी": 8931,
      "श्वर्": 8932,
      "गिनती": 8933,
      "पहुंचेंगे": 8934,
      "पक्षियों": 8935,
      "उपलब्धियों": 8936,
      "निरपेक्ष": 8937,
      "आन्ध्र": 8938,
      "फड": 8939,
      "चिप": 8940,
      "रोगों": 8941,
      "धरोहर": 8942,
      "विपणन": 8943,
      "एनि": 8944,
      "सेने": 8945,
      "रां": 8946,
      "लियत": 8947,
      "विजयी": 8948,
      "गरीबी": 8949,
      "एसटीएफ": 8950,
      "सपने": 8951,
      "बैक्टीरिया": 8952,
      "स्वायत्त": 8953,
      "ंजय": 8954,
      "गहन": 8955,
      "निगेटिव": 8956,
      "सियां": 8957,
      "नील": 8958,
      "जीवा": 8959,
      "जोत": 8960,
      "द्रो": 8961,
      "पूर्णिया": 8962,
      "चलाते": 8963,
      "एनसीआर": 8964,
      "सीएए": 8965,
      "समृद्धि": 8966,
      "सिसोदिया": 8967,
      "अतः": 8968,
      "भानु": 8969,
      "मच्छ": 8970,
      "प्रज्": 8971,
      "पाता": 8972,
      "यूआई": 8973,
      "सहकारिता": 8974,
      "सहयोगियों": 8975,
      "मेगापिक्सल": 8976,
      "स्ट्राइक": 8977,
      "ध्रुव": 8978,
      "बटालियन": 8979,
      "ईसा": 8980,
      "ौदा": 8981,
      "मुख्यमंत्रियों": 8982,
      "रणवीर": 8983,
      "परिणामस्वरूप": 8984,
      "मलेरिया": 8985,
      "तिरंगा": 8986,
      "ओड़िशा": 8987,
      "बवाल": 8988,
      "०३": 8989,
      "विटा": 8990,
      "मीडि": 8991,
      "फर्र": 8992,
      "साइज": 8993,
      "स्तिका": 8994,
      "प्रॉपर्टी": 8995,
      "सच्चाई": 8996,
      "मालिकों": 8997,
      "सम्बंधित": 8998,
      "अंबिकापुर": 8999,
      "ग्यारह": 9000,
      "शंस": 9001,
      "विराज": 9002,
      "नीर": 9003,
      "बिट": 9004,
      "परिक्रमा": 9005,
      "अंतरिम": 9006,
      "प्रावधानों": 9007,
      "ड्डू": 9008,
      "बलिदान": 9009,
      "बाध्य": 9010,
      "गायन": 9011,
      "जीएस": 9012,
      "म्म": 9013,
      "चुरा": 9014,
      "राष्ट्रवादी": 9015,
      "मन्त्री": 9016,
      "दरवाजे": 9017,
      "सीतापुर": 9018,
      "पैसेंजर": 9019,
      "थर्मल": 9020,
      "औरंगाबाद": 9021,
      "तीकरण": 9022,
      "रोजाबाद": 9023,
      "स्टर्स": 9024,
      "गीतों": 9025,
      "कार्यवाहक": 9026,
      "जिसको": 9027,
      "गोलियां": 9028,
      "कॉमन": 9029,
      "जीवों": 9030,
      "टेलीविज़न": 9031,
      "आपत्तिजनक": 9032,
      "पूर्वांचल": 9033,
      "ज्वालामुखी": 9034,
      "महारानी": 9035,
      "जानकारियां": 9036,
      "निःशुल्क": 9037,
      "ऊना": 9038,
      "टिकल": 9039,
      "८२": 9040,
      "सेठ": 9041,
      "वीजा": 9042,
      "मोन": 9043,
      "खिले": 9044,
      "प्रांगण": 9045,
      "कैंट": 9046,
      "खुराक": 9047,
      "फॉलो": 9048,
      "तोड़कर": 9049,
      "वाणिज्यिक": 9050,
      "ध्वनि": 9051,
      "कन्नौज": 9052,
      "रजिस्ट्रार": 9053,
      "आसमान": 9054,
      "छत्र": 9055,
      "झि": 9056,
      "सरोज": 9057,
      "८६": 9058,
      "न्ड": 9059,
      "बेल्": 9060,
      "गुड़": 9061,
      "छावनी": 9062,
      "न्यूज़ी": 9063,
      "पॉल": 9064,
      "शॉर्ट": 9065,
      "अनुपम": 9066,
      "जहाज": 9067,
      "रिटायर्ड": 9068,
      "आपरे": 9069,
      "उस्": 9070,
      "कारगर": 9071,
      "भीत": 9072,
      "म्बी": 9073,
      "योगेश": 9074,
      "दरों": 9075,
      "लुधिया": 9076,
      "प्रिंस": 9077,
      "परिणामों": 9078,
      "ड्राइव": 9079,
      "प्रगतिशील": 9080,
      "उद्यमी": 9081,
      "ससुराल": 9082,
      "छानबीन": 9083,
      "अरे": 9084,
      "त्ती": 9085,
      "योग्रा": 9086,
      "सुनाया": 9087,
      "कोरबा": 9088,
      "लुधियाना": 9089,
      "८९": 9090,
      "काँ": 9091,
      "स्क्": 9092,
      "किता": 9093,
      "डॉन": 9094,
      "कहती": 9095,
      "किस्मत": 9096,
      "दहशत": 9097,
      "शाहजहांपुर": 9098,
      "काफि": 9099,
      "स्केट": 9100,
      "रामेश्वर": 9101,
      "डीलर": 9102,
      "गुम": 9103,
      "करायी": 9104,
      "कामों": 9105,
      "टेस्टिंग": 9106,
      "बनीं": 9107,
      "गवर्न": 9108,
      "गुलाम": 9109,
      "कीर्तन": 9110,
      "दरी": 9111,
      "किक": 9112,
      "क्सिंग": 9113,
      "पांव": 9114,
      "मंथन": 9115,
      "अनुमंडल": 9116,
      "किंगडम": 9117,
      "आरटीओ": 9118,
      "फ़रवरी": 9119,
      "संवेदना": 9120,
      "इटा": 9121,
      "मग": 9122,
      "नाले": 9123,
      "ुरू": 9124,
      "सुब्र": 9125,
      "पेमेंट": 9126,
      "भिड़": 9127,
      "पर्दा": 9128,
      "चित्त": 9129,
      "शक्तियों": 9130,
      "१९६४": 9131,
      "कारावास": 9132,
      "मूल्यों": 9133,
      "विदाई": 9134,
      "सिद्दीकी": 9135,
      "पदोन्नति": 9136,
      "साक्षरता": 9137,
      "घटा": 9138,
      "चौर": 9139,
      "र्व": 9140,
      "गाव": 9141,
      "वारंट": 9142,
      "पुस्तिका": 9143,
      "चिं": 9144,
      "दुल": 9145,
      "बनते": 9146,
      "त्रिम": 9147,
      "सूचीबद्ध": 9148,
      "दशकों": 9149,
      "सब्सिडी": 9150,
      "बुजुर्गों": 9151,
      "एकीकृत": 9152,
      "डिज़ाइन": 9153,
      "णियों": 9154,
      "भट्टा": 9155,
      "सफ": 9156,
      "मानदेय": 9157,
      "भुत": 9158,
      "नवरात्रि": 9159,
      "मुद्दीन": 9160,
      "अरबी": 9161,
      "कुंवर": 9162,
      "हं": 9163,
      "साइं": 9164,
      "द्घ": 9165,
      "मुख्यतः": 9166,
      "एडवो": 9167,
      "ड्राइविंग": 9168,
      "काटकर": 9169,
      "इलेक्ट्रॉनिक्स": 9170,
      "फ़ैसला": 9171,
      "वक़्त": 9172,
      "रीवा": 9173,
      "मुक": 9174,
      "दुल्": 9175,
      "नामजद": 9176,
      "नोई": 9177,
      "त्रिवेदी": 9178,
      "म्यूजिक": 9179,
      "प्रतिष्ठान": 9180,
      "कायदा": 9181,
      "णवीस": 9182,
      "असफल": 9183,
      "गलि": 9184,
      "पीएल": 9185,
      "कार्यक्षेत्र": 9186,
      "बांग्लादेशी": 9187,
      "इलेक्ट्र": 9188,
      "स्टूडियो": 9189,
      "राफेल": 9190,
      "परमार": 9191,
      "निबंध": 9192,
      "देवास": 9193,
      "रीब": 9194,
      "पीटा": 9195,
      "रेटिंग": 9196,
      "मैरी": 9197,
      "श्रृ": 9198,
      "कृत्रिम": 9199,
      "महिंद्रा": 9200,
      "भूख": 9201,
      "लंकी": 9202,
      "लगेगी": 9203,
      "द्रास": 9204,
      "श्वेता": 9205,
      "निकोबार": 9206,
      "महत्त्वपूर्ण": 9207,
      "फटकार": 9208,
      "आओ": 9209,
      "न्ने": 9210,
      "बीबी": 9211,
      "खाबाद": 9212,
      "कॉरिडोर": 9213,
      "गिंग": 9214,
      "मनु": 9215,
      "कदमों": 9216,
      "सुपरस्टार": 9217,
      "ंतरण": 9218,
      "एपि": 9219,
      "विश्रा": 9220,
      "पीपु": 9221,
      "पुर्त": 9222,
      "बनती": 9223,
      "व्याप्त": 9224,
      "फ़्ते": 9225,
      "हिमां": 9226,
      "प्लीज़": 9227,
      "ईसी": 9228,
      "ारिया": 9229,
      "किड": 9230,
      "विनी": 9231,
      "तिरा": 9232,
      "मेहरा": 9233,
      "पार्वती": 9234,
      "प्रोफाइल": 9235,
      "याचिकाकर्ता": 9236,
      "पथराव": 9237,
      "बहाने": 9238,
      "प्रतिबद्धता": 9239,
      "पीपुल्स": 9240,
      "फंसा": 9241,
      "रक्षक": 9242,
      "षड": 9243,
      "जासू": 9244,
      "मैथ": 9245,
      "ग्रेटर": 9246,
      "फोर्निया": 9247,
      "सीतारमण": 9248,
      "एटर": 9249,
      "ैशी": 9250,
      "प्रवासियों": 9251,
      "विल्": 9252,
      "मिथुन": 9253,
      "सिले": 9254,
      "रेत": 9255,
      "पूर्णा": 9256,
      "आरबीआई": 9257,
      "सनसनी": 9258,
      "स्पष्टीकरण": 9259,
      "कलक्टर": 9260,
      "आमने": 9261,
      "अफगान": 9262,
      "ठिकानों": 9263,
      "तबादला": 9264,
      "मिठाई": 9265,
      "काउंसलिंग": 9266,
      "ऐश्वर्": 9267,
      "टान": 9268,
      "रच": 9269,
      "रिमांड": 9270,
      "महर्षि": 9271,
      "वैन": 9272,
      "सर्स": 9273,
      "लंबन": 9274,
      "सुप्रीमो": 9275,
      "ट्रांसफार्मर": 9276,
      "आंबेडकर": 9277,
      "सैमसंग": 9278,
      "अनियंत्रित": 9279,
      "इनाम": 9280,
      "एडी": 9281,
      "सवारी": 9282,
      "हेम": 9283,
      "एनसीसी": 9284,
      "बॉम्बे": 9285,
      "ढांचा": 9286,
      "अश्विन": 9287,
      "रोहतक": 9288,
      "एनसीपी": 9289,
      "आजीविका": 9290,
      "हुड्डा": 9291,
      "रहित": 9292,
      "फीचर्स": 9293,
      "जातियाँ": 9294,
      "ईमानदारी": 9295,
      "व्हाट्सएप": 9296,
      "कुरुक्षेत्र": 9297,
      "विरूद्ध": 9298,
      "चमक": 9299,
      "तबी": 9300,
      "प्रवास": 9301,
      "वांस": 9302,
      "लेवा": 9303,
      "टीय": 9304,
      "अपार्टमेंट": 9305,
      "सोलंकी": 9306,
      "रुके": 9307,
      "प्रतिद्वंद्वी": 9308,
      "बहराइच": 9309,
      "उपहार": 9310,
      "अन्यथा": 9311,
      "त्यौ": 9312,
      "मददगार": 9313,
      "रजिस्ट्री": 9314,
      "मुफ्ती": 9315,
      "ऑक्": 9316,
      "ओबीसी": 9317,
      "बजाए": 9318,
      "वालिया": 9319,
      "देशमुख": 9320,
      "बरसात": 9321,
      "महेन्द्र": 9322,
      "कहकर": 9323,
      "१६वीं": 9324,
      "ानिर्": 9325,
      "सर्वप्रथम": 9326,
      "गैंगरेप": 9327,
      "रिचर्ड": 9328,
      "आफि": 9329,
      "पाउ": 9330,
      "शियम": 9331,
      "महबू": 9332,
      "महाप्रबंधक": 9333,
      "बहुजन": 9334,
      "ग्ध": 9335,
      "करवाए": 9336,
      "एथले": 9337,
      "रिटर्न": 9338,
      "थाईलैंड": 9339,
      "जनी": 9340,
      "हकी": 9341,
      "ताक": 9342,
      "्याल": 9343,
      "डेल": 9344,
      "दिनभर": 9345,
      "ब्रह्मा": 9346,
      "सेल्फी": 9347,
      "जवाहरलाल": 9348,
      "बहर": 9349,
      "श्म": 9350,
      "उन्हे": 9351,
      "लोहा": 9352,
      "थेरे": 9353,
      "प्रतियोगी": 9354,
      "सराहनीय": 9355,
      "पाटीदार": 9356,
      "बले": 9357,
      "वत्": 9358,
      "वाँ": 9359,
      "म्बा": 9360,
      "कांग्रेसियों": 9361,
      "छात्रसंघ": 9362,
      "अध्याय": 9363,
      "टर्मिनल": 9364,
      "सीखने": 9365,
      "कुशीनगर": 9366,
      "आज़": 9367,
      "ऑडियो": 9368,
      "नवाज": 9369,
      "कोर्": 9370,
      "डिब्": 9371,
      "भाषित": 9372,
      "कलर": 9373,
      "कूड़ा": 9374,
      "१९६६": 9375,
      "दलितों": 9376,
      "उजाला": 9377,
      "गवाह": 9378,
      "धूप": 9379,
      "देसी": 9380,
      "कार्यपालक": 9381,
      "एसबीआई": 9382,
      "ंधरा": 9383,
      "गुफा": 9384,
      "कराचार्य": 9385,
      "ऊँगी": 9386,
      "सर्विसेज": 9387,
      "जुटाने": 9388,
      "आक्रामक": 9389,
      "धरा": 9390,
      "करवाना": 9391,
      "सोलन": 9392,
      "गुड़ी": 9393,
      "ट्रेलर": 9394,
      "लॉस": 9395,
      "विशेषकर": 9396,
      "लड़कों": 9397,
      "मशीनों": 9398,
      "मद्रास": 9399,
      "सरी": 9400,
      "मिनार": 9401,
      "मुगल": 9402,
      "एसआईटी": 9403,
      "नेताजी": 9404,
      "लॉट": 9405,
      "सीमावर्ती": 9406,
      "गेंदों": 9407,
      "हमलावर": 9408,
      "विजेताओं": 9409,
      "मधुर": 9410,
      "केमिक": 9411,
      "विंडो": 9412,
      "सोलर": 9413,
      "शीद": 9414,
      "मार्केटिंग": 9415,
      "वाहाटी": 9416,
      "विस्फोटक": 9417,
      "मका": 9418,
      "पापा": 9419,
      "एकदम": 9420,
      "न्हे": 9421,
      "डिस्ट्रि": 9422,
      "पोषित": 9423,
      "इस्पात": 9424,
      "सड़कें": 9425,
      "(),": 9426,
      "दवाएं": 9427,
      "नॉन": 9428,
      "प्रीमियम": 9429,
      "ंडों": 9430,
      "हाथरस": 9431,
      "ब्रॉड": 9432,
      "कच्चे": 9433,
      "एडवोकेट": 9434,
      "ऊंची": 9435,
      "पंद्र": 9436,
      "हवन": 9437,
      "जनसंपर्क": 9438,
      "बरती": 9439,
      "गुवाहाटी": 9440,
      "वरीय": 9441,
      "ोहण": 9442,
      "रिश्तों": 9443,
      "मुश्किलें": 9444,
      "सक्रियता": 9445,
      "निष्ठा": 9446,
      "आंशिक": 9447,
      "दिशानिर्": 9448,
      "विषाणु": 9449,
      "नात्मक": 9450,
      "संपत्तियों": 9451,
      "ंदवाड़ा": 9452,
      "रेस्टोर": 9453,
      "बेकार": 9454,
      "गिन": 9455,
      "सीमाओं": 9456,
      "बचाया": 9457,
      "पुनर्वास": 9458,
      "विज्ञप्ति": 9459,
      "प्रक्षेपण": 9460,
      "अस्थ": 9461,
      "झंडा": 9462,
      "तब्दी": 9463,
      "दराज": 9464,
      "षकों": 9465,
      "सईद": 9466,
      "सेक्शन": 9467,
      "विसर्जन": 9468,
      "अनू": 9469,
      "कमर": 9470,
      "ख़्": 9471,
      "वांछित": 9472,
      "नदियाँ": 9473,
      "सभ्यता": 9474,
      "पंद्रह": 9475,
      "रेस्टोरेंट": 9476,
      "टंडन": 9477,
      "स्वे": 9478,
      "राधे": 9479,
      "तेज़": 9480,
      "कुत्ते": 9481,
      "अनुपात": 9482,
      "धीमी": 9483,
      "नरसिंह": 9484,
      "कल्याणकारी": 9485,
      "लड़ाकू": 9486,
      "नानक": 9487,
      "सिडनी": 9488,
      "०४": 9489,
      "याल": 9490,
      "निग": 9491,
      "न्टी": 9492,
      "रिए": 9493,
      "रिक्शा": 9494,
      "गोरी": 9495,
      "बनवाने": 9496,
      "ंटल": 9497,
      "स्तीपुर": 9498,
      "बालाजी": 9499,
      "वाहिनी": 9500,
      "तबीयत": 9501,
      "ठगी": 9502,
      "दाल": 9503,
      "मोचन": 9504,
      "अनुया": 9505,
      "सोल": 9506,
      "तलवार": 9507,
      "मत्स्य": 9508,
      "झों": 9509,
      "नाव": 9510,
      "राखी": 9511,
      "दीव": 9512,
      "जीआरपी": 9513,
      "स्थानी": 9514,
      "बीना": 9515,
      "टाइन": 9516,
      "बंधु": 9517,
      "पशुपालन": 9518,
      "रवींद्र": 9519,
      "अनियमितता": 9520,
      "फर्रु": 9521,
      "ज्या": 9522,
      "ढी": 9523,
      "दहेज": 9524,
      "़ी": 9525,
      "इनसे": 9526,
      "लगाये": 9527,
      "मालवीय": 9528,
      "जिम्मा": 9529,
      "गौड़": 9530,
      "भीमराव": 9531,
      "गंध": 9532,
      "घड़ी": 9533,
      "सटे": 9534,
      "ॉल": 9535,
      "विड़": 9536,
      "बांस": 9537,
      "समर": 9538,
      "समस्तीपुर": 9539,
      "रेणु": 9540,
      "जोकि": 9541,
      "रतलाम": 9542,
      "पहुंचेगी": 9543,
      "क़े": 9544,
      "पेंटिंग": 9545,
      "बचत": 9546,
      "कबड्डी": 9547,
      "गोल्डन": 9548,
      "शारदा": 9549,
      "क्वालिटी": 9550,
      "अराज": 9551,
      "रेजि": 9552,
      "१५००": 9553,
      "रेंसिक": 9554,
      "निभाया": 9555,
      "बालिकाओं": 9556,
      "अक्षा": 9557,
      "इज": 9558,
      "नेल": 9559,
      "रावल": 9560,
      "पादु": 9561,
      "रोहा": 9562,
      "लेंडर": 9563,
      "उठे": 9564,
      "निटी": 9565,
      "यूट्यूब": 9566,
      "गोपी": 9567,
      "खुलकर": 9568,
      "हराने": 9569,
      "कलाम": 9570,
      "समझाने": 9571,
      "सेवकों": 9572,
      "पर्वतमाला": 9573,
      "चटर्जी": 9574,
      "पल्ली": 9575,
      "नाका": 9576,
      "नाते": 9577,
      "पाबंदी": 9578,
      "खालि": 9579,
      "डीआईजी": 9580,
      "बोझ": 9581,
      "आरआई": 9582,
      "फोरम": 9583,
      "कुरैशी": 9584,
      "जॉब": 9585,
      "ऑफिशियल": 9586,
      "पारदर्शिता": 9587,
      "वसुंधरा": 9588,
      "कटे": 9589,
      "ब्यो": 9590,
      "मसले": 9591,
      "ृति": 9592,
      "नाल": 9593,
      "निष": 9594,
      "परिभाषित": 9595,
      "डीआई": 9596,
      "चिट्ठी": 9597,
      "कैदियों": 9598,
      "चेतना": 9599,
      "कंटेनमेंट": 9600,
      "होमगार्ड": 9601,
      "पीसीआर": 9602,
      "चतुर्थ": 9603,
      "झट": 9604,
      "सहर": 9605,
      "कोला": 9606,
      "हाउ": 9607,
      "ल्फ": 9608,
      "जेडी": 9609,
      "एमएम": 9610,
      "पेटी": 9611,
      "श्यक": 9612,
      "आमजन": 9613,
      "कनेक्": 9614,
      "मायने": 9615,
      "विद्रो": 9616,
      "भया": 9617,
      "शस्त्र": 9618,
      "ुल": 9619,
      "टाल": 9620,
      "लैप": 9621,
      "सैं": 9622,
      "लोकल": 9623,
      "फेरी": 9624,
      "१९६८": 9625,
      "भटक": 9626,
      "०८": 9627,
      "मिसाल": 9628,
      "हिन्द": 9629,
      "उपलक्ष्य": 9630,
      "त्तों": 9631,
      "संभावनाएं": 9632,
      "गिराया": 9633,
      "वियतनाम": 9634,
      "फायदेमंद": 9635,
      "पर्यवेक्षक": 9636,
      "मेमोरियल": 9637,
      "फडणवीस": 9638,
      "लाव": 9639,
      "गाया": 9640,
      "टीटी": 9641,
      "डिपो": 9642,
      "सुरेन्द्र": 9643,
      "अभिव्यक्ति": 9644,
      "टैंक": 9645,
      "ज़्यादातर": 9646,
      "बिलकुल": 9647,
      "उर्वर": 9648,
      "शॉप": 9649,
      "हिंदुओं": 9650,
      "अक्षांश": 9651,
      "कास्ट": 9652,
      "सेतु": 9653,
      "देसाई": 9654,
      "विश्वस": 9655,
      "हिस्ट्री": 9656,
      "दिखाए": 9657,
      "मिश्रित": 9658,
      "ुपयोग": 9659,
      "बंदियों": 9660,
      "अमरनाथ": 9661,
      "प्रतीक्षा": 9662,
      "नकदी": 9663,
      "त्यौहार": 9664,
      "ंब": 9665,
      "कटा": 9666,
      "वक्": 9667,
      "प्रज्ञा": 9668,
[...]
