{
  "version": "1.0",
  "truncation": null,
  "padding": null,
  "added_tokens": [
    {
      "id": 0,
      "content": "[PAD]",
      "single_word": false,
      "lstrip": false,
      "rstrip": false,
      "normalized": false,
      "special": true
    },
    {
      "id": 1,
      "content": "[UNK]",
      "single_word": false,
      "lstrip": false,
      "rstrip": false,
      "normalized": false,
      "special": true
    },
    {
      "id": 2,
      "content": "[CLS]",
      "single_word": false,
      "lstrip": false,
      "rstrip": false,
      "normalized": false,
      "special": true
    },
    {
      "id": 3,
      "content": "[SEP]",
      "single_word": false,
      "lstrip": false,
      "rstrip": false,
      "normalized": false,
      "special": true
    },
    {
      "id": 4,
      "content": "[MASK]",
      "single_word": false,
      "lstrip": false,
      "rstrip": false,
      "normalized": false,
      "special": true
    }
  ],
  "normalizer": {
    "type": "Sequence",
    "normalizers": [
      {
        "type": "NFC"
      }
    ]
  },
  "pre_tokenizer": {
    "type": "Whitespace"
  },
  "post_processor": null,
  "decoder": null,
  "model": {
    "type": "WordPiece",
    "unk_token": "[UNK]",
    "continuing_subword_prefix": "##",
    "max_input_chars_per_word": 100,
    "vocab": {
      "[PAD]": 0,
      "[UNK]": 1,
      "[CLS]": 2,
      "[SEP]": 3,
      "[MASK]": 4,
      "!": 5,
      "\"": 6,
      "'": 7,
      "(": 8,
      ")": 9,
      ",": 10,
      "-": 11,
      ":": 12,
      ";": 13,
      "?": 14,
      "²": 15,
      "ँ": 16,
      "ं": 17,
      "ः": 18,
      "अ": 19,
      "आ": 20,
      "इ": 21,
      "ई": 22,
      "उ": 23,
      "ऊ": 24,
      "ऋ": 25,
      "ऍ": 26,
      "ऎ": 27,
      "ए": 28,
      "ऐ": 29,
      "ऑ": 30,
      "ऒ": 31,
      "ओ": 32,
      "औ": 33,
      "क": 34,
      "ख": 35,
      "ग": 36,
      "घ": 37,
      "ङ": 38,
      "च": 39,
      "छ": 40,
      "ज": 41,
      "झ": 42,
      "ञ": 43,
      "ट": 44,
      "ठ": 45,
      "ड": 46,
      "ढ": 47,
      "ण": 48,
      "त": 49,
      "थ": 50,
      "द": 51,
      "ध": 52,
      "न": 53,
      "ऩ": 54,
      "प": 55,
      "फ": 56,
      "ब": 57,
      "भ": 58,
      "म": 59,
      "य": 60,
      "र": 61,
      "ऱ": 62,
      "ल": 63,
      "ळ": 64,
      "ऴ": 65,
      "व": 66,
      "श": 67,
      "ष": 68,
      "स": 69,
      "ह": 70,
      "ऻ": 71,
      "़": 72,
      "ऽ": 73,
      "ा": 74,
      "ि": 75,
      "ी": 76,
      "ु": 77,
      "ू": 78,
      "ृ": 79,
      "ॄ": 80,
      "ॅ": 81,
      "ॆ": 82,
      "े": 83,
      "ै": 84,
      "ॉ": 85,
      "ॊ": 86,
      "ो": 87,
      "ौ": 88,
      "्": 89,
      "ॐ": 90,
      "॑": 91,
      "॒": 92,
      "॓": 93,
      "ॠ": 94,
      "ॢ": 95,
      "।": 96,
      "॥": 97,
      "०": 98,
      "१": 99,
      "२": 100,
      "३": 101,
      "४": 102,
      "५": 103,
      "६": 104,
      "७": 105,
      "८": 106,
      "९": 107,
      "॰": 108,
      "ॲ": 109,
      "೧": 110,
      "₂": 111,
      "₃": 112,
      "₄": 113,
      "##ध": 114,
      "##ु": 115,
      "##म": 116,
      "##त": 117,
      "##ि": 118,
      "##़": 119,
      "##र": 120,
      "##द": 121,
      "##े": 122,
      "##ो": 123,
      "##ा": 124,
      "##ल": 125,
      "##प": 126,
      "##क": 127,
      "##्": 128,
      "##ौ": 129,
      "##ी": 130,
      "##फ": 131,
      "##ं": 132,
      "##ट": 133,
      "##न": 134,
      "##य": 135,
      "##ण": 136,
      "##व": 137,
      "##ड": 138,
      "##९": 139,
      "##ृ": 140,
      "##ष": 141,
      "##ठ": 142,
      "##आ": 143,
      "##श": 144,
      "##च": 145,
      "##ई": 146,
      "##ँ": 147,
      "##ख": 148,
      "##ू": 149,
      "##ज": 150,
      "##ै": 151,
      "##स": 152,
      "##ब": 153,
      "##ओ": 154,
      "##ग": 155,
      "##थ": 156,
      "##ञ": 157,
      "##ॉ": 158,
      "##ऑ": 159,
      "##इ": 160,
      "##ॅ": 161,
      "##ऊ": 162,
      "##६": 163,
      "##३": 164,
      "##१": 165,
      "##८": 166,
      "##०": 167,
      "##४": 168,
      "##२": 169,
      "##अ": 170,
      "##झ": 171,
      "##ढ": 172,
      "##ए": 173,
      "##ह": 174,
      "##उ": 175,
      "##छ": 176,
      "##भ": 177,
      "##घ": 178,
      "##ः": 179,
      "##५": 180,
      "##७": 181,
      "##ऱ": 182,
      "##ॆ": 183,
      "##ळ": 184,
      "##औ": 185,
      "##ऍ": 186,
      "##ऐ": 187,
      "##)": 188,
      "##।": 189,
      "##ऽ": 190,
      "##(": 191,
      "##ङ": 192,
      "##-": 193,
      "##\"": 194,
      "##;": 195,
      "##'": 196,
      "##?": 197,
      "##॑": 198,
      "##ऋ": 199,
      "##₄": 200,
      "##ऎ": 201,
      "##ऩ": 202,
      "##,": 203,
      "##ॐ": 204,
      "##ऴ": 205,
      "##:": 206,
      "##ॄ": 207,
      "##ऒ": 208,
      "##ॢ": 209,
      "##ॊ": 210,
      "##ऻ": 211,
      "##॒": 212,
      "##!": 213,
      "##॓": 214,
      "##्र": 215,
      "##ार": 216,
      "##ें": 217,
      "के": 218,
      "है": 219,
      "##या": 220,
      "में": 221,
      "##ान": 222,
      "##र्": 223,
      "##ों": 224,
      "की": 225,
      "##्य": 226,
      "##ने": 227,
      "##िक": 228,
      "को": 229,
      "##ता": 230,
      "का": 231,
      "से": 232,
      "प्र": 233,
      "##स्": 234,
      "##िया": 235,
      "##ना": 236,
      "कर": 237,
      "##िल": 238,
      "##ाल": 239,
      "##न्": 240,
      "##क्": 241,
      "##ित": 242,
      "पर": 243,
      "और": 244,
      "##ही": 245,
      "##ड़": 246,
      "ने": 247,
      "हो": 248,
      "##िय": 249,
      "##वा": 250,
      "##हा": 251,
      "वि": 252,
      "##त्र": 253,
      "कि": 254,
      "स्": 255,
      "हैं": 256,
      "इस": 257,
      "##ाम": 258,
      "##ंग": 259,
      "##िए": 260,
      "##री": 261,
      "##ाज": 262,
      "##हीं": 263,
      "##म्": 264,
      "##ेश": 265,
      "##ती": 266,
      "मु": 267,
      "एक": 268,
      "##्या": 269,
      "##ुर": 270,
      "##ला": 271,
      "##ति": 272,
      "सं": 273,
      "नहीं": 274,
      "##ते": 275,
      "जा": 276,
      "##ाह": 277,
      "##्व": 278,
      "##के": 279,
      "##से": 280,
      "##नी": 281,
      "##क्ष": 282,
      "##ैं": 283,
      "##ारी": 284,
      "भी": 285,
      "तु": 286,
      "##रा": 287,
      "##गा": 288,
      "लिए": 289,
      "##्ट": 290,
      "##ले": 291,
      "##ोग": 292,
      "##का": 293,
      "##कर": 294,
      "##त्": 295,
      "दे": 296,
      "सा": 297,
      "##सी": 298,
      "नि": 299,
      "किया": 300,
      "##ाय": 301,
      "##ाद": 302,
      "सम": 303,
      "##ंद": 304,
      "##िस": 305,
      "अप": 306,
      "##ली": 307,
      "##कार": 308,
      "##ां": 309,
      "##न्ह": 310,
      "हु": 311,
      "मैं": 312,
      "##िन": 313,
      "राज": 314,
      "कार": 315,
      "था": 316,
      "यह": 317,
      "##की": 318,
      "ले": 319,
      "##न्द": 320,
      "##ियों": 321,
      "##िला": 322,
      "भार": 323,
      "##मा": 324,
      "हम": 325,
      "##्री": 326,
      "##्ष": 327,
      "##ाने": 328,
      "##ास": 329,
      "##िव": 330,
      "##ारा": 331,
      "रह": 332,
      "##म्ह": 333,
      "##ज़": 334,
      "तुम्ह": 335,
      "गया": 336,
      "पह": 337,
      "##ुल": 338,
      "##स्त": 339,
      "##भा": 340,
      "मे": 341,
      "##देश": 342,
      "अध": 343,
      "##गी": 344,
      "##रे": 345,
      "उन्ह": 346,
      "सि": 347,
      "##ार्": 348,
      "अन": 349,
      "करने": 350,
      "कु": 351,
      "##्रे": 352,
      "##िल्": 353,
      "स्थ": 354,
      "##ंड": 355,
      "##द्": 356,
      "##ंत्र": 357,
      "##ाइ": 358,
      "##स्ट": 359,
      "वाल": 360,
      "##मी": 361,
      "पू": 362,
      "##तर": 363,
      "ही": 364,
      "##ल्": 365,
      "१९": 366,
      "##वि": 367,
      "साथ": 368,
      "हि": 369,
      "##ष्ट": 370,
      "सु": 371,
      "रा": 372,
      "##कि": 373,
      "##ारे": 374,
      "उस": 375,
      "##स्थ": 376,
      "##िर": 377,
      "##ाप": 378,
      "मुझ": 379,
      "##गे": 380,
      "##्त": 381,
      "लोग": 382,
      "२०": 383,
      "मह": 384,
      "##च्": 385,
      "##ढ़": 386,
      "##ाना": 387,
      "##दा": 388,
      "उन": 389,
      "##गर": 390,
      "आप": 391,
      "##ओं": 392,
      "##ानी": 393,
      "कहा": 394,
      "##रो": 395,
      "मुझे": 396,
      "दो": 397,
      "##वी": 398,
      "चाह": 399,
      "##ूँ": 400,
      "##भी": 401,
      "##ेल": 402,
      "##फ़": 403,
      "##टी": 404,
      "जो": 405,
      "##ंच": 406,
      "##दी": 407,
      "##जी": 408,
      "बा": 409,
      "क्ष": 410,
      "मा": 411,
      "##सा": 412,
      "सर": 413,
      "##टर": 414,
      "##ोज": 415,
      "दिया": 416,
      "देख": 417,
      "निर्": 418,
      "##में": 419,
      "उप": 420,
      "तो": 421,
      "##श्": 422,
      "मिल": 423,
      "##क्र": 424,
      "सी": 425,
      "द्व": 426,
      "ज़": 427,
      "रहे": 428,
      "बाद": 429,
      "##ेत्र": 430,
      "भा": 431,
      "थी": 432,
      "##ोंने": 433,
      "भारत": 434,
      "सक": 435,
      "##र्व": 436,
      "पा": 437,
      "थे": 438,
      "उत्": 439,
      "##पी": 440,
      "##मान": 441,
      "क्षेत्र": 442,
      "तक": 443,
      "तुम": 444,
      "##मे": 445,
      "अपने": 446,
      "##शन": 447,
      "##बर": 448,
      "वर्": 449,
      "फ़": 450,
      "कार्य": 451,
      "##पुर": 452,
      "वे": 453,
      "##ूर": 454,
      "अधिक": 455,
      "चु": 456,
      "हुए": 457,
      "##द्ध": 458,
      "वह": 459,
      "बे": 460,
      "##ंत्री": 461,
      "बह": 462,
      "उन्होंने": 463,
      "या": 464,
      "##्यू": 465,
      "जी": 466,
      "मुख": 467,
      "##वं": 468,
      "##ड़ी": 469,
      "##तीय": 470,
      "##ंध": 471,
      "##ौर": 472,
      "##ोल": 473,
      "##ीन": 474,
      "##ड़ा": 475,
      "बी": 476,
      "##ुत": 477,
      "विश": 478,
      "##ूप": 479,
      "जाए": 480,
      "सब": 481,
      "##को": 482,
      "रहा": 483,
      "##वार": 484,
      "तुम्हें": 485,
      "राज्य": 486,
      "द्वारा": 487,
      "नाम": 488,
      "जिस": 489,
      "##टे": 490,
      "दी": 491,
      "##र्म": 492,
      "##ियाँ": 493,
      "अनु": 494,
      "##ंह": 495,
      "##क्षा": 496,
      "##्ञ": 497,
      "##िंग": 498,
      "##िका": 499,
      "##जा": 500,
      "भारतीय": 501,
      "##धान": 502,
      "बता": 503,
      "##र्भ": 504,
      "##ोक": 505,
      "हूँ": 506,
      "कुछ": 507,
      "बि": 508,
      "गई": 509,
      "##क्त": 510,
      "##द्र": 511,
      "बाह": 512,
      "##लय": 513,
      "##था": 514,
      "##ब्": 515,
      "लग": 516,
      "##ाई": 517,
      "अभ": 518,
      "अं": 519,
      "रही": 520,
      "##िश": 521,
      "सरकार": 522,
      "पुल": 523,
      "##्रीय": 524,
      "##ष्": 525,
      "मुख्य": 526,
      "प्रति": 527,
      "##िप": 528,
      "एवं": 529,
      "जन": 530,
      "##िल्म": 531,
      "##नों": 532,
      "मो": 533,
      "##वे": 534,
      "##्ड": 535,
      "वाले": 536,
      "इन": 537,
      "जान": 538,
      "पुर": 539,
      "सिंह": 540,
      "##मार": 541,
      "साम": 542,
      "पुलिस": 543,
      "सन्द": 544,
      "प्रदेश": 545,
      "सन्दर्भ": 546,
      "##ेंगे": 547,
      "इसके": 548,
      "स्थित": 549,
      "##ूल": 550,
      "पहले": 551,
      "##चार": 552,
      "सो": 553,
      "##किन": 554,
      "##ृत": 555,
      "यहा": 556,
      "राष्ट": 557,
      "होने": 558,
      "व्य": 559,
      "##िक्ष": 560,
      "##हर": 561,
      "कोई": 562,
      "##र्ट": 563,
      "रूप": 564,
      "होगा": 565,
      "पी": 566,
      "हुआ": 567,
      "##िख": 568,
      "बना": 569,
      "करना": 570,
      "##्यों": 571,
      "##्स": 572,
      "##ज्ञ": 573,
      "##कों": 574,
      "बहुत": 575,
      "##च्छ": 576,
      "टी": 577,
      "दु": 578,
      "लेकिन": 579,
      "मौ": 580,
      "##्यालय": 581,
      "##ंप": 582,
      "लगा": 583,
      "चाहिए": 584,
      "##्ल": 585,
      "बन": 586,
      "##च्च": 587,
      "ग्र": 588,
      "जै": 589,
      "आय": 590,
      "##क्स": 591,
      "लोगों": 592,
      "रख": 593,
      "उन्हें": 594,
      "करते": 595,
      "गु": 596,
      "पार": 597,
      "##वर": 598,
      "##ड़े": 599,
      "अपनी": 600,
      "कै": 601,
      "##पा": 602,
      "##बंध": 603,
      "विक": 604,
      "हिन्द": 605,
      "##ूस": 606,
      "ला": 607,
      "##बी": 608,
      "पहु": 609,
      "##मंत्री": 610,
      "इं": 611,
      "कह": 612,
      "##षा": 613,
      "सू": 614,
      "२०१": 615,
      "##ध्य": 616,
      "तथा": 617,
      "जाता": 618,
      "गए": 619,
      "बात": 620,
      "किसी": 621,
      "##िले": 622,
      "पु": 623,
      "##ून": 624,
      "मै": 625,
      "शुर": 626,
      "##ोर": 627,
      "##्टी": 628,
      "तर": 629,
      "##िवार": 630,
      "बै": 631,
      "ना": 632,
      "बाहरी": 633,
      "मैंने": 634,
      "संग": 635,
      "##निक": 636,
      "##ंग्रे": 637,
      "##कारी": 638,
      "##ेंद्र": 639,
      "##जे": 640,
      "देश": 641,
      "कम": 642,
      "##डी": 643,
      "काम": 644,
      "क्र": 645,
      "सम्": 646,
      "##िम": 647,
      "हुई": 648,
      "बताया": 649,
      "##टा": 650,
      "##िता": 651,
      "क्यों": 652,
      "दिन": 653,
      "बढ़": 654,
      "सबसे": 655,
      "सभी": 656,
      "##वन": 657,
      "##क्रम": 658,
      "विश्व": 659,
      "##ड़ियाँ": 660,
      "सह": 661,
      "अच्छ": 662,
      "निक": 663,
      "परि": 664,
      "##िट": 665,
      "अब": 666,
      "लेकर": 667,
      "खिला": 668,
      "समय": 669,
      "##न्न": 670,
      "आद": 671,
      "स्ट": 672,
      "कड़ियाँ": 673,
      "##र्थ": 674,
      "चल": 675,
      "##क्ट": 676,
      "##ेट": 677,
      "पास": 678,
      "उनके": 679,
      "जिला": 680,
      "रो": 681,
      "ये": 682,
      "##र्स": 683,
      "##धार": 684,
      "##र्ण": 685,
      "जब": 686,
      "हर": 687,
      "##शी": 688,
      "##चा": 689,
      "शिक्ष": 690,
      "कॉ": 691,
      "क्या": 692,
      "हिन्दी": 693,
      "##ाला": 694,
      "पूर्व": 695,
      "##मु": 696,
      "##ाली": 697,
      "##दार": 698,
      "##िल्ली": 699,
      "जि": 700,
      "मान": 701,
      "##गत": 702,
      "महा": 703,
      "##्यादा": 704,
      "भू": 705,
      "जन्": 706,
      "##ंस": 707,
      "माम": 708,
      "##एस": 709,
      "इन्ह": 710,
      "##क्ति": 711,
      "बार": 712,
      "##जन": 713,
      "दिल्ली": 714,
      "२००": 715,
      "यु": 716,
      "होता": 717,
      "जु": 718,
      "भाषा": 719,
      "##स्प": 720,
      "##ण्ड": 721,
      "तुम्हारे": 722,
      "छो": 723,
      "पहुंच": 724,
      "##नि": 725,
      "दौर": 726,
      "वर्ष": 727,
      "कई": 728,
      "##यर": 729,
      "ख़": 730,
      "उसे": 731,
      "##एँ": 732,
      "अध्य": 733,
      "##द्य": 734,
      "मेरे": 735,
      "स्वा": 736,
      "हा": 737,
      "##सभा": 738,
      "अव": 739,
      "वै": 740,
      "##ेशन": 741,
      "##एम": 742,
      "##धिक": 743,
      "ब्र": 744,
      "##प्र": 745,
      "##सार": 746,
      "रु": 747,
      "उत्तर": 748,
      "##नाव": 749,
      "सुर": 750,
      "##योग": 751,
      "शाम": 752,
      "लिया": 753,
      "##भाग": 754,
      "बु": 755,
      "##स्कार": 756,
      "अन्य": 757,
      "श्री": 758,
      "##ये": 759,
      "##हार": 760,
      "##स्तान": 761,
      "जाने": 762,
      "##दान": 763,
      "##ोट": 764,
      "##वाद": 765,
      "##००": 766,
      "शुरू": 767,
      "##द्यालय": 768,
      "महिला": 769,
      "स्व": 770,
      "पै": 771,
      "##पाल": 772,
      "दर्": 773,
      "दौरान": 774,
      "वाली": 775,
      "गो": 776,
      "प्रा": 777,
      "डॉ": 778,
      "शु": 779,
      "मार्": 780,
      "कुमार": 781,
      "गां": 782,
      "##सर": 783,
      "अग": 784,
      "##वास": 785,
      "##निया": 786,
      "तरह": 787,
      "लोक": 788,
      "##र्ड": 789,
      "##्रा": 790,
      "प्रश": 791,
      "##बाद": 792,
      "##श्च": 793,
      "##स्क": 794,
      "आई": 795,
      "##वाई": 796,
      "एस": 797,
      "##णा": 798,
      "यहाँ": 799,
      "##धी": 800,
      "निय": 801,
      "##सान": 802,
      "दूस": 803,
      "साल": 804,
      "स्क": 805,
      "##िकी": 806,
      "कांग्रे": 807,
      "न्यू": 808,
      "तै": 809,
      "सकता": 810,
      "##एं": 811,
      "राष्ट्रीय": 812,
      "##पू": 813,
      "##ंदी": 814,
      "पार्टी": 815,
      "क्योंकि": 816,
      "##ीत": 817,
      "इन्हें": 818,
      "सद": 819,
      "उसके": 820,
      "##स्था": 821,
      "इसे": 822,
      "छा": 823,
      "बच्च": 824,
      "कांग्रेस": 825,
      "आज": 826,
      "पुरस्कार": 827,
      "##ंब": 828,
      "##मुख": 829,
      "##माण": 830,
      "फ़िल्म": 831,
      "चुनाव": 832,
      "##ुक्त": 833,
      "##जू": 834,
      "पत्र": 835,
      "हमें": 836,
      "##प्": 837,
      "तीन": 838,
      "गा": 839,
      "फिल्म": 840,
      "बारे": 841,
      "##मेर": 842,
      "##ंट": 843,
      "##ंत": 844,
      "##ोजना": 845,
      "##चना": 846,
      "कंप": 847,
      "##ोन": 848,
      "##ज्ञान": 849,
      "जाएगा": 850,
      "##ख्या": 851,
      "चौ": 852,
      "प्रत": 853,
      "ट्र": 854,
      "##टना": 855,
      "अल": 856,
      "यू": 857,
      "##त्म": 858,
      "मी": 859,
      "मत": 860,
      "अध्यक्ष": 861,
      "##करण": 862,
      "##ीक्षा": 863,
      "नगर": 864,
      "##भाव": 865,
      "कारण": 866,
      "जिले": 867,
      "##लों": 868,
      "शामिल": 869,
      "##िने": 870,
      "फिर": 871,
      "विभाग": 872,
      "राम": 873,
      "##ित्र": 874,
      "मंत्री": 875,
      "बैठ": 876,
      "रे": 877,
      "देखें": 878,
      "##वाल": 879,
      "##ोर्ट": 880,
      "##स्थान": 881,
      "बो": 882,
      "दिख": 883,
      "प्रमुख": 884,
      "वा": 885,
      "##रण": 886,
      "##दे": 887,
      "##ैन": 888,
      "टे": 889,
      "##ताओं": 890,
      "##सि": 891,
      "शहर": 892,
      "##िये": 893,
      "##कर्": 894,
      "बद": 895,
      "टीम": 896,
      "##ष्ठ": 897,
      "##क्टर": 898,
      "##पर": 899,
      "साह": 900,
      "खु": 901,
      "##ंक": 902,
      "तह": 903,
      "करो": 904,
      "बीच": 905,
      "##बा": 906,
      "अपना": 907,
      "छात्र": 908,
      "डी": 909,
      "##वान": 910,
      "पद": 911,
      "होगी": 912,
      "करता": 913,
      "##ेंट": 914,
      "अमेर": 915,
      "##दर्": 916,
      "##्ला": 917,
      "सकते": 918,
      "उनकी": 919,
      "पता": 920,
      "इसका": 921,
      "अम": 922,
      "##त्री": 923,
      "संबंध": 924,
      "##ार्थ": 925,
      "##न्द्र": 926,
      "नी": 927,
      "##ाप्त": 928,
      "प्रधान": 929,
      "##णी": 930,
      "शिक्षा": 931,
      "आरो": 932,
      "विध": 933,
      "##त्व": 934,
      "जानकारी": 935,
      "आयोज": 936,
      "##ंबर": 937,
      "दोनों": 938,
      "निर्देश": 939,
      "मन": 940,
      "##ेष": 941,
      "ली": 942,
      "पाकि": 943,
      "विकास": 944,
      "तुम्हारी": 945,
      "##ैंड": 946,
      "##िस्ट": 947,
      "मुख्यमंत्री": 948,
      "आर": 949,
      "वी": 950,
      "राष्ट्र": 951,
      "हे": 952,
      "##ियन": 953,
      "हमारे": 954,
      "गिर": 955,
      "विधान": 956,
      "##र्क": 957,
      "होती": 958,
      "##धन": 959,
      "##जर": 960,
      "कार्यक्रम": 961,
      "##ियो": 962,
      "यहां": 963,
      "##आई": 964,
      "##खा": 965,
      "##ित्य": 966,
      "सदस": 967,
      "तैय": 968,
      "मेरी": 969,
      "##स्ता": 970,
      "कभी": 971,
      "##ायत": 972,
      "##ियर": 973,
      "घर": 974,
      "पि": 975,
      "बस": 976,
      "व्यव": 977,
      "खिलाफ": 978,
      "##विद्यालय": 979,
      "किए": 980,
      "बनी": 981,
      "परिवार": 982,
      "केंद्र": 983,
      "दक्ष": 984,
      "##िज": 985,
      "##वल": 986,
      "१८": 987,
      "मांग": 988,
      "##धा": 989,
      "##ची": 990,
      "देने": 991,
      "##ताल": 992,
      "##रूर": 993,
      "इस्": 994,
      "कृ": 995,
      "आपको": 996,
      "अधिकार": 997,
      "जन्म": 998,
      "##ियां": 999,
      "मंद": 1000,
      "इसमें": 1001,
      "##ायक": 1002,
      "जारी": 1003,
      "अच्छा": 1004,
      "##शा": 1005,
      "##फी": 1006,
      "##षण": 1007,
      "ग्राम": 1008,
      "मामले": 1009,
      "##ुक": 1010,
      "अनुसार": 1011,
      "भाग": 1012,
      "##हास": 1013,
      "##ैल": 1014,
      "चे": 1015,
      "दक्षि": 1016,
      "व्या": 1017,
      "##क्षण": 1018,
      "##ॉल": 1019,
      "कोरो": 1020,
      "हिंदी": 1021,
      "##ेर": 1022,
      "याद": 1023,
      "इससे": 1024,
      "जैसे": 1025,
      "कप": 1026,
      "जग": 1027,
      "##ेज": 1028,
      "हाल": 1029,
      "##मिक": 1030,
      "मंदिर": 1031,
      "कोरोना": 1032,
      "स्प": 1033,
      "ची": 1034,
      "लिख": 1035,
      "हों": 1036,
      "##काश": 1037,
      "स्कूल": 1038,
      "आदि": 1039,
      "ओर": 1040,
      "##ाया": 1041,
      "##ीय": 1042,
      "कला": 1043,
      "##ालय": 1044,
      "##र्य": 1045,
      "बेह": 1046,
      "##तिहास": 1047,
      "ऑफ": 1048,
      "पां": 1049,
      "##पूर्ण": 1050,
      "सम्मान": 1051,
      "अभी": 1052,
      "##वरी": 1053,
      "वहा": 1054,
      "विधानसभा": 1055,
      "##गढ़": 1056,
      "करें": 1057,
      "वाला": 1058,
      "डे": 1059,
      "प्राप्त": 1060,
      "##िग": 1061,
      "जहा": 1062,
      "##तिक": 1063,
      "लगता": 1064,
      "रुप": 1065,
      "##पति": 1066,
      "स्थान": 1067,
      "##ासन": 1068,
      "विभ": 1069,
      "भाज": 1070,
      "अगर": 1071,
      "चार": 1072,
      "विशेष": 1073,
      "बंद": 1074,
      "##ंज": 1075,
      "अधिकारी": 1076,
      "करेंगे": 1077,
      "नई": 1078,
      "स्थाप": 1079,
      "जीवन": 1080,
      "समझ": 1081,
      "सर्व": 1082,
      "सेवा": 1083,
      "अंतर": 1084,
      "##ाइन": 1085,
      "१०": 1086,
      "##ंगा": 1087,
      "ज़्यादा": 1088,
      "पाकिस्तान": 1089,
      "##वाह": 1090,
      "भाजपा": 1091,
      "##जूद": 1092,
      "इंड": 1093,
      "उत्त": 1094,
      "लड़": 1095,
      "##ूं": 1096,
      "##तन": 1097,
      "योजना": 1098,
      "##लिए": 1099,
      "न्या": 1100,
      "मिले": 1101,
      "अस": 1102,
      "कर्म": 1103,
      "इसकी": 1104,
      "मध्य": 1105,
      "गुर": 1106,
      "##त्रा": 1107,
      "मार": 1108,
      "विश्वविद्यालय": 1109,
      "##क़": 1110,
      "##ियम": 1111,
      "##ोष": 1112,
      "मद": 1113,
      "गांव": 1114,
      "##ंगल": 1115,
      "आरोप": 1116,
      "सच": 1117,
      "अला": 1118,
      "सुरक्षा": 1119,
      "जाना": 1120,
      "१९९": 1121,
      "राजनी": 1122,
      "##जार": 1123,
      "##म्मी": 1124,
      "##तु": 1125,
      "पूरी": 1126,
      "निर्माण": 1127,
      "खेल": 1128,
      "##डा": 1129,
      "प्रदर्": 1130,
      "जांच": 1131,
      "दल": 1132,
      "फै": 1133,
      "अस्प": 1134,
      "आधार": 1135,
      "अभिने": 1136,
      "योग": 1137,
      "##काल": 1138,
      "जिसमें": 1139,
      "##त्या": 1140,
      "श्र": 1141,
      "##ायद": 1142,
      "##यन": 1143,
      "संख्या": 1144,
      "सदस्य": 1145,
      "१९८": 1146,
      "पश्च": 1147,
      "इसी": 1148,
      "##िन्न": 1149,
      "##म्म": 1150,
      "##ायर": 1151,
      "##लो": 1152,
      "##ेंद": 1153,
      "##मेंट": 1154,
      "साहित्य": 1155,
      "पं": 1156,
      "मि": 1157,
      "शिव": 1158,
      "होते": 1159,
      "मेरा": 1160,
      "दर": 1161,
      "प्रधानमंत्री": 1162,
      "##वासी": 1163,
      "##स्थ्य": 1164,
      "##रूरत": 1165,
      "वो": 1166,
      "सफ": 1167,
      "ज्यादा": 1168,
      "##वर्": 1169,
      "दक्षिण": 1170,
      "कल": 1171,
      "तुमने": 1172,
      "बिहार": 1173,
      "प्रो": 1174,
      "जिन": 1175,
      "##खंड": 1176,
      "सकती": 1177,
      "##लेज": 1178,
      "पढ़": 1179,
      "जल": 1180,
      "उसकी": 1181,
      "स्वास्थ्य": 1182,
      "##धि": 1183,
      "##ीस": 1184,
      "##हन": 1185,
      "##ँच": 1186,
      "ऐसे": 1187,
      "वहीं": 1188,
      "##फ्त": 1189,
      "##युक्त": 1190,
      "अर": 1191,
      "उम्मी": 1192,
      "तैयार": 1193,
      "##म्प": 1194,
      "उसने": 1195,
      "उम्मीद": 1196,
      "आने": 1197,
      "नौ": 1198,
      "अलग": 1199,
      "अलावा": 1200,
      "दिए": 1201,
      "##आर": 1202,
      "शुक्र": 1203,
      "बैठक": 1204,
      "पिता": 1205,
      "उनका": 1206,
      "एन": 1207,
      "पंच": 1208,
      "##ूम": 1209,
      "जे": 1210,
      "##ाक": 1211,
      "##ग्र": 1212,
      "छोड़": 1213,
      "रिप": 1214,
      "करती": 1215,
      "##ँव": 1216,
      "##बे": 1217,
      "पिछ": 1218,
      "शायद": 1219,
      "##ीप": 1220,
      "##जय": 1221,
      "रेल": 1222,
      "पड़": 1223,
      "परीक्षा": 1224,
      "##नाथ": 1225,
      "किसान": 1226,
      "१५": 1227,
      "##ेंस": 1228,
      "##ंगे": 1229,
      "जाती": 1230,
      "बनाने": 1231,
      "इतिहास": 1232,
      "उठ": 1233,
      "तुम्हारा": 1234,
      "१२": 1235,
      "##ांत": 1236,
      "##श्य": 1237,
      "##ल्प": 1238,
      "##लाइ": 1239,
      "##ंदर": 1240,
      "##िति": 1241,
      "कान": 1242,
      "##टन": 1243,
      "##डिया": 1244,
      "##बाज": 1245,
      "##्यान": 1246,
      "ऐसा": 1247,
      "सामने": 1248,
      "संगीत": 1249,
      "आए": 1250,
      "##डे": 1251,
      "संघ": 1252,
      "इसलिए": 1253,
      "व्यक्ति": 1254,
      "पो": 1255,
      "##ोब": 1256,
      "##धिकार": 1257,
      "करे": 1258,
      "##तार": 1259,
      "बड़ी": 1260,
      "##मन": 1261,
      "इत": 1262,
      "बाहर": 1263,
      "दिव": 1264,
      "कंपनी": 1265,
      "()": 1266,
      "घटना": 1267,
      "बॉ": 1268,
      "अस्पताल": 1269,
      "##चन": 1270,
      "##ुद": 1271,
      "##चे": 1272,
      "##लाई": 1273,
      "##ोध": 1274,
      "##यी": 1275,
      "सौ": 1276,
      "##ांक": 1277,
      "प्रकाश": 1278,
      "न्यूज़": 1279,
      "रि": 1280,
      "##ब्द": 1281,
      "##ुआ": 1282,
      "हिस्": 1283,
      "चाहता": 1284,
      "मिला": 1285,
      "##ार्ड": 1286,
      "##वीं": 1287,
      "सुन": 1288,
      "भर": 1289,
      "पे": 1290,
      "शर्": 1291,
      "##ल्ड": 1292,
      "##टक": 1293,
      "समाज": 1294,
      "मोदी": 1295,
      "बैं": 1296,
      "महत्व": 1297,
      "चिक": 1298,
      "कुल": 1299,
      "दुनिया": 1300,
      "##तम": 1301,
      "वाप": 1302,
      "जल्": 1303,
      "नेता": 1304,
      "##ताब": 1305,
      "जगह": 1306,
      "चि": 1307,
      "विभिन्न": 1308,
      "क्रिक": 1309,
      "मदद": 1310,
      "##द्योग": 1311,
      "##यास": 1312,
      "गाँव": 1313,
      "दूर": 1314,
      "दर्ज": 1315,
      "निर्वा": 1316,
      "##पाद": 1317,
      "##ंडल": 1318,
      "##ीक": 1319,
      "अर्": 1320,
      "१९७": 1321,
      "##माल": 1322,
      "एम": 1323,
      "प्रदर्शन": 1324,
      "##ूरी": 1325,
      "सै": 1326,
      "आम": 1327,
      "मंत्र": 1328,
      "लाख": 1329,
      "करी": 1330,
      "शिक": 1331,
      "रिपोर्ट": 1332,
      "जय": 1333,
      "जाएगी": 1334,
      "बाल": 1335,
      "##प्ता": 1336,
      "तहत": 1337,
      "##डियो": 1338,
      "अमेरिका": 1339,
      "जीव": 1340,
      "##ष्ट्रीय": 1341,
      "प्रे": 1342,
      "दा": 1343,
      "##ुट": 1344,
      "कार्र": 1345,
      "##चाल": 1346,
      "##ृति": 1347,
      "##चित": 1348,
      "विधायक": 1349,
      "गिरफ्त": 1350,
      "##ूट": 1351,
      "होना": 1352,
      "कार्रवाई": 1353,
      "##ोस": 1354,
      "पस": 1355,
      "बड़ा": 1356,
      "व्याप": 1357,
      "मूल": 1358,
      "बच्चों": 1359,
      "भूम": 1360,
      "##ठन": 1361,
      "कोश": 1362,
      "दूसरे": 1363,
      "##ूत": 1364,
      "गै": 1365,
      "##वेश": 1366,
      "##रि": 1367,
      "चिकित": 1368,
      "शा": 1369,
      "उपल": 1370,
      "##भग": 1371,
      "##ाइल": 1372,
      "धर्म": 1373,
      "##रिक": 1374,
      "अधिकारियों": 1375,
      "आया": 1376,
      "हजार": 1377,
      "##त्य": 1378,
      "ट्रे": 1379,
      "देव": 1380,
      "पांच": 1381,
      "##म्ब": 1382,
      "##फ़ी": 1383,
      "लगभग": 1384,
      "##ख़": 1385,
      "मिली": 1386,
      "मौजूद": 1387,
      "ठीक": 1388,
      "##ेशा": 1389,
      "पहली": 1390,
      "##श्व": 1391,
      "##स्या": 1392,
      "करोड़": 1393,
      "प्रभाव": 1394,
      "##हाय": 1395,
      "राष्ट्रपति": 1396,
      "विज्ञान": 1397,
      "##हरा": 1398,
      "कॉलेज": 1399,
      "##ूँगा": 1400,
      "होंगे": 1401,
      "बर्": 1402,
      "##कान": 1403,
      "##ूह": 1404,
      "भग": 1405,
      "##कु": 1406,
      "लेख": 1407,
      "जन्मे": 1408,
      "उपलब्": 1409,
      "चला": 1410,
      "काफी": 1411,
      "##्म": 1412,
      "##णाम": 1413,
      "##लि": 1414,
      "##ंभ": 1415,
      "सहित": 1416,
      "##सिद्ध": 1417,
      "क्रिकेट": 1418,
      "विद्य": 1419,
      "केवल": 1420,
      "१९६": 1421,
      "अभिया": 1422,
      "अंग्रे": 1423,
      "##ंद्र": 1424,
      "दिल": 1425,
      "##ेत": 1426,
      "##ूर्": 1427,
      "ज़ि": 1428,
      "माध्य": 1429,
      "नर": 1430,
      "बाज": 1431,
      "प्रकार": 1432,
      "##क्सी": 1433,
      "पूरा": 1434,
      "बनाया": 1435,
      "पत्": 1436,
      "सित": 1437,
      "##ाइट": 1438,
      "शर्मा": 1439,
      "हूं": 1440,
      "उच्च": 1441,
      "##ुष": 1442,
      "इला": 1443,
      "##थम": 1444,
      "परिणाम": 1445,
      "कलाकार": 1446,
      "रात": 1447,
      "सहाय": 1448,
      "व्यवस्था": 1449,
      "सभा": 1450,
      "गण": 1451,
      "मज": 1452,
      "११": 1453,
      "##ात": 1454,
      "##क्षित": 1455,
      "उसका": 1456,
      "वित": 1457,
      "वापस": 1458,
      "##ोह": 1459,
      "विरो": 1460,
      "##तेमाल": 1461,
      "##ांस": 1462,
      "राजस्थान": 1463,
      "इस्तेमाल": 1464,
      "उत्तरा": 1465,
      "##दारी": 1466,
      "##ॉक": 1467,
      "##ड़क": 1468,
      "##लिया": 1469,
      "हाथ": 1470,
      "आयोजित": 1471,
      "गुरु": 1472,
      "##ूबर": 1473,
      "कर्": 1474,
      "##त्त": 1475,
      "स्थिति": 1476,
      "पिछले": 1477,
      "देखा": 1478,
      "यादव": 1479,
      "पश्चिम": 1480,
      "आगे": 1481,
      "अप्र": 1482,
      "##र्ग": 1483,
      "संयुक्त": 1484,
      "घोष": 1485,
      "पाल": 1486,
      "##मारी": 1487,
      "##र्ष": 1488,
      "ता": 1489,
      "अंत": 1490,
      "लिये": 1491,
      "##टेड": 1492,
      "बर": 1493,
      "प्य": 1494,
      "जनता": 1495,
      "अति": 1496,
      "बड़े": 1497,
      "हमेशा": 1498,
      "उपलब्ध": 1499,
      "अफ": 1500,
      "मंगल": 1501,
      "क्ल": 1502,
      "##मित": 1503,
      "मार्च": 1504,
      "##चल": 1505,
      "अर्थ": 1506,
      "धन": 1507,
      "##रल": 1508,
      "##दन": 1509,
      "##ष्ण": 1510,
      "सामान": 1511,
      "##ीण": 1512,
      "समस्या": 1513,
      "पंचायत": 1514,
      "##म्बर": 1515,
      "सिर्": 1516,
      "जिसके": 1517,
      "राय": 1518,
      "सूची": 1519,
      "माल": 1520,
      "##नर": 1521,
      "##स्त्र": 1522,
      "##मो": 1523,
      "संस्थान": 1524,
      "ध्यान": 1525,
      "जून": 1526,
      "जाते": 1527,
      "सुब": 1528,
      "पसंद": 1529,
      "##ड्ड": 1530,
      "##ल्स": 1531,
      "अन्": 1532,
      "उद": 1533,
      "##लब": 1534,
      "बौ": 1535,
      "गांधी": 1536,
      "आग": 1537,
      "राह": 1538,
      "भे": 1539,
      "हाँ": 1540,
      "##रिया": 1541,
      "करीब": 1542,
      "##ांकन": 1543,
      "##गल": 1544,
      "रुपये": 1545,
      "प्रसिद्ध": 1546,
      "##वीर": 1547,
      "ग्रामीण": 1548,
      "थाना": 1549,
      "बिना": 1550,
      "##ादी": 1551,
      "दिस": 1552,
      "मार्ग": 1553,
      "##मत": 1554,
      "संप": 1555,
      "महत्वपूर्ण": 1556,
      "निर्वाचन": 1557,
      "कोशिश": 1558,
      "रोक": 1559,
      "##व्य": 1560,
      "##्रो": 1561,
      "##किल": 1562,
      "##शिया": 1563,
      "सांस": 1564,
      "लेने": 1565,
      "जनवरी": 1566,
      "आव": 1567,
      "आपके": 1568,
      "दोस्त": 1569,
      "थो": 1570,
      "शब्द": 1571,
      "हमारी": 1572,
      "१७": 1573,
      "प्रभ": 1574,
      "करके": 1575,
      "##्ले": 1576,
      "चाहती": 1577,
      "पर्": 1578,
      "जबकि": 1579,
      "##तमान": 1580,
      "जीत": 1581,
      "न्याया": 1582,
      "##शल": 1583,
      "रव": 1584,
      "२०२": 1585,
      "ते": 1586,
      "##राब": 1587,
      "कहते": 1588,
      "सचिव": 1589,
      "१९५": 1590,
      "अभियान": 1591,
      "नदी": 1592,
      "##जों": 1593,
      "संस्क": 1594,
      "वहाँ": 1595,
      "##कल": 1596,
      "रहने": 1597,
      "बैंक": 1598,
      "##एल": 1599,
      "यात्रा": 1600,
      "डि": 1601,
      "##डर": 1602,
      "नामांकन": 1603,
      "##ृह": 1604,
      "##यान": 1605,
      "अह": 1606,
      "##लाइन": 1607,
      "ज्ञ": 1608,
      "आयोजन": 1609,
      "जर": 1610,
      "डा": 1611,
      "कार्यालय": 1612,
      "##क्षे": 1613,
      "समीक्षा": 1614,
      "शे": 1615,
      "अक्ट": 1616,
      "१६": 1617,
      "##तंत्र": 1618,
      "थीं": 1619,
      "गिरफ्तार": 1620,
      "##्ब": 1621,
      "##चक": 1622,
      "##ल्ले": 1623,
      "चाहते": 1624,
      "##सल": 1625,
      "सूचना": 1626,
      "##दि": 1627,
      "##द्व": 1628,
      "अक्टूबर": 1629,
      "आस": 1630,
      "वाह": 1631,
      "समा": 1632,
      "##ॉन": 1633,
      "##मीर": 1634,
      "वर्तमान": 1635,
      "##ांकि": 1636,
      "##ंख": 1637,
      "स्टेशन": 1638,
      "जिन्ह": 1639,
      "राजनीति": 1640,
      "##वादी": 1641,
      "हालांकि": 1642,
      "सम्मानित": 1643,
      "##ौग": 1644,
      "##एन": 1645,
      "##ियोग": 1646,
      "##मर": 1647,
      "उपयोग": 1648,
      "विचार": 1649,
      "##र्चा": 1650,
      "##्यु": 1651,
      "##ध्यक्ष": 1652,
      "##ष्ट्र": 1653,
      "सरकारी": 1654,
      "##ट्ट": 1655,
      "##त्ता": 1656,
      "##ंबई": 1657,
      "स्थल": 1658,
      "##त्मक": 1659,
      "आदेश": 1660,
      "वन": 1661,
      "##कुल": 1662,
      "सोम": 1663,
      "संचाल": 1664,
      "देते": 1665,
      "##स्थित": 1666,
      "१४": 1667,
      "##्रम": 1668,
      "स्तर": 1669,
      "जुलाई": 1670,
      "चर": 1671,
      "बजे": 1672,
      "##धु": 1673,
      "##िटी": 1674,
      "##प्त": 1675,
      "निवासी": 1676,
      "प्रशासन": 1677,
      "जिसे": 1678,
      "सुबह": 1679,
      "##शि": 1680,
      "सेना": 1681,
      "यून": 1682,
      "निधन": 1683,
      "माँ": 1684,
      "इंटर": 1685,
      "लाल": 1686,
      "संभ": 1687,
      "##्रेस": 1688,
      "अच्छी": 1689,
      "मीडिया": 1690,
      "केंद": 1691,
      "##श्यक": 1692,
      "कश्": 1693,
      "लगे": 1694,
      "##ठी": 1695,
      "भगवान": 1696,
      "##िकल": 1697,
      "प्रस": 1698,
      "प्रथम": 1699,
      "सीट": 1700,
      "नार": 1701,
      "मैच": 1702,
      "बंग": 1703,
      "महारा": 1704,
      "क्षेत्रों": 1705,
      "संबंधित": 1706,
      "तम": 1707,
      "##बल": 1708,
      "सांसद": 1709,
      "उद्": 1710,
      "##स्टर": 1711,
      "दिनों": 1712,
      "पहुंचे": 1713,
      "##ताबिक": 1714,
      "मुताबिक": 1715,
      "पक": 1716,
      "कहना": 1717,
      "##ान्त": 1718,
      "बने": 1719,
      "बोल": 1720,
      "सर्": 1721,
      "##साय": 1722,
      "समिति": 1723,
      "मिलने": 1724,
      "नए": 1725,
      "##श्वास": 1726,
      "##धानी": 1727,
      "फ्र": 1728,
      "केंद्रीय": 1729,
      "##ज़ा": 1730,
      "चीज़": 1731,
      "जहां": 1732,
      "##त्ति": 1733,
      "लोकसभा": 1734,
      "मिश": 1735,
      "माध्यम": 1736,
      "अमेरिकी": 1737,
      "साइ": 1738,
      "रखा": 1739,
      "पंजा": 1740,
      "##क्षेप": 1741,
      "मही": 1742,
      "मुंबई": 1743,
      "##ंडी": 1744,
      "ज़िले": 1745,
      "##ाज़": 1746,
      "पूरे": 1747,
      "चुके": 1748,
      "युवा": 1749,
      "बच": 1750,
      "करा": 1751,
      "कार्यकर्": 1752,
      "रेलवे": 1753,
      "##ानि": 1754,
      "प्रयोग": 1755,
      "निकाल": 1756,
      "अप्रैल": 1757,
      "##ग्": 1758,
      "परिव": 1759,
      "देना": 1760,
      "ज़रूरत": 1761,
      "इंडिया": 1762,
      "##स्तव": 1763,
      "मौत": 1764,
      "संक्रम": 1765,
      "प्रतिनि": 1766,
      "##ोरी": 1767,
      "##न्स": 1768,
      "परेश": 1769,
      "सीमा": 1770,
      "निकल": 1771,
      "मंगलवार": 1772,
      "कोर्ट": 1773,
      "कौ": 1774,
      "समर्थ": 1775,
      "खिलाड़ी": 1776,
      "तब": 1777,
      "बेहतर": 1778,
      "महिलाओं": 1779,
      "एक्स": 1780,
      "##िलो": 1781,
      "पड़े": 1782,
      "##धिकारिक": 1783,
      "आवश्यक": 1784,
      "खा": 1785,
      "ड्र": 1786,
      "त्र": 1787,
      "जिससे": 1788,
      "##िशा": 1789,
      "संगठन": 1790,
      "##ुरा": 1791,
      "मौके": 1792,
      "सहयोग": 1793,
      "##कृत": 1794,
      "##म्मे": 1795,
      "##राज": 1796,
      "##बस": 1797,
      "विद्यालय": 1798,
      "##गम": 1799,
      "ऑफिस": 1800,
      "आधिकारिक": 1801,
      "##वक": 1802,
      "##वरण": 1803,
      "हिस्सा": 1804,
      "बल": 1805,
      "चा": 1806,
      "रिक": 1807,
      "लो": 1808,
      "३०": 1809,
      "##्वी": 1810,
      "सके": 1811,
      "##कट": 1812,
      "##विड": 1813,
      "बिल्": 1814,
      "खरी": 1815,
      "स्थापना": 1816,
      "फैस": 1817,
      "##सम": 1818,
      "##्वर": 1819,
      "##षि": 1820,
      "शिकायत": 1821,
      "विदेश": 1822,
      "##नो": 1823,
      "सुवि": 1824,
      "सफल": 1825,
      "विमान": 1826,
      "जल्द": 1827,
      "##शत": 1828,
      "२५": 1829,
      "##ंका": 1830,
      "विष": 1831,
      "पीछ": 1832,
      "##खण्ड": 1833,
      "विरोध": 1834,
      "आइ": 1835,
      "महाराष्ट्र": 1836,
      "ज़िला": 1837,
      "पद्": 1838,
      "##्यो": 1839,
      "शुरुआ": 1840,
      "एज": 1841,
      "कराया": 1842,
      "कित": 1843,
      "##र्गत": 1844,
      "##ंदगी": 1845,
      "##ज़ी": 1846,
      "दुर्": 1847,
      "फर": 1848,
      "##ानीय": 1849,
      "लाभ": 1850,
      "अभिनेता": 1851,
      "##यों": 1852,
      "##उन": 1853,
      "प्रदान": 1854,
      "सिद्ध": 1855,
      "दूसरी": 1856,
      "प्रतियोग": 1857,
      "वृ": 1858,
      "हाई": 1859,
      "खे": 1860,
      "पेश": 1861,
      "##वत": 1862,
      "प्रबंध": 1863,
      "##ज्ञानिक": 1864,
      "भेज": 1865,
      "सड़क": 1866,
      "उससे": 1867,
      "##धिकारी": 1868,
      "शुक्रवार": 1869,
      "१३": 1870,
      "उत्पाद": 1871,
      "कश्मीर": 1872,
      "##्वज": 1873,
      "##ांति": 1874,
      "बाजार": 1875,
      "सार": 1876,
      "जीवित": 1877,
      "सोमवार": 1878,
      "पूछ": 1879,
      "पट": 1880,
      "ब्ल": 1881,
      "##ाइड": 1882,
      "##क्रिया": 1883,
      "चित्र": 1884,
      "मृत": 1885,
      "##रों": 1886,
      "स्थानीय": 1887,
      "एड": 1888,
      "एयर": 1889,
      "##क्षक": 1890,
      "पानी": 1891,
      "शाह": 1892,
      "राजधानी": 1893,
      "हत्या": 1894,
      "लगाया": 1895,
      "सुविधा": 1896,
      "आत": 1897,
      "डाल": 1898,
      "जनस": 1899,
      "कवि": 1900,
      "नव": 1901,
      "स्वी": 1902,
      "##ऊँ": 1903,
      "##ामा": 1904,
      "बदल": 1905,
      "तौर": 1906,
      "##ेक": 1907,
      "##श्चित": 1908,
      "स्थापित": 1909,
      "##चान": 1910,
      "##ायल": 1911,
      "प्यार": 1912,
      "लख": 1913,
      "##ोलन": 1914,
      "प्रशिक्ष": 1915,
      "वहां": 1916,
      "गयी": 1917,
      "##ील": 1918,
      "पद्म": 1919,
      "##नीय": 1920,
      "##स्ट्रे": 1921,
      "पुस्त": 1922,
      "##ुओं": 1923,
      "##ुड": 1924,
      "विस्त": 1925,
      "##वेदन": 1926,
      "युद्ध": 1927,
      "बुध": 1928,
      "##ुन": 1929,
      "##तिम": 1930,
      "मरी": 1931,
      "##ूक": 1932,
      "सात": 1933,
      "तुमसे": 1934,
      "अफ़": 1935,
      "जवा": 1936,
      "सन्": 1937,
      "##वती": 1938,
      "##र्श": 1939,
      "बोर्ड": 1940,
      "तथ": 1941,
      "##घा": 1942,
      "प्रयास": 1943,
      "विजे": 1944,
      "खुद": 1945,
      "सितंबर": 1946,
      "पूर्ण": 1947,
      "द्वीप": 1948,
      "रखने": 1949,
      "##यू": 1950,
      "##ड़ों": 1951,
      "##षद": 1952,
      "##र्जी": 1953,
      "गं": 1954,
      "लक्ष": 1955,
      "मोह": 1956,
      "मेड": 1957,
      "तीस": 1958,
      "##ोने": 1959,
      "रॉ": 1960,
      "श्रे": 1961,
      "##त्स": 1962,
      "##नल": 1963,
      "##ैंप": 1964,
      "कैसे": 1965,
      "संस्था": 1966,
      "##स्ताव": 1967,
      "वीडियो": 1968,
      "प्रतियोगिता": 1969,
      "शन": 1970,
      "##ोप": 1971,
      "समूह": 1972,
      "बच्चे": 1973,
      "किसानों": 1974,
      "##ृष्ट": 1975,
      "##एफ": 1976,
      "भाई": 1977,
      "गि": 1978,
      "##फे": 1979,
      "नियंत्र": 1980,
      "##नात": 1981,
      "१९४": 1982,
      "प्रत्य": 1983,
      "व्यापार": 1984,
      "तरी": 1985,
      "##नगर": 1986,
      "##क्शन": 1987,
      "##ाजिक": 1988,
      "शनिवार": 1989,
      "##ेद": 1990,
      "##कीय": 1991,
      "देखने": 1992,
      "तहसी": 1993,
      "मंत्रालय": 1994,
      "तस्": 1995,
      "लगातार": 1996,
      "),": 1997,
      "##शनल": 1998,
      "##जह": 1999,
      "##गोल": 2000,
      "काल": 2001,
      "अग्र": 2002,
      "##ंटे": 2003,
      "प्रक्रिया": 2004,
      "##ियोजना": 2005,
      "हमने": 2006,
      "##स्ट्रेलिया": 2007,
      "शक्ति": 2008,
      "##ौगिक": 2009,
      "##पन": 2010,
      "##ंता": 2011,
      "##ज़र": 2012,
      "पुरुष": 2013,
      "बुधवार": 2014,
      "##तरी": 2015,
      "पर्व": 2016,
      "##ायण": 2017,
      "पंजाब": 2018,
      "मॉ": 2019,
      "##जरा": 2020,
      "प्रस्ताव": 2021,
      "कराने": 2022,
      "परियोजना": 2023,
      "दुकान": 2024,
      "यौगिक": 2025,
      "##्सा": 2026,
      "जाल": 2027,
      "पर्या": 2028,
      "##र्च": 2029,
      "खान": 2030,
      "दौ": 2031,
      "पड़ा": 2032,
      "शी": 2033,
      "भु": 2034,
      "शै": 2035,
      "##ॉप": 2036,
      "##मता": 2037,
      "##गार": 2038,
      "##ंदा": 2039,
      "पहला": 2040,
      "अहम": 2041,
      "पुत्र": 2042,
      "नागर": 2043,
      "पत्नी": 2044,
      "##तों": 2045,
      "##्रह": 2046,
      "क़": 2047,
      "तहसील": 2048,
      "एल": 2049,
      "बढ़ा": 2050,
      "टेस्ट": 2051,
      "दें": 2052,
      "धारा": 2053,
      "यही": 2054,
      "हॉ": 2055,
      "##ब्ल": 2056,
      "सें": 2057,
      "##भीर": 2058,
      "गल": 2059,
      "गति": 2060,
      "##रु": 2061,
      "##धे": 2062,
      "##टल": 2063,
      "##चार्य": 2064,
      "लौ": 2065,
      "राजा": 2066,
      "बज": 2067,
      "##म्स": 2068,
      "दिवस": 2069,
      "ताकि": 2070,
      "बिज": 2071,
      "अभिनेत्री": 2072,
      "भूमिका": 2073,
      "हास": 2074,
      "##ताया": 2075,
      "पीछे": 2076,
      "शुरुआत": 2077,
      "पक्ष": 2078,
      "खो": 2079,
      "तत्": 2080,
      "सोच": 2081,
      "किलो": 2082,
      "संर": 2083,
      "छात्रों": 2084,
      "प्रभारी": 2085,
      "चरित्र": 2086,
      "प्रतिशत": 2087,
      "पहुँच": 2088,
      "इंत": 2089,
      "डॉक्टर": 2090,
      "मुश्": 2091,
      "रविवार": 2092,
      "##ूँगी": 2093,
      "अंतिम": 2094,
      "##ष्य": 2095,
      "देशों": 2096,
      "माह": 2097,
      "लि": 2098,
      "लाइ": 2099,
      "वजह": 2100,
      "२०१४": 2101,
      "अवसर": 2102,
      "पृ": 2103,
      "##क्ता": 2104,
      "##त्ती": 2105,
      "सिर्फ": 2106,
      "##ित्व": 2107,
      "उपा": 2108,
      "##ॉर्ड": 2109,
      "##ामी": 2110,
      "आपकी": 2111,
      "##न्ध": 2112,
      "ति": 2113,
      "रंग": 2114,
      "करवा": 2115,
      "जिसका": 2116,
      "फे": 2117,
      "सही": 2118,
      "होकर": 2119,
      "जागर": 2120,
      "तथ्य": 2121,
      "पूर्": 2122,
      "चाल": 2123,
      "बनाए": 2124,
      "मना": 2125,
      "##िली": 2126,
      "##किंग": 2127,
      "कृषि": 2128,
      "##ल्ल": 2129,
      "चिकित्सा": 2130,
      "ऐसी": 2131,
      "नंबर": 2132,
      "##राष्ट्रीय": 2133,
      "परिषद": 2134,
      "समेत": 2135,
      "##मीटर": 2136,
      "वैज्ञानिक": 2137,
      "अगस्त": 2138,
      "सामाजिक": 2139,
      "महीने": 2140,
      "मश": 2141,
      "##्टर": 2142,
      "मानव": 2143,
      "उम": 2144,
      "प्रवेश": 2145,
      "ट्रेन": 2146,
      "##चारी": 2147,
      "उम्मीदवार": 2148,
      "संत": 2149,
      "##ेंड": 2150,
      "कोल": 2151,
      "विजय": 2152,
      "मुख्यालय": 2153,
      "विजेता": 2154,
      "मुश्किल": 2155,
      "आन": 2156,
      "माना": 2157,
      "पार्": 2158,
      "बचा": 2159,
      "##बू": 2160,
      "##भार": 2161,
      "संस": 2162,
      "देवी": 2163,
      "##्बनिक": 2164,
      "##ापन": 2165,
      "मल": 2166,
      "##गु": 2167,
      "रोचक": 2168,
      "दिखा": 2169,
      "राजनीतिक": 2170,
      "आंद": 2171,
      "##ंगी": 2172,
      "निश": 2173,
      "##ोजन": 2174,
      "सुरक्षित": 2175,
      "कमी": 2176,
      "चलते": 2177,
      "गंभीर": 2178,
      "##चीन": 2179,
      "##र्न": 2180,
      "वर्ग": 2181,
      "अच्छे": 2182,
      "पत्रिका": 2183,
      "जरूरत": 2184,
      "सन": 2185,
      "बंगाल": 2186,
      "मंडल": 2187,
      "वायर": 2188,
      "##मति": 2189,
      "##फ्ट": 2190,
      "नामक": 2191,
      "##करी": 2192,
      "##वुड": 2193,
      "केन्द्र": 2194,
      "कोविड": 2195,
      "##चारियों": 2196,
      "हरिया": 2197,
      "नागरिक": 2198,
      "गृह": 2199,
      "बत": 2200,
      "##िक्र": 2201,
      "संक्षेप": 2202,
      "तस्वीर": 2203,
      "अद": 2204,
      "##ेश्वर": 2205,
      "१९३": 2206,
      "गये": 2207,
      "##सन": 2208,
      "##गू": 2209,
      "चर्चा": 2210,
      "जाएंगे": 2211,
      "वास्तव": 2212,
      "अंदर": 2213,
      "ऑन": 2214,
      "##गंज": 2215,
      "##ड़ियों": 2216,
      "विप": 2217,
      "निजी": 2218,
      "##िक्स": 2219,
      "मुद्": 2220,
      "शासन": 2221,
      "स्वतंत्र": 2222,
      "प्रकाशित": 2223,
      "प्रण": 2224,
      "निर्ण": 2225,
      "##दम": 2226,
      "##वें": 2227,
      "अपरा": 2228,
      "सुना": 2229,
      "पर्य": 2230,
      "करनी": 2231,
      "रहते": 2232,
      "मामला": 2233,
      "##देव": 2234,
      "##केट": 2235,
      "राज्यों": 2236,
      "##ृत्व": 2237,
      "गुजरा": 2238,
      "कर्मचारियों": 2239,
      "मतलब": 2240,
      "अली": 2241,
      "वालों": 2242,
      "छोटे": 2243,
      "##सू": 2244,
      "सीएम": 2245,
      "पाठ": 2246,
      "एशिया": 2247,
      "नजर": 2248,
      "##तृत्व": 2249,
      "काफ़ी": 2250,
      "सामान्य": 2251,
      "चीन": 2252,
      "शो": 2253,
      "##ज्": 2254,
      "समुद": 2255,
      "##प्ताह": 2256,
      "नरेंद्र": 2257,
      "जित": 2258,
      "जम्म": 2259,
      "मई": 2260,
      "##चर": 2261,
      "कानून": 2262,
      "##फा": 2263,
      "ऑस्ट्रेलिया": 2264,
      "##धियों": 2265,
      "करेगा": 2266,
      "शादी": 2267,
      "##ैक": 2268,
      "कहीं": 2269,
      "##ज़ार": 2270,
      "भर्": 2271,
      "शरी": 2272,
      "प्रेम": 2273,
      "झार": 2274,
      "लगाने": 2275,
      "प्ले": 2276,
      "प्रार": 2277,
      "##सेना": 2278,
      "भाव": 2279,
      "लखन": 2280,
      "##गो": 2281,
      "हमारा": 2282,
      "न्यायालय": 2283,
      "जम्मू": 2284,
      "शि": 2285,
      "प्राचीन": 2286,
      "श्रद्ध": 2287,
      "छह": 2288,
      "बयान": 2289,
      "२४": 2290,
      "नेतृत्व": 2291,
      "कपूर": 2292,
      "##ैर": 2293,
      "स्मार": 2294,
      "बांग": 2295,
      "रोड": 2296,
      "##बाजी": 2297,
      "परी": 2298,
      "##िल्में": 2299,
      "प्रभावित": 2300,
      "५०": 2301,
      "##ियार": 2302,
      "बौक्स": 2303,
      "समीक्षाएँ": 2304,
      "लॉ": 2305,
      "##ुप": 2306,
      "##मेल": 2307,
      "##ंकर": 2308,
      "इनके": 2309,
      "##ियल": 2310,
      "न्याय": 2311,
      "इतना": 2312,
      "विद्यार्थ": 2313,
      "व्यक्त": 2314,
      "##्क": 2315,
      "##्राम": 2316,
      "चुकी": 2317,
      "प्रसाद": 2318,
      "बिल्कुल": 2319,
      "##एच": 2320,
      "जैसा": 2321,
      "नीचे": 2322,
      "हरियाणा": 2323,
      "पौ": 2324,
      "भौ": 2325,
      "अतिरिक": 2326,
      "रहेगा": 2327,
      "लिखा": 2328,
      "निगम": 2329,
      "##लीवुड": 2330,
      "##्रेट": 2331,
      "आयोग": 2332,
      "ती": 2333,
      "##ंथ": 2334,
      "राज्यपाल": 2335,
      "जिम्मे": 2336,
      "जवाब": 2337,
      "अतिरिक्त": 2338,
      "आत्म": 2339,
      "मर": 2340,
      "##नियर": 2341,
      "जाकर": 2342,
      "##मीन": 2343,
      "अख": 2344,
      "##ंव": 2345,
      "##सूस": 2346,
      "##ंग्ल": 2347,
      "##ांड": 2348,
      "एंड": 2349,
      "क्व": 2350,
      "##पु": 2351,
      "मैदान": 2352,
      "छात्रा": 2353,
      "##त्तीस": 2354,
      "अश": 2355,
      "##भर": 2356,
      "आधारित": 2357,
      "##कालीन": 2358,
      "ज़िंदगी": 2359,
      "गुरुवार": 2360,
      "हासिल": 2361,
      "##लर": 2362,
      "##र्द": 2363,
      "मुझसे": 2364,
      "देखते": 2365,
      "अध्ययन": 2366,
      "मिलेगा": 2367,
      "राहुल": 2368,
      "वरि": 2369,
      "महान": 2370,
      "चुन": 2371,
      "पुन": 2372,
      "तमिल": 2373,
      "पुस्तक": 2374,
      "आठ": 2375,
      "छत्तीस": 2376,
      "##फ्": 2377,
      "##ंघ": 2378,
      "आर्थ": 2379,
      "शान": 2380,
      "##फर": 2381,
      "##खी": 2382,
      "विश्वास": 2383,
      "संवाद": 2384,
      "टीवी": 2385,
      "भूषण": 2386,
      "नियम": 2387,
      "उठा": 2388,
      "आश": 2389,
      "उद्योग": 2390,
      "रू": 2391,
      "##धर": 2392,
      "लखनऊ": 2393,
      "अका": 2394,
      "##मार्": 2395,
      "भर्ती": 2396,
      "##ग़": 2397,
      "प्रान्त": 2398,
      "##द्धि": 2399,
      "वरिष्ठ": 2400,
      "१००": 2401,
      "जहाँ": 2402,
      "रुपए": 2403,
      "बांग्ला": 2404,
      "घंटे": 2405,
      "तेल": 2406,
      "प्रसार": 2407,
      "निदेश": 2408,
      "आतंक": 2409,
      "खाना": 2410,
      "घा": 2411,
      "##ंश": 2412,
      "##राव": 2413,
      "यूरो": 2414,
      "##डल": 2415,
      "चुका": 2416,
      "जैसी": 2417,
      "दिसंबर": 2418,
      "किलोमीटर": 2419,
      "हवाई": 2420,
      "२१": 2421,
      "स्टे": 2422,
      "##लेक्ट": 2423,
      "तेज": 2424,
      "फीस": 2425,
      "शांति": 2426,
      "##हरी": 2427,
      "##झा": 2428,
      "##लाह": 2429,
      "बुला": 2430,
      "ग़": 2431,
      "परिस": 2432,
      "जाओ": 2433,
      "##जेपी": 2434,
      "##स्तानी": 2435,
      "कर्मचारी": 2436,
      "घोषणा": 2437,
      "प्ल": 2438,
      "छत्तीसगढ़": 2439,
      "रज": 2440,
      "##िमा": 2441,
      "##पे": 2442,
      "##ड़ने": 2443,
      "देर": 2444,
      "आदमी": 2445,
      "अंतरराष्ट्रीय": 2446,
      "दस": 2447,
      "सवाल": 2448,
      "##न्ना": 2449,
      "##ूर्ति": 2450,
      "मुक": 2451,
      "वार": 2452,
      "##दीप": 2453,
      "आता": 2454,
      "आवेदन": 2455,
      "##सत": 2456,
      "##काब": 2457,
      "महार": 2458,
      "प्रशिक्षण": 2459,
      "बीजेपी": 2460,
      "समर्थन": 2461,
      "फैसला": 2462,
      "आंदोलन": 2463,
      "आवा": 2464,
      "##ितीय": 2465,
      "सूत्र": 2466,
      "अने": 2467,
      "बनने": 2468,
      "##मि": 2469,
      "१९२": 2470,
      "संब": 2471,
      "कहानी": 2472,
      "पॉ": 2473,
      "##ब्र": 2474,
      "राशि": 2475,
      "मेडिकल": 2476,
      "ऑनलाइन": 2477,
      "निर": 2478,
      "अमरी": 2479,
      "निर्णय": 2480,
      "२२": 2481,
      "संभाव": 2482,
      "##दाता": 2483,
      "आपका": 2484,
      "वाय": 2485,
      "##ध्या": 2486,
      "##स्ती": 2487,
      "खबर": 2488,
      "टै": 2489,
      "##थमिक": 2490,
      "जैन": 2491,
      "अगले": 2492,
      "कट": 2493,
      "बिल": 2494,
      "विल": 2495,
      "##ानों": 2496,
      "पहचान": 2497,
      "टा": 2498,
      "शास": 2499,
      "##यं": 2500,
      "पत्रकार": 2501,
      "खास": 2502,
      "मिन": 2503,
      "मोब": 2504,
      "संक्रमण": 2505,
      "ऊपर": 2506,
      "बल्": 2507,
      "##िमी": 2508,
      "##बॉल": 2509,
      "संग्रह": 2510,
      "प्राथमिक": 2511,
      "बिजली": 2512,
      "##फल": 2513,
      "##हान": 2514,
      "मुला": 2515,
      "गे": 2516,
      "मिस": 2517,
      "##थि": 2518,
      "##नेट": 2519,
      "शुक्रिया": 2520,
      "माइ": 2521,
      "लंब": 2522,
      "पदा": 2523,
      "यदि": 2524,
      "पाए": 2525,
      "अंग्रेजी": 2526,
      "ज्ञान": 2527,
      "टिक": 2528,
      "इंजी": 2529,
      "मजब": 2530,
      "भो": 2531,
      "लगी": 2532,
      "उत्स": 2533,
      "भूगोल": 2534,
      "जेल": 2535,
      "##ूंगा": 2536,
      "महसूस": 2537,
      "सोशल": 2538,
      "आर्थिक": 2539,
      "चरण": 2540,
      "##तः": 2541,
      "##ट्स": 2542,
      "संद": 2543,
      "गौ": 2544,
      "दिशा": 2545,
      "उपस्थित": 2546,
      "बदला": 2547,
      "परेशान": 2548,
      "रचना": 2549,
      "ग्रे": 2550,
      "चंद्र": 2551,
      "##ंडा": 2552,
      "तरफ": 2553,
      "बेहद": 2554,
      "##पोर्ट": 2555,
      "चले": 2556,
      "रै": 2557,
      "हार": 2558,
      "माता": 2559,
      "भवन": 2560,
      "##ंजन": 2561,
      "दीप": 2562,
      "हिन्दू": 2563,
      "चैन": 2564,
      "##ंटी": 2565,
      "##्यवाद": 2566,
      "##्यूटर": 2567,
      "अथ": 2568,
      "##उंड": 2569,
      "##्रीका": 2570,
      "हिमा": 2571,
      "तकनी": 2572,
      "##्ली": 2573,
      "##क्षेत्र": 2574,
      "निरी": 2575,
      "##जीत": 2576,
      "आयु": 2577,
      "तैयारी": 2578,
      "ढूँ": 2579,
      "सप्ताह": 2580,
      "सारे": 2581,
      "आपने": 2582,
      "गुप्ता": 2583,
      "सहायक": 2584,
      "खरीद": 2585,
      "नया": 2586,
      "##ारोह": 2587,
      "##र्ज": 2588,
      "##्राष्ट्रीय": 2589,
      "अंतर्गत": 2590,
      "थोड़ा": 2591,
      "पूर्वी": 2592,
      "काउ": 2593,
      "इनमें": 2594,
      "सहायता": 2595,
      "उद्देश": 2596,
      "इंग्ल": 2597,
      "पहा": 2598,
      "हथ": 2599,
      "##दु": 2600,
      "री": 2601,
      "नेताओं": 2602,
      "देता": 2603,
      "पड़ता": 2604,
      "##ायी": 2605,
      "पीड़": 2606,
      "##शील": 2607,
      "स्वागत": 2608,
      "विस्तार": 2609,
      "धी": 2610,
      "मां": 2611,
      "##दों": 2612,
      "##टने": 2613,
      "##्यता": 2614,
      "बां": 2615,
      "भवि": 2616,
      "२६": 2617,
      "कार्ड": 2618,
      "##स्थल": 2619,
      "समाचार": 2620,
      "इल": 2621,
      "##िब": 2622,
      "बॉलीवुड": 2623,
      "चिंता": 2624,
      "लै": 2625,
      "##राम": 2626,
      "##हाल": 2627,
      "नेपाल": 2628,
      "मुकाब": 2629,
      "स्वयं": 2630,
      "नियंत्रण": 2631,
      "२३": 2632,
      "मिलकर": 2633,
      "जिन्हें": 2634,
      "##सीसी": 2635,
      "##ग्रह": 2636,
      "रोज": 2637,
      "समारोह": 2638,
      "भविष्य": 2639,
      "सिक": 2640,
      "जुड़े": 2641,
      "आरोपी": 2642,
      "##धरी": 2643,
      "पोस्ट": 2644,
      "##बारा": 2645,
      "वेबस": 2646,
      "##ोटो": 2647,
      "##र्जा": 2648,
      "मोबाइल": 2649,
      "वेबसाइट": 2650,
      "##ेन्द्र": 2651,
      "पूजा": 2652,
      "बाव": 2653,
      "बहु": 2654,
      "उड़": 2655,
      "नोट": 2656,
      "##सित": 2657,
      "##म्भ": 2658,
      "टीका": 2659,
      "देंगे": 2660,
      "संस्कृत": 2661,
      "भारी": 2662,
      "सेंटर": 2663,
      ")।": 2664,
      "मं": 2665,
      "##ेंसी": 2666,
      "जम": 2667,
      "भेजा": 2668,
      "##्रोल": 2669,
      "चिकित्स": 2670,
      "##स्ते": 2671,
      "विवाद": 2672,
      "##िरी": 2673,
      "##लाल": 2674,
      "##बार": 2675,
      "हिमाचल": 2676,
      "##शाला": 2677,
      "##ालत": 2678,
      "माफ़": 2679,
      "##ब्दी": 2680,
      "सम्ब": 2681,
      "परिवर्": 2682,
      "अनेक": 2683,
      "##वाही": 2684,
      "लेना": 2685,
      "प्रशास": 2686,
      "इंद": 2687,
      "एक्सप": 2688,
      "##सिक": 2689,
      "देकर": 2690,
      "नोब": 2691,
      "रोग": 2692,
      "रक्षा": 2693,
      "##नियों": 2694,
      "उत्तराखंड": 2695,
      "धन्यवाद": 2696,
      "वाहन": 2697,
      "सार्वज": 2698,
      "तला": 2699,
      "##वाने": 2700,
      "##ैया": 2701,
      "##ोगे": 2702,
      "नौकरी": 2703,
      "##तायात": 2704,
      "शरीर": 2705,
      "आते": 2706,
      "##न्यास": 2707,
      "सुधार": 2708,
      "गेंद": 2709,
      "##गरी": 2710,
      "##नाम": 2711,
      "यातायात": 2712,
      "मामलों": 2713,
      "दर्शन": 2714,
      "किये": 2715,
      "##्वा": 2716,
      "हमला": 2717,
      "हिंद": 2718,
      "पैसे": 2719,
      "##स्कृत": 2720,
      "चौधरी": 2721,
      "सार्वजनिक": 2722,
      "गाय": 2723,
      "##उस": 2724,
      "दूसरा": 2725,
      "पृथ": 2726,
      "समुदाय": 2727,
      "तय": 2728,
      "सैन": 2729,
      "##कर्म": 2730,
      "सुपर": 2731,
      "यूपी": 2732,
      "संस्कृति": 2733,
      "मज़": 2734,
      "##ठा": 2735,
      "स्वर": 2736,
      "लागू": 2737,
      "वैक्सी": 2738,
      "पश्चिमी": 2739,
      "##संध": 2740,
      "किस": 2741,
      "फ़ोन": 2742,
      "परिसर": 2743,
      "आख": 2744,
      "##शाली": 2745,
      "अभि": 2746,
      "इन्होंने": 2747,
      "इतनी": 2748,
      "##सिंह": 2749,
      "करेगी": 2750,
      "ठाक": 2751,
      "##म्मद": 2752,
      "लेखक": 2753,
      "कार्यकर्ताओं": 2754,
      "प्रबंधन": 2755,
      "प्रत्येक": 2756,
      "घु": 2757,
      "जॉ": 2758,
      "नवं": 2759,
      "टेली": 2760,
      "उद्देश्य": 2761,
      "नवंबर": 2762,
      "##ंखला": 2763,
      "रिकॉर्ड": 2764,
      "सुनि": 2765,
      "जल्दी": 2766,
      "उल्ले": 2767,
      "ताल": 2768,
      "लु": 2769,
      "##ेन": 2770,
      "##चु": 2771,
      "हेतु": 2772,
      "जमा": 2773,
      "##मैन": 2774,
      "##श्रे": 2775,
      "उल्लेख": 2776,
      "##गन": 2777,
      "पाया": 2778,
      "जानते": 2779,
      "पालन": 2780,
      "संपर्क": 2781,
      "##ॉट": 2782,
      "##घर": 2783,
      "प्रस्त": 2784,
      "मुह": 2785,
      "२०१९": 2786,
      "विषय": 2787,
      "बावजूद": 2788,
      "##पास": 2789,
      "दोबारा": 2790,
      "मृत्यु": 2791,
      "सुनिश्चित": 2792,
      "शिक्षक": 2793,
      "ठाकुर": 2794,
      "ऑफ़": 2795,
      "गौर": 2796,
      "डाय": 2797,
      "उत्तराखण्ड": 2798,
      "गुजरात": 2799,
      "##त्रियों": 2800,
      "२००९": 2801,
      "##द्दी": 2802,
      "बेटी": 2803,
      "अनुमति": 2804,
      "इनका": 2805,
      "अदालत": 2806,
      "लाइन": 2807,
      "वाद": 2808,
      "##यु": 2809,
      "चलो": 2810,
      "रहना": 2811,
      "क्षमता": 2812,
      "ग्रह": 2813,
      "अके": 2814,
      "गर्": 2815,
      "रण": 2816,
      "##ंसा": 2817,
      "सदस्यों": 2818,
      "श्रेणी": 2819,
      "सुल": 2820,
      "केस": 2821,
      "##स्ल": 2822,
      "साब": 2823,
      "अल्": 2824,
      "##्रीम": 2825,
      "बांग्लादेश": 2826,
      "निर्धार": 2827,
      "द्वितीय": 2828,
      "फरवरी": 2829,
      "स्वीकार": 2830,
      "सत": 2831,
      "##डु": 2832,
      "झारखंड": 2833,
      "हाला": 2834,
      "##िनी": 2835,
      "सां": 2836,
      "##्तान": 2837,
      "उत": 2838,
      "गठ": 2839,
      "##टो": 2840,
      "##ियत": 2841,
      "##टेन": 2842,
      "शानदार": 2843,
      "##मार्ग": 2844,
      "##श्रेष्ठ": 2845,
      "##्प": 2846,
      "उत्तरी": 2847,
      "नोबेल": 2848,
      "नुक": 2849,
      "##जाम": 2850,
      "कार्बनिक": 2851,
      "देखो": 2852,
      "भुगत": 2853,
      "वायु": 2854,
      "२८": 2855,
      "##जनों": 2856,
      "##ापुर": 2857,
      "##िटल": 2858,
      "डिग": 2859,
      "प्रचार": 2860,
      "##त्मा": 2861,
      "अनुसंध": 2862,
      "स्टार": 2863,
      "ख़ु": 2864,
      "डिज": 2865,
      "दवा": 2866,
      "फिल": 2867,
      "सलाह": 2868,
      "पीएम": 2869,
      "मतदान": 2870,
      "##िग्": 2871,
      "भोपाल": 2872,
      "पेट": 2873,
      "##्याण": 2874,
      "एसडी": 2875,
      "निदेशक": 2876,
      "फॉ": 2877,
      "तुल": 2878,
      "रहता": 2879,
      "सामना": 2880,
      "आदर्श": 2881,
      "सर्वश्रेष्ठ": 2882,
      "##ाइनल": 2883,
      "जिनमें": 2884,
      "२०२०": 2885,
      "##धुनिक": 2886,
      "वही": 2887,
      "कारोब": 2888,
      "##्रीन": 2889,
      "चुना": 2890,
      "ईर": 2891,
      "नै": 2892,
      "##ृंखला": 2893,
      "शता": 2894,
      "नियुक्त": 2895,
      "##िस्टर": 2896,
      "गतिवि": 2897,
      "फोन": 2898,
      "##शु": 2899,
      "सागर": 2900,
      "##प्रिय": 2901,
      "भूमि": 2902,
      "अंग्रेज़ी": 2903,
      "##शिप": 2904,
      "##याल": 2905,
      "बाकी": 2906,
      "एच": 2907,
      "गोल": 2908,
      "##तियों": 2909,
      "##सों": 2910,
      "##स्त्री": 2911,
      "##क्षर": 2912,
      "##कात": 2913,
      "विकसित": 2914,
      "नाग": 2915,
      "बल्कि": 2916,
      "##चीत": 2917,
      "वर्मा": 2918,
      "बातचीत": 2919,
      "ब्रह": 2920,
      "गाड़ी": 2921,
      "मरीजों": 2922,
      "अशोक": 2923,
      "##रत": 2924,
      "##ाब": 2925,
      "##लैंड": 2926,
      "##्न": 2927,
      "##शक": 2928,
      "##ंदन": 2929,
      "वर्षों": 2930,
      "##ोधित": 2931,
      "दिसम्बर": 2932,
      "दृष्ट": 2933,
      "##लू": 2934,
      "##ूड": 2935,
      "संजय": 2936,
      "निर्मा": 2937,
      "गोली": 2938,
      "स्पष्ट": 2939,
      "घोषित": 2940,
      "पड़ेगा": 2941,
      "गुण": 2942,
      "इस्ल": 2943,
      "अनुसंधान": 2944,
      "टाइ": 2945,
      "सारी": 2946,
      "##रीब": 2947,
      "ब्रिट": 2948,
      "क्लब": 2949,
      "खत्म": 2950,
      "धो": 2951,
      "नो": 2952,
      "हरा": 2953,
      "##ितों": 2954,
      "२०१०": 2955,
      "प्रणाली": 2956,
      "संभावना": 2957,
      "पटना": 2958,
      "लड़ा": 2959,
      "##ौती": 2960,
      "सम्मेल": 2961,
      "छोटी": 2962,
      "उम्र": 2963,
      "पति": 2964,
      "सिल": 2965,
      "सत्य": 2966,
      "##्मी": 2967,
      "##वाली": 2968,
      "##र्प": 2969,
      "##ाजी": 2970,
      "देखना": 2971,
      "चैनल": 2972,
      "इंग्लैंड": 2973,
      "नुकसान": 2974,
      "क्ला": 2975,
      "वोट": 2976,
      "समान": 2977,
      "शेयर": 2978,
      "सत्र": 2979,
      "##यल": 2980,
      "सुनी": 2981,
      "प्रतिनिधि": 2982,
      "##िद": 2983,
      "एक्ट": 2984,
      "घायल": 2985,
      "प्रौ": 2986,
      "विद्युत": 2987,
      "वायरस": 2988,
      "धर": 2989,
      "बू": 2990,
      "##जल": 2991,
      "##घटना": 2992,
      "बनाई": 2993,
      "प्रारंभ": 2994,
      "स्मार्ट": 2995,
      "टिकट": 2996,
      "अथवा": 2997,
      "जर्म": 2998,
      "रवि": 2999,
      "कंपनियों": 3000,
      "##शास्त्र": 3001,
      "सौंप": 3002,
      "इन्": 3003,
      "कदम": 3004,
      "##दिन": 3005,
      "##ट्र": 3006,
      "##ार्ज": 3007,
      "मिलता": 3008,
      "##वाहिक": 3009,
      "परीक्षण": 3010,
      "शताब्दी": 3011,
      "इलेक्ट": 3012,
      "कठ": 3013,
      "बाइ": 3014,
      "वॉ": 3015,
      "२७": 3016,
      "अभिन": 3017,
      "ब्रि": 3018,
      "लोकप्रिय": 3019,
      "##ताप": 3020,
      "बेच": 3021,
      "पुराने": 3022,
      "प्रत्या": 3023,
      "पाकिस्तानी": 3024,
      "लड़क": 3025,
      "लड़की": 3026,
      "कल्याण": 3027,
      "अरु": 3028,
      "अग्रवाल": 3029,
      "खोज": 3030,
      "##ेय": 3031,
      "इनकी": 3032,
      "वित्त": 3033,
      "इलाज": 3034,
      "बेटे": 3035,
      "पदार्थ": 3036,
      "मिश्रा": 3037,
      "चयन": 3038,
      "##लपुर": 3039,
      "##्राज": 3040,
      "##ान्": 3041,
      "##क्का": 3042,
      "किमी": 3043,
      "तरीके": 3044,
      "डिग्री": 3045,
      "खंड": 3046,
      "२९": 3047,
      "##िलों": 3048,
      "##क्षी": 3049,
      "सिटी": 3050,
      "जरूरी": 3051,
      "जिन्होंने": 3052,
      "स्वतंत्रता": 3053,
      "आँ": 3054,
      "शराब": 3055,
      "##भव": 3056,
      "##लेट": 3057,
      "##क्रिय": 3058,
      "जाएँ": 3059,
      "इंस्ट": 3060,
      "क्रम": 3061,
      "##द्योगिकी": 3062,
      "इंजीनियर": 3063,
      "##नाइ": 3064,
      "१९१": 3065,
      "दोप": 3066,
      "वर्ण": 3067,
      "जिसकी": 3068,
      "स्वामी": 3069,
      "##गण": 3070,
      "नेशनल": 3071,
      "व्यवसाय": 3072,
      "कीमत": 3073,
      "किश": 3074,
      "अध्या": 3075,
      "##ार्मिक": 3076,
      "रिश्": 3077,
      "अन्त": 3078,
      "अकाद": 3079,
      "कम्प": 3080,
      "##ारण": 3081,
      "अंक": 3082,
      "मीटर": 3083,
      "पटेल": 3084,
      "जवान": 3085,
      "##ोद": 3086,
      "प्रव": 3087,
      "परमाण": 3088,
      "##राय": 3089,
      "##धीश": 3090,
      "आसपास": 3091,
      "आवश्यकता": 3092,
      "धार्मिक": 3093,
      "२०११": 3094,
      "पांडे": 3095,
      "मिलेगी": 3096,
      "##ेड": 3097,
      "बढ़िया": 3098,
      "कृष्ण": 3099,
      "संभाल": 3100,
      "कार्यकर्ता": 3101,
      "##ानिस्तान": 3102,
      "सम्मेलन": 3103,
      "प्रेर": 3104,
      "सुंदर": 3105,
      "तोड़": 3106,
      "रखना": 3107,
      "नारायण": 3108,
      "डिप": 3109,
      "कर्ना": 3110,
      "ज्यो": 3111,
      "३१": 3112,
      "##निस": 3113,
      "##पुरा": 3114,
      "बढ़ाने": 3115,
      "ट्रै": 3116,
      "मिनट": 3117,
      "ब्रिटिश": 3118,
      "आधुनिक": 3119,
      "##वस्था": 3120,
      "जाय": 3121,
      "हमले": 3122,
      "दिखाई": 3123,
      "मुलाकात": 3124,
      "प्ला": 3125,
      "प्रांत": 3126,
      "विज्ञ": 3127,
      "जाये": 3128,
      "##काता": 3129,
      "अवै": 3130,
      "वीर": 3131,
      "महाराज": 3132,
      "भुगतान": 3133,
      "शोध": 3134,
      "##फ्र": 3135,
      "प्राइ": 3136,
      "##दाबाद": 3137,
      "मिशन": 3138,
      "ग्रामीणों": 3139,
      "सफलता": 3140,
      "संसद": 3141,
      "हथियार": 3142,
      "कले": 3143,
      "निवेश": 3144,
      "##स्थाप": 3145,
      "युवक": 3146,
      "चेन्न": 3147,
      "गैर": 3148,
      "इलाके": 3149,
      "दुर्घटना": 3150,
      "थाने": 3151,
      "वक्त": 3152,
      "##मती": 3153,
      "##कृति": 3154,
      "निम्": 3155,
      "##िवर्स": 3156,
      "##रेट": 3157,
      "उपन्यास": 3158,
      "अंतरिक्ष": 3159,
      "प्रौद्योगिकी": 3160,
      "आकर्": 3161,
      "जमीन": 3162,
      "तारी": 3163,
      "##ंकी": 3164,
      "स्म": 3165,
      "निभा": 3166,
      "रास्ता": 3167,
      "महास": 3168,
      "ऊर्जा": 3169,
      "फुट": 3170,
      "रहती": 3171,
      "##ंडर": 3172,
      "जानता": 3173,
      "कोलकाता": 3174,
      "फीसदी": 3175,
      "##ैनिक": 3176,
      "##बो": 3177,
      "##ोगी": 3178,
      "फ़्र": 3179,
      "मिश्र": 3180,
      "धारावाहिक": 3181,
      "आर्": 3182,
      "उसी": 3183,
      "कक्षा": 3184,
      "गंगा": 3185,
      "ताप": 3186,
      "##िड": 3187,
      "##विंद": 3188,
      "##प्रदेश": 3189,
      "आवास": 3190,
      "भ्र": 3191,
      "व्": 3192,
      "##जिए": 3193,
      "जाप": 3194,
      "##्वाल": 3195,
      "##लीय": 3196,
      "पहुंची": 3197,
      "दोपहर": 3198,
      "खाद": 3199,
      "##ख्त": 3200,
      "प्रिय": 3201,
      "##राइ": 3202,
      "सुप": 3203,
      "नीति": 3204,
      "##तिहासिक": 3205,
      "योगी": 3206,
      "राजनीतिज्ञ": 3207,
      "पृथ्वी": 3208,
      "लॉक": 3209,
      "##राबाद": 3210,
      "दरवा": 3211,
      "विद्यार्थियों": 3212,
      "अड्ड": 3213,
      "##िवारी": 3214,
      "##ज़न": 3215,
      "उत्प": 3216,
      "जिसने": 3217,
      "सफाई": 3218,
      "सैनिक": 3219,
      "कर्नाटक": 3220,
      "##मल": 3221,
      "##नु": 3222,
      "##ताव": 3223,
      "किर": 3224,
      "##फ़े": 3225,
      "चेन्नई": 3226,
      "गुल": 3227,
      "गोर": 3228,
      "समाप्त": 3229,
      "रहेंगे": 3230,
      "सिर": 3231,
      "##ब्ब": 3232,
      "##वासियों": 3233,
      "विशेषज्ञ": 3234,
      "##ज्ज": 3235,
      "परमाणु": 3236,
      "सप": 3237,
      "गीत": 3238,
      "४०": 3239,
      "##ौल": 3240,
      "##स्व": 3241,
      "##कर्ता": 3242,
      "कविता": 3243,
      "अपराध": 3244,
      "तिवारी": 3245,
      "फी": 3246,
      "वार्ड": 3247,
      "निकट": 3248,
      "##पूर्व": 3249,
      "अवैध": 3250,
      "कथा": 3251,
      "लाने": 3252,
      "उनसे": 3253,
      "शाखा": 3254,
      "संचालन": 3255,
      "एक्सप्रेस": 3256,
      "निर्धारित": 3257,
      "छाप": 3258,
      "बल्ले": 3259,
      "लिप": 3260,
      "##वै": 3261,
      "##ेंगी": 3262,
      "प्रमाण": 3263,
      "##न्या": 3264,
      "##कारा": 3265,
      "##ण्डल": 3266,
      "पैदा": 3267,
      "समझौ": 3268,
      "साहित्यकार": 3269,
      "बदलाव": 3270,
      "खू": 3271,
      "खोल": 3272,
      "बातें": 3273,
      "असम": 3274,
      "##डाउन": 3275,
      "पकड़": 3276,
      "ज्योति": 3277,
      "बिक": 3278,
      "भरो": 3279,
      "##तक": 3280,
      "##वधान": 3281,
      "लेते": 3282,
      "प्रतिबंध": 3283,
      "मोहन": 3284,
      "##दू": 3285,
      "##फिक": 3286,
      "##स्करण": 3287,
      "##सीय": 3288,
      "२०२१": 3289,
      "दू": 3290,
      "फोटो": 3291,
      "##ूरत": 3292,
      "संबंधी": 3293,
      "कौन": 3294,
      "उत्पादन": 3295,
      "अंग": 3296,
      "##णु": 3297,
      "रखते": 3298,
      "सिर्फ़": 3299,
      "पर्यावरण": 3300,
      "उपाध्यक्ष": 3301,
      "इलेक्ट्र": 3302,
      "रिज": 3303,
      "##हाबाद": 3304,
      "##क्सर": 3305,
      "कंप्यूटर": 3306,
      "##वाले": 3307,
      "निर्देशक": 3308,
      "##पद": 3309,
      "##चिका": 3310,
      "##ग्री": 3311,
      "रखी": 3312,
      "शुभ": 3313,
      "जागरूक": 3314,
      "अखिल": 3315,
      "इमार": 3316,
      "स्टेड": 3317,
      "ज़र": 3318,
      "हाउस": 3319,
      "तैनात": 3320,
      "अकादमी": 3321,
      "##ंख्या": 3322,
      "किन": 3323,
      "##ुल्क": 3324,
      "##पात": 3325,
      "##िरा": 3326,
      "##फो": 3327,
      "##जरी": 3328,
      "साफ": 3329,
      "कमे": 3330,
      "कब्": 3331,
      "मरा": 3332,
      "##ंतर": 3333,
      "साम्राज": 3334,
      "मौका": 3335,
      "२०१३": 3336,
      "चौहान": 3337,
      "व्यक्तिगत": 3338,
      "पर्यटन": 3339,
      "निरीक्षण": 3340,
      "स्टेडियम": 3341,
      "टॉ": 3342,
      "##ेंज": 3343,
      "कराई": 3344,
      "योगदान": 3345,
      "जयपुर": 3346,
      "वृद्धि": 3347,
      "खराब": 3348,
      "##िको": 3349,
      "ग्राह": 3350,
      "२०१८": 3351,
      "खिलाड़ियों": 3352,
      "मजबूत": 3353,
      "अय": 3354,
      "एफ": 3355,
      "पल": 3356,
      "##पो": 3357,
      "##उट": 3358,
      "##िनियम": 3359,
      "##ृत्य": 3360,
      "सूर्य": 3361,
      "२०१२": 3362,
      "व्यवहार": 3363,
      "लक्ष्य": 3364,
      "भावना": 3365,
      "प्रशासनिक": 3366,
      "वैक्सीन": 3367,
      "दिला": 3368,
      "##शे": 3369,
      "##थर": 3370,
      "प्रती": 3371,
      "विवाह": 3372,
      "संदेश": 3373,
      "पहल": 3374,
      "##श्चा": 3375,
      "दक्षिणी": 3376,
      "आल": 3377,
      "दूरी": 3378,
      "##ुद्र": 3379,
      "##जु": 3380,
      "##ुरु": 3381,
      "वेस्ट": 3382,
      "लगाए": 3383,
      "चीज़ें": 3384,
      "पार्क": 3385,
      "##तो": 3386,
      "##हित": 3387,
      "##्यिकी": 3388,
      "##ोग्राम": 3389,
      "यात्रियों": 3390,
      "शीर्ष": 3391,
      "नम": 3392,
      "##ाहरण": 3393,
      "##काई": 3394,
      "देती": 3395,
      "कार्यों": 3396,
      "भाषाएँ": 3397,
      "वैसे": 3398,
      "छोड़कर": 3399,
      "##िएशन": 3400,
      "##कुमार": 3401,
      "मशीन": 3402,
      "ढूँढ": 3403,
      "##स्लिम": 3404,
      "चै": 3405,
      "##वाला": 3406,
      "किताब": 3407,
      "राजमार्ग": 3408,
      "याचिका": 3409,
      "मनो": 3410,
      "संघर्ष": 3411,
      "न्यायाधीश": 3412,
      "##ऊँगा": 3413,
      "कलेक्टर": 3414,
      "मुस्लिम": 3415,
      "उन्होने": 3416,
      "##्रेड": 3417,
      "##ष्टि": 3418,
      "पाँच": 3419,
      "मौसम": 3420,
      "प्राकृत": 3421,
      "रानी": 3422,
      "##दर": 3423,
      "##वानी": 3424,
      "##ैण्ड": 3425,
      "##भाष": 3426,
      "सीबी": 3427,
      "##एसपी": 3428,
      "२००८": 3429,
      "अंतर्राष्ट्रीय": 3430,
      "चक्र": 3431,
      "फ्ल": 3432,
      "##चय": 3433,
      "##्याम": 3434,
      "##स्तु": 3435,
      "निर्मित": 3436,
      "##ंतु": 3437,
      "थोड़ी": 3438,
      "जिलों": 3439,
      "सक्रिय": 3440,
      "हट": 3441,
      "केरल": 3442,
      "पुरानी": 3443,
      "२००७": 3444,
      "डीएम": 3445,
      "रोकने": 3446,
      "गलत": 3447,
      "प्रस्तुत": 3448,
      "छुट": 3449,
      "फा": 3450,
      "शुक्": 3451,
      "लीग": 3452,
      "जनसंख्या": 3453,
      "तुर": 3454,
      "दिमा": 3455,
      "नज़र": 3456,
      "मुक्त": 3457,
      "मैने": 3458,
      "खुला": 3459,
      "पंजी": 3460,
      "अर्ज": 3461,
      "बौद्ध": 3462,
      "यूनिवर्स": 3463,
      "##िक्रिया": 3464,
      "भौतिक": 3465,
      "जिम्मेदारी": 3466,
      "शव": 3467,
      "##हरे": 3468,
      "प्री": 3469,
      "संवि": 3470,
      "सुनवाई": 3471,
      "पदाधिकारी": 3472,
      "साबित": 3473,
      "पोर्ट": 3474,
      "##ानु": 3475,
      "विद": 3476,
      "विवि": 3477,
      "##त्तर": 3478,
      "##ांश": 3479,
      "##धारण": 3480,
      "मोहम्मद": 3481,
      "परिवर्तन": 3482,
      "##स्कृतिक": 3483,
      "साम्राज्य": 3484,
      "रूस": 3485,
      "०००": 3486,
      "##ेक्ट": 3487,
      "##ाले": 3488,
      "उसमें": 3489,
      "एसपी": 3490,
      "स्थानों": 3491,
      "संस्कार": 3492,
      "जनरल": 3493,
      "ख़ुद": 3494,
      "कमेटी": 3495,
      "##दूर": 3496,
      "##ेगा": 3497,
      "##तीश": 3498,
      "##ार्म": 3499,
      "##्यूट": 3500,
      "बारिश": 3501,
      "दावा": 3502,
      "उदाहरण": 3503,
      "संचालित": 3504,
      "सांस्कृतिक": 3505,
      "ऐतिहासिक": 3506,
      "##दास": 3507,
      "##असल": 3508,
      "होम": 3509,
      "##ष्टा": 3510,
      "सोचा": 3511,
      "सेंट": 3512,
      "राजन": 3513,
      "महाविद्यालय": 3514,
      "अध्यक्षता": 3515,
      "स्कूलों": 3516,
      "दरअसल": 3517,
      "##श्वर": 3518,
      "अभिनय": 3519,
      "चढ़": 3520,
      "डो": 3521,
      "दबा": 3522,
      "##केश": 3523,
      "##कल्प": 3524,
      "##फ़्": 3525,
      "फिल्मों": 3526,
      "कृप": 3527,
      "असर": 3528,
      "##वली": 3529,
      "प्रका": 3530,
      "२०१६": 3531,
      "##दारों": 3532,
      "सर्वे": 3533,
      "कितना": 3534,
      "चैंप": 3535,
      "##ूद": 3536,
      "प्रभा": 3537,
      "##न्व": 3538,
      "##वां": 3539,
      "##वंश": 3540,
      "२०१५": 3541,
      "घटनाएँ": 3542,
      "हिस्से": 3543,
      "अन्तर": 3544,
      "मिस्टर": 3545,
      "##चि": 3546,
      "##ूनी": 3547,
      "अधिनियम": 3548,
      "##स्थिति": 3549,
      "देखकर": 3550,
      "सीधे": 3551,
      "प्रदर्श": 3552,
      "तेजी": 3553,
      "प्लेट": 3554,
      "विशाल": 3555,
      "##बंधन": 3556,
      "पढ़ाई": 3557,
      "श्रद्धाल": 3558,
      "कारोबार": 3559,
      "##हाद": 3560,
      "##्यास": 3561,
      "जाति": 3562,
      "हिम": 3563,
      "बनाकर": 3564,
      "जरिए": 3565,
      "तट": 3566,
      "##घु": 3567,
      "स्नात": 3568,
      "##स्टम": 3569,
      "रास्ते": 3570,
      "रहेगी": 3571,
      "शिक्षकों": 3572,
      "अमर": 3573,
      "##वर्ती": 3574,
      "तीसरे": 3575,
      "ओल": 3576,
      "##थी": 3577,
      "केन्द": 3578,
      "प्रि": 3579,
      "कप्तान": 3580,
      "इंडियन": 3581,
      "एजेंसी": 3582,
      "कही": 3583,
      "चोरी": 3584,
      "##नाक": 3585,
      "भीड़": 3586,
      "निष्": 3587,
      "अधी": 3588,
      "दोष": 3589,
      "चीनी": 3590,
      "शिविर": 3591,
      "परिवहन": 3592,
      "आनंद": 3593,
      "सिव": 3594,
      "सेन": 3595,
      "फ़िल्में": 3596,
      "ट्रांस": 3597,
      "##ोधन": 3598,
      "##ड़िया": 3599,
      "मिलती": 3600,
      "क्षेत्रीय": 3601,
      "इंतज़ार": 3602,
      "फिलहाल": 3603,
      "प्रताप": 3604,
      "सिन्": 3605,
      "जोशी": 3606,
      "नाटक": 3607,
      "##स्पे": 3608,
      "स्वच्छ": 3609,
      "खुश": 3610,
      "सम्बन्ध": 3611,
      "प्राकृतिक": 3612,
      "फल": 3613,
      "लाप": 3614,
      "##्टन": 3615,
      "##वीन": 3616,
      "बेस": 3617,
      "##्रमण": 3618,
      "यूनिवर्सिटी": 3619,
      "संश": 3620,
      "संस्करण": 3621,
      "##द्द": 3622,
      "बिग": 3623,
      "सैन्य": 3624,
      "##ुक्ति": 3625,
      "##तरा": 3626,
      "##ायदा": 3627,
      "मात्रा": 3628,
      "लगाई": 3629,
      "सर्वो": 3630,
      "##्मण": 3631,
      "गणित": 3632,
      "प्रतिनिध": 3633,
      "पर्वत": 3634,
      "लॉकडाउन": 3635,
      "आंक": 3636,
      "रन": 3637,
      "प्रखंड": 3638,
      "विदेशी": 3639,
      "##द्दीन": 3640,
      "ब्रह्म": 3641,
      "निर्माता": 3642,
      "फाइनल": 3643,
      "रम": 3644,
      "वकी": 3645,
      "##ट्रो": 3646,
      "पात्र": 3647,
      "आदित्य": 3648,
      "रुक": 3649,
      "##त्सव": 3650,
      "संबोधित": 3651,
      "आकर": 3652,
      "चोट": 3653,
      "##गाह": 3654,
      "सिने": 3655,
      "##सागर": 3656,
      "इंसान": 3657,
      "इलाहाबाद": 3658,
      "पर्याप्त": 3659,
      "आती": 3660,
      "आबाद": 3661,
      "तृ": 3662,
      "पाप": 3663,
      "##खे": 3664,
      "कां": 3665,
      "अनिल": 3666,
      "अभिय": 3667,
      "जानती": 3668,
      "डॉलर": 3669,
      "अरब": 3670,
      "हटा": 3671,
      "##्ति": 3672,
      "##णि": 3673,
      "##स्को": 3674,
      "विकल्प": 3675,
      "ख़ान": 3676,
      "एसोस": 3677,
      "अमित": 3678,
      "जालस्थल": 3679,
      "संरक्षण": 3680,
      "एसडीएम": 3681,
      "केन्द्रीय": 3682,
      "खुल": 3683,
      "लिम": 3684,
      "##रासत": 3685,
      "पहन": 3686,
      "प्रतिभा": 3687,
      "योजनाओं": 3688,
      "परेशानी": 3689,
      "संवाददाता": 3690,
      "तुरंत": 3691,
      "##मंडल": 3692,
      "##णे": 3693,
      "##ार्ट": 3694,
      "##कीन": 3695,
      "कॉन्": 3696,
      "बेहतरी": 3697,
      "द्र": 3698,
      "##२०": 3699,
      "नेट": 3700,
      "निप": 3701,
      "अनुर": 3702,
      "उपाय": 3703,
      "भाषाओं": 3704,
      "आईपी": 3705,
      "दाख": 3706,
      "प्रकाशन": 3707,
      "ध्वज": 3708,
      "सल": 3709,
      "##पथ": 3710,
      "राजेश": 3711,
      "पहुंचा": 3712,
      "टेनिस": 3713,
      "##न्थ": 3714,
      "बाग": 3715,
      "फ़िल्मों": 3716,
      "राहत": 3717,
      "मंजू": 3718,
      "बुल": 3719,
      "##ैट": 3720,
      "##सु": 3721,
      "पार्ट": 3722,
      "महामारी": 3723,
      "युवाओं": 3724,
      "मुकद": 3725,
      "पीड़ित": 3726,
      "झू": 3727,
      "मन्द": 3728,
      "##काम": 3729,
      "प्रतिष्ठ": 3730,
      "कमल": 3731,
      "वितरण": 3732,
      "अत्य": 3733,
      "कड़ी": 3734,
      "##यम": 3735,
      "##विज्ञान": 3736,
      "##फ़्त": 3737,
      "उपकरण": 3738,
      "##पीय": 3739,
      "क्रिया": 3740,
      "सालों": 3741,
      "६०": 3742,
      "##िटेड": 3743,
      "##लिंग": 3744,
      "##चित्र": 3745,
      "##हो": 3746,
      "कोत": 3747,
      "होटल": 3748,
      "##्याल": 3749,
      "अनुभव": 3750,
      "##वेयर": 3751,
      "कैब": 3752,
      "##िनेट": 3753,
      "समस्याओं": 3754,
      "धीरे": 3755,
      "झा": 3756,
      "##वाड़ा": 3757,
      "##श्न": 3758,
      "वेतन": 3759,
      "सामग्री": 3760,
      "हरि": 3761,
      "बोली": 3762,
      "##दर्शन": 3763,
      "लड़ाई": 3764,
      "कैं": 3765,
      "रास": 3766,
      "लेंगे": 3767,
      "हस्ता": 3768,
      "संसा": 3769,
      "बाबा": 3770,
      "चौक": 3771,
      "दृष्टि": 3772,
      "इमारत": 3773,
      "बेहतरीन": 3774,
      "सेक": 3775,
      "##ामद": 3776,
      "मिलते": 3777,
      "कर्मियों": 3778,
      "कृपया": 3779,
      "नृत्य": 3780,
      "मंच": 3781,
      "स्टी": 3782,
      "पैसा": 3783,
      "##दुनिया": 3784,
      "ब्रिटेन": 3785,
      "आह": 3786,
      "शौ": 3787,
      "सॉ": 3788,
      "##साइ": 3789,
      "निरा": 3790,
      "सिस्टम": 3791,
      "फ़ै": 3792,
      "ग्रंथ": 3793,
      "कैम": 3794,
      "२००४": 3795,
      "मुकाबले": 3796,
      "भरोसा": 3797,
      "##श्त": 3798,
      "##द्योगिक": 3799,
      "उद्यान": 3800,
      "भोजन": 3801,
      "##पत्र": 3802,
      "##इट": 3803,
      "अपील": 3804,
      "होंगी": 3805,
      "बजट": 3806,
      "गठन": 3807,
      "डर": 3808,
      "भूल": 3809,
      "##्रु": 3810,
      "##नेस": 3811,
      "होनी": 3812,
      "##न्दर": 3813,
      "श्रील": 3814,
      "##फेसर": 3815,
      "रोजगार": 3816,
      "टिप": 3817,
      "पंड": 3818,
      "सजा": 3819,
      "##ँचा": 3820,
      "##भू": 3821,
      "##भूम": 3822,
      "करूँगा": 3823,
      "##न्त": 3824,
      "##्यूटी": 3825,
      "ग्रुप": 3826,
      "रोम": 3827,
      "समाधान": 3828,
      "दैनिक": 3829,
      "##चिव": 3830,
      "##ेंडर": 3831,
      "##कोट": 3832,
      "##वेट": 3833,
      "##एँगे": 3834,
      "मनाया": 3835,
      "यूरोप": 3836,
      "सूत्रों": 3837,
      "सुप्रीम": 3838,
      "खाने": 3839,
      "तिर": 3840,
      "प्ली": 3841,
      "फिल्में": 3842,
      "वार्": 3843,
      "##ौन": 3844,
      "##ीकरण": 3845,
      "##बाल": 3846,
      "हैद": 3847,
      "##क्कर": 3848,
      "छोटा": 3849,
      "चुनावों": 3850,
      "अक्सर": 3851,
      "खी": 3852,
      "पश्चा": 3853,
      "कोह": 3854,
      "##क्रो": 3855,
      "अनुमान": 3856,
      "घाट": 3857,
      "अज": 3858,
      "जॉन": 3859,
      "##बद्ध": 3860,
      "##माश": 3861,
      "राकेश": 3862,
      "प्रोफेसर": 3863,
      "##व्यवस्था": 3864,
      "##घाटन": 3865,
      "##पुरी": 3866,
      "छात्राओं": 3867,
      "स्टेट": 3868,
      "इच्छ": 3869,
      "ट्वी": 3870,
      "यानी": 3871,
      "हड़": 3872,
      "३५": 3873,
      "४५": 3874,
      "##त्कार": 3875,
      "##मात्र": 3876,
      "जोर": 3877,
      "##कोर्ट": 3878,
      "परिजनों": 3879,
      "पदक": 3880,
      "उत्साह": 3881,
      "चैंपियन": 3882,
      "हैदराबाद": 3883,
      "आंध": 3884,
      "##श्री": 3885,
      "##उंट": 3886,
      "कोच": 3887,
      "बताना": 3888,
      "तुलना": 3889,
      "बाइक": 3890,
      "बाय": 3891,
      "##स्कर": 3892,
      "मेह": 3893,
      "जोड़": 3894,
      "बहन": 3895,
      "नियुक्ति": 3896,
      "रायपुर": 3897,
      "अधीक्षक": 3898,
      "अज्ञ": 3899,
      "अब्द": 3900,
      "आना": 3901,
      "जंग": 3902,
      "सत्ता": 3903,
      "हिस": 3904,
      "##ौली": 3905,
      "प्रोज": 3906,
      "संय": 3907,
      "##जीव": 3908,
      "कैप": 3909,
      "संगठ": 3910,
      "२००६": 3911,
      "मॉडल": 3912,
      "मंजूरी": 3913,
      "मन्दिर": 3914,
      "श्रीलंका": 3915,
      "खर्च": 3916,
      "जता": 3917,
      "फूल": 3918,
      "सपा": 3919,
      "##मस": 3920,
      "##ढ़ी": 3921,
      "##जात": 3922,
      "##िपा": 3923,
      "जनपद": 3924,
      "##िस्ट्र": 3925,
      "इस्ती": 3926,
      "शिकार": 3927,
      "अफ्रीका": 3928,
      "टेलीवि": 3929,
      "अन्तर्गत": 3930,
      "संविधान": 3931,
      "उन्": 3932,
      "औद्योगिक": 3933,
      "जाम": 3934,
      "हल": 3935,
      "हंग": 3936,
      "##कृ": 3937,
      "##आइ": 3938,
      "##जिट": 3939,
      "करियर": 3940,
      "##साई": 3941,
      "वर्षीय": 3942,
      "प्रतिक्रिया": 3943,
      "मनोज": 3944,
      "##ड्डी": 3945,
      "वाहनों": 3946,
      "सिद्धांत": 3947,
      "लड़कियों": 3948,
      "प्रवक्ता": 3949,
      "फुटबॉल": 3950,
      "किनारे": 3951,
      "आबादी": 3952,
      "आसान": 3953,
      "नवा": 3954,
      "पोल": 3955,
      "विवरण": 3956,
      "##स्ट्र": 3957,
      "१९०": 3958,
      "सुख": 3959,
      "पैर": 3960,
      "तलाश": 3961,
      "आर्य": 3962,
      "घरे": 3963,
      "मास": 3964,
      "वर": 3965,
      "काट": 3966,
      "##िलास": 3967,
      "##ल्ला": 3968,
      "लौट": 3969,
      "करवाया": 3970,
      "तीर्थ": 3971,
      "तकनीकी": 3972,
      "गोरख": 3973,
      "लिमिटेड": 3974,
      "अजय": 3975,
      "कैंप": 3976,
      "पॉल": 3977,
      "मनी": 3978,
      "यहीं": 3979,
      "वारा": 3980,
      "कालेज": 3981,
      "२००३": 3982,
      "रेडियो": 3983,
      "इतने": 3984,
      "दिलच": 3985,
      "##क्सीजन": 3986,
      "दोस्तों": 3987,
      "एयरपोर्ट": 3988,
      "सिनेमा": 3989,
      "पड़ी": 3990,
      "फैल": 3991,
      "रहीं": 3992,
      "##दाय": 3993,
      "विवे": 3994,
      "राजी": 3995,
      "सकेंगे": 3996,
      "विकेट": 3997,
      "चलने": 3998,
      "ड्राइ": 3999,
      "जागरण": 4000,
      "टीकाकरण": 4001,
      "##ष्टाचार": 4002,
      "एसोसिएशन": 4003,
      "कैबिनेट": 4004,
      "##ेड़": 4005,
      "##फोन": 4006,
      "##वाइ": 4007,
      "संस्थाप": 4008,
      "##वेज": 4009,
      "सोन": 4010,
      "संक्रमित": 4011,
      "तस्वीरें": 4012,
      "मुद्दे": 4013,
      "प्रत्याशी": 4014,
      "तापमान": 4015,
      "खाद्य": 4016,
      "प्लीज़": 4017,
      "दस्ता": 4018,
      "मधु": 4019,
      "##ॉर्क": 4020,
      "संकट": 4021,
      "जाँच": 4022,
      "अपर": 4023,
      "पाई": 4024,
      "गोपाल": 4025,
      "तीनों": 4026,
      "##श्विक": 4027,
      "कितनी": 4028,
      "पाने": 4029,
      "मण्डल": 4030,
      "टू": 4031,
      "##बुक": 4032,
      "पदों": 4033,
      "हालत": 4034,
      "लिखी": 4035,
      "उल": 4036,
      "उतर": 4037,
      "ओम": 4038,
      "तू": 4039,
      "फें": 4040,
      "वंश": 4041,
      "##टिंग": 4042,
      "##णसी": 4043,
      "##स्य": 4044,
      "##स्म": 4045,
      "##न्त्र": 4046,
      "कॉल": 4047,
      "आज़": 4048,
      "दास": 4049,
      "##न्तु": 4050,
      "##ैंक": 4051,
      "लगाकर": 4052,
      "अफसर": 4053,
      "अर्थव्यवस्था": 4054,
      "उद्घाटन": 4055,
      "##ब्लिक": 4056,
      "इंदौर": 4057,
      "बुरा": 4058,
      "##िष्ट": 4059,
      "##ोत्सव": 4060,
      "##्तीय": 4061,
      "##डिंग": 4062,
      "प्राय": 4063,
      "प्रोग्राम": 4064,
      "राव": 4065,
      "२०१७": 4066,
      "##धिकारियों": 4067,
      "पूछता": 4068,
      "##कर्मियों": 4069,
      "##स्पेक्टर": 4070,
      "वाराणसी": 4071,
      "हाद": 4072,
      "##पक": 4073,
      "##थे": 4074,
      "आरोपियों": 4075,
      "कानपुर": 4076,
      "मालिक": 4077,
      "ट्वीट": 4078,
      "प्रोजेक्ट": 4079,
      "अट": 4080,
      "आशा": 4081,
      "ट्व": 4082,
      "##ंती": 4083,
      "भीतर": 4084,
      "##स्ट्री": 4085,
      "द्वार": 4086,
      "वैश्विक": 4087,
      "असली": 4088,
      "हाईकोर्ट": 4089,
      "निशाना": 4090,
      "अज्ञात": 4091,
      "अंद": 4092,
      "कथ": 4093,
      "रक्त": 4094,
      "##तिकी": 4095,
      "##सो": 4096,
      "निगर": 4097,
      "##स्तर": 4098,
      "सीरी": 4099,
      "गुप्त": 4100,
      "कैल": 4101,
      "##बीर": 4102,
      "नील": 4103,
      "केंद्रों": 4104,
      "लगेगा": 4105,
      "प्रियंका": 4106,
      "घरेलू": 4107,
      "##गीय": 4108,
      "बताते": 4109,
      "दर्श": 4110,
      "वित्तीय": 4111,
      "बरामद": 4112,
      "गतिविधियों": 4113,
      "कना": 4114,
      "कन्न": 4115,
      "किंग": 4116,
      "रेखा": 4117,
      "चुनौती": 4118,
      "सिन्हा": 4119,
      "खाली": 4120,
      "##ाये": 4121,
      "##ांख": 4122,
      "आपसे": 4123,
      "##फ़ा": 4124,
      "वर्ल्ड": 4125,
      "अधिकांश": 4126,
      "बीमार": 4127,
      "आयुक्त": 4128,
      "इंस्पेक्टर": 4129,
      "परिचय": 4130,
      "२००५": 4131,
      "श्रृंखला": 4132,
      "नियमों": 4133,
      "ग़ल": 4134,
      "वादा": 4135,
      "दबाव": 4136,
      "##्ज़": 4137,
      "##नन": 4138,
      "##स्फ": 4139,
      "उनमें": 4140,
      "मानसिक": 4141,
      "पहुंचने": 4142,
      "##म्मत": 4143,
      "विस्तृत": 4144,
      "आतंकवाद": 4145,
      "हालात": 4146,
      "महासचिव": 4147,
      "सिविल": 4148,
      "निगरानी": 4149,
      "अक्ष": 4150,
      "जू": 4151,
      "लंदन": 4152,
      "साध": 4153,
      "गिरफ्तारी": 4154,
      "पेट्रोल": 4155,
      "जाएँगे": 4156,
      "फो": 4157,
      "शही": 4158,
      "##गानिस्तान": 4159,
      "देगा": 4160,
      "उनको": 4161,
      "##वेद": 4162,
      "##ग्राम": 4163,
      "फेस": 4164,
      "इस्लाम": 4165,
      "##ांख्यिकी": 4166,
      "एक्": 4167,
      "गर्म": 4168,
      "ग्ल": 4169,
      "घूम": 4170,
      "टो": 4171,
      "कोरिया": 4172,
      "##सेज": 4173,
      "मास्क": 4174,
      "मिलना": 4175,
      "यात्री": 4176,
      "मौजू": 4177,
      "मान्यता": 4178,
      "बदमाश": 4179,
      "चेताव": 4180,
      "पढ़ें": 4181,
      "बर्बाद": 4182,
      "विरोधी": 4183,
      "स्वरूप": 4184,
      "सुनील": 4185,
      "किशोर": 4186,
      "चेतावनी": 4187,
      "कल्प": 4188,
      "चंद": 4189,
      "यकीन": 4190,
      "##ंजी": 4191,
      "##णिक": 4192,
      "##ख्": 4193,
      "अनिवार": 4194,
      "महत्": 4195,
      "##दीय": 4196,
      "बनाना": 4197,
      "##कर्मी": 4198,
      "प्रेस": 4199,
      "जमकर": 4200,
      "##हादुर": 4201,
      "वकील": 4202,
      "मौजूदा": 4203,
      "आशी": 4204,
      "बेल": 4205,
      "रिट": 4206,
      "शंकर": 4207,
      "##ंबी": 4208,
      "##डो": 4209,
      "एकमात्र": 4210,
      "अभ्य": 4211,
      "##ंपिक": 4212,
      "ख़त्म": 4213,
      "##ख्यात": 4214,
      "हाथों": 4215,
      "ब्लॉक": 4216,
      "##रुद्ध": 4217,
      "लंबे": 4218,
      "दीपक": 4219,
      "उड़ान": 4220,
      "हिंदू": 4221,
      "आँख": 4222,
      "अंध": 4223,
      "कंट": 4224,
      "दान": 4225,
      "मस्": 4226,
      "माने": 4227,
      "५००": 4228,
      "मेट्रो": 4229,
      "रिश्ते": 4230,
      "उत्पन्न": 4231,
      "##स्वती": 4232,
      "विद्व": 4233,
      "अधिकतर": 4234,
      "इंटरनेट": 4235,
      "पूछताछ": 4236,
      "अस्त": 4237,
      "अश्व": 4238,
      "ऊंच": 4239,
      "गरीब": 4240,
      "बक": 4241,
      "हल्": 4242,
      "##मक": 4243,
      "प्रार्थ": 4244,
      "राजस्व": 4245,
      "दिवसीय": 4246,
      "जनसांख्यिकी": 4247,
      "अहमद": 4248,
      "भ्रष्टाचार": 4249,
      "इकाई": 4250,
      "खड़े": 4251,
      "##ोलिक": 4252,
      "##िमंडल": 4253,
      "ज्ञापन": 4254,
      "फैसले": 4255,
      "तत्काल": 4256,
      "आखिरी": 4257,
      "##गणना": 4258,
      "आकर्ष": 4259,
      "जापान": 4260,
      "अब्दुल": 4261,
      "राजीव": 4262,
      "नही": 4263,
      "शारी": 4264,
      "##गांव": 4265,
      "##जीब": 4266,
      "##ोलॉ": 4267,
      "गईं": 4268,
      "मध्यप्रदेश": 4269,
      "##ब्ल्यू": 4270,
      "##िग्ध": 4271,
      "हस्ताक्षर": 4272,
      "अवि": 4273,
      "##झे": 4274,
      "##ियस": 4275,
      "समुद्र": 4276,
      "##श्ले": 4277,
      "नियमित": 4278,
      "##ेंट्स": 4279,
      "मूल्य": 4280,
      "आगरा": 4281,
      "व्यक्तियों": 4282,
      "तमिलना": 4283,
      "संस्थापक": 4284,
      "गर्भ": 4285,
      "चतु": 4286,
      "भक्त": 4287,
      "मस": 4288,
      "सच्च": 4289,
      "##दिक": 4290,
      "##बारी": 4291,
      "##ेंच": 4292,
      "सिंग": 4293,
      "सरस्वती": 4294,
      "जुड़ी": 4295,
      "ब्राह": 4296,
      "बचाने": 4297,
      "विमानक्षेत्र": 4298,
      "इंतजार": 4299,
      "बचाव": 4300,
      "ईरान": 4301,
      "ज़रूरी": 4302,
      "कोतवाली": 4303,
      "##भूमि": 4304,
      "डै": 4305,
      "बरा": 4306,
      "विरुद्ध": 4307,
      "संके": 4308,
      "ज़रूर": 4309,
      "##द्रा": 4310,
      "गुस्": 4311,
      "विकि": 4312,
      "मैन": 4313,
      "गैस": 4314,
      "मजदूर": 4315,
      "तमाम": 4316,
      "##बसूरत": 4317,
      "संदर्भ": 4318,
      "##कृष्ण": 4319,
      "अकार": 4320,
      "ब्रे": 4321,
      "यो": 4322,
      "सफ़": 4323,
      "स्रो": 4324,
      "##बत": 4325,
      "##त्रि": 4326,
      "##ांज": 4327,
      "हिंसा": 4328,
      "२०००": 4329,
      "अफ़्रीका": 4330,
      "बुलाया": 4331,
      "डिजिटल": 4332,
      "आंध्र": 4333,
      "तार": 4334,
      "दशक": 4335,
      "मंडी": 4336,
      "##वर्क": 4337,
      "##डि": 4338,
      "##र्की": 4339,
      "##ांतर": 4340,
      "##मेट": 4341,
      "विशिष्ट": 4342,
      "शास्त्री": 4343,
      "संपत्ति": 4344,
      "रैली": 4345,
      "गठबंधन": 4346,
      "आलो": 4347,
      "आख़": 4348,
      "धार": 4349,
      "बंध": 4350,
      "रसाय": 4351,
      "सड़": 4352,
      "हस्त": 4353,
      "##फिया": 4354,
      "##भाल": 4355,
      "कोर": 4356,
      "##कांत": 4357,
      "निश्चित": 4358,
      "अधिव": 4359,
      "##रेन्द्र": 4360,
      "फ़र": 4361,
      "जीता": 4362,
      "मोर्चा": 4363,
      "स्क्रीन": 4364,
      "##म्बई": 4365,
      "चलाया": 4366,
      "संदिग्ध": 4367,
      "उल्लेखनीय": 4368,
      "पांडेय": 4369,
      "बिक्री": 4370,
      "अर्जुन": 4371,
      "प्रतिनिधित्व": 4372,
      "##कत": 4373,
      "##एंगे": 4374,
      "विन": 4375,
      "संपाद": 4376,
      "##देन": 4377,
      "विधाय": 4378,
      "स्पेश": 4379,
      "##लोनी": 4380,
      "##ऊँगी": 4381,
      "सर्वोच्च": 4382,
      "रासाय": 4383,
      "मारा": 4384,
      "रिली": 4385,
      "##कम": 4386,
      "काली": 4387,
      "देहरा": 4388,
      "उपभ": 4389,
      "लाया": 4390,
      "संभव": 4391,
      "जितना": 4392,
      "यूरोपीय": 4393,
      "टिप्प": 4394,
      "हड़ताल": 4395,
      "उचित": 4396,
      "नक": 4397,
      "##गति": 4398,
      "##ज़े": 4399,
      "रावत": 4400,
      "बेवक": 4401,
      "अनुप": 4402,
      "प्रतिमा": 4403,
      "महिलाएं": 4404,
      "मारने": 4405,
      "बल्लेबाज": 4406,
      "प्रार्थना": 4407,
      "बेवकू": 4408,
      "पव": 4409,
      "हेल": 4410,
      "##विक": 4411,
      "साधारण": 4412,
      "देखी": 4413,
      "##वर्धन": 4414,
      "सीटों": 4415,
      "शारीरिक": 4416,
      "एकल": 4417,
      "उपचार": 4418,
      "अनुवाद": 4419,
      "##ोध्या": 4420,
      "सैक": 4421,
      "व्यापक": 4422,
      "वास्तविक": 4423,
      "अमरीकी": 4424,
      "वार्ता": 4425,
      "रासायनिक": 4426,
      "चार्": 4427,
      "तभी": 4428,
      "##बु": 4429,
      "##नेशनल": 4430,
      "##ोग्रा": 4431,
      "##ार्क": 4432,
      "सकें": 4433,
      "ज़िम्मे": 4434,
      "इलाकों": 4435,
      "अतिथि": 4436,
      "अल्प": 4437,
      "उल्ल": 4438,
      "घट": 4439,
      "नक्स": 4440,
      "मूर्": 4441,
      "शुल्क": 4442,
      "##रस": 4443,
      "##दून": 4444,
      "##एगा": 4445,
      "सेल": 4446,
      "##ड़ब": 4447,
      "भारती": 4448,
      "सिंध": 4449,
      "आपूर्ति": 4450,
      "कहान": 4451,
      "##त्साह": 4452,
      "चालक": 4453,
      "घुस": 4454,
      "देहरादून": 4455,
      "आचार्य": 4456,
      "इण्ड": 4457,
      "दृ": 4458,
      "लें": 4459,
      "वाइ": 4460,
      "##ृत्ति": 4461,
      "##बर्ट": 4462,
      "##अल": 4463,
      "##हूर": 4464,
      "##धिकरण": 4465,
      "उदय": 4466,
      "अयोध्या": 4467,
      "पोर्टल": 4468,
      "विद्या": 4469,
      "कोहली": 4470,
      "हिसाब": 4471,
      "गार्ड": 4472,
      "तल": 4473,
      "दूँगा": 4474,
      "पीठ": 4475,
      "ग्रन्थ": 4476,
      "माध्यमिक": 4477,
      "खेला": 4478,
      "अकेले": 4479,
      "अम्": 4480,
      "आर्ट": 4481,
      "उर्": 4482,
      "कब": 4483,
      "सारा": 4484,
      "७०": 4485,
      "##स्वा": 4486,
      "स्तरी": 4487,
      "##चानक": 4488,
      "भौतिकी": 4489,
      "श्रद्धालुओं": 4490,
      "अक": 4491,
      "अचानक": 4492,
      "दम": 4493,
      "नॉ": 4494,
      "लंबी": 4495,
      "शपथ": 4496,
      "हाइ": 4497,
      "##ेस": 4498,
      "##खर": 4499,
      "##नामेंट": 4500,
      "##हीन": 4501,
      "स्टा": 4502,
      "बीमारी": 4503,
      "जिलाधिकारी": 4504,
      "श्रीवा": 4505,
      "विधि": 4506,
      "उम्मीदवारों": 4507,
      "ऑपर": 4508,
      "चोप": 4509,
      "जला": 4510,
      "टूर्": 4511,
      "मंग": 4512,
      "मिट": 4513,
      "##क्षम": 4514,
      "मेर": 4515,
      "##रोध": 4516,
      "इसीलिए": 4517,
      "निर्वाचित": 4518,
      "लक्ष्मी": 4519,
      "रॉय": 4520,
      "गौतम": 4521,
      "जॉर्ज": 4522,
      "स्मृति": 4523,
      "पेर": 4524,
      "मारे": 4525,
      "##दल": 4526,
      "##वाना": 4527,
      "##चंद": 4528,
      "##न्ट": 4529,
      "मुज": 4530,
      "वेब": 4531,
      "पुष्टि": 4532,
      "उठाया": 4533,
      "विषयों": 4534,
      "मशहूर": 4535,
      "पाठ्य": 4536,
      "मुकदमा": 4537,
      "तमिलनाडु": 4538,
      "स्तरीय": 4539,
      "टूर्नामेंट": 4540,
      "त्या": 4541,
      "तत्व": 4542,
      "दिक": 4543,
      "रिस": 4544,
      "##ेदी": 4545,
      "##वारी": 4546,
      "##सला": 4547,
      "पुरी": 4548,
      "दर्द": 4549,
      "शास्त्र": 4550,
      "नवम्बर": 4551,
      "आवाज़": 4552,
      "इंजीनियरिंग": 4553,
      "प्राइवेट": 4554,
      "गोरखपुर": 4555,
      "चन्द्र": 4556,
      "दिये": 4557,
      "लल": 4558,
      "##तृ": 4559,
      "##यक": 4560,
      "रहें": 4561,
      "##भाषा": 4562,
      "कहाँ": 4563,
      "चुने": 4564,
      "##ंपरा": 4565,
      "##लोड": 4566,
      "सितम्बर": 4567,
      "##ष्णु": 4568,
      "बढ़ावा": 4569,
      "संशोधन": 4570,
      "अनिवार्य": 4571,
      "श्रीवास्तव": 4572,
      "##तल": 4573,
      "##िस्तान": 4574,
      "##वाया": 4575,
      "##ामु": 4576,
      "संचार": 4577,
      "साथी": 4578,
      "सीख": 4579,
      "खुशी": 4580,
      "विभाज": 4581,
      "प्लान": 4582,
      "खींच": 4583,
      "अकार्बनिक": 4584,
      "ओवर": 4585,
      "चली": 4586,
      "डाला": 4587,
      "नद": 4588,
      "मंड": 4589,
      "शर्म": 4590,
      "##रियर": 4591,
      "##फॉ": 4592,
      "नेहर": 4593,
      "अवधि": 4594,
      "चारों": 4595,
      "सेवाएं": 4596,
      "नाराज": 4597,
      "विद्यार्थी": 4598,
      "पॉजिट": 4599,
      "अरुण": 4600,
      "सीरीज": 4601,
      "ऑक्सीजन": 4602,
      "झील": 4603,
      "धा": 4604,
      "ब्ला": 4605,
      "##र्या": 4606,
      "निवास": 4607,
      "समीप": 4608,
      "चौकी": 4609,
      "नईदुनिया": 4610,
      "तत्कालीन": 4611,
      "टाटा": 4612,
      "चिकित्सक": 4613,
      "ग्रहण": 4614,
      "अस्थ": 4615,
      "गिल": 4616,
      "गंग": 4617,
      "ठा": 4618,
      "सक्षम": 4619,
      "##डम": 4620,
      "##ॉय": 4621,
      "कोड": 4622,
      "परंपरा": 4623,
      "दुष्": 4624,
      "रखें": 4625,
      "नाथ": 4626,
      "कमरे": 4627,
      "चलाने": 4628,
      "स्वर्ण": 4629,
      "न्यूय": 4630,
      "सर्वा": 4631,
      "दुर्गा": 4632,
      "तरीका": 4633,
      "रूसी": 4634,
      "गवर्": 4635,
      "छु": 4636,
      "तंत्र": 4637,
      "दाम": 4638,
      "##रीय": 4639,
      "समर्प": 4640,
      "कार्यकाल": 4641,
      "मोटर": 4642,
      "घरों": 4643,
      "मरीज": 4644,
      "नागरिकों": 4645,
      "लॉन्": 4646,
      "प्रसारण": 4647,
      "अमरीका": 4648,
      "ख़ुशी": 4649,
      "सड़कों": 4650,
      "उपभो": 4651,
      "पॉजिटिव": 4652,
      "इरा": 4653,
      "रद्द": 4654,
      "हरी": 4655,
      "##धारी": 4656,
      "##िश्": 4657,
      "प्रया": 4658,
      "##ांच": 4659,
      "राजवंश": 4660,
      "##रेली": 4661,
      "##तरनाक": 4662,
      "##रोज": 4663,
      "सब्": 4664,
      "महासागर": 4665,
      "##०००": 4666,
      "शहरों": 4667,
      "जन्मदिन": 4668,
      "कपड़े": 4669,
      "प्रोत्साह": 4670,
      "क्लास": 4671,
      "##नाइटेड": 4672,
      "स्नातक": 4673,
      "स्पेशल": 4674,
      "कृत": 4675,
      "टेल": 4676,
      "परवाह": 4677,
      "##स्टिक": 4678,
      "बाँ": 4679,
      "##र्डर": 4680,
      "आगामी": 4681,
      "प्रारंभिक": 4682,
      "मराठी": 4683,
      "लापर": 4684,
      "कस्": 4685,
      "जस्ट": 4686,
      "ड्यूटी": 4687,
      "पें": 4688,
      "फर्जी": 4689,
      "बध": 4690,
      "शेर": 4691,
      "८०": 4692,
      "##टिल": 4693,
      "रखे": 4694,
      "कहला": 4695,
      "खुले": 4696,
      "१८९": 4697,
      "इंटरनेशनल": 4698,
      "जर्मनी": 4699,
      "संगठनों": 4700,
      "अजीब": 4701,
      "धूम": 4702,
      "नवीन": 4703,
      "शांत": 4704,
      "सश": 4705,
      "प्रकरण": 4706,
      "##स्पी": 4707,
      "##िवि": 4708,
      "राणा": 4709,
      "##दाताओं": 4710,
      "२००२": 4711,
      "मनोर": 4712,
      "फ्रांस": 4713,
      "क्वार": 4714,
      "ऑपरेशन": 4715,
      "चोपड़ा": 4716,
      "गाइड": 4717,
      "पवन": 4718,
      "मछ": 4719,
      "३२": 4720,
      "काग": 4721,
      "सेक्टर": 4722,
      "विनो": 4723,
      "मात्र": 4724,
      "##िखित": 4725,
      "सुरेश": 4726,
      "शुभार": 4727,
      "हजारों": 4728,
      "नोटिस": 4729,
      "अड्डा": 4730,
      "रमेश": 4731,
      "आकार": 4732,
      "सवार": 4733,
      "७५": 4734,
      "##तौर": 4735,
      "##ांसी": 4736,
      "##्रीट": 4737,
      "बेटा": 4738,
      "लगने": 4739,
      "अंब": 4740,
      "मानना": 4741,
      "२००१": 4742,
      "##नियां": 4743,
      "सदर": 4744,
      "कार्यक्रमों": 4745,
      "जिनके": 4746,
      "जयंती": 4747,
      "बजाय": 4748,
      "गेंदबाज": 4749,
      "हराया": 4750,
      "##कारात्मक": 4751,
      "आईपीएल": 4752,
      "संकेत": 4753,
      "हवा": 4754,
      "##मंद": 4755,
      "##बर्ग": 4756,
      "##गित": 4757,
      "स्वि": 4758,
      "इसने": 4759,
      "मुम्बई": 4760,
      "माफ़ी": 4761,
      "कार्यवाही": 4762,
      "ट्रंप": 4763,
      "##ार्थी": 4764,
      "१९९९": 4765,
      "कौशल": 4766,
      "##ंघन": 4767,
      "बकवास": 4768,
      "अरे": 4769,
      "इट": 4770,
      "उक्त": 4771,
      "एप": 4772,
      "ग्वाल": 4773,
      "ताक": 4774,
      "दाय": 4775,
      "किरा": 4776,
      "इसको": 4777,
      "##वंत": 4778,
      "बीमा": 4779,
      "सम्प": 4780,
      "रेड": 4781,
      "खेलों": 4782,
      "##मोहन": 4783,
      "विधायकों": 4784,
      "गढ़": 4785,
      "भंड": 4786,
      "माय": 4787,
      "##सेस": 4788,
      "हुस": 4789,
      "बीते": 4790,
      "बैठे": 4791,
      "कितने": 4792,
      "##घाट": 4793,
      "तीसरी": 4794,
      "दौरे": 4795,
      "चुनावी": 4796,
      "प्रेरित": 4797,
      "रसायन": 4798,
      "आकाश": 4799,
      "छि": 4800,
      "पशु": 4801,
      "फायर": 4802,
      "बहादुर": 4803,
      "सौर": 4804,
      "##ौज": 4805,
      "##इंट": 4806,
      "प्रगति": 4807,
      "जोन": 4808,
      "##पीट": 4809,
      "अमृत": 4810,
      "हेम": 4811,
      "समझा": 4812,
      "जलवा": 4813,
      "आतंकी": 4814,
      "दौरा": 4815,
      "मुद्दों": 4816,
      "शासक": 4817,
      "आखिर": 4818,
      "नारे": 4819,
      "फ्री": 4820,
      "मगर": 4821,
      "शिम": 4822,
      "##ुति": 4823,
      "##िटर": 4824,
      "##पट": 4825,
      "##अप": 4826,
      "काला": 4827,
      "##वाड़": 4828,
      "राजकीय": 4829,
      "##िकाओं": 4830,
      "जनजा": 4831,
      "प्राधिकरण": 4832,
      "निर्देशित": 4833,
      "पत्थर": 4834,
      "अफगानिस्तान": 4835,
      "सहयोगी": 4836,
      "जिम्मेदार": 4837,
      "डायरे": 4838,
      "सदी": 4839,
      "##पै": 4840,
      "##ठे": 4841,
      "##ँग": 4842,
      "##ॉनिक": 4843,
      "##हल": 4844,
      "##स्मत": 4845,
      "##बरद": 4846,
      "बताओ": 4847,
      "सोनी": 4848,
      "बनना": 4849,
      "कॉम": 4850,
      "पढ़े": 4851,
      "लिपि": 4852,
      "सीबीआई": 4853,
      "खुलासा": 4854,
      "कमा": 4855,
      "दलों": 4856,
      "ब्यू": 4857,
      "##िना": 4858,
      "##सेंस": 4859,
      "##हत": 4860,
      "केजरी": 4861,
      "##तालों": 4862,
      "विस्फ": 4863,
      "सुझा": 4864,
      "बीएस": 4865,
      "रखता": 4866,
      "पार्ष": 4867,
      "दिखाया": 4868,
      "आरोपित": 4869,
      "यूनियन": 4870,
      "खाते": 4871,
      "खि": 4872,
      "गेट": 4873,
      "##षेक": 4874,
      "##जो": 4875,
      "परम": 4876,
      "स्न": 4877,
      "निकाला": 4878,
      "बदले": 4879,
      "आरम्भ": 4880,
      "जीतने": 4881,
      "तिब्ब": 4882,
      "तकनीक": 4883,
      "पहाड़ी": 4884,
      "शुक्ला": 4885,
      "केजरीवाल": 4886,
      "विस्फोट": 4887,
      "गड़ब": 4888,
      "झु": 4889,
      "दाद": 4890,
      "शहरी": 4891,
      "सोल": 4892,
      "##हे": 4893,
      "लगती": 4894,
      "##चारिक": 4895,
      "##िनेश": 4896,
      "चेयर": 4897,
      "##ोनेशिया": 4898,
      "शैली": 4899,
      "संसदीय": 4900,
      "वायरल": 4901,
      "##फ्फर": 4902,
      "काउंस": 4903,
      "##फ्रेंस": 4904,
      "हटाने": 4905,
      "आदित्यनाथ": 4906,
      "हंगामा": 4907,
      "कल्पना": 4908,
      "अस्तित्व": 4909,
      "स्रोत": 4910,
      "भट्ट": 4911,
      "मू": 4912,
      "##तें": 4913,
      "##ंटर": 4914,
      "##ईओ": 4915,
      "विषा": 4916,
      "मेहन": 4917,
      "##ंत्रित": 4918,
      "देखभाल": 4919,
      "सबको": 4920,
      "##ष्कार": 4921,
      "बढ़ने": 4922,
      "श्रीमती": 4923,
      "बच्चा": 4924,
      "डेटा": 4925,
      "##ौगोलिक": 4926,
      "प्रदर्शित": 4927,
      "घे": 4928,
      "दत्त": 4929,
      "बुर": 4930,
      "भौगोलिक": 4931,
      "मित्र": 4932,
      "##ल्ट": 4933,
      "##वेल": 4934,
      "मानते": 4935,
      "ट्रक": 4936,
      "टेक्": 4937,
      "लिखित": 4938,
      "अस्पतालों": 4939,
      "लाखों": 4940,
      "रवाना": 4941,
      "निकालने": 4942,
      "पृष्ठ": 4943,
      "कनाडा": 4944,
      "नेहरू": 4945,
      "गी": 4946,
      "चंडी": 4947,
      "दिनेश": 4948,
      "श्व": 4949,
      "##हत्या": 4950,
      "मुरा": 4951,
      "##लेक्स": 4952,
      "निकाली": 4953,
      "आरंभ": 4954,
      "माँग": 4955,
      "दिमाग": 4956,
      "##ांजलि": 4957,
      "उल्लंघन": 4958,
      "विनोद": 4959,
      "इमर": 4960,
      "कू": 4961,
      "कन्या": 4962,
      "घोट": 4963,
      "ताला": 4964,
      "##कृष्ट": 4965,
      "विज": 4966,
      "महोत्सव": 4967,
      "इंजन": 4968,
      "१९८९": 4969,
      "##राज्य": 4970,
      "संतोष": 4971,
      "##गरीय": 4972,
      "छूट": 4973,
      "जंगल": 4974,
      "तनाव": 4975,
      "वस्तु": 4976,
      "हाइड": 4977,
      "##हारी": 4978,
      "विष्णु": 4979,
      "सिख": 4980,
      "हिरासत": 4981,
      "मास्टर": 4982,
      "सराह": 4983,
      "पहुँचा": 4984,
      "स्टूड": 4985,
      "##स्पति": 4986,
      "समाजवादी": 4987,
      "डाउन": 4988,
      "जायेगा": 4989,
      "निम्न": 4990,
      "समझौता": 4991,
      "उर्फ": 4992,
      "ग्वालियर": 4993,
      "गू": 4994,
      "ग्री": 4995,
      "पब्लिक": 4996,
      "भिन्न": 4997,
      "लिस्ट": 4998,
      "##मिल": 4999,
      "##मिन": 5000,
      "##माने": 5001,
      "##िणी": 5002,
      "##जान": 5003,
      "##करे": 5004,
      "पुरा": 5005,
      "पुष्": 5006,
      "मारपीट": 5007,
      "१९८०": 5008,
      "##ंख्य": 5009,
      "घाटी": 5010,
      "सिक्": 5011,
      "पंडित": 5012,
      "पश्चात": 5013,
      "इच्छा": 5014,
      "टेलीविजन": 5015,
      "सुझाव": 5016,
      "राइ": 5017,
      "##धारा": 5018,
      "##लन": 5019,
      "##ऊंगा": 5020,
      "##उथ": 5021,
      "परा": 5022,
      "विश्ले": 5023,
      "##क्ष्म": 5024,
      "##ंचल": 5025,
      "चलता": 5026,
      "ज्यादातर": 5027,
      "संरचना": 5028,
      "लाइसेंस": 5029,
      "विविध": 5030,
      "दाखिल": 5031,
      "शहीद": 5032,
      "कंट्रोल": 5033,
      "न्यूयॉर्क": 5034,
      "आश्वास": 5035,
      "आत्मा": 5036,
      "दार्": 5037,
      "पठ": 5038,
      "मकान": 5039,
      "##धीन": 5040,
      "##डीए": 5041,
      "निकले": 5042,
      "##जनक": 5043,
      "वाक": 5044,
      "मनुष": 5045,
      "चेक": 5046,
      "लड़के": 5047,
      "##क़ीन": 5048,
      "कानूनी": 5049,
      "तिथि": 5050,
      "ईरानी": 5051,
      "जर्मन": 5052,
      "उज्ज": 5053,
      "एव": 5054,
      "९०": 5055,
      "##ीर": 5056,
      "##बरा": 5057,
      "##ारों": 5058,
      "करवाने": 5059,
      "तरफ़": 5060,
      "प्रावधान": 5061,
      "बोले": 5062,
      "त्रिपा": 5063,
      "ब्लैक": 5064,
      "दौड़": 5065,
      "विपक्ष": 5066,
      "सैनिकों": 5067,
      "किरदार": 5068,
      "अखिलेश": 5069,
      "फेसबुक": 5070,
      "स्टाफ": 5071,
      "हुसैन": 5072,
      "शिमला": 5073,
      "ब्यूरो": 5074,
      "ईश्वर": 5075,
      "क्रे": 5076,
      "खगोल": 5077,
      "जुल": 5078,
      "निल": 5079,
      "##टका": 5080,
      "हैर": 5081,
      "कीजिए": 5082,
      "##न्ड": 5083,
      "तुर्की": 5084,
      "##ंडे": 5085,
      "##पीठ": 5086,
      "##कोर": 5087,
      "जानवर": 5088,
      "आये": 5089,
      "जिलाध्यक्ष": 5090,
      "विभागों": 5091,
      "भागलपुर": 5092,
      "१९९८": 5093,
      "१९८६": 5094,
      "मिथ": 5095,
      "जिनका": 5096,
      "निकलने": 5097,
      "गेम": 5098,
      "पदाधिकारियों": 5099,
      "मुकाबला": 5100,
      "संसाधन": 5101,
      "उधर": 5102,
      "कच": 5103,
      "सूर": 5104,
      "##घ्र": 5105,
      "विरा": 5106,
      "राजकुमार": 5107,
      "सिखा": 5108,
      "##फ़्ट": 5109,
      "उपस्थिति": 5110,
      "कार्यरत": 5111,
      "पुराना": 5112,
      "लागत": 5113,
      "जुर्म": 5114,
      "१९९०": 5115,
      "१९८४": 5116,
      "##फ्टवेयर": 5117,
      "रजिस्ट्र": 5118,
      "रणनी": 5119,
      "धोखा": 5120,
      "नेटवर्क": 5121,
      "अभ्यर्थ": 5122,
      "ब्राह्मण": 5123,
      "##स्वामी": 5124,
      "उतार": 5125,
      "जानी": 5126,
      "जगत": 5127,
      "यक़ीन": 5128,
      "लू": 5129,
      "हित": 5130,
      "##तलब": 5131,
      "##दो": 5132,
      "##निय": 5133,
      "नीतीश": 5134,
      "१८८": 5135,
      "स्पेन": 5136,
      "अर्था": 5137,
      "नियंत्रित": 5138,
      "अलीगढ़": 5139,
      "##फ़्ते": 5140,
      "ओलंपिक": 5141,
      "##ोलॉजी": 5142,
      "मुजफ्फर": 5143,
      "आओ": 5144,
      "इत्या": 5145,
      "खड़ा": 5146,
      "खन्ना": 5147,
      "गह": 5148,
      "##ोड": 5149,
      "##ोर्": 5150,
      "##वत्ता": 5151,
      "##चंद्र": 5152,
      "##ॉस": 5153,
      "##सेन": 5154,
      "##त्ते": 5155,
      "##गेट": 5156,
      "##वीय": 5157,
      "लगाना": 5158,
      "अभ्यास": 5159,
      "बच्चन": 5160,
      "शिवराज": 5161,
      "##ग्रस्त": 5162,
      "खेती": 5163,
      "मुकेश": 5164,
      "ग्राहकों": 5165,
      "दिक्क": 5166,
      "शुभारंभ": 5167,
      "आश्वासन": 5168,
      "आउट": 5169,
      "उर्द": 5170,
      "श्याम": 5171,
      "##कस": 5172,
      "##कां": 5173,
      "समस्त": 5174,
      "विक्रम": 5175,
      "सूक्ष्म": 5176,
      "कमब": 5177,
      "महात्मा": 5178,
      "न्यूज": 5179,
      "अरविंद": 5180,
      "##द्वार": 5181,
      "कराए": 5182,
      "पूछा": 5183,
      "##नलिखित": 5184,
      "प्रसारित": 5185,
      "ग्रेग": 5186,
      "अरुणा": 5187,
      "जवानों": 5188,
      "निम्नलिखित": 5189,
      "##ार्टमेंट": 5190,
      "सैकड़ों": 5191,
      "लापरवाही": 5192,
      "मेहनत": 5193,
      "उद्य": 5194,
      "धम": 5195,
      "नती": 5196,
      "पायल": 5197,
      "भरा": 5198,
      "सख्त": 5199,
      "##मपुर": 5200,
      "##ण्ट": 5201,
      "##बंदी": 5202,
      "##स्वी": 5203,
      "संकल्प": 5204,
      "मेला": 5205,
      "कुमारी": 5206,
      "आपात": 5207,
      "भागी": 5208,
      "स्ट्र": 5209,
      "शिक्षण": 5210,
      "##ार्थियों": 5211,
      "व्याव": 5212,
      "व्याख्या": 5213,
      "आदिवासी": 5214,
      "सेवाओं": 5215,
      "योग्य": 5216,
      "##आरपी": 5217,
      "शक्तिशाली": 5218,
      "पवित्र": 5219,
      "पाठ्यक्रम": 5220,
      "त्रिपाठी": 5221,
      "दिग्": 5222,
      "नरेन्द्र": 5223,
      "##तान": 5224,
      "##पत": 5225,
      "##पण": 5226,
      "##ीट": 5227,
      "##वाणी": 5228,
      "##ढ़े": 5229,
      "मिलेंगे": 5230,
      "दीवार": 5231,
      "##िंगटन": 5232,
      "दुर्ग": 5233,
      "##बीसी": 5234,
      "परिवारों": 5235,
      "मांगों": 5236,
      "सुनो": 5237,
      "वापसी": 5238,
      "व्यापारी": 5239,
      "आत्महत्या": 5240,
      "चंडीगढ़": 5241,
      "खेत": 5242,
      "डू": 5243,
      "पक्का": 5244,
      "बें": 5245,
      "३६": 5246,
      "##पक्ष": 5247,
      "##छा": 5248,
      "##५०": 5249,
      "समन्व": 5250,
      "##न्दा": 5251,
      "##ोजक": 5252,
      "राज्यसभा": 5253,
      "बिंद": 5254,
      "शुरु": 5255,
      "परिस्थित": 5256,
      "आराम": 5257,
      "श्रमिक": 5258,
      "पकड़ा": 5259,
      "डॉक्टरों": 5260,
      "गुणवत्ता": 5261,
      "सर्वेक्षण": 5262,
      "बधाई": 5263,
      "ओपन": 5264,
      "नज": 5265,
      "हज़ार": 5266,
      "हफ्": 5267,
      "##िक्": 5268,
      "प्रदू": 5269,
      "देगी": 5270,
      "##मानत": 5271,
      "बीज": 5272,
      "बढ़ती": 5273,
      "पहुंचाने": 5274,
      "ब्रांड": 5275,
      "निर्देशन": 5276,
      "##आईटी": 5277,
      "चीज": 5278,
      "गांवों": 5279,
      "शब्दों": 5280,
      "##द्वीप": 5281,
      "एशियाई": 5282,
      "##पूर्वक": 5283,
      "दूध": 5284,
      "फेंक": 5285,
      "जलवायु": 5286,
      "इत्यादि": 5287,
      "इज़": 5288,
      "ठे": 5289,
      "ताज": 5290,
      "नर्स": 5291,
      "नाइट": 5292,
      "मद्": 5293,
      "कोय": 5294,
      "##क्की": 5295,
      "स्पी": 5296,
      "अधीन": 5297,
      "सबूत": 5298,
      "ग्रा": 5299,
      "निकाय": 5300,
      "बुरी": 5301,
      "यूनाइटेड": 5302,
      "१८७": 5303,
      "चीफ": 5304,
      "बंदर": 5305,
      "असल": 5306,
      "बैंकों": 5307,
      "##भारत": 5308,
      "##ध्याय": 5309,
      "मज़े": 5310,
      "तृतीय": 5311,
      "पापा": 5312,
      "सर्वाधिक": 5313,
      "फायदा": 5314,
      "वें": 5315,
      "##ियाई": 5316,
      "##म्बी": 5317,
      "राजने": 5318,
      "##रेन": 5319,
      "##ाइम": 5320,
      "प्रतिदिन": 5321,
      "व्यंजन": 5322,
      "दुश्": 5323,
      "ख़ास": 5324,
      "श्रीनगर": 5325,
      "##्राट": 5326,
      "न्यूजी": 5327,
      "##ंकन": 5328,
      "मांगी": 5329,
      "चेहरे": 5330,
      "मंत्रिमंडल": 5331,
      "##ख़्त": 5332,
      "बचपन": 5333,
      "गौरव": 5334,
      "गौरतलब": 5335,
      "ख़ुश": 5336,
      "सम्बन्धित": 5337,
      "जताई": 5338,
      "विषाणु": 5339,
      "ऑल": 5340,
      "टुक": 5341,
      "ध्व": 5342,
      "शूट": 5343,
      "हनु": 5344,
      "##कू": 5345,
      "##यो": 5346,
      "##इन": 5347,
      "##ारायण": 5348,
      "प्रश्न": 5349,
      "##ंगन": 5350,
      "##काय": 5351,
      "मेल": 5352,
      "गुजर": 5353,
      "हिन्दु": 5354,
      "दिव्या": 5355,
      "त्रि": 5356,
      "बदलने": 5357,
      "गठित": 5358,
      "कठिन": 5359,
      "व्हा": 5360,
      "जस्टिस": 5361,
      "ऐल": 5362,
      "तिल": 5363,
      "लघु": 5364,
      "##ौरा": 5365,
      "##हवीं": 5366,
      "##क्ताओं": 5367,
      "मुद्रा": 5368,
      "साझा": 5369,
      "कार्ब": 5370,
      "सीसी": 5371,
      "##र्वेद": 5372,
      "क्रिस": 5373,
      "मार्केट": 5374,
      "अगली": 5375,
      "ट्रस्ट": 5376,
      "१९९६": 5377,
      "पेशे": 5378,
      "पुरुषों": 5379,
      "प्रस्तावित": 5380,
      "बतौर": 5381,
      "गुस्सा": 5382,
      "मद्देन": 5383,
      "ऑटो": 5384,
      "कने": 5385,
      "शेष": 5386,
      "##तियाँ": 5387,
      "##वकों": 5388,
      "##स्टे": 5389,
      "सीमित": 5390,
      "अधिकतम": 5391,
      "सदन": 5392,
      "##िज्य": 5393,
      "फैला": 5394,
      "संपन्न": 5395,
      "माहौल": 5396,
      "आतंकवादी": 5397,
      "वार्ष": 5398,
      "लॉन्च": 5399,
      "आन्द": 5400,
      "खतरा": 5401,
      "फु": 5402,
      "##कन": 5403,
      "##णिज्य": 5404,
      "##वर्ड": 5405,
      "प्रयुक्त": 5406,
      "राजेन्द्र": 5407,
      "##टीवी": 5408,
      "पावर": 5409,
      "##ष्णा": 5410,
      "सोना": 5411,
      "जुड़ा": 5412,
      "प्राण": 5413,
      "उठाने": 5414,
      "आसानी": 5415,
      "चालू": 5416,
      "जागरूकता": 5417,
      "इस्तीफा": 5418,
      "मनीष": 5419,
      "हादसे": 5420,
      "टिप्पणी": 5421,
      "पार्षद": 5422,
      "भोज": 5423,
      "म्यू": 5424,
      "##तरे": 5425,
      "##पचारिक": 5426,
      "प्रचल": 5427,
      "सम्राट": 5428,
      "##ल्थ": 5429,
      "जोध": 5430,
      "उपरा": 5431,
      "उपग्रह": 5432,
      "उत्कृष्ट": 5433,
      "बनाते": 5434,
      "वाता": 5435,
      "१८६": 5436,
      "खेलने": 5437,
      "शिवसेना": 5438,
      "भेजे": 5439,
      "व्यापारियों": 5440,
      "सलाहकार": 5441,
      "कब्जा": 5442,
      "दिलचस्पी": 5443,
      "आलोचना": 5444,
      "नक्सल": 5445,
      "न्यूजीलैंड": 5446,
      "अना": 5447,
      "एंटी": 5448,
      "गहरा": 5449,
      "टूट": 5450,
      "बिलास": 5451,
      "सिया": 5452,
      "##पंच": 5453,
      "##बन": 5454,
      "##र्सी": 5455,
      "##ित्त": 5456,
      "कार्ट": 5457,
      "##ासा": 5458,
      "राशन": 5459,
      "लगते": 5460,
      "व्यस्त": 5461,
      "बंदूक": 5462,
      "१९९१": 5463,
      "१९९२": 5464,
      "संस्थानों": 5465,
      "##समूह": 5466,
      "प्रबंधक": 5467,
      "प्राथमिकता": 5468,
      "बूथ": 5469,
      "सौंपा": 5470,
      "अन्तर्राष्ट्रीय": 5471,
      "बिलासपुर": 5472,
      "लूट": 5473,
      "सत्या": 5474,
      "##ेक्षा": 5475,
      "##्मा": 5476,
      "##भूत": 5477,
      "##्योर": 5478,
      "करूंगा": 5479,
      "सोनिया": 5480,
      "पुणे": 5481,
      "कमज": 5482,
      "बढ़ते": 5483,
      "जुड़": 5484,
      "स्वस्थ": 5485,
      "शुद्ध": 5486,
      "##क्षणिक": 5487,
      "संग्रहालय": 5488,
      "गवर्नर": 5489,
      "दश": 5490,
      "यानि": 5491,
      "रां": 5492,
      "रूम": 5493,
      "लहर": 5494,
      "##लै": 5495,
      "##टकों": 5496,
      "##बि": 5497,
      "##त्न": 5498,
      "##कारियों": 5499,
      "मेले": 5500,
      "##ाप्ति": 5501,
      "##गराज": 5502,
      "आपदा": 5503,
      "जाएं": 5504,
      "पारित": 5505,
      "दर्जा": 5506,
      "##पूत": 5507,
      "१९७१": 5508,
      "गैंग": 5509,
      "सीटें": 5510,
      "मैचों": 5511,
      "शीघ्र": 5512,
      "ढूँढ़": 5513,
      "मज़ाक": 5514,
      "विज्ञापन": 5515,
      "##फ़ेयर": 5516,
      "छापे": 5517,
      "कैलंडर": 5518,
      "ग्रेगोरी": 5519,
      "हफ्ते": 5520,
      "बम": 5521,
      "##संख्य": 5522,
      "मुक्ति": 5523,
      "##सीन": 5524,
      "क्षेत्रफल": 5525,
      "मुखर्जी": 5526,
      "युग": 5527,
      "बुद्ध": 5528,
      "शुरूआ": 5529,
      "##शास्त्री": 5530,
      "पिताजी": 5531,
      "स्वच्छता": 5532,
      "जोधपुर": 5533,
      "खर": 5534,
      "ज्वाल": 5535,
      "दब": 5536,
      "फसल": 5537,
      "##ेगी": 5538,
      "##ैतिक": 5539,
      "नेप": 5540,
      "##रीत": 5541,
      "कार्": 5542,
      "रहो": 5543,
      "बाढ़": 5544,
      "सीनियर": 5545,
      "कार्यकारी": 5546,
      "गुना": 5547,
      "आएगा": 5548,
      "घटनाओं": 5549,
      "कर्मी": 5550,
      "चीज़ों": 5551,
      "ताकत": 5552,
      "वातावरण": 5553,
      "बग": 5554,
      "बृह": 5555,
      "साज": 5556,
      "हार्": 5557,
      "##लेन": 5558,
      "अवार्ड": 5559,
      "गोल्ड": 5560,
      "गणेश": 5561,
      "बोलने": 5562,
      "पाठक": 5563,
      "श्रद्धांजलि": 5564,
      "आवाज": 5565,
      "डिजाइन": 5566,
      "इंस्टीट": 5567,
      "खूबसूरत": 5568,
      "शौच": 5569,
      "एग्": 5570,
      "शृंखला": 5571,
      "४८": 5572,
      "##पल": 5573,
      "##र्त": 5574,
      "##स्वर": 5575,
      "करूँगी": 5576,
      "##क्के": 5577,
      "संजीव": 5578,
      "जोख": 5579,
      "लगाते": 5580,
      "कामया": 5581,
      "वाणिज्य": 5582,
      "मंदिरों": 5583,
      "लिखे": 5584,
      "जिनकी": 5585,
      "पेय": 5586,
      "शैक्षणिक": 5587,
      "सुनाई": 5588,
      "प्रीम": 5589,
      "बराबर": 5590,
      "दुष्कर्म": 5591,
      "दिग्ग": 5592,
      "धर्": 5593,
      "बट": 5594,
      "रचित": 5595,
      "##ृद": 5596,
      "निर्द": 5597,
      "वेद": 5598,
      "जानना": 5599,
      "मौल": 5600,
      "फ़िल्मफ़ेयर": 5601,
      "विधेय": 5602,
      "पढ़ा": 5603,
      "१९६२": 5604,
      "जूनियर": 5605,
      "संस्थाओं": 5606,
      "दुकानों": 5607,
      "स्मारक": 5608,
      "टैक्स": 5609,
      "दोषी": 5610,
      "##कामना": 5611,
      "मद्देनजर": 5612,
      "अतिक": 5613,
      "गायक": 5614,
      "##रू": 5615,
      "##रज": 5616,
      "##शंकर": 5617,
      "थाई": 5618,
      "##ाइयों": 5619,
      "माया": 5620,
      "गुला": 5621,
      "बढ़ो": 5622,
      "रोहित": 5623,
      "युगल": 5624,
      "प्रशांत": 5625,
      "सर्विस": 5626,
      "साहित्यिक": 5627,
      "सफर": 5628,
      "जगहों": 5629,
      "अर्चना": 5630,
      "महीनों": 5631,
      "##ाज़ा": 5632,
      "विपरीत": 5633,
      "अनुरोध": 5634,
      "रिलीज": 5635,
      "पायलट": 5636,
      "कड": 5637,
      "नष्ट": 5638,
      "बेश": 5639,
      "मंज": 5640,
      "ममता": 5641,
      "रिया": 5642,
      "३७": 5643,
      "##मंत्र": 5644,
      "##पित": 5645,
      "प्रवासी": 5646,
      "##म्बे": 5647,
      "साक्षा": 5648,
      "समक्ष": 5649,
      "राजद": 5650,
      "##ुलेंस": 5651,
      "ज़रा": 5652,
      "सहमति": 5653,
      "रोह": 5654,
      "##एसएस": 5655,
      "अवस्था": 5656,
      "मंत्रियों": 5657,
      "तेज़": 5658,
      "फरार": 5659,
      "अकाउंट": 5660,
      "फॉर": 5661,
      "##फ़्तार": 5662,
      "ट्विटर": 5663,
      "चेयरमैन": 5664,
      "उर्दू": 5665,
      "इंद्र": 5666,
      "डाक": 5667,
      "नाय": 5668,
      "बारी": 5669,
      "३४": 5670,
      "##डोर": 5671,
      "##ूली": 5672,
      "##ुल्": 5673,
      "अंजाम": 5674,
      "जनगणना": 5675,
      "##ज्ञा": 5676,
      "##िताब": 5677,
      "आईटी": 5678,
      "भागों": 5679,
      "लड़ने": 5680,
      "आएगी": 5681,
      "रिच": 5682,
      "आमतौर": 5683,
      "तीसरा": 5684,
      "मजबूर": 5685,
      "स्मार्टफोन": 5686,
      "समझौते": 5687,
      "मैनेज": 5688,
      "समर्पित": 5689,
      "विराट": 5690,
      "जोखिम": 5691,
      "आंख": 5692,
      "कौर": 5693,
      "खिल": 5694,
      "धु": 5695,
      "यौन": 5696,
      "शरण": 5697,
      "३३": 5698,
      "##मूर्ति": 5699,
      "##पि": 5700,
      "##कला": 5701,
      "##टरी": 5702,
      "##ह्न": 5703,
      "##न्त्री": 5704,
      "##त्रिक": 5705,
      "स्त": 5706,
      "साफ़": 5707,
      "दुबे": 5708,
      "##प्रदाय": 5709,
      "##प्पा": 5710,
      "##रलैंड": 5711,
      "##ॉप्टर": 5712,
      "हॉकी": 5713,
      "गलती": 5714,
      "निशान": 5715,
      "न्यायिक": 5716,
      "पुस्तकें": 5717,
      "तेलु": 5718,
      "प्रतीक": 5719,
      "चैंपियनशिप": 5720,
      "निलंब": 5721,
      "आन्ध": 5722,
      "एल्": 5723,
      "दह": 5724,
      "बजा": 5725,
      "हॉल": 5726,
      "हर्ष": 5727,
      "##मय": 5728,
      "##णों": 5729,
      "##ैक्ट": 5730,
      "हैलो": 5731,
      "सेक्स": 5732,
      "प्रकृति": 5733,
      "##कारों": 5734,
      "##माइ": 5735,
      "कुश": 5736,
      "##द्धा": 5737,
      "बेट": 5738,
      "##ष्म": 5739,
      "दुख": 5740,
      "##डीओ": 5741,
      "क्रिस्ट": 5742,
      "जुट": 5743,
      "कंपनियां": 5744,
      "नौसेना": 5745,
      "हिस्सों": 5746,
      "पेड़": 5747,
      "एजेंट": 5748,
      "मुद्दा": 5749,
      "तालिब": 5750,
      "सपना": 5751,
      "निराश": 5752,
      "मस्ज": 5753,
      "मेरठ": 5754,
      "प्रयागराज": 5755,
      "प्रदूषण": 5756,
      "रांची": 5757,
      "एह": 5758,
      "कक्ष": 5759,
      "जेट": 5760,
      "##ोत्तर": 5761,
      "##ंवर": 5762,
      "##शियों": 5763,
      "##ँस": 5764,
      "##बंद": 5765,
      "महेश": 5766,
      "सोने": 5767,
      "कमिश्": 5768,
      "##भाग्य": 5769,
      "लीला": 5770,
      "कृष्णा": 5771,
      "सचिन": 5772,
      "प्रोड": 5773,
      "जेम्स": 5774,
      "पड़ेगी": 5775,
      "आइस": 5776,
      "खेले": 5777,
      "पत्रिकाएँ": 5778,
      "सॉफ्टवेयर": 5779,
      "आन्ध्र": 5780,
      "कमिश्नर": 5781,
      "उड़ा": 5782,
      "खड़ी": 5783,
      "छिप": 5784,
      "भरे": 5785,
      "मज़ा": 5786,
      "##मूल": 5787,
      "##ोम": 5788,
      "##कश": 5789,
      "##करा": 5790,
      "कोट": 5791,
      "कायम": 5792,
      "कराना": 5793,
      "विभा": 5794,
      "देखे": 5795,
      "पहुंचकर": 5796,
      "##प्रकाश": 5797,
      "मीटिंग": 5798,
      "आरक्षण": 5799,
      "जहाज़": 5800,
      "पुनर्": 5801,
      "आशंका": 5802,
      "काउंटी": 5803,
      "उपायुक्त": 5804,
      "झूठ": 5805,
      "अतिक्रमण": 5806,
      "अत्या": 5807,
      "चू": 5808,
      "पाद": 5809,
      "शिख": 5810,
      "##मंड": 5811,
      "##टेल": 5812,
      "##ँकि": 5813,
      "सेवान": 5814,
      "##ायिक": 5815,
      "राजेंद्र": 5816,
      "भाषण": 5817,
      "बेकार": 5818,
      "##ष्क": 5819,
      "##मार्ट": 5820,
      "##हरण": 5821,
      "जैव": 5822,
      "ख़बर": 5823,
      "ब्रा": 5824,
      "साहब": 5825,
      "इंडस्ट्री": 5826,
      "१९७२": 5827,
      "दिलाने": 5828,
      "वनडे": 5829,
      "बताने": 5830,
      "गुजराती": 5831,
      "पौध": 5832,
      "मुहैया": 5833,
      "वर्णन": 5834,
      "ट्रैक्टर": 5835,
      "प्लांट": 5836,
      "इम": 5837,
      "ओब": 5838,
      "चोर": 5839,
      "बिर": 5840,
      "भूप": 5841,
      "लक्षण": 5842,
      "३००": 5843,
      "##धाम": 5844,
      "##यिक": 5845,
      "##र्धा": 5846,
      "काव्य": 5847,
      "करार": 5848,
      "किन्तु": 5849,
      "एकत्र": 5850,
      "संवेदन": 5851,
      "हुये": 5852,
      "स्थायी": 5853,
      "पागल": 5854,
      "अनुसू": 5855,
      "कैरियर": 5856,
      "बोला": 5857,
      "हेड": 5858,
      "ज़्यादातर": 5859,
      "१९९४": 5860,
      "सुविधाएं": 5861,
      "आनन्द": 5862,
      "हालाँकि": 5863,
      "धरना": 5864,
      "बेचने": 5865,
      "मिट्टी": 5866,
      "आन्दोलन": 5867,
      "ज्वालामु": 5868,
      "ढूं": 5869,
      "पंक": 5870,
      "भरी": 5871,
      "शर": 5872,
      "शह": 5873,
      "##्ठा": 5874,
      "##व्यू": 5875,
      "##डेट": 5876,
      "##शिंगटन": 5877,
      "प्रजा": 5878,
      "प्रदीप": 5879,
      "##नीत": 5880,
      "राजपूत": 5881,
      "जीएस": 5882,
      "बनकर": 5883,
      "गुज़र": 5884,
      "##एमसी": 5885,
      "रामायण": 5886,
      "पढ़ने": 5887,
      "जेएन": 5888,
      "कुलपति": 5889,
      "१९७७": 5890,
      "लेखन": 5891,
      "वन्य": 5892,
      "शासकीय": 5893,
      "इंदिरा": 5894,
      "इलेक्ट्रॉनिक": 5895,
      "शुभकामना": 5896,
      "निपटने": 5897,
      "कथित": 5898,
      "सेवानिव": 5899,
      "इकट": 5900,
      "खार": 5901,
      "ग्रीन": 5902,
      "चिट": 5903,
      "नीत": 5904,
      "यां": 5905,
      "लक": 5906,
      "वक़": 5907,
      "सभ": 5908,
      "##ंटा": 5909,
      "##ूनों": 5910,
      "##जर्स": 5911,
      "##१९": 5912,
      "##ड़की": 5913,
      "मुर": 5914,
      "##्टा": 5915,
      "सुभाष": 5916,
      "सरल": 5917,
      "##पीडिया": 5918,
      "##वेन": 5919,
      "सामुद": 5920,
      "कॉलोनी": 5921,
      "टीमों": 5922,
      "##चालन": 5923,
      "##ड्डा": 5924,
      "द्वीपसमूह": 5925,
      "गिरा": 5926,
      "##रावट": 5927,
      "उत्सव": 5928,
      "अभिषेक": 5929,
      "रिश्ता": 5930,
      "प्रिंस": 5931,
      "अफसरों": 5932,
      "रिसर्च": 5933,
      "इटली": 5934,
      "डायरेक्टर": 5935,
      "इधर": 5936,
      "गड": 5937,
      "जरूर": 5938,
      "डेट": 5939,
      "बाप": 5940,
      "लाह": 5941,
      "सक्": 5942,
      "हफ़्ते": 5943,
      "##लिन": 5944,
      "##शाह": 5945,
      "सेमी": 5946,
      "मुसल": 5947,
      "निर्भर": 5948,
      "सीता": 5949,
      "अभय": 5950,
      "कैसा": 5951,
      "कैलि": 5952,
      "संग्राम": 5953,
      "##एससी": 5954,
      "##पालिका": 5955,
      "गोद": 5956,
      "एसएसपी": 5957,
      "न्यून": 5958,
      "चेहरा": 5959,
      "उठाए": 5960,
      "महत्त्व": 5961,
      "फ़रवरी": 5962,
      "विधेयक": 5963,
      "सामुदायिक": 5964,
      "क्यू": 5965,
      "जमानत": 5966,
      "दिग": 5967,
      "##डब्ल्यू": 5968,
      "##ॉड": 5969,
      "कोर्स": 5970,
      "होश": 5971,
      "##वाय": 5972,
      "##्वल": 5973,
      "कारा": 5974,
      "##ार्स": 5975,
      "पूजन": 5976,
      "##िप्त": 5977,
      "महामंत्री": 5978,
      "भूत": 5979,
      "##प्रति": 5980,
      "दिखाने": 5981,
      "१९८५": 5982,
      "##म्परा": 5983,
      "छोड़ने": 5984,
      "##बाज़": 5985,
      "सुनने": 5986,
      "##कुमारी": 5987,
      "गणराज्य": 5988,
      "संचालक": 5989,
      "पंजाबी": 5990,
      "प्रत्यक्ष": 5991,
      "ऑस्ट्रेलियाई": 5992,
      "पत्रकारों": 5993,
      "डिप्टी": 5994,
      "आलोक": 5995,
      "प्रभावी": 5996,
      "ठाकरे": 5997,
      "##बरदस्त": 5998,
      "राजनेता": 5999,
      "घो": 6000,
      "##ेटर": 6001,
      "##ोली": 6002,
      "##डन": 6003,
      "##सोस": 6004,
      "##ोंग": 6005,
      "##शनिक": 6006,
      "बनर्जी": 6007,
      "##निर्": 6008,
      "श्रीराम": 6009,
      "बच्ची": 6010,
      "अमिता": 6011,
      "श्रम": 6012,
      "१९७८": 6013,
      "त्रिव": 6014,
      "पहुँचने": 6015,
      "समुद्री": 6016,
      "प्लास्टिक": 6017,
      "अड्डे": 6018,
      "छुट्टी": 6019,
      "कैप्टन": 6020,
      "सूरज": 6021,
      "परिस्थितियों": 6022,
      "बंदरगाह": 6023,
      "हनुमान": 6024,
      "अदा": 6025,
      "एसी": 6026,
      "जज": 6027,
      "भि": 6028,
      "मथ": 6029,
      "यज्ञ": 6030,
      "वस्त": 6031,
      "६४": 6032,
      "##ुम": 6033,
      "##िज़": 6034,
      "##व्र": 6035,
      "##ड्र": 6036,
      "##इस": 6037,
      "##ारिश": 6038,
      "##र्ति": 6039,
      "प्रोट": 6040,
      "##न्नी": 6041,
      "क्षति": 6042,
      "माध": 6043,
      "बिस्तर": 6044,
      "जानने": 6045,
      "कहने": 6046,
      "##एसआई": 6047,
      "रुको": 6048,
      "अग्": 6049,
      "मतदाता": 6050,
      "संबंधों": 6051,
      "स्थानांतर": 6052,
      "ज़िंदा": 6053,
      "गिरावट": 6054,
      "गंभीरता": 6055,
      "प्रेरणा": 6056,
      "मैनेजर": 6057,
      "##भूषण": 6058,
      "अल्पसंख्य": 6059,
      "दार्शनिक": 6060,
      "अत": 6061,
      "खिताब": 6062,
      "मूर्ति": 6063,
      "रघु": 6064,
      "शीत": 6065,
      "हत्य": 6066,
      "##िफ": 6067,
      "##ृत्त": 6068,
      "परम्परा": 6069,
      "##वाज": 6070,
      "मुसी": 6071,
      "चाहे": 6072,
      "मातृ": 6073,
      "##मानों": 6074,
      "##मेन": 6075,
      "फ़्ल": 6076,
      "फ़र्क": 6077,
      "मुखिया": 6078,
      "सामूह": 6079,
      "मैक": 6080,
      "डेविड": 6081,
      "चिंत": 6082,
      "गणतंत्र": 6083,
      "पालिका": 6084,
      "ड्रग": 6085,
      "मलयाल": 6086,
      "स्वयंसे": 6087,
      "कमजोर": 6088,
      "##स्वरूप": 6089,
      "मस्जिद": 6090,
      "सामूहिक": 6091,
      "उद्ध": 6092,
      "ओड": 6093,
      "चट्ट": 6094,
      "चर्च": 6095,
      "दायर": 6096,
      "नये": 6097,
      "संह": 6098,
      "साव": 6099,
      "##लीक": 6100,
      "##िल्ला": 6101,
      "स्थिर": 6102,
      "##स्टन": 6103,
      "उपन": 6104,
      "जाएंगी": 6105,
      "अनुश": 6106,
      "पीएच": 6107,
      "अवगत": 6108,
      "गोयल": 6109,
      "तहरी": 6110,
      "लिखने": 6111,
      "खेलते": 6112,
      "बॉक्स": 6113,
      "झारखण्ड": 6114,
      "आश्रम": 6115,
      "माइक्रो": 6116,
      "बांध": 6117,
      "सिलस": 6118,
      "पेंशन": 6119,
      "स्टूडेंट्स": 6120,
      "विश्लेषण": 6121,
      "पंकज": 6122,
      "इज": 6123,
      "चम": 6124,
      "शिल्": 6125,
      "##ोसी": 6126,
      "##डकर": 6127,
      "##ृज": 6128,
      "##बाई": 6129,
      "केदार": 6130,
      "किशन": 6131,
      "एकदम": 6132,
      "समापन": 6133,
      "अपमान": 6134,
      "##ांडर": 6135,
      "##रेज": 6136,
      "कम्यु": 6137,
      "ट्रॉ": 6138,
      "१८५": 6139,
      "१९८७": 6140,
      "आमंत्रित": 6141,
      "अर्थशास्त्र": 6142,
      "बोलते": 6143,
      "##ग्न": 6144,
      "भेजने": 6145,
      "ट्रेनिंग": 6146,
      "##ग़ानिस्तान": 6147,
      "तेलंग": 6148,
      "निरीक्षक": 6149,
      "पंजीकरण": 6150,
      "अभियंता": 6151,
      "फ़ैसला": 6152,
      "नारेबाजी": 6153,
      "सराहना": 6154,
      "गूगल": 6155,
      "रजिस्ट्रेशन": 6156,
      "रणनीति": 6157,
      "वार्षिक": 6158,
      "प्रचलित": 6159,
      "साक्षात्कार": 6160,
      "अनुसूचित": 6161,
      "मलयालम": 6162,
      "ऑप": 6163,
      "छेड़": 6164,
      "नयी": 6165,
      "पेंट": 6166,
      "यश": 6167,
      "##ंक्शन": 6168,
      "##टिया": 6169,
      "##नपुर": 6170,
      "कांग": 6171,
      "परिप": 6172,
      "##लील": 6173,
      "##ज़्": 6174,
      "कुमा": 6175,
      "भास्कर": 6176,
      "पाण्ड": 6177,
      "##क्टिव": 6178,
      "रोज़": 6179,
      "महाभारत": 6180,
      "##स्पिटल": 6181,
      "##कर्ताओं": 6182,
      "डेढ़": 6183,
      "डालने": 6184,
      "अकेला": 6185,
      "कम्प्यूटर": 6186,
      "राजनैतिक": 6187,
      "दर्शकों": 6188,
      "बदमाशों": 6189,
      "तालिबान": 6190,
      "न्यूनतम": 6191,
      "खतरनाक": 6192,
      "पत": 6193,
      "मानी": 6194,
      "सका": 6195,
      "हृद": 6196,
      "##लैण्ड": 6197,
      "##पंथ": 6198,
      "##विन": 6199,
      "##भु": 6200,
      "केश": 6201,
      "प्रज": 6202,
      "##स्की": 6203,
      "परंतु": 6204,
      "##विदा": 6205,
      "वर्षा": 6206,
      "ग्रैंड": 6207,
      "पारिवार": 6208,
      "जबलपुर": 6209,
      "१५०": 6210,
      "बॉय": 6211,
      "यूनिट": 6212,
      "अहमदाबाद": 6213,
      "जितनी": 6214,
      "अखबार": 6215,
      "माइक्र": 6216,
      "##उंडेशन": 6217,
      "आयुर्वेद": 6218,
      "रिजल्ट": 6219,
      "शुक्ल": 6220,
      "अधिवक्ता": 6221,
      "##फॉर्म": 6222,
      "मनोरंजन": 6223,
      "कुर": 6224,
      "पद्ध": 6225,
      "पटक": 6226,
      "भक्ति": 6227,
      "सैल": 6228,
      "विद्र": 6229,
      "अपहरण": 6230,
      "लेता": 6231,
      "रहस्य": 6232,
      "##दाश्त": 6233,
      "सोव": 6234,
      "पुत्री": 6235,
      "कमाल": 6236,
      "हुईं": 6237,
      "ख़िला": 6238,
      "वैदिक": 6239,
      "##बाड़ी": 6240,
      "पिछली": 6241,
      "प्रभु": 6242,
      "साइकिल": 6243,
      "सुविधाओं": 6244,
      "आकर्षण": 6245,
      "तेलंगाना": 6246,
      "पारिवारिक": 6247,
      "अंडर": 6248,
      "गाज": 6249,
      "नसी": 6250,
      "फंड": 6251,
      "मांस": 6252,
      "##यत": 6253,
      "##सास": 6254,
      "##बान": 6255,
      "##ॉग": 6256,
      "##्रल": 6257,
      "##ोंक": 6258,
      "भीम": 6259,
      "साउथ": 6260,
      "##सीआर": 6261,
      "अपेक्षा": 6262,
      "सीईओ": 6263,
      "चलती": 6264,
      "१९८२": 6265,
      "भरत": 6266,
      "भरने": 6267,
      "क्रिकेटर": 6268,
      "ट्रेनों": 6269,
      "समर्थक": 6270,
      "सकेगा": 6271,
      "पद्मश्री": 6272,
      "चलेगा": 6273,
      "नागपुर": 6274,
      "धरती": 6275,
      "##ट्रिक": 6276,
      "प्रतिबंधित": 6277,
      "आकर्षित": 6278,
      "बेवकूफ़": 6279,
      "मनुष्य": 6280,
      "पेशेवर": 6281,
      "इंस्टीट्यूट": 6282,
      "वक़्त": 6283,
      "(,": 6284,
      "आश्च": 6285,
      "आंगन": 6286,
      "ऋष": 6287,
      "क्ली": 6288,
      "घंट": 6289,
      "ढा": 6290,
      "दूँगी": 6291,
      "पथ": 6292,
      "लाइट": 6293,
      "##बीन": 6294,
      "##यां": 6295,
      "काले": 6296,
      "काशी": 6297,
      "प्रखण्ड": 6298,
      "##क्ल": 6299,
      "##ियंस": 6300,
      "##दाई": 6301,
      "मिलियन": 6302,
      "पाक": 6303,
      "सम्मिल": 6304,
      "प्राचार्य": 6305,
      "दूसरों": 6306,
      "चौथे": 6307,
      "मील": 6308,
      "कारणों": 6309,
      "##िस्ट्रेट": 6310,
      "१२वीं": 6311,
      "बाज़": 6312,
      "गायब": 6313,
      "##वैज्ञानिक": 6314,
      "दस्तावेज": 6315,
      "छापेमारी": 6316,
      "अमिताभ": 6317,
      "ऋषि": 6318,
      "गर्व": 6319,
      "टक्कर": 6320,
      "फ्ला": 6321,
      "रेट": 6322,
      "शिश": 6323,
      "सतीश": 6324,
      "४२": 6325,
      "##टिक": 6326,
      "##चर्स": 6327,
      "##बिल": 6328,
      "##११": 6329,
      "##एडा": 6330,
      "##र्जर": 6331,
      "होली": 6332,
      "##ंगिक": 6333,
      "मेघ": 6334,
      "##ल्ली": 6335,
      "क्रांति": 6336,
      "दर्जन": 6337,
      "गाँ": 6338,
      "मतदाताओं": 6339,
      "भाग्य": 6340,
      "१९८८": 6341,
      "##वर्ष": 6342,
      "नौकर": 6343,
      "१९७०": 6344,
      "कॉलेजों": 6345,
      "शेख": 6346,
      "लिहा": 6347,
      "उपाध्याय": 6348,
      "महाराजा": 6349,
      "तारीख": 6350,
      "तारीख़": 6351,
      "रिजर्व": 6352,
      "ग्राहक": 6353,
      "काउंसिल": 6354,
      "इमरान": 6355,
      "धमकी": 6356,
      "शौचालय": 6357,
      "मुसीबत": 6358,
      "संहिता": 6359,
      "औष": 6360,
      "गगन": 6361,
      "घन": 6362,
      "भेंट": 6363,
      "रंजन": 6364,
      "५५": 6365,
      "##नम": 6366,
      "प्रमो": 6367,
      "मुस्क": 6368,
      "संपूर्ण": 6369,
      "जादू": 6370,
      "##नीश": 6371,
      "##राहा": 6372,
      "मेगा": 6373,
      "स्थलों": 6374,
      "##विद": 6375,
      "फ़ायदा": 6376,
      "पुरस्कृत": 6377,
      "कमांडर": 6378,
      "##ंसक": 6379,
      "ख़ैर": 6380,
      "गुरू": 6381,
      "विद्यालयों": 6382,
      "जवाहर": 6383,
      "पार्किंग": 6384,
      "विपक्षी": 6385,
      "अपराधियों": 6386,
      "निरंतर": 6387,
      "पोस्टमार्ट": 6388,
      "ऑफ़िस": 6389,
      "फॉर्म": 6390,
      "पदार्थों": 6391,
      "तिरु": 6392,
      "संवेदनशील": 6393,
      "आश्चर्य": 6394,
      "पोस्टमार्टम": 6395,
      "जताया": 6396,
      "झेल": 6397,
      "डिव": 6398,
      "डांस": 6399,
      "नित": 6400,
      "नज़": 6401,
      "बड़": 6402,
      "रस": 6403,
      "##धाना": 6404,
      "##िफिक": 6405,
      "##ॉम": 6406,
      "##ियाबाद": 6407,
      "करोगे": 6408,
      "##वाँ": 6409,
      "##लाश": 6410,
      "##क्षिक": 6411,
      "निस्त": 6412,
      "सिम": 6413,
      "##टेक": 6414,
      "अनुक": 6415,
      "गुड": 6416,
      "##बीआई": 6417,
      "जब्त": 6418,
      "पहुंचाया": 6419,
      "डीसी": 6420,
      "१९९३": 6421,
      "फैक्ट": 6422,
      "पड़ोसी": 6423,
      "##ोबल": 6424,
      "दिलीप": 6425,
      "उच्चतम": 6426,
      "ज्ञात": 6427,
      "##फ्रेंड": 6428,
      "ऐलान": 6429,
      "इंच": 6430,
      "ईमान": 6431,
      "एटी": 6432,
      "औपचारिक": 6433,
      "किल": 6434,
      "ढंग": 6435,
      "दि": 6436,
      "भगत": 6437,
      "लायक": 6438,
      "हंस": 6439,
      "##रन": 6440,
      "##कता": 6441,
      "##ाराम": 6442,
      "##ाहे": 6443,
      "##ंदे": 6444,
      "##ांतिक": 6445,
      "लेन": 6446,
      "महानि": 6447,
      "माफी": 6448,
      "बातों": 6449,
      "ख़री": 6450,
      "बुनिया": 6451,
      "आईसी": 6452,
      "##देवी": 6453,
      "१९८१": 6454,
      "भरप": 6455,
      "नरेश": 6456,
      "##कलन": 6457,
      "बंगाली": 6458,
      "सिद्धान्त": 6459,
      "जालघर": 6460,
      "परीक्ष": 6461,
      "लंबा": 6462,
      "खरीदने": 6463,
      "पहाड़": 6464,
      "एक्ट्रेस": 6465,
      "निभाई": 6466,
      "ज्योतिष": 6467,
      "##ानुसार": 6468,
      "हिमालय": 6469,
      "हरिद्वार": 6470,
      "कैंसर": 6471,
      "ग़लत": 6472,
      "विकिपीडिया": 6473,
      "##डि़": 6474,
      "अग्नि": 6475,
      "सम्मिलित": 6476,
      "आध्या": 6477,
      "एंट": 6478,
      "एक्शन": 6479,
      "कव": 6480,
      "फिल्": 6481,
      "भव्य": 6482,
      "मच": 6483,
      "रवी": 6484,
      "रोल": 6485,
      "लिंग": 6486,
      "वास": 6487,
      "हिल": 6488,
      "##रक": 6489,
      "##चरण": 6490,
      "##र्वाद": 6491,
      "##नेशन": 6492,
      "महेंद्र": 6493,
      "आपत्ति": 6494,
      "##िपल": 6495,
      "दुब": 6496,
      "मानस": 6497,
      "महाप": 6498,
      "##धीर": 6499,
      "##णीय": 6500,
      "पोषण": 6501,
      "१९६५": 6502,
      "विचारों": 6503,
      "प्रतिनिधियों": 6504,
      "गर्मी": 6505,
      "सतर्क": 6506,
      "नोएडा": 6507,
      "कार्टून": 6508,
      "निलंबित": 6509,
      "ओडिशा": 6510,
      "सोवियत": 6511,
      "ख़िलाफ़": 6512,
      "एथ": 6513,
      "एडी": 6514,
      "ठिक": 6515,
      "नशे": 6516,
      "फते": 6517,
      "बसा": 6518,
      "मल्": 6519,
      "यार": 6520,
      "रिश": 6521,
      "वस": 6522,
      "वसू": 6523,
      "शिल": 6524,
      "शिर": 6525,
      "##तित": 6526,
      "##वट": 6527,
      "##वाहा": 6528,
      "विख्यात": 6529,
      "किरण": 6530,
      "किंतु": 6531,
      "##त्तम": 6532,
      "देहा": 6533,
      "##ंद्रा": 6534,
      "##श्ती": 6535,
      "##वेज़": 6536,
      "पुलिसकर्मियों": 6537,
      "बनाता": 6538,
      "मैक्स": 6539,
      "बुक": 6540,
      "साहिब": 6541,
      "दावे": 6542,
      "लाइफ": 6543,
      "न्यायमूर्ति": 6544,
      "वारदा": 6545,
      "पीड़िता": 6546,
      "मज़ेदार": 6547,
      "दिग्गज": 6548,
      "शिखर": 6549,
      "आध्यात्म": 6550,
      "अमे": 6551,
      "उन्न": 6552,
      "ऋण": 6553,
      "धान": 6554,
      "ध्रु": 6555,
      "फाइ": 6556,
      "बढ": 6557,
      "रिल": 6558,
      "३८": 6559,
      "४४": 6560,
      "##फारिश": 6561,
      "##वों": 6562,
      "सेल्स": 6563,
      "##ियर्स": 6564,
      "मुक़": 6565,
      "##ैंस": 6566,
      "देनी": 6567,
      "निच": 6568,
      "##िनर": 6569,
      "सुन्दर": 6570,
      "सीओ": 6571,
      "बढ़कर": 6572,
      "प्राप्तकर्ता": 6573,
      "१९९७": 6574,
      "अर्ध": 6575,
      "१९६९": 6576,
      "भेद": 6577,
      "विचारधारा": 6578,
      "पीछा": 6579,
      "गिरी": 6580,
      "तहसीलदार": 6581,
      "प्रारम्भ": 6582,
      "शिवा": 6583,
      "बिलकुल": 6584,
      "गेंदबाजी": 6585,
      "विज्ञानी": 6586,
      "विशेषज्ञों": 6587,
      "खूब": 6588,
      "मनोहर": 6589,
      "घोटाले": 6590,
      "जुर्माना": 6591,
      "मुजफ्फरपुर": 6592,
      "आफ": 6593,
      "औसत": 6594,
      "खून": 6595,
      "गाने": 6596,
      "टर्म": 6597,
      "ठोस": 6598,
      "पिट": 6599,
      "##ट्": 6600,
      "##टार्": 6601,
      "##नक": 6602,
      "##बूत": 6603,
      "##एगी": 6604,
      "##भि": 6605,
      "##भद्र": 6606,
      "प्रधाना": 6607,
      "##वाड़ी": 6608,
      "##ंगों": 6609,
      "##्वान": 6610,
      "मेयर": 6611,
      "सिफारिश": 6612,
      "##स्टर्स": 6613,
      "पूंजी": 6614,
      "सरपंच": 6615,
      "सीरिया": 6616,
      "मानक": 6617,
      "##ंदीदा": 6618,
      "बसपा": 6619,
      "केंद्रित": 6620,
      "जगदी": 6621,
      "मध्यम": 6622,
      "१९६०": 6623,
      "पंचायतों": 6624,
      "फ्रां": 6625,
      "उत्पादों": 6626,
      "पौधे": 6627,
      "पुनः": 6628,
      "गर्ल": 6629,
      "विवेक": 6630,
      "अक्षय": 6631,
      "आशीष": 6632,
      "संपादक": 6633,
      "ललित": 6634,
      "नेपाली": 6635,
      "खारिज": 6636,
      "आवं": 6637,
      "चौर": 6638,
      "पारी": 6639,
      "पाइ": 6640,
      "६३": 6641,
      "##िंट": 6642,
      "##फान": 6643,
      "##सं": 6644,
      "##भवन": 6645,
      "##नाश": 6646,
      "##त्प": 6647,
      "समृ": 6648,
      "##्रीकी": 6649,
      "##िवेश": 6650,
      "हिम्मत": 6651,
      "##टीन": 6652,
      "दीजिए": 6653,
      "##ून्य": 6654,
      "बढ़ी": 6655,
      "स्टैंड": 6656,
      "ख़्याल": 6657,
      "साहू": 6658,
      "मदन": 6659,
      "मिलाकर": 6660,
      "देवताओं": 6661,
      "मजिस्ट्रेट": 6662,
      "##र्षि": 6663,
      "१९५७": 6664,
      "मिस्र": 6665,
      "चिकित्सकों": 6666,
      "इंस्टा": 6667,
      "चक्रवर्ती": 6668,
      "कैमरा": 6669,
      "ब्लाक": 6670,
      "दुश्मन": 6671,
      "मैनेजमेंट": 6672,
      "ढूंढ": 6673,
      "सक्सेना": 6674,
      "मथुरा": 6675,
      "पद्धति": 6676,
      "बोर": 6677,
      "रिंग": 6678,
      "लाई": 6679,
      "४००": 6680,
      "##तिया": 6681,
      "##क्यू": 6682,
      "##गान": 6683,
      "##अर": 6684,
      "जाऊँगा": 6685,
      "##्वे": 6686,
      "##क्ष्य": 6687,
      "##लेस": 6688,
      "रहकर": 6689,
      "बीसीसी": 6690,
      "##िप्ट": 6691,
      "संगम": 6692,
      "सम्पूर्ण": 6693,
      "स्टॉक": 6694,
      "स्ट्रीट": 6695,
      "पेपर": 6696,
      "वृक्ष": 6697,
      "उतना": 6698,
      "आर्मी": 6699,
      "कब्जे": 6700,
      "ज़िम्मेदारी": 6701,
      "उपभोक्ता": 6702,
      "शूटिंग": 6703,
      "तहरीर": 6704,
      "नायक": 6705,
      "व्र": 6706,
      "सकारात्मक": 6707,
      "हां": 6708,
      "##धित": 6709,
      "##मियों": 6710,
      "##रूप": 6711,
      "##दियों": 6712,
      "##पान": 6713,
      "##पेट": 6714,
      "##वण": 6715,
      "मुंग": 6716,
      "साढ़े": 6717,
      "बेड": 6718,
      "##कोश": 6719,
      "अनुबंध": 6720,
      "बताई": 6721,
      "प्रतिद्व": 6722,
      "##ोरेशन": 6723,
      "क्राइम": 6724,
      "छोड़ा": 6725,
      "##प्ति": 6726,
      "१९८३": 6727,
      "प्रयोगशाला": 6728,
      "एडम": 6729,
      "अभिभाव": 6730,
      "##ोदय": 6731,
      "मजदूरों": 6732,
      "त्याग": 6733,
      "##स्टेबल": 6734,
      "शुरूआत": 6735,
      "जगदीश": 6736,
      "इश": 6737,
      "चट": 6738,
      "चक्कर": 6739,
      "पर्स": 6740,
      "फार्म": 6741,
      "मचा": 6742,
      "##यात": 6743,
      "प्रवर्": 6744,
      "##्यांकन": 6745,
      "##रेख": 6746,
      "##ल्फ": 6747,
      "##्यूल": 6748,
      "बिता": 6749,
      "अंश": 6750,
      "अंटार्": 6751,
      "पासवान": 6752,
      "युक्त": 6753,
      "अगु": 6754,
      "छाया": 6755,
      "बैठकर": 6756,
      "करेंगी": 6757,
      "गुरुद": 6758,
      "पोस्टर": 6759,
      "चिन्ह": 6760,
      "पसंदीदा": 6761,
      "डाटा": 6762,
      "इंटरव्यू": 6763,
      "पुस्तकों": 6764,
      "मरम्मत": 6765,
      "इंजीनिय": 6766,
      "मुहम्मद": 6767,
      "निकटतम": 6768,
      "प्रतिष्ठित": 6769,
      "अत्यंत": 6770,
      "उत्साहित": 6771,
      "धातु": 6772,
      "दिक्कत": 6773,
      "##्योरिटी": 6774,
      "पेयजल": 6775,
      "हृदय": 6776,
      "एंब": 6777,
      "कस": 6778,
      "चिप": 6779,
      "जंक्शन": 6780,
      "नंद": 6781,
      "##बिया": 6782,
      "##इयों": 6783,
      "##तीत": 6784,
      "एकता": 6785,
      "##सेज़": 6786,
      "##देशक": 6787,
      "##ंचाई": 6788,
      "देखिए": 6789,
      "प्रतिबद्ध": 6790,
      "गोवा": 6791,
      "आईए": 6792,
      "आईसीसी": 6793,
      "मीना": 6794,
      "##लोत": 6795,
      "##ाकू": 6796,
      "कानूनों": 6797,
      "१९५६": 6798,
      "पकड़े": 6799,
      "पकड़ने": 6800,
      "शुरुआती": 6801,
      "मृतक": 6802,
      "पर्वतम": 6803,
      "परियोजनाओं": 6804,
      "पक्षों": 6805,
      "आशीर्वाद": 6806,
      "अम्ल": 6807,
      "बृहस्पति": 6808,
      "आध्यात्मिक": 6809,
      "इंस्टाग्राम": 6810,
      "त्व": 6811,
      "तर्क": 6812,
      "दस्त": 6813,
      "भ्रमण": 6814,
      "माप": 6815,
      "६५": 6816,
      "##्ढ": 6817,
      "##शेष": 6818,
      "##जारी": 6819,
      "कोटा": 6820,
      "##नाल्ड": 6821,
      "पराज": 6822,
      "विम": 6823,
      "##रेगा": 6824,
      "रात्रि": 6825,
      "##्तिक": 6826,
      "जोड़ने": 6827,
      "उपनाम": 6828,
      "सबके": 6829,
      "बिन्द": 6830,
      "सोसाइ": 6831,
      "पीजी": 6832,
      "कैलाश": 6833,
      "निकला": 6834,
      "गोविंद": 6835,
      "१९९५": 6836,
      "##ोसॉ": 6837,
      "१९६७": 6838,
      "मार्गदर्शन": 6839,
      "बचने": 6840,
      "शासित": 6841,
      "हिंदु": 6842,
      "हराकर": 6843,
      "जापानी": 6844,
      "बल्लेबाजी": 6845,
      "सेंट्रल": 6846,
      "कैमरे": 6847,
      "वरना": 6848,
      "विद्वान": 6849,
      "मछली": 6850,
      "मुरादाबाद": 6851,
      "तालाब": 6852,
      "चीजें": 6853,
      "वस्तुओं": 6854,
      "बुनियादी": 6855,
      "पर्वतमाला": 6856,
      "सोसाइटी": 6857,
      "उग्र": 6858,
      "ख्याल": 6859,
      "गार": 6860,
      "चार्ज": 6861,
      "बचे": 6862,
      "शत्र": 6863,
      "४६": 6864,
      "##बेर": 6865,
      "##ाल्टर": 6866,
      "##क्क": 6867,
      "##ाहिर": 6868,
      "मेन": 6869,
      "कुत्ते": 6870,
      "बाधा": 6871,
      "बादल": 6872,
      "राज्यमंत्री": 6873,
      "##टेज": 6874,
      "प्रदेशों": 6875,
      "##्लो": 6876,
      "जिंदगी": 6877,
      "जिब्र": 6878,
      "आजादी": 6879,
      "आजकल": 6880,
      "स्पोर्ट": 6881,
      "बर्फ": 6882,
      "एजेंस": 6883,
      "उपाधि": 6884,
      "वैज्ञानिकों": 6885,
      "संभावित": 6886,
      "स्वराज": 6887,
      "टाइम": 6888,
      "खोलने": 6889,
      "दिमाग़": 6890,
      "प्रदर्शनी": 6891,
      "बायो": 6892,
      "संयोजक": 6893,
      "भक्तों": 6894,
      "आख़िर": 6895,
      "स्नान": 6896,
      "गीता": 6897,
      "अंटार्कट": 6898,
      "खण्ड": 6899,
      "गों": 6900,
      "डिस्ट": 6901,
      "ढेर": 6902,
      "नु": 6903,
      "बला": 6904,
      "मर्": 6905,
      "माला": 6906,
      "शक्त": 6907,
      "##रित": 6908,
      "##साद": 6909,
      "##ब्रे": 6910,
      "##१०": 6911,
      "##क्चर": 6912,
      "कार्तिक": 6913,
      "सिपा": 6914,
      "जीते": 6915,
      "##धानिक": 6916,
      "##क्रमण": 6917,
      "आरोपों": 6918,
      "हाईवे": 6919,
      "अफ़सोस": 6920,
      "मरने": 6921,
      "##पेक्ष": 6922,
      "धोनी": 6923,
      "ट्रैफिक": 6924,
      "##िकोण": 6925,
      "अंधे": 6926,
      "ईस्ट": 6927,
      "ओह": 6928,
      "नहर": 6929,
      "बलों": 6930,
      "भले": 6931,
      "७२": 6932,
      "##लोक": 6933,
      "##थाम": 6934,
      "##झी": 6935,
      "प्रकट": 6936,
      "##स्ति": 6937,
      "मुआ": 6938,
      "एका": 6939,
      "राजकुमारी": 6940,
      "अनुरा": 6941,
      "चुप": 6942,
      "##ुत्व": 6943,
      "मुख्यतः": 6944,
      "सोसाय": 6945,
      "रखती": 6946,
      "पारंप": 6947,
      "हेल्थ": 6948,
      "मांगा": 6949,
      "अधिकारों": 6950,
      "##ंगाबाद": 6951,
      "##लाइट": 6952,
      "##हराया": 6953,
      "समर्थकों": 6954,
      "बिल्डिंग": 6955,
      "रॉयल": 6956,
      "अपराधी": 6957,
      "महारानी": 6958,
      "अनुरूप": 6959,
      "अंदाज": 6960,
      "सिंगापुर": 6961,
      "कार्बन": 6962,
      "गत": 6963,
      "टि": 6964,
      "बघ": 6965,
      "मणि": 6966,
      "##याँ": 6967,
      "प्राप्ति": 6968,
      "##नात्मक": 6969,
      "स्की": 6970,
      "##िएट": 6971,
      "मुठ": 6972,
      "##्वीप": 6973,
      "निभ": 6974,
      "##ायदे": 6975,
      "##िसू": 6976,
      "चाहूँगा": 6977,
      "सरदार": 6978,
      "ज़ोर": 6979,
      "##पीएस": 6980,
      "बीबीसी": 6981,
      "टी२०": 6982,
      "##ोरम": 6983,
      "सम्पाद": 6984,
      "सहारा": 6985,
      "##देह": 6986,
      "##ष्ठा": 6987,
      "##दर्शी": 6988,
      "मनमोहन": 6989,
      "वीं": 6990,
      "डेम": 6991,
      "बालक": 6992,
      "कलाकारों": 6993,
      "##सायिक": 6994,
      "फ्रेंच": 6995,
      "जमश": 6996,
      "##युद्ध": 6997,
      "सपने": 6998,
      "एफआई": 6999,
      "सेनानी": 7000,
      "हस्तक्षेप": 7001,
      "दृश्य": 7002,
      "उदयपुर": 7003,
      "जनजाति": 7004,
      "डाउनलोड": 7005,
      "गहलोत": 7006,
      "पटकथा": 7007,
      "घंटों": 7008,
      "बीसीसीआई": 7009,
      "मुंगेर": 7010,
      "सिपाही": 7011,
      "आधा": 7012,
      "चक": 7013,
      "टोक": 7014,
      "धाम": 7015,
      "शार": 7016,
      "शैल": 7017,
      "##ौरी": 7018,
      "##शनी": 7019,
      "##ैड": 7020,
      "##र्टी": 7021,
      "##वायर": 7022,
      "##ंगत": 7023,
      "##्वरी": 7024,
      "##ायें": 7025,
      "##ायती": 7026,
      "##ादर": 7027,
      "हमीर": 7028,
      "##ंत्रिक": 7029,
      "बनाये": 7030,
      "पूर्वोत्तर": 7031,
      "##निज": 7032,
      "दर्शा": 7033,
      "रेग": 7034,
      "कृति": 7035,
      "व्यास": 7036,
      "लिखकर": 7037,
      "डेस्क": 7038,
      "चिह्न": 7039,
      "मूल्यांकन": 7040,
      "भेजी": 7041,
      "२०२२": 7042,
      "प्रशिक्षित": 7043,
      "प्रयासों": 7044,
      "१९४८": 7045,
      "हास्य": 7046,
      "मलिक": 7047,
      "निशाने": 7048,
      "विलियम": 7049,
      "प्रोत्साहित": 7050,
      "नजदी": 7051,
      "क्रिसमस": 7052,
      "थाईलैण्ड": 7053,
      "ज्वालामुखी": 7054,
      "अनुकूल": 7055,
      "जमशेद": 7056,
      "छू": 7057,
      "ड्रेस": 7058,
      "नग": 7059,
      "बैंड": 7060,
      "सप्": 7061,
      "सूरत": 7062,
      "##नरी": 7063,
      "##जिक": 7064,
      "##सनीय": 7065,
      "##ानंद": 7066,
      "प्रायद": 7067,
      "पराम": 7068,
      "विहार": 7069,
      "सुप्र": 7070,
      "बाई": 7071,
      "सीजन": 7072,
      "##वंशी": 7073,
      "##कोत्तर": 7074,
      "बढ़ाया": 7075,
      "अगला": 7076,
      "उत्तम": 7077,
      "मार्ट": 7078,
      "डिफ": 7079,
      "##एनएस": 7080,
      "फ्रंट": 7081,
      "लौटने": 7082,
      "संबद्ध": 7083,
      "गायत्री": 7084,
      "सलमान": 7085,
      "अत्यधिक": 7086,
      "मेहता": 7087,
      "ब्रेक": 7088,
      "जिब्राल्टर": 7089,
      "मुठभ": 7090,
      "आस्ट्रेलिया": 7091,
      "कच्च": 7092,
      "खनन": 7093,
      "जस": 7094,
      "टॉप": 7095,
      "फोट": 7096,
      "लाना": 7097,
      "लैंड": 7098,
      "विल्": 7099,
      "वॉल": 7100,
      "शंक": 7101,
      "शून्य": 7102,
      "सकी": 7103,
      "ह्यू": 7104,
      "६८": 7105,
      "६२": 7106,
      "##ंपी": 7107,
      "##बिन": 7108,
      "##ॉक्स": 7109,
      "##ारसी": 7110,
      "##र्निया": 7111,
      "प्रवाह": 7112,
      "##ड़ियां": 7113,
      "हैंड": 7114,
      "##ेशिया": 7115,
      "##ैंट": 7116,
      "##रात": 7117,
      "##गीर": 7118,
      "महि": 7119,
      "चाहेंगे": 7120,
      "बाबू": 7121,
      "##ोजित": 7122,
      "बहि": 7123,
      "##ब्स": 7124,
      "##डीसी": 7125,
      "##बाग": 7126,
      "पांड": 7127,
      "जलप्र": 7128,
      "बॉस": 7129,
      "सुनकर": 7130,
      "रोकथाम": 7131,
      "१९५२": 7132,
      "रिकार्ड": 7133,
      "हॉस्पिटल": 7134,
      "सिक्योरिटी": 7135,
      "वैक्सीनेशन": 7136,
      "सुल्तान": 7137,
      "टाइम्स": 7138,
      "वोटों": 7139,
      "कम्पनी": 7140,
      "जायेगी": 7141,
      "##क्रोश": 7142,
      "फोर्स": 7143,
      "आख़िरी": 7144,
      "##ोग्राफी": 7145,
      "अरुणाचल": 7146,
      "जीएसटी": 7147,
      "प्रोटोक": 7148,
      "माइक्रोसॉ": 7149,
      "सोसायटी": 7150,
      "पारंपरिक": 7151,
      "आग्रह": 7152,
      "ओड़": 7153,
      "कल्": 7154,
      "ट्यू": 7155,
      "डेल": 7156,
      "नाइ": 7157,
      "पन": 7158,
      "फार्": 7159,
      "फिट": 7160,
      "मृ": 7161,
      "वेल": 7162,
      "सर्क": 7163,
      "##मै": 7164,
      "##मानी": 7165,
      "##ंकार": 7166,
      "##डू": 7167,
      "##ँह": 7168,
      "##िकरण": 7169,
      "विरासत": 7170,
      "##्याज": 7171,
      "जाट": 7172,
      "अनंत": 7173,
      "##िल्स": 7174,
      "##विच": 7175,
      "##पुरम": 7176,
      "इनकार": 7177,
      "पीने": 7178,
      "नाडु": 7179,
      "##डीह": 7180,
      "सम्बंध": 7181,
      "युवकों": 7182,
      "##पालन": 7183,
      "मार्क": 7184,
      "१९७३": 7185,
      "बालिका": 7186,
      "प्रेमी": 7187,
      "मालूम": 7188,
      "पर्यटकों": 7189,
      "मिसाइल": 7190,
      "गोलीबारी": 7191,
      "##ारण्य": 7192,
      "दरवाज़ा": 7193,
      "दरवाज़े": 7194,
      "आंकड़ों": 7195,
      "योद्धा": 7196,
      "पेरिस": 7197,
      "पुष्प": 7198,
      "व्यावसायिक": 7199,
      "ठेके": 7200,
      "प्रीमियर": 7201,
      "आक्रोश": 7202,
      "चो": 7203,
      "चाय": 7204,
      "बहा": 7205,
      "बस्ती": 7206,
      "यान": 7207,
      "सैंप": 7208,
      "##तना": 7209,
      "##गंगा": 7210,
      "##भुत": 7211,
      "##नाल": 7212,
      "##रात्रि": 7213,
      "साई": 7214,
      "##ंचार": 7215,
      "दीक्षित": 7216,
      "रखकर": 7217,
      "बैग": 7218,
      "नाबाल": 7219,
      "खिलाफ़": 7220,
      "ख़राब": 7221,
      "गोवि": 7222,
      "एसटी": 7223,
      "##सिस्ट": 7224,
      "बसों": 7225,
      "प्रोफ": 7226,
      "संगीतकार": 7227,
      "१९७४": 7228,
      "मौजूदगी": 7229,
      "गणना": 7230,
      "कर्त": 7231,
      "सिद्धार्थ": 7232,
      "श्रेष्ठ": 7233,
      "खोला": 7234,
      "##सूत्र": 7235,
      "गेह": 7236,
      "कारोबारी": 7237,
      "अध्यापक": 7238,
      "बेसबॉल": 7239,
      "आँखें": 7240,
      "आकर्षक": 7241,
      "विभाजित": 7242,
      "भागीदारी": 7243,
      "बेंगल": 7244,
      "विभागीय": 7245,
      "निस्तारण": 7246,
      "प्रायद्वीप": 7247,
      "जलप्रपात": 7248,
      "अण्ड": 7249,
      "ऊँच": 7250,
      "गर": 7251,
      "चाइ": 7252,
      "फाइल": 7253,
      "यंत्र": 7254,
      "००": 7255,
      "५४": 7256,
      "##ोव": 7257,
      "##ँची": 7258,
      "##सुर": 7259,
      "##बानी": 7260,
      "प्रां": 7261,
      "प्रवी": 7262,
      "परन्तु": 7263,
      "##वाधिकार": 7264,
      "मुफ्त": 7265,
      "जाग": 7266,
      "जाह": 7267,
      "साप्ताह": 7268,
      "सावधान": 7269,
      "राधा": 7270,
      "महल": 7271,
      "जोड़ा": 7272,
      "वर्क": 7273,
      "बेग": 7274,
      "सहार": 7275,
      "परिचालन": 7276,
      "मानवाधिकार": 7277,
      "युवती": 7278,
      "पैदल": 7279,
      "आरटी": 7280,
      "१८४": 7281,
      "##फ्तार": 7282,
      "अरबी": 7283,
      "तैयारियों": 7284,
      "पड़ने": 7285,
      "१९७६": 7286,
      "देवता": 7287,
      "जरिये": 7288,
      "पूर्णिमा": 7289,
      "रॉबर्ट": 7290,
      "व्यक्तित्व": 7291,
      "महानगर": 7292,
      "१०००": 7293,
      "प्लस": 7294,
      "पाएंगे": 7295,
      "इलेक्ट्रिक": 7296,
      "फाउंडेशन": 7297,
      "सेकंड": 7298,
      "मायने": 7299,
      "आखिरकार": 7300,
      "सीसीटीवी": 7301,
      "शिशु": 7302,
      "हमीरपुर": 7303,
      "साप्ताहिक": 7304,
      "जद": 7305,
      "जूल": 7306,
      "दूंगा": 7307,
      "पाली": 7308,
      "मीन": 7309,
      "यमु": 7310,
      "लोह": 7311,
      "३९": 7312,
      "४७": 7313,
      "५३": 7314,
      "##वृत्ति": 7315,
      "##गमन": 7316,
      "किस्मत": 7317,
      "##म्बा": 7318,
      "##काया": 7319,
      "##कांड": 7320,
      "लेनी": 7321,
      "##किम": 7322,
      "सीधा": 7323,
      "बेन": 7324,
      "रोका": 7325,
      "बुद्धि": 7326,
      "पैमाने": 7327,
      "##प्शन": 7328,
      "वाशिंगटन": 7329,
      "##िस्ट्री": 7330,
      "पड़ती": 7331,
      "इतिहासकार": 7332,
      "आएंगे": 7333,
      "थानाध्यक्ष": 7334,
      "१९५५": 7335,
      "व्यापारिक": 7336,
      "लैब": 7337,
      "चिकित्सालय": 7338,
      "##चुनाव": 7339,
      "कठोर": 7340,
      "प्रत्याशियों": 7341,
      "कन्नड़": 7342,
      "आँखों": 7343,
      "चार्ली": 7344,
      "अर्थात": 7345,
      "##छाड़": 7346,
      "बढ़ोतरी": 7347,
      "गुरुद्व": 7348,
      "इकल": 7349,
      "ज्व": 7350,
      "बारा": 7351,
      "मक": 7352,
      "४९": 7353,
      "##खार": 7354,
      "##ओगे": 7355,
      "सेट": 7356,
      "प्रक्षेप": 7357,
      "मुँह": 7358,
      "##राधिक": 7359,
      "लेती": 7360,
      "अधिग": 7361,
      "सिंचाई": 7362,
      "##ंत्रिकी": 7363,
      "उसको": 7364,
      "आपराधिक": 7365,
      "जोड़ी": 7366,
      "चुम्ब": 7367,
      "जिसमे": 7368,
      "दीपा": 7369,
      "बैक": 7370,
      "स्टोर": 7371,
      "रोशन": 7372,
      "##एसई": 7373,
      "रुख": 7374,
      "##वादियों": 7375,
      "लोकतंत्र": 7376,
      "बोस": 7377,
      "दिखाना": 7378,
      "##खाबाद": 7379,
      "##लाइंस": 7380,
      "सैम": 7381,
      "प्यारी": 7382,
      "पट्टी": 7383,
      "ब्लू": 7384,
      "संरक्षित": 7385,
      "सीएमओ": 7386,
      "हथियारों": 7387,
      "मासिक": 7388,
      "ड्राइवर": 7389,
      "चतुर्थ": 7390,
      "सच्चाई": 7391,
      "नाराजगी": 7392,
      "तिब्बत": 7393,
      "हिन्दुस्तान": 7394,
      "उपरांत": 7395,
      "कामयाब": 7396,
      "अल्पसंख्यक": 7397,
      "कम्युनि": 7398,
      "परामर्श": 7399,
      "प्रवीण": 7400,
      "आक्रमण": 7401,
      "एरिया": 7402,
      "चमक": 7403,
      "त्यो": 7404,
      "फर्": 7405,
      "##ुद्ध": 7406,
      "##कै": 7407,
      "##काने": 7408,
      "##कूट": 7409,
      "##ंठ": 7410,
      "##यें": 7411,
      "##वो": 7412,
      "##आउट": 7413,
      "##शक्ति": 7414,
      "##ग्रा": 7415,
      "##नाती": 7416,
      "##ड़न": 7417,
      "##ायंस": 7418,
      "राठ": 7419,
      "प्रतिभाग": 7420,
      "नगरपालिका": 7421,
      "रामपुर": 7422,
      "##िजय": 7423,
      "लड़का": 7424,
      "लड़कों": 7425,
      "सदस्यता": 7426,
      "छोड़ना": 7427,
      "करीबी": 7428,
      "१९६१": 7429,
      "१९६८": 7430,
      "वितरित": 7431,
      "##त्तरी": 7432,
      "फर्रु": 7433,
      "मेडल": 7434,
      "१९४७": 7435,
      "तीव्र": 7436,
      "दवाओं": 7437,
      "चैम्प": 7438,
      "आह्वान": 7439,
      "गर्भवती": 7440,
      "सिंधिया": 7441,
      "तलवार": 7442,
      "व्हाइट": 7443,
      "साजिश": 7444,
      "दिग्व": 7445,
      "विद्रोह": 7446,
      "शत्रु": 7447,
      "नाबालिग": 7448,
      "त्योहार": 7449,
      "ऐप": 7450,
      "कंग": 7451,
      "गवाह": 7452,
      "घाय": 7453,
      "डोज": 7454,
      "दुर": 7455,
      "नर्म": 7456,
      "फेल": 7457,
      "वाई": 7458,
      "शेट": 7459,
      "हवाले": 7460,
      "##ुसार": 7461,
      "##िंक": 7462,
      "##खल": 7463,
      "##सारी": 7464,
      "##ॉर्ट": 7465,
      "##ानगर": 7466,
      "##राणिक": 7467,
      "##लेक्सी": 7468,
      "##ाइज": 7469,
      "##ढ़ा": 7470,
      "अधिकृत": 7471,
      "जानिए": 7472,
      "पुरात": 7473,
      "बनाती": 7474,
      "रोमन": 7475,
      "ख़ू": 7476,
      "##एमएस": 7477,
      "रेड्डी": 7478,
      "दिखने": 7479,
      "गिरफ़्तार": 7480,
      "##क़ा": 7481,
      "सचिवालय": 7482,
      "##मिशन": 7483,
      "बहुमत": 7484,
      "दिलचस्प": 7485,
      "ज़िम्मेदार": 7486,
      "विभाजन": 7487,
      "हरीश": 7488,
      "बाँध": 7489,
      "गड़बड़": 7490,
      "##प्रतिनि": 7491,
      "##पंथी": 7492,
      "एफआईआर": 7493,
      "सहारनपुर": 7494,
      "दिग्विजय": 7495,
      "अजीत": 7496,
      "नफ़": 7497,
      "पच": 7498,
      "फरी": 7499,
      "बसे": 7500,
      "लूँगा": 7501,
      "वस्त्र": 7502,
      "सज्": 7503,
      "हक": 7504,
      "##माला": 7505,
      "##िसी": 7506,
      "##नियाँ": 7507,
      "##सवाल": 7508,
      "##१२": 7509,
      "##ानिया": 7510,
      "प्रॉ": 7511,
      "करवाई": 7512,
      "##ाम्": 7513,
      "राजभवन": 7514,
      "अनि": 7515,
      "स्थगित": 7516,
      "सुष": 7517,
      "सुशील": 7518,
      "अभिव": 7519,
      "गुर्जर": 7520,
      "बैड": 7521,
      "निकली": 7522,
      "जुटे": 7523,
      "ट्रैक": 7524,
      "अलविदा": 7525,
      "डीजी": 7526,
      "योग्यता": 7527,
      "परीक्षाओं": 7528,
      "१९७९": 7529,
      "शाही": 7530,
      "अभियांत्रिकी": 7531,
      "क्लिक": 7532,
      "तेरे": 7533,
      "१९५०": 7534,
      "सांसदों": 7535,
      "बनेगा": 7536,
      "साइट": 7537,
      "साइबर": 7538,
      "खाड़ी": 7539,
      "अफ़ग़ानिस्तान": 7540,
      "संतुल": 7541,
      "मल्टी": 7542,
      "पौराणिक": 7543,
      "वायुसेना": 7544,
      "कॉन्फ्रेंस": 7545,
      "ग़लती": 7546,
      "शास्त्रीय": 7547,
      "टेलिवि": 7548,
      "कस्बे": 7549,
      "टेक्न": 7550,
      "उज्जैन": 7551,
      "कमबख्त": 7552,
      "##निर्माण": 7553,
      "दुबई": 7554,
      "मुठभेड़": 7555,
      "अद्": 7556,
      "अश्": 7557,
      "अन्न": 7558,
      "उड़ी": 7559,
      "ओपी": 7560,
      "रेंज": 7561,
      "वाज": 7562,
      "सज़ा": 7563,
      "##िफ़": 7564,
      "##शर": 7565,
      "##खों": 7566,
      "##खाने": 7567,
      "##हि": 7568,
      "##ेंजर": 7569,
      "##र्घा": 7570,
      "समु": 7571,
      "समीकरण": 7572,
      "##िनो": 7573,
      "##विंग": 7574,
      "सीआरपी": 7575,
      "उत्पी": 7576,
      "मैथ": 7577,
      "परिजन": 7578,
      "कॉमे": 7579,
      "भूक": 7580,
      "बारह": 7581,
      "प्रशंसा": 7582,
      "आजम": 7583,
      "डीजल": 7584,
      "स्पेस": 7585,
      "विश्वविद्यालयों": 7586,
      "मिठ": 7587,
      "##वासीय": 7588,
      "जेपी": 7589,
      "सौंपी": 7590,
      "बालों": 7591,
      "समस्याएं": 7592,
      "१९५४": 7593,
      "डिज़": 7594,
      "##एनए": 7595,
      "साइंस": 7596,
      "आइए": 7597,
      "हॉट": 7598,
      "बिजनेस": 7599,
      "आतंकियों": 7600,
      "##मिंट": 7601,
      "कटौती": 7602,
      "नैतिक": 7603,
      "##शेखर": 7604,
      "हिस्सेदारी": 7605,
      "##चिस्तान": 7606,
      "रोमां": 7607,
      "कन्नौज": 7608,
      "सब्जी": 7609,
      "कहलाता": 7610,
      "सशक्त": 7611,
      "लाहौर": 7612,
      "गगनचु": 7613,
      "महापौर": 7614,
      "वारदात": 7615,
      "इंजीनियरी": 7616,
      "नफ़रत": 7617,
      "एंज": 7618,
      "भय": 7619,
      "##ुए": 7620,
      "##जि": 7621,
      "##गढ": 7622,
      "##वाकां": 7623,
      "##ेशनों": 7624,
      "संदीप": 7625,
      "साझे": 7626,
      "हमसे": 7627,
      "##मीरी": 7628,
      "तोह": 7629,
      "तोमर": 7630,
      "बिहारी": 7631,
      "प्रतिस्प": 7632,
      "जनप्रतिनि": 7633,
      "इनको": 7634,
      "##च्छेद": 7635,
      "रखेंगे": 7636,
      "##बीए": 7637,
      "चलना": 7638,
      "गाड़ियों": 7639,
      "विशेषता": 7640,
      "##आरसी": 7641,
      "१९७५": 7642,
      "प्रभावशाली": 7643,
      "##ंडीज": 7644,
      "खरीदी": 7645,
      "##गुप्त": 7646,
      "##भाषित": 7647,
      "स्नातकोत्तर": 7648,
      "संसाध": 7649,
      "उन्हीं": 7650,
      "ऊंचाई": 7651,
      "अब्दुल्ला": 7652,
      "कहानियाँ": 7653,
      "अभ्यर्थियों": 7654,
      "समन्वय": 7655,
      "एंबुलेंस": 7656,
      "त्वचा": 7657,
      "जमशेदपुर": 7658,
      "शेट्टी": 7659,
      "अक्त": 7660,
      "आवासीय": 7661,
      "कन": 7662,
      "क्वा": 7663,
      "खतरे": 7664,
      "गाना": 7665,
      "चुर": 7666,
      "ढां": 7667,
      "तस्क": 7668,
      "फुल": 7669,
      "फांसी": 7670,
      "रिव": 7671,
      "रफ्तार": 7672,
      "लव": 7673,
      "लम्ब": 7674,
      "४३": 7675,
      "५१": 7676,
      "##मन्त्री": 7677,
      "##टकर": 7678,
      "##ण्य": 7679,
      "##व्": 7680,
      "##ैग": 7681,
      "##गार्ड": 7682,
      "##इड": 7683,
      "प्रको": 7684,
      "##न्ग": 7685,
      "##न्तर": 7686,
      "##सेट": 7687,
      "##िनेंट": 7688,
      "##्रीत": 7689,
      "साथियों": 7690,
      "कहां": 7691,
      "क्षुद्र": 7692,
      "तोड़ने": 7693,
      "प्रतिरोध": 7694,
      "पीढ़ी": 7695,
      "ग्रो": 7696,
      "अवकाश": 7697,
      "अवतार": 7698,
      "गोप": 7699,
      "##ंबा": 7700,
      "##वालों": 7701,
      "वाक़": 7702,
      "निर्देशों": 7703,
      "##आईसी": 7704,
      "उपयोगी": 7705,
      "रिक्त": 7706,
      "स्वीकृति": 7707,
      "मुलायम": 7708,
      "पहलवान": 7709,
      "वेस्टइ": 7710,
      "छुट्ट": 7711,
      "गणितज्ञ": 7712,
      "आतंकवादियों": 7713,
      "प्रोत्साहन": 7714,
      "फायरिंग": 7715,
      "शरद": 7716,
      "जेएनएन": 7717,
      "इकट्ठा": 7718,
      "गाँधी": 7719,
      "फतेह": 7720,
      "वसूली": 7721,
      "फर्रुखाबाद": 7722,
      "एन्": 7723,
      "कूद": 7724,
      "खुर": 7725,
      "चुरा": 7726,
      "फं": 7727,
      "मारी": 7728,
      "##शान": 7729,
      "##बली": 7730,
      "##इंग": 7731,
      "##यात्रा": 7732,
      "विस": 7733,
      "##करों": 7734,
      "देरी": 7735,
      "##ायन": 7736,
      "राज़": 7737,
      "##रेटर": 7738,
      "अनदे": 7739,
      "कुंभ": 7740,
      "##द्घ": 7741,
      "हीरो": 7742,
      "##जीवन": 7743,
      "मास्टर्स": 7744,
      "देखता": 7745,
      "बहाल": 7746,
      "बीस": 7747,
      "सोचना": 7748,
      "##ूसराय": 7749,
      "रोशनी": 7750,
      "डीवी": 7751,
      "##मिक्स": 7752,
      "इंडोनेशिया": 7753,
      "अर्पित": 7754,
      "लक्ष्मण": 7755,
      "शैक्षिक": 7756,
      "परिवर्तित": 7757,
      "सुलझ": 7758,
      "गतिविध": 7759,
      "आँक": 7760,
      "ड्राइव": 7761,
      "गढ़वाल": 7762,
      "बेगूसराय": 7763,
      "तस्करी": 7764,
      "''": 7765,
      "आरा": 7766,
      "इका": 7767,
      "खैर": 7768,
      "जिक्र": 7769,
      "पाना": 7770,
      "पंद्र": 7771,
      "रतन": 7772,
      "श्रा": 7773,
      "सभाग": 7774,
      "५८": 7775,
      "##टू": 7776,
      "##बुल": 7777,
      "##गिर": 7778,
      "करण": 7779,
      "##म्मा": 7780,
      "साधन": 7781,
      "राजू": 7782,
      "##िलाई": 7783,
      "पहना": 7784,
      "##विश्वास": 7785,
      "राध": 7786,
      "आपसी": 7787,
      "माफिया": 7788,
      "उपचुनाव": 7789,
      "फ़िल": 7790,
      "बढ़ता": 7791,
      "##स्प्रेस": 7792,
      "बुजु": 7793,
      "प्राणी": 7794,
      "अग्न": 7795,
      "अलर्ट": 7796,
      "बैठा": 7797,
      "आरपी": 7798,
      "स्पे": 7799,
      "आरोपितों": 7800,
      "दलित": 7801,
      "बैंकिंग": 7802,
      "दूरदर्शन": 7803,
      "बरसा": 7804,
      "बाजारों": 7805,
      "एड्स": 7806,
      "समूहों": 7807,
      "दुकानें": 7808,
      "तलाक": 7809,
      "प्रस्तुति": 7810,
      "क्रमश": 7811,
      "प्राइम": 7812,
      "चढ़ा": 7813,
      "लापता": 7814,
      "बिगड़": 7815,
      "तृण": 7816,
      "कडियाँ": 7817,
      "एहसास": 7818,
      "बाज़ार": 7819,
      "सीआरपीएफ": 7820,
      "बुजुर्ग": 7821,
      "अमीर": 7822,
      "आभार": 7823,
      "इक": 7824,
      "कलेक्ट": 7825,
      "चलाई": 7826,
      "जमी": 7827,
      "डब्ल्यू": 7828,
      "तेंद": 7829,
      "नवन": 7830,
      "लोन": 7831,
      "शोर": 7832,
      "४१": 7833,
      "५६": 7834,
      "##रियल": 7835,
      "##दिया": 7836,
      "##णियों": 7837,
      "##विल": 7838,
      "##चिक": 7839,
      "##ॉर": 7840,
      "##ारस": 7841,
      "##ियाना": 7842,
      "स्क्": 7843,
      "एकड़": 7844,
      "##लाव": 7845,
      "जाया": 7846,
      "अपन": 7847,
      "##ंडों": 7848,
      "##द्दा": 7849,
      "##टीय": 7850,
      "बेरोज": 7851,
      "मोती": 7852,
      "जानें": 7853,
      "कैथ": 7854,
      "मैसेज": 7855,
      "नाभ": 7856,
      "स्टेशनों": 7857,
      "##प्प": 7858,
      "मनाने": 7859,
      "सर्वप्र": 7860,
      "१०वीं": 7861,
      "##वाहक": 7862,
      "मारकर": 7863,
      "सदस्यीय": 7864,
      "बर्ताव": 7865,
      "डिवाइ": 7866,
      "कश्मीरी": 7867,
      "चाँ": 7868,
      "चित्रकार": 7869,
      "रॉकेट": 7870,
      "लाइव": 7871,
      "नागरिकता": 7872,
      "शोभा": 7873,
      "##ध्यापक": 7874,
      "इन्हीं": 7875,
      "जायजा": 7876,
      "पंजीकृत": 7877,
      "श्रद्धालु": 7878,
      "द्रव्य": 7879,
      "निपट": 7880,
      "##भूति": 7881,
      "शर्मि": 7882,
      "हाइड्र": 7883,
      "जुलूस": 7884,
      "कोयला": 7885,
      "नक्सलियों": 7886,
      "ओबामा": 7887,
      "शुभकामनाएं": 7888,
      "स्पोर्ट्स": 7889,
      "सैंपल": 7890,
      "घायलों": 7891,
      "सुषमा": 7892,
      "आला": 7893,
      "ईसाई": 7894,
      "कंध": 7895,
      "क्रेड": 7896,
      "जटिल": 7897,
      "दीन": 7898,
      "पवार": 7899,
      "बलि": 7900,
      "बृज": 7901,
      "##पमेंट": 7902,
      "##षक": 7903,
      "##षी": 7904,
      "##शिक": 7905,
      "##भेद": 7906,
      "##ियान": 7907,
      "##न्धी": 7908,
      "##हाई": 7909,
      "स्कोर": 7910,
      "##कार्प": 7911,
      "सिं": 7912,
      "लोगो": 7913,
      "निर्यात": 7914,
      "उपयुक्त": 7915,
      "पाते": 7916,
      "बताए": 7917,
      "मोर": 7918,
      "मोड़": 7919,
      "पुलिसकर्मी": 7920,
      "बनता": 7921,
      "गुम": 7922,
      "कैम्प": 7923,
      "स्टू": 7924,
      "कॉफ़ी": 7925,
      "आजाद": 7926,
      "भागने": 7927,
      "व्याकरण": 7928,
      "समझने": 7929,
      "बर्दाश्त": 7930,
      "१९६३": 7931,
      "डाक्टर": 7932,
      "चरम": 7933,
      "इंतजाम": 7934,
      "पूर्वा": 7935,
      "गृहमंत्री": 7936,
      "शरीफ": 7937,
      "##ैरह": 7938,
      "पुस्तकालय": 7939,
      "दिलाया": 7940,
      "आलम": 7941,
      "अजमेर": 7942,
      "मंगोल": 7943,
      "मोटरसाइ": 7944,
      "जेटली": 7945,
      "लकड़ी": 7946,
      "महत्त्वपूर्ण": 7947,
      "छेड़छाड़": 7948,
      "गाजियाबाद": 7949,
      "प्रोटोकॉल": 7950,
      "ओड़िशा": 7951,
      "अद्भुत": 7952,
      "डिज़ाइन": 7953,
      "संसाधनों": 7954,
      "आधे": 7955,
      "एम्स": 7956,
      "तारा": 7957,
      "ताइ": 7958,
      "फाइन": 7959,
      "रूट": 7960,
      "शब्": 7961,
      "शशि": 7962,
      "##ुद्दीन": 7963,
      "##मोर": 7964,
      "##फाइनल": 7965,
      "##जित": 7966,
      "##हम": 7967,
      "##नामा": 7968,
      "सांप": 7969,
      "साक्षर": 7970,
      "##िनल": 7971,
      "##ुलर": 7972,
      "##द्वाज": 7973,
      "सुश": 7974,
      "##टीसी": 7975,
      "ज़मीन": 7976,
      "कार्यशाला": 7977,
      "भारतीयों": 7978,
      "बैनर": 7979,
      "##जेक्शन": 7980,
      "कामक": 7981,
      "तैनाती": 7982,
      "पत्रों": 7983,
      "टेबल": 7984,
      "##क़त": 7985,
      "मिड": 7986,
      "देवेंद्र": 7987,
      "कर्ज": 7988,
      "चावल": 7989,
      "##ंशिक": 7990,
      "निरस्त": 7991,
      "ब्रह्मा": 7992,
      "सेकेंड": 7993,
      "फैलाने": 7994,
      "प्रायः": 7995,
      "गरीबों": 7996,
      "गिलगित": 7997,
      "बुरे": 7998,
      "सिखाया": 7999,
      "फैक्ट्री": 8000,
      "गगनचुम्बी": 8001,
      "वाक़ई": 8002,
      "सभागार": 8003,
      "तृणमूल": 8004,
      "आवि": 8005,
      "एस्ट": 8006,
      "कमान": 8007,
      "खाल": 8008,
      "जश्न": 8009,
      "डाइ": 8010,
      "धवन": 8011,
      "नाल": 8012,
      "पुत": 8013,
      "##प्ट": 8014,
      "##र्तन": 8015,
      "##र्चित": 8016,
      "##्यार": 8017,
      "किट": 8018,
      "##सेवा": 8019,
      "##माही": 8020,
      "मेजर": 8021,
      "मेहरा": 8022,
      "##ार्ध": 8023,
      "कुर्सी": 8024,
      "सुधीर": 8025,
      "##फ़्र": 8026,
      "सीएच": 8027,
      "बेसिक": 8028,
      "टीमें": 8029,
      "जैक": 8030,
      "लाश": 8031,
      "कहो": 8032,
      "क्रांतिक": 8033,
      "चलचित्र": 8034,
      "##प्पी": 8035,
      "गिरने": 8036,
      "१८०": 8037,
      "##म्पिक": 8038,
      "एमपी": 8039,
      "धर्मशाला": 8040,
      "करोड़ों": 8041,
      "थोड़े": 8042,
      "##ंख्यिकी": 8043,
      "चुनौ": 8044,
      "आश्र": 8045,
      "निदेशालय": 8046,
      "पत्रकारिता": 8047,
      "नैनी": 8048,
      "इस्लामी": 8049,
      "चयनित": 8050,
      "पार्टियों": 8051,
      "विवेकान": 8052,
      "जूझ": 8053,
      "अश्वेत": 8054,
      "तत्वों": 8055,
      "उपभोक्ताओं": 8056,
      "अमृतसर": 8057,
      "श्रमिकों": 8058,
      "राजदूत": 8059,
      "सेवानिवृत्त": 8060,
      "कुमाऊँ": 8061,
      "महानिदेशक": 8062,
      "व्रत": 8063,
      "प्रतिद्वंद": 8064,
      "अधिग्रह": 8065,
      "उड़ीसा": 8066,
      "(;": 8067,
      "अभाव": 8068,
      "अटल": 8069,
      "आस्था": 8070,
      "खनिज": 8071,
      "टकरा": 8072,
      "धमा": 8073,
      "फायदे": 8074,
      "रिम": 8075,
      "##ोज़": 8076,
      "##प्रीत": 8077,
      "##वला": 8078,
      "##डनी": 8079,
      "##सिस": 8080,
      "##गुरु": 8081,
      "काठ": 8082,
      "स्का": 8083,
      "##िएटर": 8084,
      "##लांग": 8085,
      "##तिर": 8086,
      "##सीबी": 8087,
      "अपार्टमेंट": 8088,
      "##लीन": 8089,
      "##ंचित": 8090,
      "उपनि": 8091,
      "पीटर": 8092,
      "देशभर": 8093,
      "रुद्र": 8094,
      "रुचि": 8095,
      "आईडी": 8096,
      "##िकीय": 8097,
      "चौथी": 8098,
      "अमेरिक": 8099,
      "पिथ": 8100,
      "##ुकेशन": 8101,
      "असफल": 8102,
      "गैलेक्सी": 8103,
      "अग्रणी": 8104,
      "लिंक": 8105,
      "प्रेमिका": 8106,
      "शिफ्ट": 8107,
      "माइकल": 8108,
      "##ाजीपुर": 8109,
      "भावनाओं": 8110,
      "किताबें": 8111,
      "बुलंद": 8112,
      "ग्लोबल": 8113,
      "इण्डोनेशिया": 8114,
      "जानवरों": 8115,
      "प्रजाप": 8116,
      "डिवी": 8117,
      "भरपूर": 8118,
      "पराजित": 8119,
      "डेमोक": 8120,
      "##मिंटन": 8121,
      "अनी": 8122,
      "अतः": 8123,
      "चित": 8124,
      "छुप": 8125,
      "झटका": 8126,
      "दत्ता": 8127,
      "निया": 8128,
      "बरेली": 8129,
      "७६": 8130,
      "##तियां": 8131,
      "##पृ": 8132,
      "##व्या": 8133,
      "##ड्स": 8134,
      "##चेंज": 8135,
      "##जना": 8136,
      "##संचार": 8137,
      "##इए": 8138,
      "##तांत्रिक": 8139,
      "प्रय": 8140,
      "##ेश्वरी": 8141,
      "मुंह": 8142,
      "##सेल": 8143,
      "साधा": 8144,
      "सांख्यिकी": 8145,
      "अपलोड": 8146,
      "पहने": 8147,
      "##ल्हा": 8148,
      "##किट": 8149,
      "महम": 8150,
      "##क्राम": 8151,
      "सील": 8152,
      "सीआई": 8153,
      "अनुदान": 8154,
      "जानकार": 8155,
      "पीप": 8156,
      "बनती": 8157,
      "सूच": 8158,
      "तरल": 8159,
      "कमांड": 8160,
      "स्वदेश": 8161,
      "चौथा": 8162,
      "##ष्ठी": 8163,
      "खुफिया": 8164,
      "हेल्प": 8165,
      "मिसेज़": 8166,
      "तैयारियां": 8167,
      "रिज़": 8168,
      "१९६४": 8169,
      "१९५१": 8170,
      "खाता": 8171,
      "##ामाबाद": 8172,
      "आत्मनि": 8173,
      "##मिथ": 8174,
      "टाउन": 8175,
      "लंबित": 8176,
      "##चुअल": 8177,
      "नोडल": 8178,
      "कमलनाथ": 8179,
      "बीमारियों": 8180,
      "एक्स्प्रेस": 8181,
      "महत्वाकां": 8182,
      "दायित्व": 8183,
      "तिब्बती": 8184,
      "गुलाब": 8185,
      "सेमीफाइनल": 8186,
      "रिलायंस": 8187,
      "मुआव": 8188,
      "चैम्पियन": 8189,
      "अभिव्य": 8190,
      "क्षुद्रग्रह": 8191,
      "डीवीडी": 8192,
      "सर्वप्रथम": 8193,
      "अरो": 8194,
      "इर": 8195,
      "किले": 8196,
      "ख्या": 8197,
      "गैल": 8198,
      "गर्ग": 8199,
      "छवि": 8200,
      "जोग": 8201,
      "डु": 8202,
      "दाल": 8203,
      "दां": 8204,
      "नोक": 8205,
      "पश": 8206,
      "बित": 8207,
      "रत्न": 8208,
      "सिस": 8209,
      "ससुर": 8210,
      "##्तर": 8211,
      "##फ्यू": 8212,
      "##डेंट": 8213,
      "##ूंगी": 8214,
      "##जुट": 8215,
      "##एसी": 8216,
      "##ानक": 8217,
      "परिक्र": 8218,
      "मुर्": 8219,
      "एकजुट": 8220,
      "##राचार्य": 8221,
      "अपडेट": 8222,
      "लेगा": 8223,
      "##भाई": 8224,
      "महज": 8225,
      "महर्षि": 8226,
      "##च्चार": 8227,
      "बेव": 8228,
      "बेस्ट": 8229,
      "अनुप्र": 8230,
      "बताता": 8231,
      "सरकारों": 8232,
      "पुण्य": 8233,
      "##ोरिया": 8234,
      "स्वत": 8235,
      "दिखे": 8236,
      "टेक": 8237,
      "दरबार": 8238,
      "चलाते": 8239,
      "##त्तों": 8240,
      "##ट्टा": 8241,
      "शिकायतों": 8242,
      "एजुकेशन": 8243,
      "स्वीकृत": 8244,
      "श्रेय": 8245,
      "##ृष्टि": 8246,
      "मलेशिया": 8247,
      "##र्निंग": 8248,
      "शांतिपूर्ण": 8249,
      "आवागमन": 8250,
      "क्रमांक": 8251,
      "##ंतरिक": 8252,
      "उपकरणों": 8253,
      "दादा": 8254,
      "सिक्किम": 8255,
      "वाकई": 8256,
      "हैरान": 8257,
      "आपातकालीन": 8258,
      "नीतियों": 8259,
      "आख़िरकार": 8260,
      "अनुराग": 8261,
      "बैडमिंटन": 8262,
      "टेलिविज़न": 8263,
      "अक्तूबर": 8264,
      "क्रेडिट": 8265,
      "अंचल": 8266,
      "आंतरिक": 8267,
      "उजा": 8268,
      "एबी": 8269,
      "दयाल": 8270,
      "रमन": 8271,
      "##डिय": 8272,
      "##नामी": 8273,
      "औरत": 8274,
      "विंड": 8275,
      "एकाद": 8276,
      "##तिथि": 8277,
      "संतु": 8278,
      "निः": 8279,
      "निवासियों": 8280,
      "##िसन": 8281,
      "कुशल": 8282,
      "कुश्ती": 8283,
      "सुने": 8284,
      "बहस": 8285,
      "जीवा": 8286,
      "मोन": 8287,
      "इंट": 8288,
      "कहता": 8289,
      "कहती": 8290,
      "महाद्वीप": 8291,
      "##स्पद": 8292,
      "ब्रिज": 8293,
      "गोस्वामी": 8294,
      "यूएस": 8295,
      "##कर्ष": 8296,
      "##बेस": 8297,
      "सुनना": 8298,
      "उपलब्धि": 8299,
      "##ोपण": 8300,
      "१९४५": 8301,
      "कोलंब": 8302,
      "एंड्र": 8303,
      "##पेयी": 8304,
      "दीपिका": 8305,
      "अध्याप": 8306,
      "व्ही": 8307,
      "गुलाम": 8308,
      "गुलशन": 8309,
      "राजनयिक": 8310,
      "ग्रीष्म": 8311,
      "मिथुन": 8312,
      "एग्जाम": 8313,
      "##मंत्रियों": 8314,
      "भूतपूर्व": 8315,
      "बघेल": 8316,
      "स्कीम": 8317,
      "बहिष्कार": 8318,
      "जाहिर": 8319,
      "उत्पीड़न": 8320,
      "##पृष्ठ": 8321,
      "परिक्रमा": 8322,
      "इव": 8323,
      "ईस": 8324,
      "गहरी": 8325,
      "नक्": 8326,
      "पिक": 8327,
      "वोल": 8328,
      "सप्त": 8329,
      "५२": 8330,
      "##कत्ता": 8331,
      "##वॉ": 8332,
      "##ईस": 8333,
      "##सले": 8334,
      "##३०": 8335,
      "##घात": 8336,
      "प्रथा": 8337,
      "##न्ने": 8338,
      "विफल": 8339,
      "##ंगार": 8340,
      "##तिष्क": 8341,
      "संधि": 8342,
      "##कारिणी": 8343,
      "##ज़ल": 8344,
      "##स्तरीय": 8345,
      "अधिसू": 8346,
      "##िल्ल": 8347,
      "राग": 8348,
      "##फ़र": 8349,
      "द्विव": 8350,
      "वेल्स": 8351,
      "##ोलो": 8352,
      "##ब्बे": 8353,
      "अभिले": 8354,
      "इनसे": 8355,
      "रखो": 8356,
      "कॉर्प": 8357,
      "मान्य": 8358,
      "एससी": 8359,
      "खुली": 8360,
      "समझना": 8361,
      "##ोषित": 8362,
      "उठाना": 8363,
      "##श्यप": 8364,
      "संघीय": 8365,
      "दूरसंचार": 8366,
      "जीवनी": 8367,
      "१९६६": 8368,
      "##ट्टर": 8369,
      "संभवत": 8370,
      "बलराम": 8371,
      "दुर्भाग्य": 8372,
      "तिमाही": 8373,
      "रजत": 8374,
      "टावर": 8375,
      "रोगियों": 8376,
      "किसने": 8377,
      "दृष्टिकोण": 8378,
      "नमू": 8379,
      "प्लेटफॉर्म": 8380,
      "आंकड़े": 8381,
      "तूफान": 8382,
      "अंदाज़ा": 8383,
      "नदियाँ": 8384,
      "अभ्यर्थी": 8385,
      "स्थानांतरित": 8386,
      "आंगनबाड़ी": 8387,
      "सेल्सियस": 8388,
      "बृहस्पतिवार": 8389,
      "अंटार्कटिका": 8390,
      "प्रांतीय": 8391,
      "पुरातत्व": 8392,
      "वेस्टइंडीज": 8393,
      "असा": 8394,
      "अखा": 8395,
      "अन्दर": 8396,
      "कं": 8397,
      "कवर": 8398,
      "गिन": 8399,
      "ढाई": 8400,
      "दाह": 8401,
      "पारा": 8402,
      "बाला": 8403,
      "भाइयों": 8404,
      "वाम": 8405,
      "वरु": 8406,
      "सत्": 8407,
      "##ुली": 8408,
      "##ेता": 8409,
      "##ोरा": 8410,
      "##डियम": 8411,
      "##ूर्ण": 8412,
      "##जहा": 8413,
      "कोष": 8414,
      "काय": 8415,
      "होल": 8416,
      "##त्रिम": 8417,
      "##रीबी": 8418,
      "मुना": 8419,
      "संक्ष": 8420,
      "संकाय": 8421,
      "##केल": 8422,
      "##ादा": 8423,
      "मेक्स": 8424,
      "सिग्": 8425,
      "दोस्ती": 8426,
      "क्षमा": 8427,
      "ज़ाहिर": 8428,
      "##र्भर": 8429,
      "गुट": 8430,
      "##पाट": 8431,
      "नाट": 8432,
      "नाश्": 8433,
      "सहकारी": 8434,
      "स्टो": 8435,
      "चलकर": 8436,
      "मार्क्स": 8437,
      "आरती": 8438,
      "डेवल": 8439,
      "कलकत्ता": 8440,
      "प्रदर्शनकारियों": 8441,
      "कोशिका": 8442,
      "कर्नल": 8443,
      "प्यारे": 8444,
      "प्रभार": 8445,
      "१६वीं": 8446,
      "##ाज़ी": 8447,
      "निकालना": 8448,
      "बलू": 8449,
      "सोचते": 8450,
      "अंकित": 8451,
      "##बोर्ड": 8452,
      "##राइल": 8453,
      "उत्पत्ति": 8454,
      "##होत्रा": 8455,
      "टेलीविज़न": 8456,
      "नीलामी": 8457,
      "कस्बा": 8458,
      "श्वेत": 8459,
      "कनेक्शन": 8460,
      "निर्दलीय": 8461,
      "मुसलमानों": 8462,
      "आविष्कार": 8463,
      "ऑर्डर": 8464,
      "कुरु": 8465,
      "गद्य": 8466,
      "गंदगी": 8467,
      "टूर": 8468,
      "टोल": 8469,
      "धारण": 8470,
      "पाय": 8471,
      "फू": 8472,
      "वय": 8473,
      "##ुरी": 8474,
      "##दृ": 8475,
      "##्ग": 8476,
      "##नमेंट": 8477,
      "##ूण": 8478,
      "##सलों": 8479,
      "##१८": 8480,
      "##एप": 8481,
      "सेहत": 8482,
      "##स्सी": 8483,
      "जातियाँ": 8484,
      "##गाँव": 8485,
      "निधि": 8486,
      "##ांडे": 8487,
      "हमलों": 8488,
      "##ुल्ला": 8489,
      "##ाइज़": 8490,
      "दोहरा": 8491,
      "बेबी": 8492,
      "अंसारी": 8493,
      "##डीपी": 8494,
      "पासपोर्ट": 8495,
      "कॉपी": 8496,
      "महावीर": 8497,
      "वैसा": 8498,
      "पैसों": 8499,
      "बैठने": 8500,
      "रेस्ट": 8501,
      "कृत्रिम": 8502,
      "चीजों": 8503,
      "सफेद": 8504,
      "दर्जनों": 8505,
      "##ीकृत": 8506,
      "हाथी": 8507,
      "नाराज़": 8508,
      "निकलना": 8509,
      "पेशकश": 8510,
      "कमीशन": 8511,
      "श्रद्धा": 8512,
      "छात्रावास": 8513,
      "सैनिट": 8514,
      "टाइप": 8515,
      "जायसवाल": 8516,
      "डोनाल्ड": 8517,
      "कांस्टेबल": 8518,
      "जंगली": 8519,
      "पॉलिसी": 8520,
      "मस्तिष्क": 8521,
      "नकली": 8522,
      "चार्ल्स": 8523,
      "मूर्ख": 8524,
      "अकबर": 8525,
      "नदियों": 8526,
      "छुपा": 8527,
      "पठार": 8528,
      "बिंदु": 8529,
      "चिंतित": 8530,
      "ख़रीद": 8531,
      "मल्होत्रा": 8532,
      "कर्तव्य": 8533,
      "यमुना": 8534,
      "स्टूडियो": 8535,
      "डेमोक्रेट": 8536,
      "संक्षिप्त": 8537,
      "कण": 8538,
      "छोर": 8539,
      "जयर": 8540,
      "थिएटर": 8541,
      "दादी": 8542,
      "नकारात्मक": 8543,
      "वेश": 8544,
      "शिया": 8545,
      "शोक": 8546,
      "सैं": 8547,
      "सरा": 8548,
      "##ोला": 8549,
      "##परी": 8550,
      "##्ठी": 8551,
      "##ौदा": 8552,
      "##फार्म": 8553,
      "केयर": 8554,
      "कालोनी": 8555,
      "##ामे": 8556,
      "##केन": 8557,
      "##क्षकों": 8558,
      "##करार": 8559,
      "निशा": 8560,
      "##न्दगी": 8561,
      "##ज़ाम": 8562,
      "##विड़": 8563,
      "राघ": 8564,
      "बास्": 8565,
      "सूट": 8566,
      "##धारणा": 8567,
      "वैद्य": 8568,
      "सुरेंद्र": 8569,
      "स्वर्ग": 8570,
      "मीणा": 8571,
      "रेफर": 8572,
      "बोध": 8573,
      "दिखता": 8574,
      "##कर्मा": 8575,
      "डीडी": 8576,
      "स्पर्धा": 8577,
      "डेन": 8578,
      "डेब": 8579,
      "##क़े": 8580,
      "##ियमित": 8581,
      "##बेडकर": 8582,
      "एमडी": 8583,
      "बरत": 8584,
      "धनबाद": 8585,
      "लालू": 8586,
      "लोकार्प": 8587,
      "लॉस": 8588,
      "खासकर": 8589,
      "सतह": 8590,
      "नागाल": 8591,
      "किशोरी": 8592,
      "डिपार्टमेंट": 8593,
      "##फोर्निया": 8594,
      "विद्वानों": 8595,
      "कहानियों": 8596,
      "किराए": 8597,
      "हेमंत": 8598,
      "रिचर्ड": 8599,
      "पौधों": 8600,
      "उद्धव": 8601,
      "सावधानी": 8602,
      "केदारनाथ": 8603,
      "नितिन": 8604,
      "फ्रांसीसी": 8605,
      "मणिपुर": 8606,
      "सप्लाई": 8607,
      "अण्डमान": 8608,
      "नर्मदा": 8609,
      "मोटरसाइकिल": 8610,
      "आत्मनिर्भर": 8611,
      "--": 8612,
      "उभर": 8613,
      "कड़ा": 8614,
      "कर्ण": 8615,
      "कश्यप": 8616,
      "खज": 8617,
      "जर्": 8618,
      "डाली": 8619,
      "पेशा": 8620,
      "बाली": 8621,
      "लुक": 8622,
      "वग": 8623,
      "वंचित": 8624,
      "८४": 8625,
      "##टर्स": 8626,
      "##और": 8627,
      "##िकेश": 8628,
      "काबू": 8629,
      "##नायक": 8630,
      "करवाना": 8631,
      "औरंगाबाद": 8632,
      "स्लै": 8633,
      "##ंगाई": 8634,
      "जाऊँगी": 8635,
      "लेफ्ट": 8636,
      "भारद्वाज": 8637,
      "##्रेन": 8638,
      "##ंडन": 8639,
      "##जीरिया": 8640,
      "देखेंगे": 8641,
      "पाटिल": 8642,
      "सबका": 8643,
      "नामों": 8644,
      "नामित": 8645,
      "##ष्मा": 8646,
      "मौर्य": 8647,
      "बैच": 8648,
      "कमरा": 8649,
      "कमज़": 8650,
      "निकोब": 8651,
      "महादेव": 8652,
      "अवधारणा": 8653,
      "श्रीकृष्ण": 8654,
      "स्कैन": 8655,
      "स्कूली": 8656,
      "यूजर्स": 8657,
      "नीरज": 8658,
      "गिरजा": 8659,
      "जहाज": 8660,
      "##कालिक": 8661,
      "पेन": 8662,
      "ट्रेड": 8663,
      "##लिटी": 8664,
      "क़ान": 8665,
      "लौटा": 8666,
      "तत्वा": 8667,
      "शिष्य": 8668,
      "##्वाइंट": 8669,
      "एक्टिव": 8670,
      "तारीफ": 8671,
      "दरवाजे": 8672,
      "##फोर्ड": 8673,
      "##जुए": 8674,
      "प्रतिष्ठा": 8675,
      "##ख्ती": 8676,
      "पृष्ठभूमि": 8677,
      "खेतों": 8678,
      "बगैर": 8679,
      "आंखों": 8680,
      "##लीकॉप्टर": 8681,
      "अगुवाई": 8682,
      "गेहूं": 8683,
      "कम्युनिस्ट": 8684,
      "ग्रोवर": 8685,
      "साक्षरता": 8686,
      "आड": 8687,
      "एण्ड": 8688,
      "कंस": 8689,
      "कंटे": 8690,
      "कबीर": 8691,
      "झांसी": 8692,
      "पान": 8693,
      "पंप": 8694,
      "बार्": 8695,
      "बॉल": 8696,
      "मॉन": 8697,
      "रथ": 8698,
      "रैं": 8699,
      "रनों": 8700,
      "लिट": 8701,
      "हौ": 8702,
      "##िशन": 8703,
      "##ोश": 8704,
      "##णन": 8705,
      "##डियन": 8706,
      "##शियन": 8707,
      "##ूदी": 8708,
      "##थन": 8709,
      "##८०": 8710,
      "##नेश्वर": 8711,
      "कोषा": 8712,
      "प्रब": 8713,
      "##वाड़े": 8714,
      "स्क्र": 8715,
      "स्तन": 8716,
      "मुक्के": 8717,
      "राजनाथ": 8718,
      "कार्ल": 8719,
      "##िवल": 8720,
      "रहेंगी": 8721,
      "पहच": 8722,
      "अनूप": 8723,
      "देखती": 8724,
      "वर्गी": 8725,
      "कार्यकारिणी": 8726,
      "नामी": 8727,
      "आयी": 8728,
      "##ोरेंस": 8729,
      "सहमत": 8730,
      "##ण्डा": 8731,
      "स्वाय": 8732,
      "अवशेष": 8733,
      "रेस्त": 8734,
      "हेनरी": 8735,
      "१८२": 8736,
      "##ॉलो": 8737,
      "मारना": 8738,
      "खेलना": 8739,
      "रोकना": 8740,
      "१९५८": 8741,
      "##ग्ध": 8742,
      "दुकानदारों": 8743,
      "क़रीब": 8744,
      "लौटे": 8745,
      "तत्त्व": 8746,
      "लाइब्रे": 8747,
      "चालान": 8748,
      "जितेंद्र": 8749,
      "जाओगे": 8750,
      "टैक्सी": 8751,
      "रोजाना": 8752,
      "जॉनी": 8753,
      "लड़कियाँ": 8754,
      "वीरेंद्र": 8755,
      "प्रभात": 8756,
      "सशस्त्र": 8757,
      "कमाई": 8758,
      "कमबख़्त": 8759,
      "तेलुगू": 8760,
      "क्षतिग्रस्त": 8761,
      "एंट्री": 8762,
      "मुक़ाब": 8763,
      "एजेंसियों": 8764,
      "क्रांतिकारी": 8765,
      "नैनीताल": 8766,
      "महमूद": 8767,
      "आवेद": 8768,
      "इजरा": 8769,
      "एफ़": 8770,
      "ग्यार": 8771,
      "छप": 8772,
      "छीन": 8773,
      "जबरदस्त": 8774,
      "दंड": 8775,
      "नवी": 8776,
      "पाये": 8777,
      "फर्क": 8778,
      "रं": 8779,
      "##लक": 8780,
      "##टाम": 8781,
      "##इल": 8782,
      "##्यौ": 8783,
      "कांड": 8784,
      "सेठ": 8785,
      "सेमे": 8786,
      "##स्का": 8787,
      "करूँ": 8788,
      "स्त्री": 8789,
      "##ुरत": 8790,
      "संसार": 8791,
      "##गाव": 8792,
      "साय": 8793,
      "राक्ष": 8794,
      "राखी": 8795,
      "जोड़े": 8796,
      "माओ": 8797,
      "##मान्य": 8798,
      "बीए": 8799,
      "विश्वकर्मा": 8800,
      "स्वामित": 8801,
      "पैरों": 8802,
      "पैनल": 8803,
      "एसएस": 8804,
      "नियोजन": 8805,
      "मतगणना": 8806,
      "डीआर": 8807,
      "कपिल": 8808,
      "कलश": 8809,
      "पड़ोस": 8810,
      "परीक्षाएं": 8811,
      "(),": 8812,
      "##रिटी": 8813,
      "##त्तियों": 8814,
      "डिस्प": 8815,
      "##ट्टे": 8816,
      "१९४९": 8817,
      "बढ़ाकर": 8818,
      "संरक्षक": 8819,
      "मज़बूत": 8820,
      "उतनी": 8821,
      "##राइड": 8822,
      "प्रिंट": 8823,
      "बेल्ट": 8824,
      "गाइडलाइन": 8825,
      "कचरा": 8826,
      "डूब": 8827,
      "बेशक": 8828,
      "प्रिंसिपल": 8829,
      "अभयारण्य": 8830,
      "देहात": 8831,
      "विमर्श": 8832,
      "अश्लील": 8833,
      "अधिग्रहण": 8834,
      "पिथौरा": 8835,
      "द्विवेदी": 8836,
      "वरुण": 8837,
      "आधी": 8838,
      "दार": 8839,
      "पेज": 8840,
      "बंगल": 8841,
      "मत्स": 8842,
      "वृह": 8843,
      "शाक": 8844,
      "सराय": 8845,
      "९९": 8846,
      "##िर्": 8847,
      "##ाग": 8848,
      "##ौड़": 8849,
      "##अंद": 8850,
      "##्राह": 8851,
      "कांव": 8852,
      "नेहा": 8853,
      "##ियोन": 8854,
      "##ामान": 8855,
      "##क्षीय": 8856,
      "सिग": 8857,
      "##स्टार": 8858,
      "##तरों": 8859,
      "महंगाई": 8860,
      "अनुच्छेद": 8861,
      "##वेस्ट": 8862,
      "कैमर": 8863,
      "विक्रे": 8864,
      "महाप्र": 8865,
      "ब्रज": 8866,
      "##सरण": 8867,
      "विधा": 8868,
      "जिनसे": 8869,
      "मूलभूत": 8870,
      "अंग्रेजों": 8871,
      "केन्द्रों": 8872,
      "तस्वीरों": 8873,
      "##िक्सल": 8874,
      "खबरों": 8875,
      "गौरी": 8876,
      "रोगों": 8877,
      "तुलसी": 8878,
      "##वैधानिक": 8879,
      "प्रतीक्षा": 8880,
      "##न्वयन": 8881,
      "अन्तरराष्ट्रीय": 8882,
      "खुलने": 8883,
      "पार्टनर": 8884,
      "संयंत्र": 8885,
      "सफ़र": 8886,
      "अनुपम": 8887,
      "कृतियाँ": 8888,
      "किराया": 8889,
      "अर्थात्": 8890,
      "ग्राउंड": 8891,
      "अत्याचार": 8892,
      "अनुशासन": 8893,
      "ट्रॉफी": 8894,
      "कंगना": 8895,
      "सीएचसी": 8896,
      "बलूचिस्तान": 8897,
      "लोकार्पण": 8898,
      "गज": 8899,
      "तबाद": 8900,
      "दफ़्": 8901,
      "नस्ल": 8902,
      "नासा": 8903,
      "बन्द": 8904,
      "लांच": 8905,
      "शत": 8906,
      "सख्ती": 8907,
      "हवाला": 8908,
      "६६": 8909,
      "##ड्यूल": 8910,
      "##ैम": 8911,
      "##सिया": 8912,
      "##बरी": 8913,
      "काश": 8914,
      "काटने": 8915,
      "करोगी": 8916,
      "##वाकर": 8917,
      "##्वत": 8918,
      "##केज": 8919,
      "##राई": 8920,
      "रहमान": 8921,
      "मेज": 8922,
      "उपज": 8923,
      "सीए": 8924,
      "##र्वेदी": 8925,
      "फ़ा": 8926,
      "##िंग्स": 8927,
      "मुख्यमंत्रियों": 8928,
      "लाए": 8929,
      "मैडम": 8930,
      "बैल": 8931,
      "नाकाम": 8932,
      "देशभ": 8933,
      "हरकत": 8934,
      "उत्तरप्रदेश": 8935,
      "गोला": 8936,
      "वास्तु": 8937,
      "##क़ी": 8938,
      "सौदा": 8939,
      "यूनानी": 8940,
      "बनेगी": 8941,
      "सर्जन": 8942,
      "निकालकर": 8943,
      "चांद": 8944,
      "चांदी": 8945,
      "वृत्त": 8946,
      "विजेताओं": 8947,
      "खोले": 8948,
      "पर्यटक": 8949,
      "प्लेस": 8950,
      "सवालों": 8951,
      "इस्लामाबाद": 8952,
      "##ान्तर": 8953,
      "निवेशकों": 8954,
      "किरन": 8955,
      "पंजीयन": 8956,
      "अभियुक्त": 8957,
      "किंगडम": 8958,
      "गार्डन": 8959,
      "कॉमर्स": 8960,
      "##गेटिव": 8961,
      "उद्यमी": 8962,
      "तिलक": 8963,
      "चोरों": 8964,
      "सिलसिले": 8965,
      "प्रमोद": 8966,
      "फिल्मी": 8967,
      "रिश्वत": 8968,
      "शिलान": 8969,
      "शंकराचार्य": 8970,
      "जदयू": 8971,
      "गुरुद्वारा": 8972,
      "##चिकित": 8973,
      "नाभिकीय": 8974,
      "चाँद": 8975,
      "शब्दा": 8976,
      "कामकाज": 8977,
      "प्रजापति": 8978,
      "##क्रामक": 8979,
      "उजागर": 8980,
      "अम्ब": 8981,
      "इन्द": 8982,
      "इताल": 8983,
      "गले": 8984,
      "घबरा": 8985,
      "चंप": 8986,
      "दशा": 8987,
      "पंत": 8988,
      "भती": 8989,
      "भयान": 8990,
      "शाल": 8991,
      "शॉप": 8992,
      "सई": 8993,
      "०१": 8994,
      "६००": 8995,
      "७४": 8996,
      "८००": 8997,
      "##धड़ी": 8998,
      "##कॉम": 8999,
      "##९०": 9000,
      "##शुल्क": 9001,
      "##ैत": 9002,
      "##१४": 9003,
      "##र्नर": 9004,
      "##नेश": 9005,
      "प्रामा": 9006,
      "##त्रिकी": 9007,
      "मुगल": 9008,
      "मुंडा": 9009,
      "मेक": 9010,
      "अनियमित": 9011,
      "सुक": 9012,
      "सुर्": 9013,
      "##गेड": 9014,
      "चाहिये": 9015,
      "पाता": 9016,
      "फ़े": 9017,
      "अंकों": 9018,
      "##हरि": 9019,
      "##्लू": 9020,
      "बनते": 9021,
      "नाक": 9022,
      "परिस्थिति": 9023,
      "महासभा": 9024,
      "जुटा": 9025,
      "ब्रांच": 9026,
      "श्रीमान": 9027,
      "मार्शल": 9028,
      "##णाधीन": 9029,
      "##ंटाइन": 9030,
      "रामनाथ": 9031,
      "डीपी": 9032,
      "लीटर": 9033,
      "गिरि": 9034,
      "मदर": 9035,
      "शर्त": 9036,
      "सैय": 9037,
      "जीतकर": 9038,
      "एक्सचेंज": 9039,
      "##बूती": 9040,
      "१९३८": 9041,
      "पर्यवे": 9042,
      "जितने": 9043,
      "१९२२": 9044,
      "टैग": 9045,
      "विलय": 9046,
      "##ट्सएप": 9047,
      "पीड़ितों": 9048,
      "लैस": 9049,
      "संभालने": 9050,
      "ओलम्पिक": 9051,
      "कैंपस": 9052,
      "रिटायर": 9053,
      "हेलिक": 9054,
      "क्वार्टर": 9055,
      "टुकड़े": 9056,
      "सियासी": 9057,
      "मौलाना": 9058,
      "मायावती": 9059,
      "ड्रग्स": 9060,
      "किलोग्राम": 9061,
      "शिवाजी": 9062,
      "बलात्कार": 9063,
      "##वायरस": 9064,
      "मार्टिन": 9065,
      "इकलौ": 9066,
      "फंसे": 9067,
      "##गिरि": 9068,
      "एकादशी": 9069,
      "बास्केट": 9070,
      "वगैरह": 9071,
      "रेस्तरा": 9072,
      "दफ़्तर": 9073,
      "शिलान्यास": 9074,
      "शब्दावली": 9075,
      "):": 9076,
      "आचार": 9077,
      "उच्चार": 9078,
      "एम्ब": 9079,
      "खाम": 9080,
      "गली": 9081,
      "घात": 9082,
      "घंटा": 9083,
      "चूं": 9084,
      "चाकू": 9085,
      "झां": 9086,
      "तां": 9087,
      "दुल्": 9088,
      "धरो": 9089,
      "पॉप": 9090,
      "बान": 9091,
      "भटक": 9092,
      "मध": 9093,
      "मर्द": 9094,
      "यॉर्क": 9095,
      "रकम": 9096,
      "लह": 9097,
      "शतक": 9098,
      "सली": 9099,
      "##सनी": 9100,
      "##बैक": 9101,
      "##घन": 9102,
      "##याय": 9103,
      "##्यव": 9104,
      "प्रख्यात": 9105,
      "स्तो": 9106,
      "##ाजील": 9107,
      "निबंध": 9108,
      "समित": 9109,
      "##ुलकर": 9110,
      "##रेल": 9111,
      "सुमित": 9112,
      "उपहार": 9113,
      "सीपी": 9114,
      "फ़ोटो": 9115,
      "पीपी": 9116,
      "बैन": 9117,
      "क्रॉस": 9118,
      "मानो": 9119,
      "जुटी": 9120,
      "अवध": 9121,
      "ब्राजील": 9122,
      "श्रीकांत": 9123,
      "स्कॉट": 9124,
      "हेलीकॉप्टर": 9125,
      "पंचायती": 9126,
      "आगमन": 9127,
      "१९५९": 9128,
      "ब्लड": 9129,
      "मरीज़": 9130,
      "द्वीपों": 9131,
      "कमीने": 9132,
      "विलु": 9133,
      "रचनात्मक": 9134,
      "तलाशी": 9135,
      "निर्धारण": 9136,
      "छापा": 9137,
      "निष्पक्ष": 9138,
      "इमारतें": 9139,
      "पश्चात्": 9140,
      "किंग्स": 9141,
      "साधना": 9142,
      "गर्मियों": 9143,
      "चतुर्वेदी": 9144,
      "विनय": 9145,
      "भंडार": 9146,
      "धोखाधड़ी": 9147,
      "नतीजे": 9148,
      "भेदभाव": 9149,
      "अभिभावकों": 9150,
      "दीपावली": 9151,
      "साझेदारी": 9152,
      "मेक्सिको": 9153,
      "जयराम": 9154,
      "स्वायत्त": 9155,
      "सेमेस्टर": 9156,
      "भयानक": 9157,
      "प्रामाणिक": 9158,
      "धरोहर": 9159,
      "असिस्ट": 9160,
      "एलि": 9161,
      "खदान": 9162,
      "खेर": 9163,
      "छिपा": 9164,
      "जड़": 9165,
      "नाना": 9166,
      "फैंस": 9167,
      "यथ": 9168,
      "सना": 9169,
      "सैंड": 9170,
      "सप्ता": 9171,
      "६७": 9172,
      "##वनी": 9173,
      "##ूला": 9174,
      "##साइड": 9175,
      "##गें": 9176,
      "##थियों": 9177,
      "##ऩे": 9178,
      "##ानियों": 9179,
      "##र्घ": 9180,
      "कांस": 9181,
      "सेवन": 9182,
      "प्रच": 9183,
      "परेड": 9184,
      "##हांत": 9185,
      "##म्पा": 9186,
      "संज्ञान": 9187,
      "संदेह": 9188,
      "संवैधानिक": 9189,
      "##ाहट": 9190,
      "##क्षत्र": 9191,
      "तुझे": 9192,
      "निवार": 9193,
      "कार्या": 9194,
      "सिरे": 9195,
      "अनवर": 9196,
      "कुत्तों": 9197,
      "##िराज": 9198,
      "##मेंद्र": 9199,
      "सीकर": 9200,
      "फ़ाइल": 9201,
      "लाठी": 9202,
      "सूरी": 9203,
      "सम्प्रदाय": 9204,
      "ख़तरनाक": 9205,
      "स्वाद": 9206,
      "अवश्य": 9207,
      "##सरत": 9208,
      "लोकतांत्रिक": 9209,
      "आईआईटी": 9210,
      "स्कू": 9211,
      "फिरोज": 9212,
      "गिरोह": 9213,
      "##खास्त": 9214,
      "भागवत": 9215,
      "चेकिंग": 9216,
      "विभू": 9217,
      "##ेंसिंग": 9218,
      "कार्यालयों": 9219,
      "ड्रोन": 9220,
      "विमानों": 9221,
      "२५०": 9222,
      "बदलकर": 9223,
      "हॉलीवुड": 9224,
      "सोचने": 9225,
      "चालकों": 9226,
      "१९३९": 9227,
      "शोषण": 9228,
      "आत्मविश्वास": 9229,
      "शान्ति": 9230,
      "पॉली": 9231,
      "पाएगा": 9232,
      "अकेली": 9233,
      "गतिविधि": 9234,
      "ब्रिगेड": 9235,
      "अध्याय": 9236,
      "स्टीव": 9237,
      "मासूम": 9238,
      "दर्शनीय": 9239,
      "घूमने": 9240,
      "त्यागी": 9241,
      "दायरे": 9242,
      "ताजा": 9243,
      "भोजपुरी": 9244,
      "रियासत": 9245,
      "तेलुगु": 9246,
      "एकत्रित": 9247,
      "होशियार": 9248,
      "उपनिवेश": 9249,
      "ऋषिकेश": 9250,
      "औषधि": 9251,
      "##िफिकेशन": 9252,
      "निचले": 9253,
      "प्रधानाचार्य": 9254,
      "निभाने": 9255,
      "रेगिस्तान": 9256,
      "चुम्बकीय": 9257,
      "स्वामित्व": 9258,
      "इतालवी": 9259,
      "चूंकि": 9260,
      "अतीत": 9261,
      "आकलन": 9262,
      "उदार": 9263,
      "चित्त": 9264,
      "छत": 9265,
      "डिनर": 9266,
      "थर्म": 9267,
      "नारी": 9268,
      "नक़": 9269,
      "पढ": 9270,
      "फि": 9271,
      "मय": 9272,
      "मठ": 9273,
      "शिला": 9274,
      "सदा": 9275,
      "७८": 9276,
      "##मिली": 9277,
      "##किया": 9278,
      "##ंझ": 9279,
      "##ंशी": 9280,
      "##डान": 9281,
      "##शायर": 9282,
      "##थान": 9283,
      "##ानिक": 9284,
      "##ानन्द": 9285,
      "करु": 9286,
      "##ड़का": 9287,
      "##लेक्": 9288,
      "##काव्य": 9289,
      "निंदा": 9290,
      "##मास": 9291,
      "##फ़ान": 9292,
      "##फ़ोर्": 9293,
      "वर्चुअल": 9294,
      "बीवी": 9295,
      "बनारस": 9296,
      "गुफा": 9297,
      "गुवाहा": 9298,
      "पारि": 9299,
      "लाकर": 9300,
      "नाते": 9301,
      "परिभाषित": 9302,
      "भूख": 9303,
      "वैकल्प": 9304,
      "##ेशनल": 9305,
      "पैट": 9306,
      "##स्कूल": 9307,
      "प्रतिक": 9308,
      "मीरा": 9309,
      "रेस": 9310,
      "दिखती": 9311,
      "मनरेगा": 9312,
      "आदिवासियों": 9313,
      "रिपब्लिक": 9314,
      "१२५": 9315,
      "कुलदीप": 9316,
      "चिद": 9317,
      "अफ्रीकी": 9318,
      "शब्दार्थ": 9319,
      "##डरेशन": 9320,
      "चाचा": 9321,
      "भेजना": 9322,
      "अफ़्": 9323,
      "उद्योगों": 9324,
      "हमलावर": 9325,
      "उतरे": 9326,
      "महासंघ": 9327,
      "सीबीएसई": 9328,
      "आज़ाद": 9329,
      "सफ़ेद": 9330,
      "गड़बड़ी": 9331,
      "स्वयंसेवक": 9332,
      "पाण्डेय": 9333,
      "पिटाई": 9334,
      "पाइप": 9335,
      "ख़ूबसूरत": 9336,
      "टेक्नोलॉजी": 9337,
      "कॉमेडी": 9338,
      "अभिव्यक्ति": 9339,
      "अधिसूचना": 9340,
      "डेमोक्रेटिक": 9341,
      "पिथौरागढ़": 9342,
      "स्तोत्र": 9343,
      "गुवाहाटी": 9344,
      "अक्षर": 9345,
      "ई०": 9346,
      "उर्व": 9347,
      "ऊँचा": 9348,
      "क्ले": 9349,
      "चिल्ला": 9350,
      "जख": 9351,
      "ज्य": 9352,
      "तंग": 9353,
      "त्वर": 9354,
      "नाह": 9355,
      "फट": 9356,
      "फंस": 9357,
      "बंस": 9358,
      "ब्याज": 9359,
      "भट": 9360,
      "मों": 9361,
      "मिया": 9362,
      "मकस": 9363,
      "राइट": 9364,
      "हद": 9365,
      "हार्ड": 9366,
      "५७": 9367,
      "##ँसी": 9368,
      "##ैक्स": 9369,
      "##ॉफ": 9370,
      "##्रू": 9371,
      "##र्मी": 9372,
      "##र्चे": 9373,
      "कीर्ति": 9374,
      "##नास": 9375,
      "##नाग": 9376,
      "परिश": 9377,
      "##िएंट": 9378,
      "##रीन": 9379,
      "संल": 9380,
      "देसाई": 9381,
      "समग्र": 9382,
      "सुमन": 9383,
      "महंत": 9384,
      "##रोल": 9385,
      "बाधित": 9386,
      "सीम": 9387,
      "सीतार": 9388,
      "पाती": 9389,
      "फ़्ला": 9390,
      "बेर": 9391,
      "जीने": 9392,
      "पीसी": 9393,
      "टीके": 9394,
      "कैसी": 9395,
      "कामना": 9396,
      "क्रा": 9397,
      "विश्वनाथ": 9398,
      "मतभेद": 9399,
      "##भाविक": 9400,
      "छात्रवृत्ति": 9401,
      "डीएनए": 9402,
      "आरक्षित": 9403,
      "उठाई": 9404,
      "१२०": 9405,
      "सौंद": 9406,
      "अर्थशास्त्री": 9407,
      "##दिष्ट": 9408,
      "##ाज़त": 9409,
      "इंडियाना": 9410,
      "भुव": 9411,
      "सोचता": 9412,
      "निर्णायक": 9413,
      "सामान्यतः": 9414,
      "##गोलीय": 9415,
      "निरूप": 9416,
      "सुधारने": 9417,
      "साबुन": 9418,
      "पलट": 9419,
      "छुटकारा": 9420,
      "प्रीति": 9421,
      "प्लेटफार्म": 9422,
      "मुकदमे": 9423,
      "जोरदार": 9424,
      "नॉर्थ": 9425,
      "हार्दिक": 9426,
      "ध्रुव": 9427,
      "शारदा": 9428,
      "नजदीक": 9429,
      "ऊँचाई": 9430,
      "अनिश्चित": 9431,
      "लाइब्रेरी": 9432,
      "सप्ताहांत": 9433,
      "वैकल्पिक": 9434,
      "आश्व": 9435,
      "कों": 9436,
      "किला": 9437,
      "घेर": 9438,
      "चर्चित": 9439,
      "झग": 9440,
      "डैन": 9441,
      "तन": 9442,
      "लूँगी": 9443,
      "शिका": 9444,
      "हसन": 9445,
      "##िडी": 9446,
      "##रम": 9447,
      "##दयाल": 9448,
      "##लभ": 9449,
      "##पुट": 9450,
      "##्ता": 9451,
      "##वश": 9452,
      "##हेल": 9453,
      "##याग": 9454,
      "सेव": 9455,
      "##स्ड": 9456,
      "##नागरी": 9457,
      "##न्म": 9458,
      "##न्धन": 9459,
      "परे": 9460,
      "स्नो": 9461,
      "##तीर्ण": 9462,
      "##राद": 9463,
      "##राशि": 9464,
      "साधु": 9465,
      "##लीला": 9466,
      "##कार्ड": 9467,
      "लेवल": 9468,
      "मेधा": 9469,
      "ज़े": 9470,
      "अनुसरण": 9471,
      "रूपये": 9472,
      "जैविक": 9473,
      "##ोरि": 9474,
      "##टाउन": 9475,
      "परिष": 9476,
      "मानता": 9477,
      "पैकेज": 9478,
      "प्रशंस": 9479,
      "रामनगर": 9480,
      "डील": 9481,
      "##दर्श": 9482,
      "नींद": 9483,
      "मांगने": 9484,
      "एनजी": 9485,
      "एनडीए": 9486,
      "जेन": 9487,
      "छोड़ो": 9488,
      "तेरी": 9489,
      "डिटे": 9490,
      "कराकर": 9491,
      "##फेयर": 9492,
      "##ल्लभ": 9493,
      "पार्श्व": 9494,
      "बचाया": 9495,
      "दिखाओ": 9496,
      "दिखाते": 9497,
      "१९३०": 9498,
      "रोडवेज": 9499,
      "क्वाल": 9500,
      "चरणों": 9501,
      "मंज़": 9502,
      "विवादित": 9503,
      "व्यवसायी": 9504,
      "मिश्रण": 9505,
      "पहनने": 9506,
      "जोड़ता": 9507,
      "अंबानी": 9508,
      "विविधता": 9509,
      "सभ्यता": 9510,
      "माइक्रोसॉफ्ट": 9511,
      "ठेकेदार": 9512,
      "लम्बाई": 9513,
      "सिग्नल": 9514,
      "अवर": 9515,
      "इक्": 9516,
      "उदा": 9517,
      "खात": 9518,
      "ग्ला": 9519,
      "टन": 9520,
      "धक्का": 9521,
      "नक्षत्र": 9522,
      "पिक्": 9523,
      "फेर": 9524,
      "फूड": 9525,
      "यद्य": 9526,
      "रसो": 9527,
      "लिव": 9528,
      "वां": 9529,
      "८५": 9530,
      "##ंजा": 9531,
      "##शहर": 9532,
      "##खन": 9533,
      "##खाना": 9534,
      "##बै": 9535,
      "##१३": 9536,
      "##याम": 9537,
      "कोने": 9538,
      "##ालियों": 9539,
      "औरतों": 9540,
      "##ड़ो": 9541,
      "##वाए": 9542,
      "##वादा": 9543,
      "स्मिथ": 9544,
      "संभाग": 9545,
      "निष": 9546,
      "##माव": 9547,
      "रहूँगा": 9548,
      "##रेखा": 9549,
      "उन्हे": 9550,
      "राउंड": 9551,
      "##किस्तान": 9552,
      "##रोवर": 9553,
      "दोनो": 9554,
      "##वीएम": 9555,
      "जीती": 9556,
      "बीडीओ": 9557,
      "सब्स": 9558,
      "नामकरण": 9559,
      "मोम": 9560,
      "सूबे": 9561,
[...]
