{
  "version": "1.0",
  "truncation": null,
  "padding": null,
  "added_tokens": [
    {
      "id": 0,
      "content": "<pad>",
      "single_word": false,
      "lstrip": false,
      "rstrip": false,
      "normalized": false,
      "special": true
    },
    {
      "id": 1,
      "content": "<unk>",
      "single_word": false,
      "lstrip": false,
      "rstrip": false,
      "normalized": false,
      "special": true
    },
    {
      "id": 2,
      "content": "<s>",
      "single_word": false,
      "lstrip": false,
      "rstrip": false,
      "normalized": false,
      "special": true
    },
    {
      "id": 3,
      "content": "</s>",
      "single_word": false,
      "lstrip": false,
      "rstrip": false,
      "normalized": false,
      "special": true
    },
    {
      "id": 4,
      "content": "<mask>",
      "single_word": false,
      "lstrip": false,
      "rstrip": false,
      "normalized": false,
      "special": true
    }
  ],
  "normalizer": {
    "type": "Sequence",
    "normalizers": [
      {
        "type": "NFC"
      }
    ]
  },
  "pre_tokenizer": {
    "type": "Whitespace"
  },
  "post_processor": null,
  "decoder": null,
  "model": {
    "type": "BPE",
    "dropout": null,
    "unk_token": "<unk>",
    "continuing_subword_prefix": null,
    "end_of_word_suffix": null,
    "fuse_unk": false,
    "byte_fallback": false,
    "ignore_merges": false,
    "vocab": {
      "<pad>": 0,
      "<unk>": 1,
      "<s>": 2,
      "</s>": 3,
      "<mask>": 4,
      "!": 5,
      "\"": 6,
      "'": 7,
      "(": 8,
      ")": 9,
      ",": 10,
      "-": 11,
      ":": 12,
      ";": 13,
      "?": 14,
      "²": 15,
      "ँ": 16,
      "ं": 17,
      "ः": 18,
      "अ": 19,
      "आ": 20,
      "इ": 21,
      "ई": 22,
      "उ": 23,
      "ऊ": 24,
      "ऋ": 25,
      "ऍ": 26,
      "ऎ": 27,
      "ए": 28,
      "ऐ": 29,
      "ऑ": 30,
      "ऒ": 31,
      "ओ": 32,
      "औ": 33,
      "क": 34,
      "ख": 35,
      "ग": 36,
      "घ": 37,
      "ङ": 38,
      "च": 39,
      "छ": 40,
      "ज": 41,
      "झ": 42,
      "ञ": 43,
      "ट": 44,
      "ठ": 45,
      "ड": 46,
      "ढ": 47,
      "ण": 48,
      "त": 49,
      "थ": 50,
      "द": 51,
      "ध": 52,
      "न": 53,
      "ऩ": 54,
      "प": 55,
      "फ": 56,
      "ब": 57,
      "भ": 58,
      "म": 59,
      "य": 60,
      "र": 61,
      "ऱ": 62,
      "ल": 63,
      "ळ": 64,
      "ऴ": 65,
      "व": 66,
      "श": 67,
      "ष": 68,
      "स": 69,
      "ह": 70,
      "ऻ": 71,
      "़": 72,
      "ऽ": 73,
      "ा": 74,
      "ि": 75,
      "ी": 76,
      "ु": 77,
      "ू": 78,
      "ृ": 79,
      "ॄ": 80,
      "ॅ": 81,
      "ॆ": 82,
      "े": 83,
      "ै": 84,
      "ॉ": 85,
      "ॊ": 86,
      "ो": 87,
      "ौ": 88,
      "्": 89,
      "ॐ": 90,
      "॑": 91,
      "॒": 92,
      "॓": 93,
      "ॠ": 94,
      "ॢ": 95,
      "।": 96,
      "॥": 97,
      "०": 98,
      "१": 99,
      "२": 100,
      "३": 101,
      "४": 102,
      "५": 103,
      "६": 104,
      "७": 105,
      "८": 106,
      "९": 107,
      "॰": 108,
      "ॲ": 109,
      "೧": 110,
      "₂": 111,
      "₃": 112,
      "₄": 113,
      "्र": 114,
      "ार": 115,
      "के": 116,
      "ें": 117,
      "या": 118,
      "है": 119,
      "ने": 120,
      "में": 121,
      "का": 122,
      "स्": 123,
      "र्": 124,
      "की": 125,
      "ों": 126,
      "से": 127,
      "ना": 128,
      "कर": 129,
      "ता": 130,
      "क्": 131,
      "कि": 132,
      "को": 133,
      "्य": 134,
      "प्र": 135,
      "रा": 136,
      "वा": 137,
      "ला": 138,
      "वि": 139,
      "मा": 140,
      "न्": 141,
      "पर": 142,
      "ही": 143,
      "लि": 144,
      "नि": 145,
      "ले": 146,
      "सा": 147,
      "हा": 148,
      "जा": 149,
      "और": 150,
      "कार": 151,
      "ड़": 152,
      "ति": 153,
      "दे": 154,
      "त्र": 155,
      "हो": 156,
      "क्ष": 157,
      "बा": 158,
      "सं": 159,
      "गा": 160,
      "नी": 161,
      "दि": 162,
      "हैं": 163,
      "था": 164,
      "ती": 165,
      "मु": 166,
      "ित": 167,
      "इस": 168,
      "भी": 169,
      "पा": 170,
      "री": 171,
      "म्": 172,
      "ली": 173,
      "हीं": 174,
      "ते": 175,
      "त्": 176,
      "मि": 177,
      "हु": 178,
      "सी": 179,
      "एक": 180,
      "ल्": 181,
      "नहीं": 182,
      "तु": 183,
      "ंग": 184,
      "द्": 185,
      "भा": 186,
      "पु": 187,
      "लिए": 188,
      "मे": 189,
      "ज़": 190,
      "सि": 191,
      "ैं": 192,
      "जि": 193,
      "दी": 194,
      "हि": 195,
      "चा": 196,
      "दा": 197,
      "शा": 198,
      "यों": 199,
      "वार": 200,
      "ोग": 201,
      "रि": 202,
      "किया": 203,
      "्ट": 204,
      "मी": 205,
      "रे": 206,
      "अप": 207,
      "जी": 208,
      "मार": 209,
      "मैं": 210,
      "राज": 211,
      "कु": 212,
      "रह": 213,
      "भार": 214,
      "स्ट": 215,
      "न्ह": 216,
      "देश": 217,
      "वे": 218,
      "फ़": 219,
      "िया": 220,
      "श्": 221,
      "िक": 222,
      "यह": 223,
      "सु": 224,
      "रो": 225,
      "पू": 226,
      "रू": 227,
      "मं": 228,
      "गी": 229,
      "क्र": 230,
      "्या": 231,
      "धा": 232,
      "शि": 233,
      "वी": 234,
      "टी": 235,
      "ंद": 236,
      "हार": 237,
      "तुम्": 238,
      "गया": 239,
      "्री": 240,
      "पी": 241,
      "अध": 242,
      "सर": 243,
      "तर": 244,
      "करने": 245,
      "खा": 246,
      "सम": 247,
      "उन्ह": 248,
      "१९": 249,
      "दर्": 250,
      "जन": 251,
      "मान": 252,
      "बी": 253,
      "स्थ": 254,
      "ंड": 255,
      "वर्": 256,
      "पुर": 257,
      "गे": 258,
      "२०": 259,
      "अन": 260,
      "उस": 261,
      "साथ": 262,
      "्रा": 263,
      "स्था": 264,
      "ष्ट": 265,
      "्रे": 266,
      "बाद": 267,
      "उन": 268,
      "शन": 269,
      "कहा": 270,
      "मुझ": 271,
      "बे": 272,
      "लोग": 273,
      "दो": 274,
      "प्": 275,
      "ये": 276,
      "च्": 277,
      "त्री": 278,
      "ढ़": 279,
      "मुख": 280,
      "बि": 281,
      "लो": 282,
      "यो": 283,
      "ओं": 284,
      "जो": 285,
      "पह": 286,
      "मुझे": 287,
      "तो": 288,
      "तक": 289,
      "चि": 290,
      "थी": 291,
      "ूँ": 292,
      "क्षे": 293,
      "आप": 294,
      "टे": 295,
      "परि": 296,
      "निर्": 297,
      "दिया": 298,
      "नों": 299,
      "क्षा": 300,
      "चार": 301,
      "टर": 302,
      "बार": 303,
      "शु": 304,
      "इन": 305,
      "फि": 306,
      "हर": 307,
      "सक": 308,
      "यु": 309,
      "ियों": 310,
      "रहे": 311,
      "गर": 312,
      "मिल": 313,
      "भारत": 314,
      "गु": 315,
      "थे": 316,
      "ोंने": 317,
      "रु": 318,
      "पूर्": 319,
      "चु": 320,
      "बर": 321,
      "मो": 322,
      "क्षेत्र": 323,
      "ंच": 324,
      "हम": 325,
      "प्रा": 326,
      "उत्": 327,
      "ंध": 328,
      "वह": 329,
      "ज्": 330,
      "डि": 331,
      "वं": 332,
      "तुम": 333,
      "अपने": 334,
      "ब्": 335,
      "कार्य": 336,
      "तीय": 337,
      "दू": 338,
      "लय": 339,
      "देख": 340,
      "ड़ा": 341,
      "डी": 342,
      "टा": 343,
      "तुम्हार": 344,
      "पार": 345,
      "दु": 346,
      "सू": 347,
      "निक": 348,
      "जे": 349,
      "कारी": 350,
      "हुए": 351,
      "उप": 352,
      "पि": 353,
      "प्रति": 354,
      "उन्होंने": 355,
      "मंत्री": 356,
      "स्त": 357,
      "द्वार": 358,
      "बना": 359,
      "हें": 360,
      "ड़ी": 361,
      "लग": 362,
      "व्य": 363,
      "ारी": 364,
      "यर": 365,
      "योग": 366,
      "सो": 367,
      "अनु": 368,
      "सब": 369,
      "जाए": 370,
      "राज्य": 371,
      "बता": 372,
      "रहा": 373,
      "सिं": 374,
      "द्वारा": 375,
      "छा": 376,
      "्यू": 377,
      "सन्": 378,
      "तुम्हें": 379,
      "हूँ": 380,
      "धान": 381,
      "जिस": 382,
      "गो": 383,
      "्ड": 384,
      "अं": 385,
      "ची": 386,
      "ज्ञ": 387,
      "राष्ट": 388,
      "लगा": 389,
      "कृ": 390,
      "द्र": 391,
      "स्ता": 392,
      "खि": 393,
      "एस": 394,
      "कर्": 395,
      "कुछ": 396,
      "पे": 397,
      "भारतीय": 398,
      "गई": 399,
      "भि": 400,
      "सिंह": 401,
      "क्त": 402,
      "वाले": 403,
      "हाँ": 404,
      "धि": 405,
      "रही": 406,
      "रूप": 407,
      "सरकार": 408,
      "प्रदेश": 409,
      "बहु": 410,
      "धार": 411,
      "पो": 412,
      "होने": 413,
      "मुख्य": 414,
      "दर्भ": 415,
      "किन": 416,
      "ष्": 417,
      "नाम": 418,
      "्रीय": 419,
      "श्व": 420,
      "डा": 421,
      "एवं": 422,
      "ल्म": 423,
      "जान": 424,
      "कड़": 425,
      "पुलि": 426,
      "इं": 427,
      "लों": 428,
      "लिया": 429,
      "अधि": 430,
      "सन्दर्भ": 431,
      "यू": 432,
      "टि": 433,
      "भाग": 434,
      "इसके": 435,
      "पहले": 436,
      "णा": 437,
      "हरी": 438,
      "आई": 439,
      "सार": 440,
      "हुआ": 441,
      "शी": 442,
      "कोई": 443,
      "होगा": 444,
      "कों": 445,
      "मौ": 446,
      "पुलिस": 447,
      "भू": 448,
      "करना": 449,
      "बो": 450,
      "मै": 451,
      "बु": 452,
      "बहुत": 453,
      "जै": 454,
      "कॉ": 455,
      "चाहि": 456,
      "लेकिन": 457,
      "कै": 458,
      "चाहिए": 459,
      "ग्र": 460,
      "वन": 461,
      "बंध": 462,
      "लोगों": 463,
      "ज्ञा": 464,
      "उन्हें": 465,
      "करते": 466,
      "र्ट": 467,
      "ेंगे": 468,
      "स्थित": 469,
      "जु": 470,
      "द्ध": 471,
      "चे": 472,
      "सम्": 473,
      "ियाँ": 474,
      "ख़": 475,
      "षा": 476,
      "अपनी": 477,
      "नो": 478,
      "क्स": 479,
      "हिन्": 480,
      "एम": 481,
      "दार": 482,
      "क्रम": 483,
      "सभा": 484,
      "जू": 485,
      "शे": 486,
      "पहु": 487,
      "वर": 488,
      "महा": 489,
      "सद": 490,
      "यन": 491,
      "हां": 492,
      "वै": 493,
      "बै": 494,
      "गि": 495,
      "दौ": 496,
      "काम": 497,
      "तथा": 498,
      "ध्य": 499,
      "जाता": 500,
      "बात": 501,
      "गए": 502,
      "पता": 503,
      "किसी": 504,
      "योज": 505,
      "पास": 506,
      "ड़े": 507,
      "जब": 508,
      "क्ति": 509,
      "मैंने": 510,
      "बाहरी": 511,
      "ंग्रे": 512,
      "सन": 513,
      "रख": 514,
      "मत": 515,
      "हित": 516,
      "हे": 517,
      "ंप": 518,
      "हुई": 519,
      "हमार": 520,
      "ट्र": 521,
      "बताया": 522,
      "क्यों": 523,
      "बढ़": 524,
      "पूर्व": 525,
      "सबसे": 526,
      "पर्": 527,
      "विश्व": 528,
      "खिला": 529,
      "करा": 530,
      "सभी": 531,
      "कू": 532,
      "्टी": 533,
      "अच्": 534,
      "मू": 535,
      "२०१": 536,
      "फ़ि": 537,
      "द्या": 538,
      "नगर": 539,
      "निया": 540,
      "स्व": 541,
      "लेकर": 542,
      "समय": 543,
      "चल": 544,
      "पाल": 545,
      "कुमार": 546,
      "रान": 547,
      "मार्": 548,
      "कड़ियाँ": 549,
      "००": 550,
      "जिला": 551,
      "द्य": 552,
      "चाह": 553,
      "फा": 554,
      "अब": 555,
      "त्य": 556,
      "खे": 557,
      "एं": 558,
      "भाषा": 559,
      "ल्ली": 560,
      "उनके": 561,
      "वाली": 562,
      "माम": 563,
      "राम": 564,
      "स्वा": 565,
      "मह": 566,
      "क्या": 567,
      "त्रा": 568,
      "राष्ट्रीय": 569,
      "न्न": 570,
      "स्थान": 571,
      "आर": 572,
      "हिन्दी": 573,
      "डे": 574,
      "अभि": 575,
      "त्व": 576,
      "जन्": 577,
      "पं": 578,
      "कम": 579,
      "छो": 580,
      "वर्ष": 581,
      "ंगा": 582,
      "र्थ": 583,
      "श्री": 584,
      "्यादा": 585,
      "ज़ि": 586,
      "तार": 587,
      "कई": 588,
      "पै": 589,
      "सर्": 590,
      "दिल्ली": 591,
      "प्त": 592,
      "ग्रा": 593,
      "होता": 594,
      "दिन": 595,
      "विद्या": 596,
      "तुम्हारे": 597,
      "न्हें": 598,
      "समा": 599,
      "ंद्र": 600,
      "बन": 601,
      "ठा": 602,
      "धन": 603,
      "महि": 604,
      "उसे": 605,
      "चुना": 606,
      "मेरे": 607,
      "अध्य": 608,
      "एँ": 609,
      "दान": 610,
      "लोक": 611,
      "यक": 612,
      "गत": 613,
      "रत": 614,
      "स्कार": 615,
      "ण्ड": 616,
      "उत्तर": 617,
      "२००": 618,
      "यम": 619,
      "अन्य": 620,
      "ंत": 621,
      "जाने": 622,
      "डॉ": 623,
      "जय": 624,
      "कह": 625,
      "फी": 626,
      "स्तान": 627,
      "महिला": 628,
      "नेता": 629,
      "करण": 630,
      "शुरू": 631,
      "दौरान": 632,
      "पत्र": 633,
      "वाई": 634,
      "च्च": 635,
      "न्यू": 636,
      "मन": 637,
      "खु": 638,
      "तरह": 639,
      "ौर": 640,
      "साम": 641,
      "्स": 642,
      "फ्": 643,
      "क्षण": 644,
      "न्या": 645,
      "जार": 646,
      "सुर": 647,
      "यहाँ": 648,
      "क्ट": 649,
      "ख्या": 650,
      "वो": 651,
      "वाद": 652,
      "तै": 653,
      "यत": 654,
      "कांग्रे": 655,
      "माण": 656,
      "सकता": 657,
      "चुनाव": 658,
      "इसे": 659,
      "क्योंकि": 660,
      "चौ": 661,
      "ंक": 662,
      "ंत्र": 663,
      "पार्टी": 664,
      "इन्हें": 665,
      "पति": 666,
      "उसके": 667,
      "ब्र": 668,
      "अधिक": 669,
      "विद्यालय": 670,
      "शो": 671,
      "पुरस्कार": 672,
      "युक्त": 673,
      "रिया": 674,
      "ार्": 675,
      "कंप": 676,
      "कांग्रेस": 677,
      "पूर्ण": 678,
      "दूस": 679,
      "फ़िल्म": 680,
      "लन": 681,
      "दर": 682,
      "हमें": 683,
      "बारे": 684,
      "चना": 685,
      "यार": 686,
      "फिल्म": 687,
      "दल": 688,
      "जाएगा": 689,
      "प्रे": 690,
      "योजना": 691,
      "विधा": 692,
      "टना": 693,
      "ग्": 694,
      "ंदी": 695,
      "हों": 696,
      "पहुंच": 697,
      "अध्यक्ष": 698,
      "कारण": 699,
      "व्यव": 700,
      "घर": 701,
      "एन": 702,
      "र्म": 703,
      "काल": 704,
      "विभाग": 705,
      "अव": 706,
      "जिले": 707,
      "शामिल": 708,
      "विधान": 709,
      "शहर": 710,
      "अमे": 711,
      "आज": 712,
      "श्र": 713,
      "स्टे": 714,
      "क्रि": 715,
      "प्रमुख": 716,
      "वाला": 717,
      "नीति": 718,
      "अपना": 719,
      "देखें": 720,
      "परी": 721,
      "होगी": 722,
      "भग": 723,
      "र्ड": 724,
      "जग": 725,
      "क्टर": 726,
      "हन": 727,
      "फिर": 728,
      "धी": 729,
      "करो": 730,
      "साल": 731,
      "टीम": 732,
      "फो": 733,
      "कान": 734,
      "विका": 735,
      "पद": 736,
      "णी": 737,
      "र्स": 738,
      "बीच": 739,
      "लू": 740,
      "ठी": 741,
      "तीन": 742,
      "त्या": 743,
      "ंव": 744,
      "घा": 745,
      "सै": 746,
      "करता": 747,
      "क़": 748,
      "अमेरि": 749,
      "शिक्षा": 750,
      "सकते": 751,
      "ंस": 752,
      "तह": 753,
      "उनकी": 754,
      "आदि": 755,
      "राष्ट्र": 756,
      "संबंध": 757,
      "पोर्ट": 758,
      "इसका": 759,
      "न्द्र": 760,
      "यी": 761,
      "व्या": 762,
      "वान": 763,
      "कला": 764,
      "कुल": 765,
      "प्रधान": 766,
      "दिर": 767,
      "बैठ": 768,
      "आरो": 769,
      "करी": 770,
      "१८": 771,
      "जानकारी": 772,
      "भाव": 773,
      "चित": 774,
      "भे": 775,
      "क्षि": 776,
      "दोनों": 777,
      "मुख्यमंत्री": 778,
      "ज्ञान": 779,
      "पाकि": 780,
      "स्थाप": 781,
      "टो": 782,
      "वास": 783,
      "तुम्हारी": 784,
      "निर्देश": 785,
      "वल": 786,
      "मद": 787,
      "जारी": 788,
      "हमारे": 789,
      "केट": 790,
      "नर": 791,
      "त्म": 792,
      "विकास": 793,
      "स्कू": 794,
      "लॉ": 795,
      "होती": 796,
      "कार्यक्रम": 797,
      "सदस्": 798,
      "यहां": 799,
      "ज़ा": 800,
      "जर": 801,
      "दर्शन": 802,
      "मेरी": 803,
      "बनी": 804,
      "प्रो": 805,
      "किए": 806,
      "केंद्र": 807,
      "कभी": 808,
      "ंगे": 809,
      "परिवार": 810,
      "बॉ": 811,
      "खिलाफ": 812,
      "शेष": 813,
      "इस्": 814,
      "गठ": 815,
      "फे": 816,
      "पश्": 817,
      "कृति": 818,
      "देने": 819,
      "ैंड": 820,
      "स्थि": 821,
      "बस": 822,
      "अच्छा": 823,
      "गढ़": 824,
      "सेवा": 825,
      "जन्म": 826,
      "फै": 827,
      "अस्": 828,
      "आपको": 829,
      "अधिकार": 830,
      "इसमें": 831,
      "संख्या": 832,
      "अभ": 833,
      "१०": 834,
      "नौ": 835,
      "सां": 836,
      "क्रिया": 837,
      "मामले": 838,
      "षण": 839,
      "अनुसार": 840,
      "खंड": 841,
      "दक्षि": 842,
      "वित": 843,
      "याद": 844,
      "रोना": 845,
      "लु": 846,
      "काश": 847,
      "भर": 848,
      "रुप": 849,
      "हिंदी": 850,
      "डल": 851,
      "तिहा": 852,
      "इंड": 853,
      "कल": 854,
      "भाज": 855,
      "हू": 856,
      "ध्या": 857,
      "मंदिर": 858,
      "इससे": 859,
      "जैसे": 860,
      "लं": 861,
      "गिर": 862,
      "वरी": 863,
      "सित": 864,
      "कोरोना": 865,
      "गांव": 866,
      "रात": 867,
      "सान": 868,
      "अम": 869,
      "इट": 870,
      "बल": 871,
      "माल": 872,
      "व्यक्ति": 873,
      "छे": 874,
      "ष्ठ": 875,
      "तरी": 876,
      "ेंट": 877,
      "साहित": 878,
      "जीवन": 879,
      "वाल": 880,
      "देव": 881,
      "ताओं": 882,
      "करें": 883,
      "गीत": 884,
      "अभी": 885,
      "मांग": 886,
      "विधानसभा": 887,
      "ंट": 888,
      "घटना": 889,
      "ओर": 890,
      "मिक": 891,
      "जल": 892,
      "जाना": 893,
      "यल": 894,
      "पत्": 895,
      "हरा": 896,
      "लगता": 897,
      "अगर": 898,
      "खो": 899,
      "सह": 900,
      "लाई": 901,
      "निर्माण": 902,
      "विशेष": 903,
      "लेख": 904,
      "नई": 905,
      "बंद": 906,
      "मध्य": 907,
      "झा": 908,
      "बेह": 909,
      "अधिकारी": 910,
      "करेंगे": 911,
      "भाजपा": 912,
      "रण": 913,
      "स्थिति": 914,
      "ज़्यादा": 915,
      "सेना": 916,
      "पाकिस्तान": 917,
      "शासन": 918,
      "जूद": 919,
      "मिले": 920,
      "विक": 921,
      "लै": 922,
      "लड़": 923,
      "प्राप्त": 924,
      "छात्र": 925,
      "प्ता": 926,
      "तरा": 927,
      "नाथ": 928,
      "इसकी": 929,
      "बिहार": 930,
      "अला": 931,
      "१९९": 932,
      "अग": 933,
      "सुरक्षा": 934,
      "न्त": 935,
      "दूर": 936,
      "फल": 937,
      "पूरी": 938,
      "कार्": 939,
      "आरोप": 940,
      "आत": 941,
      "इसी": 942,
      "म्मी": 943,
      "्व": 944,
      "राजनीति": 945,
      "दुनिया": 946,
      "दन": 947,
      "ेंद्र": 948,
      "जांच": 949,
      "यद": 950,
      "१५": 951,
      "आधार": 952,
      "नीय": 953,
      "ारा": 954,
      "पश्चि": 955,
      "हारा": 956,
      "जिसमें": 957,
      "टन": 958,
      "१९८": 959,
      "करे": 960,
      "जिन": 961,
      "वर्त": 962,
      "पड़": 963,
      "इला": 964,
      "स्वी": 965,
      "कर्म": 966,
      "घो": 967,
      "मेंट": 968,
      "वासी": 969,
      "स्कूल": 970,
      "साहित्य": 971,
      "अस्पता": 972,
      "ंबर": 973,
      "संघ": 974,
      "दिखा": 975,
      "गण": 976,
      "फर": 977,
      "मिला": 978,
      "मेरा": 979,
      "्यालय": 980,
      "विश्वविद्यालय": 981,
      "लाल": 982,
      "पुरा": 983,
      "स्वास्थ": 984,
      "होते": 985,
      "प्रधानमंत्री": 986,
      "जीत": 987,
      "रूरत": 988,
      "ज्यादा": 989,
      "शर्": 990,
      "तुमने": 991,
      "लेज": 992,
      "दक्षिण": 993,
      "सकती": 994,
      "स्वास्थ्य": 995,
      "ताब": 996,
      "पढ़": 997,
      "गाँ": 998,
      "उसकी": 999,
      "भिन्न": 1000,
      "पिता": 1001,
      "गै": 1002,
      "एल": 1003,
      "१२": 1004,
      "ऐसे": 1005,
      "प्रकाश": 1006,
      "चला": 1007,
      "वहीं": 1008,
      "गल": 1009,
      "बर्": 1010,
      "उम्मी": 1011,
      "परे": 1012,
      "सदस्य": 1013,
      "बड़ी": 1014,
      "तैयार": 1015,
      "उसने": 1016,
      "गं": 1017,
      "सला": 1018,
      "अंत": 1019,
      "अलग": 1020,
      "वश": 1021,
      "अलावा": 1022,
      "आने": 1023,
      "सौ": 1024,
      "दिए": 1025,
      "उम्मीद": 1026,
      "इल": 1027,
      "समी": 1028,
      "हाल": 1029,
      "ल्ड": 1030,
      "थि": 1031,
      "उनका": 1032,
      "पन": 1033,
      "जल्": 1034,
      "रेल": 1035,
      "छोड़": 1036,
      "विज्ञान": 1037,
      "शायद": 1038,
      "वीं": 1039,
      "पिछ": 1040,
      "बच्च": 1041,
      "करती": 1042,
      "परीक्षा": 1043,
      "सचि": 1044,
      "ंगल": 1045,
      "व्यवस्था": 1046,
      "बद": 1047,
      "जाती": 1048,
      "लाइन": 1049,
      "ल्प": 1050,
      "डिया": 1051,
      "स्थल": 1052,
      "बैठक": 1053,
      "संस्": 1054,
      "नियम": 1055,
      "मार्ग": 1056,
      "निय": 1057,
      "भूमि": 1058,
      "महारा": 1059,
      "वृ": 1060,
      "तना": 1061,
      "इतिहा": 1062,
      "तुम्हारा": 1063,
      "बनाने": 1064,
      "सके": 1065,
      "इतिहास": 1066,
      "वाह": 1067,
      "हाला": 1068,
      "बू": 1069,
      "गुरु": 1070,
      "ऐसा": 1071,
      "रवि": 1072,
      "संगीत": 1073,
      "सामने": 1074,
      "आए": 1075,
      "चन": 1076,
      "लब": 1077,
      "राय": 1078,
      "इसलिए": 1079,
      "हिस्": 1080,
      "खेल": 1081,
      "धिकार": 1082,
      "तीस": 1083,
      "बाहर": 1084,
      "वेश": 1085,
      "कंपनी": 1086,
      "त्रि": 1087,
      "()": 1088,
      "बह": 1089,
      "अस्पताल": 1090,
      "गाँव": 1091,
      "समझ": 1092,
      "बढ़ा": 1093,
      "प्रि": 1094,
      "ग्रह": 1095,
      "न्यूज़": 1096,
      "निर्वा": 1097,
      "बैं": 1098,
      "चो": 1099,
      "विष": 1100,
      "स्टर": 1101,
      "चाहता": 1102,
      "जवा": 1103,
      "भु": 1104,
      "महत्व": 1105,
      "मोदी": 1106,
      "वत": 1107,
      "अर्": 1108,
      "पस": 1109,
      "भो": 1110,
      "तम": 1111,
      "फ़ी": 1112,
      "विभिन्न": 1113,
      "कित्": 1114,
      "द्योग": 1115,
      "मदद": 1116,
      "ंदर": 1117,
      "क्षक": 1118,
      "१९७": 1119,
      "मिली": 1120,
      "टक": 1121,
      "क्षित": 1122,
      "चिकित्": 1123,
      "डियो": 1124,
      "बई": 1125,
      "ंकि": 1126,
      "ट्रे": 1127,
      "पक्ष": 1128,
      "ून": 1129,
      "द्धा": 1130,
      "धु": 1131,
      "लैंड": 1132,
      "नित": 1133,
      "चीन": 1134,
      "लाख": 1135,
      "सिद्ध": 1136,
      "शिया": 1137,
      "ग्राम": 1138,
      "बड़ा": 1139,
      "प्रदर्शन": 1140,
      "लिख": 1141,
      "ंग्": 1142,
      "योजन": 1143,
      "राष्ट्रपति": 1144,
      "भारी": 1145,
      "मूल": 1146,
      "जाएगी": 1147,
      "तहत": 1148,
      "मर": 1149,
      "शान": 1150,
      "अमेरिका": 1151,
      "अति": 1152,
      "िका": 1153,
      "अंतर": 1154,
      "ब्रि": 1155,
      "कार्र": 1156,
      "रिपोर्ट": 1157,
      "रोध": 1158,
      "विधायक": 1159,
      "पसं": 1160,
      "गिरफ्": 1161,
      "डो": 1162,
      "होना": 1163,
      "हजार": 1164,
      "मंडल": 1165,
      "सहा": 1166,
      "कार्रवाई": 1167,
      "दूसरे": 1168,
      "बच्चों": 1169,
      "मृ": 1170,
      "लिक": 1171,
      "कर्मचार": 1172,
      "दर्ज": 1173,
      "लब्": 1174,
      "न्द": 1175,
      "शल": 1176,
      "हूं": 1177,
      "कृत": 1178,
      "ंकन": 1179,
      "आया": 1180,
      "स्तर": 1181,
      "योजित": 1182,
      "पंचा": 1183,
      "स्या": 1184,
      "मौजूद": 1185,
      "इड": 1186,
      "अधिकारियों": 1187,
      "उठा": 1188,
      "तों": 1189,
      "धर्म": 1190,
      "कट": 1191,
      "थो": 1192,
      "अस": 1193,
      "लगभग": 1194,
      "ज़ी": 1195,
      "पांच": 1196,
      "करोड़": 1197,
      "पहली": 1198,
      "विद्य": 1199,
      "स्ट्रे": 1200,
      "गठन": 1201,
      "ठीक": 1202,
      "तृ": 1203,
      "तंत्र": 1204,
      "होंगे": 1205,
      "ग़": 1206,
      "काफी": 1207,
      "नु": 1208,
      "नाग": 1209,
      "सचिव": 1210,
      "द्वी": 1211,
      "जन्मे": 1212,
      "कोशि": 1213,
      "कॉलेज": 1214,
      "प्य": 1215,
      "सहित": 1216,
      "अभिया": 1217,
      "घोष": 1218,
      "सिक": 1219,
      "उपलब्": 1220,
      "ब्रा": 1221,
      "१९६": 1222,
      "ँच": 1223,
      "माध्य": 1224,
      "ैल": 1225,
      "जों": 1226,
      "क्सी": 1227,
      "कोर्ट": 1228,
      "लिये": 1229,
      "शिव": 1230,
      "क्रिकेट": 1231,
      "केवल": 1232,
      "ंधी": 1233,
      "णाम": 1234,
      "अंग्रे": 1235,
      "पूरा": 1236,
      "जगह": 1237,
      "१७": 1238,
      "बच्": 1239,
      "मीर": 1240,
      "दारी": 1241,
      "बनाया": 1242,
      "शर्मा": 1243,
      "सामान": 1244,
      "नामा": 1245,
      "प्रकार": 1246,
      "सुन": 1247,
      "ग्री": 1248,
      "देखा": 1249,
      "परिणाम": 1250,
      "िता": 1251,
      "दर्श": 1252,
      "उसका": 1253,
      "कलाकार": 1254,
      "नेट": 1255,
      "समाज": 1256,
      "शब्": 1257,
      "लित": 1258,
      "ह्": 1259,
      "छी": 1260,
      "१६": 1261,
      "वापस": 1262,
      "षि": 1263,
      "दुर्": 1264,
      "हमे": 1265,
      "काली": 1266,
      "राजस्थान": 1267,
      "इस्ते": 1268,
      "चर्": 1269,
      "इस्तेमाल": 1270,
      "उत्तरा": 1271,
      "यान": 1272,
      "पसंद": 1273,
      "३०": 1274,
      "ंति": 1275,
      "आयोजित": 1276,
      "यं": 1277,
      "सूची": 1278,
      "गर्": 1279,
      "पॉ": 1280,
      "पिछले": 1281,
      "१४": 1282,
      "यादव": 1283,
      "आगे": 1284,
      "पड़े": 1285,
      "संयुक्त": 1286,
      "यात्रा": 1287,
      "दाय": 1288,
      "थम": 1289,
      "मीटर": 1290,
      "एफ": 1291,
      "शं": 1292,
      "निवार": 1293,
      "त्त": 1294,
      "बड़े": 1295,
      "मंगल": 1296,
      "जनता": 1297,
      "टल": 1298,
      "्यक": 1299,
      "दिव": 1300,
      "गांधी": 1301,
      "हमेशा": 1302,
      "थाना": 1303,
      "मिति": 1304,
      "पंचायत": 1305,
      "उपलब्ध": 1306,
      "लें": 1307,
      "समस्या": 1308,
      "स्टेशन": 1309,
      "मार्च": 1310,
      "जाते": 1311,
      "चित्र": 1312,
      "सड़": 1313,
      "ष्ण": 1314,
      "अर्थ": 1315,
      "रिक": 1316,
      "फ़ा": 1317,
      "सिर्": 1318,
      "ूबर": 1319,
      "पश्चिम": 1320,
      "शास्": 1321,
      "बौ": 1322,
      "जिसके": 1323,
      "द्वीप": 1324,
      "मुं": 1325,
      "ल्स": 1326,
      "ुष": 1327,
      "ध्यान": 1328,
      "अप्र": 1329,
      "ज्य": 1330,
      "प्रया": 1331,
      "गम": 1332,
      "मानित": 1333,
      "गति": 1334,
      "पक": 1335,
      "सूचना": 1336,
      "अफ": 1337,
      "नदी": 1338,
      "रुपये": 1339,
      "उच्च": 1340,
      "ट्": 1341,
      "५०": 1342,
      "ग्रामी": 1343,
      "उपा": 1344,
      "ऊँ": 1345,
      "प्रसिद्ध": 1346,
      "एच": 1347,
      "ट्ट": 1348,
      "बिना": 1349,
      "ग्रामीण": 1350,
      "समु": 1351,
      "स्पे": 1352,
      "स्तु": 1353,
      "लर": 1354,
      "११": 1355,
      "प्रतिनि": 1356,
      "प्रभा": 1357,
      "तौर": 1358,
      "करीब": 1359,
      "महत्वपूर्ण": 1360,
      "कोशिश": 1361,
      "पड़ा": 1362,
      "निर्वाचन": 1363,
      "लेने": 1364,
      "आपके": 1365,
      "जनवरी": 1366,
      "शुरु": 1367,
      "हमारी": 1368,
      "ंभ": 1369,
      "हाथ": 1370,
      "आयोजन": 1371,
      "समिति": 1372,
      "उद्": 1373,
      "धर": 1374,
      "राब": 1375,
      "विचार": 1376,
      "करके": 1377,
      "अभियान": 1378,
      "धित": 1379,
      "रखा": 1380,
      "शक्ति": 1381,
      "चाहती": 1382,
      "न्याया": 1383,
      "गू": 1384,
      "सें": 1385,
      "प्रथम": 1386,
      "जबकि": 1387,
      "सिल": 1388,
      "ूँगा": 1389,
      "रोक": 1390,
      "शिका": 1391,
      "वर्तमान": 1392,
      "बचा": 1393,
      "कहते": 1394,
      "वहाँ": 1395,
      "ंचा": 1396,
      "रहने": 1397,
      "ॉर्": 1398,
      "म्प": 1399,
      "रॉ": 1400,
      "बैंक": 1401,
      "टू": 1402,
      "फ़्": 1403,
      "समीक्षा": 1404,
      "नामांकन": 1405,
      "ट्रो": 1406,
      "करवा": 1407,
      "लने": 1408,
      "षद": 1409,
      "पार्": 1410,
      "भाई": 1411,
      "गोल": 1412,
      "अक्ट": 1413,
      "सीमा": 1414,
      "२१": 1415,
      "समू": 1416,
      "बल्": 1417,
      "थीं": 1418,
      "श्वर": 1419,
      "गिरफ्तार": 1420,
      "कां": 1421,
      "तन": 1422,
      "विश्": 1423,
      "टिंग": 1424,
      "चाहते": 1425,
      "अक्टूबर": 1426,
      "धे": 1427,
      "दोस्त": 1428,
      "घु": 1429,
      "चै": 1430,
      "मीडिया": 1431,
      "लक": 1432,
      "पानी": 1433,
      "उपयोग": 1434,
      "हालांकि": 1435,
      "सम्मानित": 1436,
      "जहां": 1437,
      "मनो": 1438,
      "नल": 1439,
      "खण्ड": 1440,
      "त्ता": 1441,
      "नव": 1442,
      "िकी": 1443,
      "केंद": 1444,
      "संस्था": 1445,
      "सरकारी": 1446,
      "माँ": 1447,
      "शब्द": 1448,
      "किल": 1449,
      "प्रयोग": 1450,
      "रानी": 1451,
      "निवासी": 1452,
      "बने": 1453,
      "संचा": 1454,
      "क्षेत्रों": 1455,
      "जुलाई": 1456,
      "चक": 1457,
      "किंग": 1458,
      "देते": 1459,
      "त्मक": 1460,
      "दमी": 1461,
      "बजे": 1462,
      "शुक्र": 1463,
      "धारा": 1464,
      "रल": 1465,
      "सुबह": 1466,
      "इंटर": 1467,
      "व्यापार": 1468,
      "प्रशासन": 1469,
      "जिसे": 1470,
      "जें": 1471,
      "लगे": 1472,
      "ध्यक्ष": 1473,
      "आदेश": 1474,
      "निधन": 1475,
      "सीट": 1476,
      "कश्": 1477,
      "अच्छी": 1478,
      "खरी": 1479,
      "मना": 1480,
      "हॉ": 1481,
      "फ़ो": 1482,
      "वश्यक": 1483,
      "वें": 1484,
      "भगवान": 1485,
      "जित": 1486,
      "कौ": 1487,
      "रों": 1488,
      "साय": 1489,
      "धानी": 1490,
      "समर्थ": 1491,
      "संबंधित": 1492,
      "सांसद": 1493,
      "दिनों": 1494,
      "सोम": 1495,
      "यौ": 1496,
      "मुताब": 1497,
      "पहुंचे": 1498,
      "मुताबिक": 1499,
      "मरी": 1500,
      "मैच": 1501,
      "नए": 1502,
      "माता": 1503,
      "कहना": 1504,
      "र्ष": 1505,
      "मिलने": 1506,
      "क्षेप": 1507,
      "नारा": 1508,
      "चीज़": 1509,
      "कवि": 1510,
      "देना": 1511,
      "केंद्रीय": 1512,
      "कार्यालय": 1513,
      "पंजा": 1514,
      "अमेरिकी": 1515,
      "ऑफि": 1516,
      "२५": 1517,
      "लोकसभा": 1518,
      "मॉ": 1519,
      "माना": 1520,
      "माध्यम": 1521,
      "मुंबई": 1522,
      "१९५": 1523,
      "मही": 1524,
      "अप्रैल": 1525,
      "डर": 1526,
      "पूरे": 1527,
      "जीव": 1528,
      "युद्ध": 1529,
      "ज़िले": 1530,
      "ऑफ": 1531,
      "प्रबंध": 1532,
      "युवा": 1533,
      "चुके": 1534,
      "जून": 1535,
      "इंडिया": 1536,
      "कार्यकर्": 1537,
      "रेलवे": 1538,
      "विड": 1539,
      "ार्थ": 1540,
      "वास्त": 1541,
      "न्होंने": 1542,
      "उल्": 1543,
      "भव": 1544,
      "सत": 1545,
      "ृह": 1546,
      "ख्": 1547,
      "शत": 1548,
      "ग्रे": 1549,
      "संस्थान": 1550,
      "संक्रम": 1551,
      "ज़रूरत": 1552,
      "प्यार": 1553,
      "मण": 1554,
      "हाई": 1555,
      "सहयोग": 1556,
      "मंगलवार": 1557,
      "फ्र": 1558,
      "खिलाड़ी": 1559,
      "बेहतर": 1560,
      "दम": 1561,
      "मारी": 1562,
      "महिलाओं": 1563,
      "मित": 1564,
      "क्रा": 1565,
      "वरण": 1566,
      "आवश्यक": 1567,
      "एक्स": 1568,
      "साइ": 1569,
      "स्थापित": 1570,
      "सम्मान": 1571,
      "आम": 1572,
      "संगठन": 1573,
      "जिससे": 1574,
      "स्थापना": 1575,
      "धिकारिक": 1576,
      "अभिनेता": 1577,
      "ज़िला": 1578,
      "१३": 1579,
      "बाजार": 1580,
      "म्मे": 1581,
      "टिक": 1582,
      "मौके": 1583,
      "विरोध": 1584,
      "निश्": 1585,
      "नियों": 1586,
      "नेशन": 1587,
      "ष्टि": 1588,
      "आधिकारिक": 1589,
      "तनी": 1590,
      "हिस्सा": 1591,
      "खी": 1592,
      "लक्ष": 1593,
      "वु": 1594,
      "कराया": 1595,
      "ियां": 1596,
      "प्री": 1597,
      "ट्रा": 1598,
      "खन": 1599,
      "मियों": 1600,
      "विदेश": 1601,
      "सुविधा": 1602,
      "महाराष्ट": 1603,
      "भौ": 1604,
      "सफल": 1605,
      "तिक": 1606,
      "मौत": 1607,
      "भावना": 1608,
      "आर्": 1609,
      "जिक": 1610,
      "ंडे": 1611,
      "अल": 1612,
      "जीवित": 1613,
      "कीय": 1614,
      "विमान": 1615,
      "जल्द": 1616,
      "पद्": 1617,
      "जाति": 1618,
      "महाराष्ट्र": 1619,
      "छु": 1620,
      "शै": 1621,
      "सदी": 1622,
      "सात": 1623,
      "पूर": 1624,
      "उत्पा": 1625,
      "बदल": 1626,
      "र्गत": 1627,
      "प्रदान": 1628,
      "ंदगी": 1629,
      "फु": 1630,
      "प्रतियोग": 1631,
      "बोर्ड": 1632,
      "दूसरी": 1633,
      "समूह": 1634,
      "काउ": 1635,
      "पुत्र": 1636,
      "सिटी": 1637,
      "उससे": 1638,
      "ज्ञानिक": 1639,
      "शुक्रवार": 1640,
      "तब": 1641,
      "लाने": 1642,
      "धिकारी": 1643,
      "शाह": 1644,
      "चर": 1645,
      "वालों": 1646,
      "लौ": 1647,
      "देवी": 1648,
      "सोमवार": 1649,
      "मता": 1650,
      "हत्या": 1651,
      "वैज्ञानिक": 1652,
      "ंदा": 1653,
      "चान": 1654,
      "बिल्": 1655,
      "चिकित्सा": 1656,
      "कश्मीर": 1657,
      "दृ": 1658,
      "शिकायत": 1659,
      "एयर": 1660,
      "स्थानीय": 1661,
      "वादी": 1662,
      "न्स": 1663,
      "राजधानी": 1664,
      "्वज": 1665,
      "पट": 1666,
      "सानों": 1667,
      "लगाया": 1668,
      "नियंत्र": 1669,
      "वर्ग": 1670,
      "प्ला": 1671,
      "ीय": 1672,
      "राव": 1673,
      "पृ": 1674,
      "बंगा": 1675,
      "यां": 1676,
      "वॉ": 1677,
      "तान": 1678,
      "प्रशि": 1679,
      "सील": 1680,
      "ख़ु": 1681,
      "गिक": 1682,
      "विजे": 1683,
      "लिंग": 1684,
      "ऑफिस": 1685,
      "थ्य": 1686,
      "यूनि": 1687,
      "याँ": 1688,
      "वहां": 1689,
      "गयी": 1690,
      "विस्त": 1691,
      "अर": 1692,
      "श्रे": 1693,
      "गार": 1694,
      "दिल": 1695,
      "वेदन": 1696,
      "विजय": 1697,
      "विध": 1698,
      "ंटे": 1699,
      "्थ": 1700,
      "दें": 1701,
      "पुरुष": 1702,
      "प्ले": 1703,
      "बुध": 1704,
      "निश्चित": 1705,
      "प्रत्य": 1706,
      "जाल": 1707,
      "ज़ार": 1708,
      "वज": 1709,
      "२४": 1710,
      "राजा": 1711,
      "तुमसे": 1712,
      "बाव": 1713,
      "भेज": 1714,
      "हिमा": 1715,
      "भूषण": 1716,
      "सितंबर": 1717,
      "वायर": 1718,
      "खुद": 1719,
      "प्रयास": 1720,
      "रखने": 1721,
      "केश": 1722,
      "मंत्रा": 1723,
      "ड्ड": 1724,
      "क्शन": 1725,
      "साद": 1726,
      "ताप": 1727,
      "निकाल": 1728,
      "ंज": 1729,
      "आइ": 1730,
      "्रो": 1731,
      "तिम": 1732,
      "पद्म": 1733,
      "नै": 1734,
      "वीडियो": 1735,
      "कैसे": 1736,
      "गौ": 1737,
      "१९४": 1738,
      "टेस्ट": 1739,
      "निकल": 1740,
      "),": 1741,
      "टीवी": 1742,
      "किसानों": 1743,
      "कराने": 1744,
      "सड़क": 1745,
      "चार्य": 1746,
      "बच्चे": 1747,
      "नजर": 1748,
      "२२": 1749,
      "बाल": 1750,
      "डीएम": 1751,
      "रचना": 1752,
      "द्वि": 1753,
      "वीर": 1754,
      "रै": 1755,
      "रंग": 1756,
      "लत": 1757,
      "शनिवार": 1758,
      "सागर": 1759,
      "पत्नी": 1760,
      "स्क": 1761,
      "देखने": 1762,
      "अभिने": 1763,
      "चरि": 1764,
      "लगातार": 1765,
      "द्धि": 1766,
      "यण": 1767,
      "प्रस्ता": 1768,
      "प्रक्रिया": 1769,
      "राह": 1770,
      "सामा": 1771,
      "त्रियों": 1772,
      "परियोजना": 1773,
      "हमने": 1774,
      "स्ट्रेलिया": 1775,
      "एड": 1776,
      "तथ्य": 1777,
      "बुधवार": 1778,
      "समे": 1779,
      "खान": 1780,
      "पर्या": 1781,
      "पेश": 1782,
      "प्रेस": 1783,
      "पल": 1784,
      "ारे": 1785,
      "पहला": 1786,
      "पंजाब": 1787,
      "मंत्रालय": 1788,
      "ज़र": 1789,
      "यौगिक": 1790,
      "र्जी": 1791,
      "मुश्": 1792,
      "देशों": 1793,
      "दिवस": 1794,
      "यही": 1795,
      "बिज": 1796,
      "परिषद": 1797,
      "तत्": 1798,
      "स्टा": 1799,
      "प्रभारी": 1800,
      "ल्या": 1801,
      "चंद्र": 1802,
      "ेंस": 1803,
      "टेड": 1804,
      "युव": 1805,
      "यता": 1806,
      "ताया": 1807,
      "भीर": 1808,
      "ताकि": 1809,
      "भूमिका": 1810,
      "वेब": 1811,
      "हरिया": 1812,
      "किलो": 1813,
      "वजह": 1814,
      "अभिनेत्री": 1815,
      "चरित्र": 1816,
      "उन्": 1817,
      "पीछे": 1818,
      "शुरुआत": 1819,
      "अग्र": 1820,
      "टै": 1821,
      "दों": 1822,
      "छात्रों": 1823,
      "प्रतियोगिता": 1824,
      "निका": 1825,
      "प्रतिशत": 1826,
      "इंत": 1827,
      "फोन": 1828,
      "लॉक": 1829,
      "रविवार": 1830,
      "विश्वास": 1831,
      "ेक": 1832,
      "नाटक": 1833,
      "मुद्": 1834,
      "सामान्य": 1835,
      "डॉक्टर": 1836,
      "अफ़": 1837,
      "अहम": 1838,
      "बन्": 1839,
      "२०१४": 1840,
      "अंतिम": 1841,
      "ख़ा": 1842,
      "तहसील": 1843,
      "तारी": 1844,
      "क्ता": 1845,
      "लाइ": 1846,
      "म्स": 1847,
      "मिन": 1848,
      "अवसर": 1849,
      "गृह": 1850,
      "कृषि": 1851,
      "आपकी": 1852,
      "मोह": 1853,
      "सिर्फ": 1854,
      "वुड": 1855,
      "विजेता": 1856,
      "प्रशा": 1857,
      "मार्ट": 1858,
      "िकल": 1859,
      "सामाजिक": 1860,
      "पर्य": 1861,
      "सियों": 1862,
      "दीप": 1863,
      "पहुंचा": 1864,
      "आन": 1865,
      "सही": 1866,
      "जिसका": 1867,
      "टिव": 1868,
      "कृतिक": 1869,
      "होकर": 1870,
      "एसपी": 1871,
      "सुरक्षित": 1872,
      "प्रसाद": 1873,
      "उम्मीदवार": 1874,
      "ट्स": 1875,
      "ंगी": 1876,
      "बनाए": 1877,
      "ऐसी": 1878,
      "सीसी": 1879,
      "रिक्त": 1880,
      "खाना": 1881,
      "०००": 1882,
      "अगस्त": 1883,
      "नंबर": 1884,
      "प्रवेश": 1885,
      "समेत": 1886,
      "ीन": 1887,
      "स्प": 1888,
      "राध": 1889,
      "सीएम": 1890,
      "किसान": 1891,
      "कार्ड": 1892,
      "महीने": 1893,
      "ृत": 1894,
      "गरी": 1895,
      "ल्ला": 1896,
      "कार्ब": 1897,
      "आं": 1898,
      "आस": 1899,
      "मई": 1900,
      "गुज": 1901,
      "जेपी": 1902,
      "ऑन": 1903,
      "पाठ": 1904,
      "अच्छे": 1905,
      "केन्द्र": 1906,
      "फ्ट": 1907,
      "र्क": 1908,
      "सुना": 1909,
      "सूत्र": 1910,
      "कार्बनिक": 1911,
      "अन्": 1912,
      "लना": 1913,
      "ताल": 1914,
      "कालीन": 1915,
      "कमी": 1916,
      "रोचक": 1917,
      "पत्रिका": 1918,
      "न्याय": 1919,
      "मैन": 1920,
      "चलते": 1921,
      "गंभीर": 1922,
      "एशिया": 1923,
      "चरण": 1924,
      "ोह": 1925,
      "बाजी": 1926,
      "हिक": 1927,
      "राजनीतिक": 1928,
      "चर्चा": 1929,
      "आंद": 1930,
      "जरूरत": 1931,
      "सल": 1932,
      "नामक": 1933,
      "रोड": 1934,
      "बंगाल": 1935,
      "तस्वी": 1936,
      "कोविड": 1937,
      "संभा": 1938,
      "अली": 1939,
      "लाया": 1940,
      "रूरी": 1941,
      "मानव": 1942,
      "मुख्यालय": 1943,
      "कं": 1944,
      "लाभ": 1945,
      "संक्षेप": 1946,
      "एंड": 1947,
      "वर्ण": 1948,
      "गये": 1949,
      "शरी": 1950,
      "२३": 1951,
      "राशि": 1952,
      "बारा": 1953,
      "प्रकाशित": 1954,
      "जम्": 1955,
      "भवन": 1956,
      "लिका": 1957,
      "जाएंगे": 1958,
      "रं": 1959,
      "वरि": 1960,
      "जैन": 1961,
      "मीन": 1962,
      "निजी": 1963,
      "क्रे": 1964,
      "स्वतंत्र": 1965,
      "कर्मचारियों": 1966,
      "करनी": 1967,
      "राज्यों": 1968,
      "मामला": 1969,
      "छोटे": 1970,
      "अदा": 1971,
      "रहते": 1972,
      "ंडा": 1973,
      "मतलब": 1974,
      "चुका": 1975,
      "ॉन": 1976,
      "दास": 1977,
      "जाय": 1978,
      "वास्तव": 1979,
      "नेशनल": 1980,
      "आग": 1981,
      "झार": 1982,
      "प्ट": 1983,
      "मल": 1984,
      "हुल": 1985,
      "वंश": 1986,
      "पौ": 1987,
      "काफ़ी": 1988,
      "रिंग": 1989,
      "कृष्ण": 1990,
      "तृत्व": 1991,
      "ोर": 1992,
      "वायु": 1993,
      "नरेंद्र": 1994,
      "डु": 1995,
      "साइट": 1996,
      "स्टि": 1997,
      "जवाब": 1998,
      "कानून": 1999,
      "जम्मू": 2000,
      "बित": 2001,
      "सोच": 2002,
      "लखन": 2003,
      "ड़ियों": 2004,
      "ऑस्ट्रेलिया": 2005,
      "म्बर": 2006,
      "करेगा": 2007,
      "शादी": 2008,
      "फ़े": 2009,
      "टाइ": 2010,
      "कहीं": 2011,
      "दस": 2012,
      "भर्": 2013,
      "लगाने": 2014,
      "पकड़": 2015,
      "प्रार": 2016,
      "प्राचीन": 2017,
      "फॉ": 2018,
      "हमारा": 2019,
      "तने": 2020,
      "तला": 2021,
      "२६": 2022,
      "लिखा": 2023,
      "मेड": 2024,
      "पीड़": 2025,
      "ढा": 2026,
      "बयान": 2027,
      "मन्": 2028,
      "जाकर": 2029,
      "निगम": 2030,
      "कैं": 2031,
      "कपूर": 2032,
      "छह": 2033,
      "पण": 2034,
      "स्वामी": 2035,
      "चले": 2036,
      "नेतृत्व": 2037,
      "जहाँ": 2038,
      "लीवुड": 2039,
      "शाम": 2040,
      "प्राथ": 2041,
      "अंदर": 2042,
      "ज़े": 2043,
      "सिंग": 2044,
      "ल्में": 2045,
      "इनके": 2046,
      "जबू": 2047,
      "प्रभावित": 2048,
      "इतना": 2049,
      "पुन": 2050,
      "बौक्स": 2051,
      "समीक्षाएँ": 2052,
      "उम": 2053,
      "मजबू": 2054,
      "माह": 2055,
      "श्रद्धा": 2056,
      "जैसा": 2057,
      "आंदो": 2058,
      "श्रा": 2059,
      "दिशा": 2060,
      "चुकी": 2061,
      "राज्यपाल": 2062,
      "न्यास": 2063,
      "बिल्कुल": 2064,
      "हरियाणा": 2065,
      "नीचे": 2066,
      "ंता": 2067,
      "शांति": 2068,
      "ूँगी": 2069,
      "छात्रा": 2070,
      "वारी": 2071,
      "रहेगा": 2072,
      "अतिरिक्त": 2073,
      "आयोग": 2074,
      "जिम्मे": 2075,
      "क्रो": 2076,
      "पदा": 2077,
      "प्रभाव": 2078,
      "घोषणा": 2079,
      "न्यायालय": 2080,
      "छत्": 2081,
      "सूस": 2082,
      "रक्षा": 2083,
      "कोल": 2084,
      "निदेश": 2085,
      "संवाद": 2086,
      "सप्ता": 2087,
      "सैन": 2088,
      "गें": 2089,
      "बच": 2090,
      "जाम": 2091,
      "दिख": 2092,
      "पत्ति": 2093,
      "क्ला": 2094,
      "तेज": 2095,
      "बेल": 2096,
      "गुरुवार": 2097,
      "शास्त्र": 2098,
      "उर्": 2099,
      "कले": 2100,
      "हासिल": 2101,
      "१९३": 2102,
      "टेल": 2103,
      "ज़िंदगी": 2104,
      "आधारित": 2105,
      "ेश": 2106,
      "मां": 2107,
      "वार्": 2108,
      "मुझसे": 2109,
      "अध्ययन": 2110,
      "आवा": 2111,
      "देखते": 2112,
      "पर्क": 2113,
      "आठ": 2114,
      "तमिल": 2115,
      "मिलेगा": 2116,
      "मुश्किल": 2117,
      "मोहन": 2118,
      "पालन": 2119,
      "छत्तीस": 2120,
      "आर्थ": 2121,
      "कत": 2122,
      "हटा": 2123,
      "राहुल": 2124,
      "बांग्": 2125,
      "लखनऊ": 2126,
      "उद्योग": 2127,
      "गंगा": 2128,
      "प्रान्त": 2129,
      "पढ़ा": 2130,
      "भर्ती": 2131,
      "जनों": 2132,
      "रुपए": 2133,
      "वरिष्ठ": 2134,
      "बांग्ला": 2135,
      "घंटे": 2136,
      "णय": 2137,
      "२८": 2138,
      "जाओ": 2139,
      "मुला": 2140,
      "प्रसार": 2141,
      "कारा": 2142,
      "किलोमीटर": 2143,
      "निरी": 2144,
      "यूरो": 2145,
      "सवाल": 2146,
      "तस्वीर": 2147,
      "कल्प": 2148,
      "यारी": 2149,
      "व्": 2150,
      "लेक्": 2151,
      "संबर": 2152,
      "दिसंबर": 2153,
      "आयु": 2154,
      "जैसी": 2155,
      "भ्र": 2156,
      "हवाई": 2157,
      "ील": 2158,
      "माइ": 2159,
      "मोबा": 2160,
      "ड्र": 2161,
      "दुकान": 2162,
      "आंदोलन": 2163,
      "देर": 2164,
      "मैदान": 2165,
      "ट्रै": 2166,
      "गंज": 2167,
      "कर्मचारी": 2168,
      "स्तानी": 2169,
      "दाता": 2170,
      "मेडिकल": 2171,
      "छत्तीसगढ़": 2172,
      "आदमी": 2173,
      "इन्": 2174,
      "अंतरराष्ट्रीय": 2175,
      "माने": 2176,
      "प्रस्ताव": 2177,
      "डाउन": 2178,
      "आवेदन": 2179,
      "बीजेपी": 2180,
      "समर्थन": 2181,
      "आता": 2182,
      "स्टार": 2183,
      "प्रशिक्षण": 2184,
      "काब": 2185,
      "स्ट्री": 2186,
      "कहानी": 2187,
      "पूर्वी": 2188,
      "फैसला": 2189,
      "तू": 2190,
      "मूर्": 2191,
      "बनने": 2192,
      "अने": 2193,
      "वार्ड": 2194,
      "कुर": 2195,
      "वेद": 2196,
      "आपका": 2197,
      "निर्णय": 2198,
      "र्य": 2199,
      "पत्रकार": 2200,
      "ऑनलाइन": 2201,
      "ुत": 2202,
      "दियों": 2203,
      "पाए": 2204,
      "बिजली": 2205,
      "खबर": 2206,
      "पन्न": 2207,
      "साह": 2208,
      "अमरी": 2209,
      "पात": 2210,
      "पुस्": 2211,
      "अल्": 2212,
      "श्य": 2213,
      "अगले": 2214,
      "निदेशक": 2215,
      "छि": 2216,
      "फू": 2217,
      "ऊपर": 2218,
      "प्राथमिक": 2219,
      "लगी": 2220,
      "फ़ोन": 2221,
      "संक्रमण": 2222,
      "यदि": 2223,
      "सारी": 2224,
      "न्ना": 2225,
      "पहचान": 2226,
      "गुप्ता": 2227,
      "टॉ": 2228,
      "सॉ": 2229,
      "शाला": 2230,
      "बोल": 2231,
      "मोबाइल": 2232,
      "शुक्रिया": 2233,
      "दय": 2234,
      "नियर": 2235,
      "पुरी": 2236,
      "देश्य": 2237,
      "तोड़": 2238,
      "अंग्रेजी": 2239,
      "मति": 2240,
      "इंजी": 2241,
      "स्वयं": 2242,
      "मरा": 2243,
      "जेल": 2244,
      "भूगोल": 2245,
      "नेताओं": 2246,
      "ट्रेन": 2247,
      "प्रणा": 2248,
      "फाइन": 2249,
      "बदला": 2250,
      "नय": 2251,
      "पहा": 2252,
      "महसूस": 2253,
      "आर्थिक": 2254,
      "टों": 2255,
      "दिग्": 2256,
      "ंडी": 2257,
      "प्रतिनिधि": 2258,
      "जर्": 2259,
      "तः": 2260,
      "नया": 2261,
      "रोग": 2262,
      "गन": 2263,
      "तरफ": 2264,
      "बारी": 2265,
      "डिंग": 2266,
      "बेहद": 2267,
      "ंडर": 2268,
      "उपस्थित": 2269,
      "धो": 2270,
      "स्ना": 2271,
      "ष्ट्रीय": 2272,
      "तकनी": 2273,
      "हिन्दू": 2274,
      "२७": 2275,
      "्रीका": 2276,
      "सारे": 2277,
      "इंग्": 2278,
      "निंग": 2279,
      "तरण": 2280,
      "ढूँ": 2281,
      "्यूटर": 2282,
      "थोड़ा": 2283,
      "हरि": 2284,
      "अपराध": 2285,
      "तैयारी": 2286,
      "सहायता": 2287,
      "२९": 2288,
      "आपने": 2289,
      "सव": 2290,
      "सहायक": 2291,
      "विस्तार": 2292,
      "िश": 2293,
      "पूजा": 2294,
      "्राष्ट्रीय": 2295,
      "इनमें": 2296,
      "अंतर्गत": 2297,
      "उद्देश्य": 2298,
      "ट्टी": 2299,
      "र्जा": 2300,
      "च्छ": 2301,
      "चिंता": 2302,
      "समाचार": 2303,
      "खला": 2304,
      "ड्रा": 2305,
      "वाहन": 2306,
      "लेना": 2307,
      "कारो": 2308,
      "पोस्ट": 2309,
      "अथ": 2310,
      "खर": 2311,
      "जमा": 2312,
      "स्ती": 2313,
      "देता": 2314,
      "प्रेम": 2315,
      "पड़ता": 2316,
      "स्वागत": 2317,
      "संस्कृति": 2318,
      "पथ": 2319,
      "मिशन": 2320,
      "शील": 2321,
      "शोक": 2322,
      "खरीद": 2323,
      "समार": 2324,
      "संपर्क": 2325,
      "बिल": 2326,
      "सोशल": 2327,
      "पहुँच": 2328,
      "बॉलीवुड": 2329,
      "विष्य": 2330,
      "सप्ताह": 2331,
      "निशा": 2332,
      "मुकाब": 2333,
      "नियंत्रण": 2334,
      "भविष्य": 2335,
      "पूछ": 2336,
      "धरी": 2337,
      "नेपाल": 2338,
      "जिन्हें": 2339,
      "परिसर": 2340,
      "मिलकर": 2341,
      "नारायण": 2342,
      "एजें": 2343,
      "्यता": 2344,
      "आरोपी": 2345,
      "त्ति": 2346,
      "उड़ा": 2347,
      "्यवाद": 2348,
      "निवेश": 2349,
      "संर": 2350,
      "पाया": 2351,
      "शाली": 2352,
      "जुड़े": 2353,
      "देंगे": 2354,
      "रज": 2355,
      ")।": 2356,
      "१००": 2357,
      "टीका": 2358,
      "टेली": 2359,
      "चार्": 2360,
      "वेबसाइट": 2361,
      "स्ते": 2362,
      "गोली": 2363,
      "लियों": 2364,
      "धारण": 2365,
      "सेंटर": 2366,
      "ार्थियों": 2367,
      "हान": 2368,
      "स्टी": 2369,
      "प्रिय": 2370,
      "वायरस": 2371,
      "टने": 2372,
      "मुस्": 2373,
      "भेजा": 2374,
      "मक": 2375,
      "मात्र": 2376,
      "वाही": 2377,
      "पश्चिमी": 2378,
      "माफ़": 2379,
      "ोग्रा": 2380,
      "वैक्सी": 2381,
      "हिमाचल": 2382,
      "आते": 2383,
      "ूब": 2384,
      "देकर": 2385,
      "रिए": 2386,
      "हरण": 2387,
      "ब्दी": 2388,
      "ठे": 2389,
      "केस": 2390,
      "वां": 2391,
      "लिन": 2392,
      "बॉल": 2393,
      "सुधार": 2394,
      "यूपी": 2395,
      "असल": 2396,
      "उत्तराखंड": 2397,
      "समारोह": 2398,
      "एक्": 2399,
      "हिंद": 2400,
      "धन्यवाद": 2401,
      "द्वितीय": 2402,
      "शरीर": 2403,
      "कमा": 2404,
      "किये": 2405,
      "जाग": 2406,
      "रिकॉ": 2407,
      "नौकरी": 2408,
      "तायात": 2409,
      "यातायात": 2410,
      "बाज": 2411,
      "पर्वत": 2412,
      "तय": 2413,
      "ुक": 2414,
      "जोड़": 2415,
      "मामलों": 2416,
      "चौधरी": 2417,
      "मृत्य": 2418,
      "वक्ता": 2419,
      "हमला": 2420,
      "सार्वज": 2421,
      "पैसे": 2422,
      "दूसरा": 2423,
      "लेखक": 2424,
      "आती": 2425,
      "बहा": 2426,
      "सार्वजनिक": 2427,
      "चू": 2428,
      "्यु": 2429,
      "दार्थ": 2430,
      "मृत्यु": 2431,
      "कथा": 2432,
      "चय": 2433,
      "लागू": 2434,
      "त्रीय": 2435,
      "पुस्तक": 2436,
      "बरा": 2437,
      "प्रबंधन": 2438,
      "पृथ": 2439,
      "अनेक": 2440,
      "इन्होंने": 2441,
      "इतनी": 2442,
      "मर्": 2443,
      "क्षमता": 2444,
      "फ्रा": 2445,
      "करेगी": 2446,
      "संस्कृत": 2447,
      "नवं": 2448,
      "४०": 2449,
      "म्मद": 2450,
      "पीएम": 2451,
      "खास": 2452,
      "कार्यकर्ताओं": 2453,
      "प्रत्येक": 2454,
      "डाय": 2455,
      "हेतु": 2456,
      "नवंबर": 2457,
      "म्भ": 2458,
      "सीबी": 2459,
      "२०१९": 2460,
      "वर्तन": 2461,
      "जल्दी": 2462,
      "ंखला": 2463,
      "रिश्": 2464,
      "आतंक": 2465,
      "ड्": 2466,
      "रन": 2467,
      "सों": 2468,
      "प्रचार": 2469,
      "उल्लेख": 2470,
      "शता": 2471,
      "सुपर": 2472,
      "जानते": 2473,
      "पहुँ": 2474,
      "कल्या": 2475,
      "शिक्षक": 2476,
      "बावजूद": 2477,
      "प्रणाली": 2478,
      "चंद": 2479,
      "सुनिश्चित": 2480,
      "दोबारा": 2481,
      "खिल": 2482,
      "शक": 2483,
      "अनुमति": 2484,
      "गुजरात": 2485,
      "डियम": 2486,
      "२००९": 2487,
      "शिप": 2488,
      "बेटी": 2489,
      "गैर": 2490,
      "श्रेणी": 2491,
      "चलो": 2492,
      "लम": 2493,
      "टेन": 2494,
      "उत्तराखण्ड": 2495,
      "शंकर": 2496,
      "अदालत": 2497,
      "ब्रे": 2498,
      "बद्ध": 2499,
      "स्ट्र": 2500,
      "इनका": 2501,
      "ठाकुर": 2502,
      "तैना": 2503,
      "दवा": 2504,
      "कियों": 2505,
      "ल्क": 2506,
      "सिद्धा": 2507,
      "रहना": 2508,
      "सदस्यों": 2509,
      "नू": 2510,
      "नाइ": 2511,
      "फाई": 2512,
      "सर्वश": 2513,
      "अके": 2514,
      "आखि": 2515,
      "क्का": 2516,
      "फरवरी": 2517,
      "्त": 2518,
      "पांडे": 2519,
      "बांग्लादेश": 2520,
      "पान": 2521,
      "शाखा": 2522,
      "क़ा": 2523,
      "जोर": 2524,
      "घोषित": 2525,
      "झारखंड": 2526,
      "लड़ा": 2527,
      "त्मा": 2528,
      "उत्तरी": 2529,
      "सैनिक": 2530,
      "लयों": 2531,
      "िन": 2532,
      "प्राइ": 2533,
      "घाट": 2534,
      "विषय": 2535,
      "शानदार": 2536,
      "पटना": 2537,
      "प्रस्तु": 2538,
      "देखो": 2539,
      "नोबेल": 2540,
      "सर्वश्रे": 2541,
      "ब्रह्": 2542,
      "लपुर": 2543,
      "अनुसं": 2544,
      "गड़": 2545,
      "किस": 2546,
      "वर्मा": 2547,
      "गुण": 2548,
      "सम्मे": 2549,
      "अंतरि": 2550,
      "पार्ट": 2551,
      "मतदान": 2552,
      "रूर": 2553,
      "२०२०": 2554,
      "विकसित": 2555,
      "जिनमें": 2556,
      "सर्वश्रेष्ठ": 2557,
      "अड्ड": 2558,
      "जम": 2559,
      "स्को": 2560,
      "सिस्ट": 2561,
      "रहता": 2562,
      "टिश": 2563,
      "सामना": 2564,
      "वही": 2565,
      "युक्ति": 2566,
      "पियन": 2567,
      "कर्मियों": 2568,
      "डाल": 2569,
      "कल्याण": 2570,
      "ृंखला": 2571,
      "बाकी": 2572,
      "दीन": 2573,
      "कात": 2574,
      "खाने": 2575,
      "चीत": 2576,
      "भोपाल": 2577,
      "विद्युत": 2578,
      "नागरिक": 2579,
      "धू": 2580,
      "अंग्रेज़ी": 2581,
      "स्पष्ट": 2582,
      "गेंद": 2583,
      "कदम": 2584,
      "ख्य": 2585,
      "्वी": 2586,
      "गाड़ी": 2587,
      "सुनी": 2588,
      "सम्बर": 2589,
      "वैध": 2590,
      "परेशान": 2591,
      "बल्कि": 2592,
      "अशोक": 2593,
      "ल्यू": 2594,
      "क्लब": 2595,
      "क्षर": 2596,
      "सलाह": 2597,
      "लियन": 2598,
      "क्षकों": 2599,
      "दिसम्बर": 2600,
      "रेश": 2601,
      "बातचीत": 2602,
      "समुदाय": 2603,
      "मरीजों": 2604,
      "लक्ष्य": 2605,
      "मूर्ति": 2606,
      "स्य": 2607,
      "र्न": 2608,
      "वर्षों": 2609,
      "पाकिस्तानी": 2610,
      "उम्र": 2611,
      "अनुसंधान": 2612,
      "आँ": 2613,
      "आदर्श": 2614,
      "इक": 2615,
      "पें": 2616,
      "सत्य": 2617,
      "संजय": 2618,
      "ख़ि": 2619,
      "इस्ला": 2620,
      "पड़ेगा": 2621,
      "दृष्टि": 2622,
      "सले": 2623,
      "२०१०": 2624,
      "नुक": 2625,
      "निस्तान": 2626,
      "वारा": 2627,
      "वहन": 2628,
      "खत्म": 2629,
      "प्रौ": 2630,
      "विवाद": 2631,
      "संभावना": 2632,
      "रोजग": 2633,
      "प्रेर": 2634,
      "इंडि": 2635,
      "इंग्लैंड": 2636,
      "शताब्दी": 2637,
      "अन्त": 2638,
      "मती": 2639,
      "छोटी": 2640,
      "चैनल": 2641,
      "पंच": 2642,
      "विल": 2643,
      "निष्": 2644,
      "देखना": 2645,
      "जाएँ": 2646,
      "विज्ञा": 2647,
      "दूरी": 2648,
      "नुकसान": 2649,
      "अका": 2650,
      "ड्यू": 2651,
      "६०": 2652,
      "पित": 2653,
      "सत्र": 2654,
      "स्मार्ट": 2655,
      "किमी": 2656,
      "वित्त": 2657,
      "नियुक्त": 2658,
      "भाष": 2659,
      "परीक्षण": 2660,
      "घायल": 2661,
      "नॉ": 2662,
      "सच": 2663,
      "वासियों": 2664,
      "पीठ": 2665,
      "धार्": 2666,
      "व्यवहार": 2667,
      "प्रारंभ": 2668,
      "अथवा": 2669,
      "यदा": 2670,
      "बनाई": 2671,
      "बं": 2672,
      "कंपनियों": 2673,
      "इलाज": 2674,
      "स्वीकार": 2675,
      "मिश्रा": 2676,
      "रिकॉर्ड": 2677,
      "अरु": 2678,
      "कमे": 2679,
      "साई": 2680,
      "बाई": 2681,
      "मिलता": 2682,
      "उदा": 2683,
      "घन": 2684,
      "घे": 2685,
      "शर": 2686,
      "श्या": 2687,
      "पुराने": 2688,
      "णु": 2689,
      "प्रत्या": 2690,
      "सिर": 2691,
      "सिया": 2692,
      "इनकी": 2693,
      "शेयर": 2694,
      "लड़की": 2695,
      "परेशा": 2696,
      "धुनिक": 2697,
      "सम्मेलन": 2698,
      "आत्म": 2699,
      "हल": 2700,
      "क्यू": 2701,
      "बेटे": 2702,
      "महान": 2703,
      "शोध": 2704,
      "आवश्यकता": 2705,
      "अग्रवाल": 2706,
      "डिग्री": 2707,
      "तरीके": 2708,
      "लिखित": 2709,
      "कम्प": 2710,
      "हरे": 2711,
      "द्योगिकी": 2712,
      "फुट": 2713,
      "जरूरी": 2714,
      "जिन्होंने": 2715,
      "फोटो": 2716,
      "स्वतंत्रता": 2717,
      "वेस्ट": 2718,
      "अध्या": 2719,
      "प्रशास": 2720,
      "फाइनल": 2721,
      "ेंड": 2722,
      "योगी": 2723,
      "जिसकी": 2724,
      "जागर": 2725,
      "पाई": 2726,
      "२०११": 2727,
      "ज्यो": 2728,
      "ब्यू": 2729,
      "काई": 2730,
      "कीमत": 2731,
      "परमाण": 2732,
      "तेल": 2733,
      "फ़र": 2734,
      "सुंदर": 2735,
      "भुग": 2736,
      "धार्मिक": 2737,
      "कप्ता": 2738,
      "पटेल": 2739,
      "पदार्थ": 2740,
      "निम्": 2741,
      "ज्ञात": 2742,
      "कद": 2743,
      "शराब": 2744,
      "जाये": 2745,
      "गाय": 2746,
      "भागी": 2747,
      "शाल": 2748,
      "आसपास": 2749,
      "ंसा": 2750,
      "मण्ड": 2751,
      "समान": 2752,
      "मंड": 2753,
      "रखना": 2754,
      "बढ़िया": 2755,
      "धीश": 2756,
      "मिलेगी": 2757,
      "युवक": 2758,
      "अनि": 2759,
      "कठ": 2760,
      "कप": 2761,
      "बज": 2762,
      "काता": 2763,
      "कार्यकर्ता": 2764,
      "हथि": 2765,
      "परमाणु": 2766,
      "कना": 2767,
      "बत": 2768,
      "मिश्र": 2769,
      "दाबाद": 2770,
      "प्रांत": 2771,
      "भुगतान": 2772,
      "वक्त": 2773,
      "निस": 2774,
      "बढ़ाने": 2775,
      "ब्रिटिश": 2776,
      "स्पी": 2777,
      "वानी": 2778,
      "थाने": 2779,
      "रूक": 2780,
      "पहर": 2781,
      "हमले": 2782,
      "दिखाई": 2783,
      "दुर्घटना": 2784,
      "काउं": 2785,
      "मुलाकात": 2786,
      "चक्र": 2787,
      "स्त्र": 2788,
      "जिए": 2789,
      "सफलता": 2790,
      "प्रौद्योगिकी": 2791,
      "हथियार": 2792,
      "फार्": 2793,
      "साफ": 2794,
      "संसद": 2795,
      "निर्मित": 2796,
      "चेन्न": 2797,
      "ग्रामीणों": 2798,
      "ताव": 2799,
      "किशो": 2800,
      "मुक्त": 2801,
      "म्ब": 2802,
      "इलाके": 2803,
      "पीड़ित": 2804,
      "पृथ्वी": 2805,
      "अंतरिक्ष": 2806,
      "ऊर्जा": 2807,
      "परा": 2808,
      "उपन्यास": 2809,
      "लक्ष्": 2810,
      "आकर्": 2811,
      "एशन": 2812,
      "जमीन": 2813,
      "रास्ता": 2814,
      "ल्ट": 2815,
      "ंदन": 2816,
      "सम्बन्": 2817,
      "स्वरूप": 2818,
      "उसी": 2819,
      "कक्षा": 2820,
      "जरी": 2821,
      "लिम": 2822,
      "तुर्": 2823,
      "रहती": 2824,
      "जानता": 2825,
      "फीसदी": 2826,
      "धारावा": 2827,
      "कोलकाता": 2828,
      "दै": 2829,
      "धारित": 2830,
      "ट्रॉ": 2831,
      "चिकित्सक": 2832,
      "ट्रोल": 2833,
      "यात्रियों": 2834,
      "लाना": 2835,
      "ट्यू": 2836,
      "३१": 2837,
      "कें": 2838,
      "हाउस": 2839,
      "दोपहर": 2840,
      "पहुंची": 2841,
      "संग्रह": 2842,
      "दोष": 2843,
      "जिसने": 2844,
      "तिहासिक": 2845,
      "सफाई": 2846,
      "हड़": 2847,
      "केशन": 2848,
      "ज़न": 2849,
      "कर्नाटक": 2850,
      "पैदा": 2851,
      "दरवा": 2852,
      "वृद्धि": 2853,
      "विद्यार्थियों": 2854,
      "निर्धारित": 2855,
      "समाप्त": 2856,
      "रोजगार": 2857,
      "चेन्नई": 2858,
      "घू": 2859,
      "नृ": 2860,
      "भरो": 2861,
      "निकट": 2862,
      "कड़ों": 2863,
      "आईपी": 2864,
      "राजनीतिज्ञ": 2865,
      "ज्योति": 2866,
      "अब्": 2867,
      "करि": 2868,
      "विर": 2869,
      "तुर": 2870,
      "रहेंगे": 2871,
      "मंत्र": 2872,
      "बंधन": 2873,
      "विशेषज्ञ": 2874,
      "अवैध": 2875,
      "मशी": 2876,
      "वाना": 2877,
      "लास": 2878,
      "आवास": 2879,
      "प्रमाण": 2880,
      "विधि": 2881,
      "माला": 2882,
      "श्रम": 2883,
      "कविता": 2884,
      "झे": 2885,
      "नाक": 2886,
      "तिवारी": 2887,
      "पूर्ति": 2888,
      "रखी": 2889,
      "संबंधी": 2890,
      "संचालन": 2891,
      "वस्तु": 2892,
      "क्सर": 2893,
      "पाद": 2894,
      "उनसे": 2895,
      "शीर्ष": 2896,
      "साहित्यकार": 2897,
      "एक्सप्रेस": 2898,
      "बदलाव": 2899,
      "इमार": 2900,
      "निभा": 2901,
      "संबो": 2902,
      "सिन्": 2903,
      "२०२१": 2904,
      "समझौ": 2905,
      "बल्ले": 2906,
      "निम्न": 2907,
      "चैं": 2908,
      "कोट": 2909,
      "प्रती": 2910,
      "स्टो": 2911,
      "बातें": 2912,
      "कराई": 2913,
      "खोज": 2914,
      "टिकट": 2915,
      "धिक": 2916,
      "लेते": 2917,
      "ार्थी": 2918,
      "पार्क": 2919,
      "वैक्सीन": 2920,
      "तल": 2921,
      "मेर": 2922,
      "कंप्यूटर": 2923,
      "प्रतिबंध": 2924,
      "रखते": 2925,
      "सुनवाई": 2926,
      "सिर्फ़": 2927,
      "उपाध्यक्ष": 2928,
      "कौन": 2929,
      "उत्पादन": 2930,
      "आधुनिक": 2931,
      "कब्": 2932,
      "वली": 2933,
      "ज़्": 2934,
      "चिका": 2935,
      "सूरत": 2936,
      "निर्देशक": 2937,
      "संस्करण": 2938,
      "पर्यावरण": 2939,
      "शुभ": 2940,
      "जागरूक": 2941,
      "फिल": 2942,
      "२०१३": 2943,
      "भाषाएँ": 2944,
      "मिनट": 2945,
      "दरा": 2946,
      "शू": 2947,
      "विकि": 2948,
      "रेट": 2949,
      "प्ली": 2950,
      "टिस": 2951,
      "निरीक्षण": 2952,
      "अकादमी": 2953,
      "प्रताप": 2954,
      "२०१८": 2955,
      "साम्रा": 2956,
      "कानू": 2957,
      "तैनात": 2958,
      "अंग": 2959,
      "इलेक्": 2960,
      "सक्रि": 2961,
      "चाई": 2962,
      "गतिविध": 2963,
      "बिक": 2964,
      "मनी": 2965,
      "साध": 2966,
      "हाबाद": 2967,
      "मंजू": 2968,
      "समझा": 2969,
      "शुल्क": 2970,
      "मौका": 2971,
      "चौहान": 2972,
      "स्टेडियम": 2973,
      "व्यक्तिगत": 2974,
      "पर्यटन": 2975,
      "र्च": 2976,
      "रीय": 2977,
      "कार्यों": 2978,
      "गणना": 2979,
      "खराब": 2980,
      "वैसे": 2981,
      "खिलाड़ियों": 2982,
      "मजबूत": 2983,
      "धारावाहिक": 2984,
      "उंड": 2985,
      "पात्र": 2986,
      "२०१२": 2987,
      "जयपुर": 2988,
      "सांख्य": 2989,
      "दक्षिणी": 2990,
      "प्रशासनिक": 2991,
      "मज": 2992,
      "चुनौ": 2993,
      "चीज़ें": 2994,
      "आय": 2995,
      "वादा": 2996,
      "पाने": 2997,
      "गुप्त": 2998,
      "सोसि": 2999,
      "लगाए": 3000,
      "ख्त": 3001,
      "इंजीनिय": 3002,
      "साम्राज्य": 3003,
      "तें": 3004,
      "ूंगा": 3005,
      "८०": 3006,
      "मात्रा": 3007,
      "तियों": 3008,
      "राजमार्ग": 3009,
      "रोधी": 3010,
      "वीन": 3011,
      "ष्टा": 3012,
      "योगदान": 3013,
      "मौसम": 3014,
      "ंकी": 3015,
      "लेंगे": 3016,
      "शव": 3017,
      "ेन्द्र": 3018,
      "प्रका": 3019,
      "देती": 3020,
      "वर्क": 3021,
      "परिवर्तन": 3022,
      "छोड़कर": 3023,
      "मण्डल": 3024,
      "डै": 3025,
      "लीग": 3026,
      "२००८": 3027,
      "याचिका": 3028,
      "किताब": 3029,
      "लाइट": 3030,
      "बेच": 3031,
      "संघर्ष": 3032,
      "ऊँगा": 3033,
      "न्यायाधीश": 3034,
      "उन्होने": 3035,
      "कलेक्टर": 3036,
      "मुस्लिम": 3037,
      "कन": 3038,
      "णे": 3039,
      "थु": 3040,
      "जिलों": 3041,
      "वर्सिटी": 3042,
      "कॉन्": 3043,
      "पंजी": 3044,
      "ग्राह": 3045,
      "२००७": 3046,
      "अंतर्राष्ट्रीय": 3047,
      "प्रदर्श": 3048,
      "संचार": 3049,
      "फ़ै": 3050,
      "लोकप्रिय": 3051,
      "पुरानी": 3052,
      "सांख्यिकी": 3053,
      "होम": 3054,
      "दिमा": 3055,
      "पाँच": 3056,
      "सर्व": 3057,
      "थोड़ी": 3058,
      "झू": 3059,
      "संस्कार": 3060,
      "सीय": 3061,
      "रोकने": 3062,
      "अम्": 3063,
      "चढ़": 3064,
      "मला": 3065,
      "जनसंख्या": 3066,
      "खुला": 3067,
      "बौद्ध": 3068,
      "इंद": 3069,
      "कने": 3070,
      "कड़ी": 3071,
      "केरल": 3072,
      "तीश": 3073,
      "रेखा": 3074,
      "मैने": 3075,
      "बुरा": 3076,
      "बुला": 3077,
      "सांस्": 3078,
      "मोहम्मद": 3079,
      "जिम्मेदारी": 3080,
      "डेंट": 3081,
      "ैर": 3082,
      "निरा": 3083,
      "साबित": 3084,
      "पदाधिकारी": 3085,
      "आन्": 3086,
      "नाडु": 3087,
      "संग": 3088,
      "स्थानों": 3089,
      "ग्रं": 3090,
      "जता": 3091,
      "७०": 3092,
      "उसमें": 3093,
      "बारिश": 3094,
      "जेक्ट": 3095,
      "आईटी": 3096,
      "दारों": 3097,
      "सर्वे": 3098,
      "प्रोफे": 3099,
      "सांस्कृतिक": 3100,
      "जरिए": 3101,
      "भारती": 3102,
      "जनरल": 3103,
      "जोशी": 3104,
      "मोर्": 3105,
      "कमेटी": 3106,
      "ऐतिहासिक": 3107,
      "ऑपरे": 3108,
      "स्कर": 3109,
      "बाग": 3110,
      "संदेश": 3111,
      "मेल": 3112,
      "दावा": 3113,
      "स्कूलों": 3114,
      "घटनाएँ": 3115,
      "मूल्य": 3116,
      "संचालित": 3117,
      "भौतिक": 3118,
      "उदाहरण": 3119,
      "आश्": 3120,
      "डब्": 3121,
      "मधु": 3122,
      "बादी": 3123,
      "संत": 3124,
      "त्तर": 3125,
      "सोचा": 3126,
      "२०१६": 3127,
      "दरअसल": 3128,
      "ख़ुद": 3129,
      "कप्तान": 3130,
      "तट": 3131,
      "सप": 3132,
      "सेन": 3133,
      "लिस्ट": 3134,
      "लेश": 3135,
      "वर्ती": 3136,
      "प्राकृतिक": 3137,
      "अभिनय": 3138,
      "फिल्मों": 3139,
      "अध्यक्षता": 3140,
      "नम": 3141,
      "कितना": 3142,
      "परिक": 3143,
      "मिस्टर": 3144,
      "२०१५": 3145,
      "हराया": 3146,
      "गणित": 3147,
      "नियमित": 3148,
      "छू": 3149,
      "मिस": 3150,
      "बीर": 3151,
      "देखकर": 3152,
      "कुमारी": 3153,
      "संक्रमित": 3154,
      "खूब": 3155,
      "पत": 3156,
      "मज़ा": 3157,
      "यस": 3158,
      "रस": 3159,
      "क्ल": 3160,
      "लिमि": 3161,
      "नियुक्ति": 3162,
      "संपत्ति": 3163,
      "सीधे": 3164,
      "वेट": 3165,
      "हिस्से": 3166,
      "कही": 3167,
      "यानी": 3168,
      "स्क्र": 3169,
      "तेजी": 3170,
      "हिर": 3171,
      "ग्रहण": 3172,
      "रास्ते": 3173,
      "सुप्री": 3174,
      "चीनी": 3175,
      "स्टेट": 3176,
      "आनंद": 3177,
      "पढ़ाई": 3178,
      "कारोबार": 3179,
      "आउ": 3180,
      "इम": 3181,
      "केन्द": 3182,
      "विशाल": 3183,
      "ोगे": 3184,
      "शिक्षकों": 3185,
      "बनाकर": 3186,
      "सर्वो": 3187,
      "सौं": 3188,
      "जहा": 3189,
      "ध्र": 3190,
      "लान": 3191,
      "क्षेत्रीय": 3192,
      "रहेगी": 3193,
      "पश्चा": 3194,
      "तीसरे": 3195,
      "एजेंसी": 3196,
      "रजि": 3197,
      "वाइ": 3198,
      "भीड़": 3199,
      "निर्माता": 3200,
      "कृप": 3201,
      "चोरी": 3202,
      "गार्ड": 3203,
      "श्रद्धालु": 3204,
      "इंडियन": 3205,
      "पड़ी": 3206,
      "विपक्ष": 3207,
      "लेट": 3208,
      "अधी": 3209,
      "जनपद": 3210,
      "परिवहन": 3211,
      "अधिनियम": 3212,
      "ख़ान": 3213,
      "सैन्य": 3214,
      "चयन": 3215,
      "ध्वज": 3216,
      "कर्मी": 3217,
      "जुन": 3218,
      "फ़िल्में": 3219,
      "नृत्य": 3220,
      "जंग": 3221,
      "नज़र": 3222,
      "मेश": 3223,
      "मिलती": 3224,
      "तारा": 3225,
      "ट्रांस": 3226,
      "इंतज़ार": 3227,
      "ढूँढ": 3228,
      "फिलहाल": 3229,
      "उद्या": 3230,
      "सपा": 3231,
      "सत्ता": 3232,
      "बेड": 3233,
      "अंदा": 3234,
      "लैण्ड": 3235,
      "प्लेट": 3236,
      "पुनर्": 3237,
      "मानी": 3238,
      "बाबा": 3239,
      "मेह": 3240,
      "वेयर": 3241,
      "मंच": 3242,
      "टेक्": 3243,
      "सूर्य": 3244,
      "स्वच्छ": 3245,
      "यूनिवर्सिटी": 3246,
      "वकी": 3247,
      "सिने": 3248,
      "रूस": 3249,
      "भूत": 3250,
      "रंजन": 3251,
      "टु": 3252,
      "नक": 3253,
      "४५": 3254,
      "सरों": 3255,
      "प्राय": 3256,
      "लगाई": 3257,
      "लॉकडाउन": 3258,
      "ऑफ़": 3259,
      "झु": 3260,
      "कीन": 3261,
      "प्रखंड": 3262,
      "कॉल": 3263,
      "ट्रि": 3264,
      "भाषाओं": 3265,
      "विदेशी": 3266,
      "खों": 3267,
      "ेंज": 3268,
      "सालों": 3269,
      "ग्रु": 3270,
      "व्यवसाय": 3271,
      "आदित्य": 3272,
      "संबोधित": 3273,
      "आकर": 3274,
      "ओल": 3275,
      "साधारण": 3276,
      "सिक्": 3277,
      "जानती": 3278,
      "डॉलर": 3279,
      "इलाहाबाद": 3280,
      "पर्याप्त": 3281,
      "केन्द्रीय": 3282,
      "बड़": 3283,
      "अमित": 3284,
      "विकल्प": 3285,
      "जालस्थल": 3286,
      "अनिल": 3287,
      "सक्रिय": 3288,
      "एसोसि": 3289,
      "निग": 3290,
      "संगठ": 3291,
      "स्तरीय": 3292,
      "एसडीएम": 3293,
      "योजनाओं": 3294,
      "संवाददाता": 3295,
      "संरक्षण": 3296,
      "रासत": 3297,
      "वितरण": 3298,
      "प्रस्तुत": 3299,
      "परेशानी": 3300,
      "तुरंत": 3301,
      "आगा": 3302,
      "लीय": 3303,
      "तरीन": 3304,
      "गलत": 3305,
      "प्रकाशन": 3306,
      "महो": 3307,
      "हस्ता": 3308,
      "र्ग": 3309,
      "रूम": 3310,
      "समस्याओं": 3311,
      "बराम": 3312,
      "मल्": 3313,
      "सब्": 3314,
      "टेनिस": 3315,
      "बोली": 3316,
      "फ़िल्मों": 3317,
      "फें": 3318,
      "विवाह": 3319,
      "दित": 3320,
      "रहें": 3321,
      "वेज": 3322,
      "जनक": 3323,
      "महामारी": 3324,
      "सामग्री": 3325,
      "दस्ता": 3326,
      "वधान": 3327,
      "कोड": 3328,
      "दिक": 3329,
      "मुकद": 3330,
      "शिष्ट": 3331,
      "दुर": 3332,
      "युवाओं": 3333,
      "साधन": 3334,
      "पीय": 3335,
      "तोष": 3336,
      "उपकरण": 3337,
      "अरब": 3338,
      "राहत": 3339,
      "ग्रंथ": 3340,
      "अत्य": 3341,
      "आना": 3342,
      "जॉन": 3343,
      "पब्": 3344,
      "भक्त": 3345,
      "मों": 3346,
      "कोत": 3347,
      "ड़िया": 3348,
      "श्न": 3349,
      "अनुभव": 3350,
      "उत्पाद": 3351,
      "अन्तर": 3352,
      "ंतु": 3353,
      "जॉ": 3354,
      "नार": 3355,
      "वाड़ा": 3356,
      "होनी": 3357,
      "पालिका": 3358,
      "रुद्ध": 3359,
      "धीरे": 3360,
      "होटल": 3361,
      "संभव": 3362,
      "शांत": 3363,
      "वेतन": 3364,
      "बेव": 3365,
      "च्छा": 3366,
      "सारा": 3367,
      "आरोपित": 3368,
      "लड़ाई": 3369,
      "घरे": 3370,
      "प्ति": 3371,
      "मिलते": 3372,
      "बेहतरीन": 3373,
      "चन्द्र": 3374,
      "मश": 3375,
      "षित": 3376,
      "हल्": 3377,
      "विद्": 3378,
      "बान": 3379,
      "पहन": 3380,
      "ब्रिटेन": 3381,
      "सूत्रों": 3382,
      "मशीन": 3383,
      "कृपया": 3384,
      "एक्ट": 3385,
      "स्पि": 3386,
      "क्कर": 3387,
      "वाने": 3388,
      "त्सव": 3389,
      "पैसा": 3390,
      "शास्त्री": 3391,
      "मुकाबले": 3392,
      "सिस्टम": 3393,
      "भरोसा": 3394,
      "लिमिटेड": 3395,
      "शौ": 3396,
      "पीट": 3397,
      "महाविद्यालय": 3398,
      "नियां": 3399,
      "वर्षीय": 3400,
      "अमर": 3401,
      "भोजन": 3402,
      "आउट": 3403,
      "स्टू": 3404,
      "शिविर": 3405,
      "हार्": 3406,
      "पहल": 3407,
      "ंची": 3408,
      "देखी": 3409,
      "दौर": 3410,
      "एँगे": 3411,
      "२००४": 3412,
      "उद्यान": 3413,
      "३५": 3414,
      "९०": 3415,
      "मारा": 3416,
      "राजेश": 3417,
      "होंगी": 3418,
      "पहुँचा": 3419,
      "बजट": 3420,
      "णि": 3421,
      "काट": 3422,
      "संशो": 3423,
      "पाली": 3424,
      "मिता": 3425,
      "अपील": 3426,
      "भाग्य": 3427,
      "करूँगा": 3428,
      "किर": 3429,
      "मिया": 3430,
      "बुल": 3431,
      "छोटा": 3432,
      "चुनावों": 3433,
      "पदक": 3434,
      "ट्वी": 3435,
      "ट्टा": 3436,
      "मनाया": 3437,
      "डू": 3438,
      "राइ": 3439,
      "क्षम": 3440,
      "नियाँ": 3441,
      "अश्": 3442,
      "गौर": 3443,
      "र्ना": 3444,
      "कोह": 3445,
      "न्थ": 3446,
      "तीर्थ": 3447,
      "रेडियो": 3448,
      "फिल्में": 3449,
      "खुश": 3450,
      "रॉय": 3451,
      "छात्राओं": 3452,
      "श्याम": 3453,
      "दैनिक": 3454,
      "सुप्रीम": 3455,
      "अक्सर": 3456,
      "चली": 3457,
      "ट्री": 3458,
      "विवे": 3459,
      "हाद": 3460,
      "गुला": 3461,
      "चलने": 3462,
      "ॉर्क": 3463,
      "मस्": 3464,
      "राकेश": 3465,
      "पुल": 3466,
      "्टर": 3467,
      "गोपाल": 3468,
      "समाधान": 3469,
      "ख्यात": 3470,
      "पृष्ठ": 3471,
      "द्रा": 3472,
      "लम्": 3473,
      "हैदरा": 3474,
      "क्षी": 3475,
      "तुलना": 3476,
      "परिजनों": 3477,
      "अंक": 3478,
      "अधिकां": 3479,
      "कॉम": 3480,
      "घाटन": 3481,
      "रायपुर": 3482,
      "दिवसीय": 3483,
      "लक्ष्मी": 3484,
      "ग्रुप": 3485,
      "असर": 3486,
      "नवा": 3487,
      "बहन": 3488,
      "वती": 3489,
      "लेन": 3490,
      "१९०": 3491,
      "बताना": 3492,
      "द्योगिक": 3493,
      "मणि": 3494,
      "इयों": 3495,
      "पर्व": 3496,
      "२००६": 3497,
      "चैंपियन": 3498,
      "अधीक्षक": 3499,
      "विदा": 3500,
      "गेट": 3501,
      "बिनेट": 3502,
      "आरपी": 3503,
      "श्रीलं": 3504,
      "वाहनों": 3505,
      "मन्दिर": 3506,
      "ड्राइ": 3507,
      "टेलीवि": 3508,
      "ड्डी": 3509,
      "मंजूरी": 3510,
      "आशा": 3511,
      "आबादी": 3512,
      "खर्च": 3513,
      "यात्री": 3514,
      "त्कार": 3515,
      "शिकार": 3516,
      "खाद्य": 3517,
      "प्रतिक्रिया": 3518,
      "इस्ती": 3519,
      "लड़कियों": 3520,
      "अफ्रीका": 3521,
      "मनोज": 3522,
      "माइक्रो": 3523,
      "तकनीकी": 3524,
      "अन्तर्गत": 3525,
      "जागरण": 3526,
      "ष्टाचार": 3527,
      "ओवर": 3528,
      "औद्योगिक": 3529,
      "७५": 3530,
      "प्रवक्ता": 3531,
      "विवरण": 3532,
      "बाइक": 3533,
      "रेन्द्र": 3534,
      "फ़्र": 3535,
      "किनारे": 3536,
      "ष्ठा": 3537,
      "सिद्धांत": 3538,
      "करियर": 3539,
      "आसान": 3540,
      "वालि": 3541,
      "वेल": 3542,
      "रखे": 3543,
      "विद्यालयों": 3544,
      "२००३": 3545,
      "तलाश": 3546,
      "प्रोफेसर": 3547,
      "सिनेमा": 3548,
      "अजय": 3549,
      "तरे": 3550,
      "थर": 3551,
      "कांत": 3552,
      "राग": 3553,
      "वर्ल्ड": 3554,
      "गठबंधन": 3555,
      "चोट": 3556,
      "करवाया": 3557,
      "इतने": 3558,
      "ऑक्सी": 3559,
      "यहीं": 3560,
      "व्र": 3561,
      "कालेज": 3562,
      "कोर": 3563,
      "तिथि": 3564,
      "संविधान": 3565,
      "टिप्": 3566,
      "क्रमण": 3567,
      "दोस्तों": 3568,
      "एयरपोर्ट": 3569,
      "दिलच": 3570,
      "डब्ल्यू": 3571,
      "रहीं": 3572,
      "विन": 3573,
      "विकेट": 3574,
      "संकट": 3575,
      "हिंसा": 3576,
      "कैबिनेट": 3577,
      "वैश्": 3578,
      "स्थापक": 3579,
      "सकेंगे": 3580,
      "तापमान": 3581,
      "टीकाकरण": 3582,
      "प्लीज़": 3583,
      "एसोसिएशन": 3584,
      "पशु": 3585,
      "बक": 3586,
      "सराय": 3587,
      "ंगो": 3588,
      "ग़ा": 3589,
      "क्रांति": 3590,
      "मुद्दे": 3591,
      "अहमद": 3592,
      "तस्वीरें": 3593,
      "प्रत्याशी": 3594,
      "हैदराबाद": 3595,
      "बें": 3596,
      "कितनी": 3597,
      "वित्": 3598,
      "तीनों": 3599,
      "पुस्त": 3600,
      "प्रतिभा": 3601,
      "इंस्पे": 3602,
      "केंद्रों": 3603,
      "ंसी": 3604,
      "यॉर्क": 3605,
      "शॉ": 3606,
      "सजा": 3607,
      "जाँच": 3608,
      "द्द": 3609,
      "पदों": 3610,
      "लिखी": 3611,
      "यंका": 3612,
      "वार्ता": 3613,
      "दया": 3614,
      "रक्त": 3615,
      "न्तु": 3616,
      "लिपि": 3617,
      "गाह": 3618,
      "जिया": 3619,
      "ढ़ी": 3620,
      "गुल": 3621,
      "२०१७": 3622,
      "हालत": 3623,
      "ओम": 3624,
      "जवान": 3625,
      "णसी": 3626,
      "विरोधी": 3627,
      "टिल": 3628,
      "इंदौर": 3629,
      "असम": 3630,
      "किस्": 3631,
      "प्रोग्रा": 3632,
      "लगाकर": 3633,
      "घरों": 3634,
      "अर्थव्यवस्था": 3635,
      "उद्घाटन": 3636,
      "वाराणसी": 3637,
      "कस": 3638,
      "सीरी": 3639,
      "चालक": 3640,
      "मंडी": 3641,
      "एसएस": 3642,
      "चेताव": 3643,
      "पूछता": 3644,
      "रिश्ते": 3645,
      "किशोर": 3646,
      "ट्वीट": 3647,
      "जला": 3648,
      "र्ण": 3649,
      "रिस": 3650,
      "आरोपियों": 3651,
      "वृत्ति": 3652,
      "धिकारियों": 3653,
      "असली": 3654,
      "फुटबॉल": 3655,
      "अज्ञात": 3656,
      "क्की": 3657,
      "देगा": 3658,
      "भीतर": 3659,
      "रेशन": 3660,
      "्रेस": 3661,
      "गोरख": 3662,
      "२००५": 3663,
      "कानपुर": 3664,
      "प्रोजेक्ट": 3665,
      "हाईकोर्ट": 3666,
      "निशाना": 3667,
      "वैश्विक": 3668,
      "निवास": 3669,
      "खाली": 3670,
      "दर्द": 3671,
      "लोड": 3672,
      "परिचय": 3673,
      "दून": 3674,
      "ट्रिक": 3675,
      "प्रियंका": 3676,
      "लगेगा": 3677,
      "घरेलू": 3678,
      "धर्": 3679,
      "सुल": 3680,
      "बताते": 3681,
      "बदमा": 3682,
      "निर्वाचित": 3683,
      "सिन्हा": 3684,
      "गतिविधियों": 3685,
      "चुनौती": 3686,
      "बरामद": 3687,
      "वित्तीय": 3688,
      "आपूर्ति": 3689,
      "दबाव": 3690,
      "यकों": 3691,
      "यंस": 3692,
      "ड़ों": 3693,
      "बाला": 3694,
      "२०००": 3695,
      "कामना": 3696,
      "नियमों": 3697,
      "पब्लिक": 3698,
      "इंस्पेक्टर": 3699,
      "कन्न": 3700,
      "टरी": 3701,
      "ौल": 3702,
      "स्मृ": 3703,
      "समर्": 3704,
      "बीमार": 3705,
      "आपसे": 3706,
      "कड़े": 3707,
      "श्रृंखला": 3708,
      "सॉफ्ट": 3709,
      "जाएँगे": 3710,
      "अधिकांश": 3711,
      "आयुक्त": 3712,
      "खार": 3713,
      "रसा": 3714,
      "शही": 3715,
      "नेश": 3716,
      "स्वि": 3717,
      "र्द": 3718,
      "स्टॉ": 3719,
      "तरित": 3720,
      "मानसिक": 3721,
      "बीएस": 3722,
      "उनमें": 3723,
      "महासचिव": 3724,
      "पहुंचने": 3725,
      "हालात": 3726,
      "विस्तृत": 3727,
      "निगरानी": 3728,
      "ंटा": 3729,
      "नती": 3730,
      "लंदन": 3731,
      "ूर": 3732,
      "कोरिया": 3733,
      "सिविल": 3734,
      "शासक": 3735,
      "रियर": 3736,
      "मान्यता": 3737,
      "मिलना": 3738,
      "दार्": 3739,
      "चौक": 3740,
      "गिरफ्तारी": 3741,
      "यूरोप": 3742,
      "उतर": 3743,
      "यकीन": 3744,
      "गानिस्तान": 3745,
      "दीपक": 3746,
      "उनको": 3747,
      "गोवि": 3748,
      "अब्दु": 3749,
      "षक": 3750,
      "स्रो": 3751,
      "मास्क": 3752,
      "कारों": 3753,
      "डीसी": 3754,
      "मौजू": 3755,
      "पढ़ें": 3756,
      "हाथों": 3757,
      "भ्रष्टाचार": 3758,
      "हिंदू": 3759,
      "वकील": 3760,
      "चेतावनी": 3761,
      "अनिवार": 3762,
      "आशी": 3763,
      "सेल": 3764,
      "न्व": 3765,
      "साब": 3766,
      "मेन": 3767,
      "मेट्रो": 3768,
      "साथी": 3769,
      "लोनी": 3770,
      "परिस्थिति": 3771,
      "ब्लॉक": 3772,
      "बनाना": 3773,
      "इंस": 3774,
      "इंसान": 3775,
      "महत्": 3776,
      "लेंस": 3777,
      "प्रयाग": 3778,
      "सलमान": 3779,
      "उड़ान": 3780,
      "जमकर": 3781,
      "सुनील": 3782,
      "मौजूदा": 3783,
      "आंध": 3784,
      "कस्": 3785,
      "खड़े": 3786,
      "गज": 3787,
      "लकर": 3788,
      "शिक": 3789,
      "निर": 3790,
      "देशा": 3791,
      "एकमात्र": 3792,
      "जीता": 3793,
      "सुख": 3794,
      "ख़त्म": 3795,
      "ंपिक": 3796,
      "लंबे": 3797,
      "जेंट": 3798,
      "महे": 3799,
      "सैं": 3800,
      "केत": 3801,
      "स्पर्": 3802,
      "म्मत": 3803,
      "वर्धन": 3804,
      "उत्पन्न": 3805,
      "डिजि": 3806,
      "भौति": 3807,
      "स्नातक": 3808,
      "बदमाश": 3809,
      "कमि": 3810,
      "किरा": 3811,
      "परवाह": 3812,
      "ोगी": 3813,
      "श्त": 3814,
      "जनसांख्यिकी": 3815,
      "कराए": 3816,
      "स्वती": 3817,
      "अधिकतर": 3818,
      "इंटरनेट": 3819,
      "गरीब": 3820,
      "पूछताछ": 3821,
      "ंती": 3822,
      "अना": 3823,
      "अग्": 3824,
      "कटि": 3825,
      "टिया": 3826,
      "शारी": 3827,
      "राजस्व": 3828,
      "ब्ला": 3829,
      "डीए": 3830,
      "समुद्र": 3831,
      "बहादुर": 3832,
      "इकाई": 3833,
      "नही": 3834,
      "राजीव": 3835,
      "ज़रा": 3836,
      "मंत्रियों": 3837,
      "चारों": 3838,
      "पारि": 3839,
      "व्यक्त": 3840,
      "ज्ञापन": 3841,
      "वोट": 3842,
      "फैसले": 3843,
      "व्यक्तियों": 3844,
      "बचाव": 3845,
      "मॉडल": 3846,
      "आखिरी": 3847,
      "मोर्चा": 3848,
      "हस्ताक्षर": 3849,
      "श्रीलंका": 3850,
      "इरा": 3851,
      "धम": 3852,
      "रावत": 3853,
      "जापान": 3854,
      "संस्थापक": 3855,
      "सरस्वती": 3856,
      "गुस्": 3857,
      "पेट": 3858,
      "गईं": 3859,
      "ग्रन्थ": 3860,
      "जिलाधिकारी": 3861,
      "मध्यप्रदेश": 3862,
      "अतिथि": 3863,
      "तत्काल": 3864,
      "आगरा": 3865,
      "आचार्य": 3866,
      "ईरान": 3867,
      "संदिग्": 3868,
      "ज़रूरी": 3869,
      "वेदी": 3870,
      "बचाने": 3871,
      "इंतजार": 3872,
      "अजी": 3873,
      "पंड": 3874,
      "यें": 3875,
      "न्त्र": 3876,
      "लिप": 3877,
      "जुड़ी": 3878,
      "सायनिक": 3879,
      "कल्पना": 3880,
      "कोतवाली": 3881,
      "स्मृति": 3882,
      "अरवि": 3883,
      "आलो": 3884,
      "तमाम": 3885,
      "दत्त": 3886,
      "बिया": 3887,
      "सच्": 3888,
      "सहम": 3889,
      "विरुद्ध": 3890,
      "संदर्भ": 3891,
      "ज़ो": 3892,
      "ज़रूर": 3893,
      "रिटी": 3894,
      "स्टिक": 3895,
      "धाम": 3896,
      "एसटी": 3897,
      "बुलाया": 3898,
      "अर्जुन": 3899,
      "लौट": 3900,
      "नैतिक": 3901,
      "डिजिटल": 3902,
      "जॉर्": 3903,
      "काला": 3904,
      "क्वार": 3905,
      "कर्ता": 3906,
      "कमल": 3907,
      "रैली": 3908,
      "अफ़्रीका": 3909,
      "मजदूर": 3910,
      "आंध्र": 3911,
      "संदिग्ध": 3912,
      "दशक": 3913,
      "धारी": 3914,
      "५००": 3915,
      "नेह": 3916,
      "सिस": 3917,
      "सर्वि": 3918,
      "प्रतिनिधित": 3919,
      "प्रतिनिधित्व": 3920,
      "फिया": 3921,
      "केदार": 3922,
      "सेव": 3923,
      "म्बई": 3924,
      "मित्र": 3925,
      "ैंक": 3926,
      "शिला": 3927,
      "प्रतिमा": 3928,
      "चलाया": 3929,
      "महाराज": 3930,
      "शैली": 3931,
      "आवाज़": 3932,
      "उल्लेखनीय": 3933,
      "पांडेय": 3934,
      "बिक्री": 3935,
      "हंगा": 3936,
      "विशिष्ट": 3937,
      "रिली": 3938,
      "सेवाएं": 3939,
      "दायिक": 3940,
      "ऊँगी": 3941,
      "जितना": 3942,
      "ंजलि": 3943,
      "भौतिकी": 3944,
      "करार": 3945,
      "वाणी": 3946,
      "विस्": 3947,
      "सानी": 3948,
      "देहरा": 3949,
      "तुल": 3950,
      "मानना": 3951,
      "ज़िम्मे": 3952,
      "अभ्य": 3953,
      "सर्वोच्च": 3954,
      "उचित": 3955,
      "टका": 3956,
      "काव्य": 3957,
      "सेज": 3958,
      "प्रार्थ": 3959,
      "हीन": 3960,
      "हाइड": 3961,
      "भाल": 3962,
      "मारने": 3963,
      "महिलाएं": 3964,
      "ब्राह्": 3965,
      "ष्णु": 3966,
      "यूरोपीय": 3967,
      "चार्ज": 3968,
      "ब्रह्म": 3969,
      "बेवकू": 3970,
      "प्रार्थना": 3971,
      "नपुर": 3972,
      "नेस": 3973,
      "जिटिव": 3974,
      "बेस": 3975,
      "डीओ": 3976,
      "व्यापक": 3977,
      "सीटों": 3978,
      "वास्तविक": 3979,
      "शारीरिक": 3980,
      "अयो": 3981,
      "ऋषि": 3982,
      "कथ": 3983,
      "नक्स": 3984,
      "बंदी": 3985,
      "रात्रि": 3986,
      "हिसाब": 3987,
      "निर्भर": 3988,
      "सकर्": 3989,
      "हूर": 3990,
      "गैस": 3991,
      "बर्बाद": 3992,
      "विमानक्षेत्र": 3993,
      "अमरीकी": 3994,
      "हड़ताल": 3995,
      "ंजी": 3996,
      "अपर": 3997,
      "तभी": 3998,
      "धियों": 3999,
      "रासायनिक": 4000,
      "विनो": 4001,
      "उपचार": 4002,
      "डाला": 4003,
      "हिन्दु": 4004,
      "इलाकों": 4005,
      "सकें": 4006,
      "दुर्गा": 4007,
      "नियंत्रित": 4008,
      "उदय": 4009,
      "तत्व": 4010,
      "दूँगा": 4011,
      "हाइ": 4012,
      "क्ष्": 4013,
      "लीला": 4014,
      "पुष्टि": 4015,
      "्यास": 4016,
      "पूर्वक": 4017,
      "खेला": 4018,
      "माध्यमिक": 4019,
      "देहरादून": 4020,
      "आख़ि": 4021,
      "स्की": 4022,
      "सेक्टर": 4023,
      "मारे": 4024,
      "सूचित": 4025,
      "धिकरण": 4026,
      "इंट": 4027,
      "पोर्टल": 4028,
      "कानूनी": 4029,
      "कोहली": 4030,
      "अयोध्या": 4031,
      "बायो": 4032,
      "खुशी": 4033,
      "लॉन्": 4034,
      "लंबी": 4035,
      "घुस": 4036,
      "अकेले": 4037,
      "पसी": 4038,
      "सेंट": 4039,
      "३६": 4040,
      "कोच": 4041,
      "मंत्रि": 4042,
      "डेट": 4043,
      "इसीलिए": 4044,
      "काउंट": 4045,
      "चानक": 4046,
      "फॉर्म": 4047,
      "अड्डा": 4048,
      "श्रद्धालुओं": 4049,
      "अचानक": 4050,
      "शपथ": 4051,
      "क्षु": 4052,
      "दिला": 4053,
      "रियल": 4054,
      "बीमारी": 4055,
      "मोटर": 4056,
      "पिंग": 4057,
      "अनुप": 4058,
      "फाय": 4059,
      "सर्वा": 4060,
      "लॉजी": 4061,
      "विषयों": 4062,
      "गौतम": 4063,
      "उम्मीदवारों": 4064,
      "सवार": 4065,
      "टाटा": 4066,
      "ग्रस्त": 4067,
      "टूर्ना": 4068,
      "आर्य": 4069,
      "कनाडा": 4070,
      "भरा": 4071,
      "यंत्र": 4072,
      "कोण": 4073,
      "रामा": 4074,
      "माया": 4075,
      "दिरा": 4076,
      "दिये": 4077,
      "एकल": 4078,
      "रोमा": 4079,
      "अनुमान": 4080,
      "रखें": 4081,
      "उठाया": 4082,
      "प्रबंधक": 4083,
      "पाठ्य": 4084,
      "तमिलनाडु": 4085,
      "इंजीनियरिंग": 4086,
      "पश्चात": 4087,
      "मुकदमा": 4088,
      "मशहूर": 4089,
      "गोरखपुर": 4090,
      "टूर्नामेंट": 4091,
      "अंध": 4092,
      "फार": 4093,
      "हवा": 4094,
      "मांड": 4095,
      "शियों": 4096,
      "स्थायी": 4097,
      "चुने": 4098,
      "पुलिसकर्": 4099,
      "नवम्बर": 4100,
      "संशोधन": 4101,
      "हफ़्": 4102,
      "३४": 4103,
      "लाश": 4104,
      "परंप": 4105,
      "कुत्": 4106,
      "कहाँ": 4107,
      "अनुवाद": 4108,
      "श्रीवास्तव": 4109,
      "लंबित": 4110,
      "सितम्बर": 4111,
      "पड़ो": 4112,
      "बढ़ावा": 4113,
      "प्राइवेट": 4114,
      "इमारत": 4115,
      "अनिवार्य": 4116,
      "अकार्बनिक": 4117,
      "हत": 4118,
      "ूं": 4119,
      "वासन": 4120,
      "लाइस": 4121,
      "संतु": 4122,
      "आईसी": 4123,
      "डोर": 4124,
      "विद्यार्थी": 4125,
      "नागरि": 4126,
      "सीरीज": 4127,
      "जर्म": 4128,
      "संतोष": 4129,
      "लीप": 4130,
      "रूसी": 4131,
      "चौकी": 4132,
      "अवधि": 4133,
      "नाराज": 4134,
      "परंपरा": 4135,
      "आजा": 4136,
      "एगा": 4137,
      "गवर्": 4138,
      "डम": 4139,
      "बर्ट": 4140,
      "राणा": 4141,
      "साइड": 4142,
      "बाँ": 4143,
      "योग्य": 4144,
      "र्डर": 4145,
      "नईदुनिया": 4146,
      "समीप": 4147,
      "ख़ुशी": 4148,
      "तत्कालीन": 4149,
      "ऑपरेशन": 4150,
      "ऑक्सीजन": 4151,
      "टर्": 4152,
      "सक्षम": 4153,
      "वाया": 4154,
      "कार्ट": 4155,
      "रोज": 4156,
      "वर्ड": 4157,
      "दुष्": 4158,
      "एससी": 4159,
      "लियाँ": 4160,
      "चेयर": 4161,
      "कमरे": 4162,
      "फोट": 4163,
      "तरीका": 4164,
      "चलाने": 4165,
      "सड़कों": 4166,
      "स्क्रीन": 4167,
      "अग्नि": 4168,
      "नागरिकों": 4169,
      "भक्ति": 4170,
      "स्वर्ण": 4171,
      "प्रकरण": 4172,
      "प्रभु": 4173,
      "मास्टर": 4174,
      "लेगा": 4175,
      "सीख": 4176,
      "रेली": 4177,
      "सुझा": 4178,
      "कार्यकाल": 4179,
      "उपभो": 4180,
      "घाटी": 4181,
      "प्रोत्": 4182,
      "संभाल": 4183,
      "प्रसारण": 4184,
      "अमरीका": 4185,
      "अरुण": 4186,
      "कपड़े": 4187,
      "रद्द": 4188,
      "स्पति": 4189,
      "तरनाक": 4190,
      "महासागर": 4191,
      "२००२": 4192,
      "शहरों": 4193,
      "नाइटेड": 4194,
      "आगामी": 4195,
      "अरे": 4196,
      "फ्री": 4197,
      "राना": 4198,
      "वाज": 4199,
      "वादियों": 4200,
      "बेटा": 4201,
      "यक़": 4202,
      "जन्मदिन": 4203,
      "१९९९": 4204,
      "मराठी": 4205,
      "ड्यूटी": 4206,
      "प्रारंभिक": 4207,
      "अजीब": 4208,
      "आराम": 4209,
      "एल्": 4210,
      "कक्ष": 4211,
      "दस्त": 4212,
      "फर्जी": 4213,
      "मद्": 4214,
      "नेशिया": 4215,
      "विषा": 4216,
      "तिया": 4217,
      "मुरा": 4218,
      "राजवंश": 4219,
      "वीय": 4220,
      "जोन": 4221,
      "टेक": 4222,
      "जयंती": 4223,
      "चोपड़ा": 4224,
      "पॉजिटिव": 4225,
      "इंटरनेशनल": 4226,
      "संगठनों": 4227,
      "जर्मनी": 4228,
      "आइस": 4229,
      "उथ": 4230,
      "ढे": 4231,
      "नवीन": 4232,
      "बंग": 4233,
      "म्यू": 4234,
      "हैया": 4235,
      "काने": 4236,
      "ज़ोर": 4237,
      "दाताओं": 4238,
      "कुर्": 4239,
      "सुरेश": 4240,
      "रोहित": 4241,
      "खाते": 4242,
      "सदर": 4243,
      "२००१": 4244,
      "ंत्रिक": 4245,
      "बैठे": 4246,
      "भेद": 4247,
      "मरीज": 4248,
      "रसायन": 4249,
      "पंडित": 4250,
      "इच्छा": 4251,
      "ण्य": 4252,
      "पवन": 4253,
      "बम": 4254,
      "बजाय": 4255,
      "रमेश": 4256,
      "ौली": 4257,
      "माफ़ी": 4258,
      "गाइड": 4259,
      "द्दीन": 4260,
      "शुभार": 4261,
      "जिनके": 4262,
      "हजारों": 4263,
      "दृश्य": 4264,
      "आईपीएल": 4265,
      "स्रोत": 4266,
      "एंगे": 4267,
      "कन्या": 4268,
      "लघु": 4269,
      "वाता": 4270,
      "विष्णु": 4271,
      "निपट": 4272,
      "सिंध": 4273,
      "ंचल": 4274,
      "लगने": 4275,
      "व्यं": 4276,
      "नोटिस": 4277,
      "दौड़": 4278,
      "ट्रंप": 4279,
      "कार्यक्रमों": 4280,
      "कारात्मक": 4281,
      "उक्त": 4282,
      "कब": 4283,
      "नारे": 4284,
      "यर्स": 4285,
      "हफ्": 4286,
      "क्य": 4287,
      "लियम": 4288,
      "मुम्बई": 4289,
      "इसने": 4290,
      "फ़्रा": 4291,
      "बीसी": 4292,
      "चुन": 4293,
      "कार्यवाही": 4294,
      "सबुक": 4295,
      "जुड़": 4296,
      "सर्च": 4297,
      "कहला": 4298,
      "प्रेरित": 4299,
      "बकवास": 4300,
      "अल्प": 4301,
      "जस्टि": 4302,
      "भंड": 4303,
      "सौर": 4304,
      "सेक्स": 4305,
      "कितने": 4306,
      "संरचना": 4307,
      "संकेत": 4308,
      "मुज": 4309,
      "इसको": 4310,
      "शास": 4311,
      "बीमा": 4312,
      "बिता": 4313,
      "दौरा": 4314,
      "स्वस्थ": 4315,
      "खेलों": 4316,
      "विधायकों": 4317,
      "पत्थर": 4318,
      "आकाश": 4319,
      "४८": 4320,
      "प्रशं": 4321,
      "जानी": 4322,
      "हिम": 4323,
      "बीते": 4324,
      "डीपी": 4325,
      "व्यू": 4326,
      "नोट": 4327,
      "दौरे": 4328,
      "चुनावी": 4329,
      "तीसरी": 4330,
      "जवानों": 4331,
      "यूनियन": 4332,
      "आत्": 4333,
      "ईओ": 4334,
      "शहरी": 4335,
      "प्रगति": 4336,
      "मेला": 4337,
      "सिन": 4338,
      "हिया": 4339,
      "निर्देशित": 4340,
      "लंघन": 4341,
      "आतंकी": 4342,
      "अफगानिस्तान": 4343,
      "कौशल": 4344,
      "सहयोगी": 4345,
      "मुद्दों": 4346,
      "जिम्मेदार": 4347,
      "डायरे": 4348,
      "आखिर": 4349,
      "आकार": 4350,
      "उज्": 4351,
      "एसी": 4352,
      "ण्": 4353,
      "फ्रे": 4354,
      "काय": 4355,
      "सेल्": 4356,
      "वाड़": 4357,
      "वित्र": 4358,
      "दिक्": 4359,
      "चाहे": 4360,
      "राजकीय": 4361,
      "प्राधिकरण": 4362,
      "कैल": 4363,
      "डेटा": 4364,
      "अस्ति": 4365,
      "पढ़े": 4366,
      "पहाड़ी": 4367,
      "ऑटो": 4368,
      "खड़ा": 4369,
      "मगर": 4370,
      "मालिक": 4371,
      "संग्र": 4372,
      "सिद्": 4373,
      "सोनी": 4374,
      "बताओ": 4375,
      "बनना": 4376,
      "पार्षद": 4377,
      "साइकिल": 4378,
      "खुलासा": 4379,
      "इण्ड": 4380,
      "गों": 4381,
      "दलों": 4382,
      "केजरी": 4383,
      "तिब्": 4384,
      "संसदी": 4385,
      "मंद": 4386,
      "शिंग": 4387,
      "हारी": 4388,
      "रखता": 4389,
      "दिखाया": 4390,
      "क्लास": 4391,
      "सीबीआई": 4392,
      "नेहरू": 4393,
      "संसदीय": 4394,
      "कल्": 4395,
      "चंडी": 4396,
      "वसू": 4397,
      "स्मार": 4398,
      "नायक": 4399,
      "विविध": 4400,
      "बानी": 4401,
      "शुक्ला": 4402,
      "गुना": 4403,
      "भूल": 4404,
      "आरम्भ": 4405,
      "पैर": 4406,
      "जीतने": 4407,
      "निकाला": 4408,
      "प्टर": 4409,
      "केजरीवाल": 4410,
      "जगत": 4411,
      "षेक": 4412,
      "माय": 4413,
      "टाई": 4414,
      "लगती": 4415,
      "गोलिक": 4416,
      "फ्फर": 4417,
      "स्पेशल": 4418,
      "हटाने": 4419,
      "प्रदर्शित": 4420,
      "आदित्यनाथ": 4421,
      "प्रोग्राम": 4422,
      "हंगामा": 4423,
      "अस्तित्व": 4424,
      "झी": 4425,
      "रहो": 4426,
      "कानों": 4427,
      "न्दा": 4428,
      "सीन": 4429,
      "मेहन": 4430,
      "चारिक": 4431,
      "शुद्ध": 4432,
      "देखभाल": 4433,
      "सबको": 4434,
      "आईए": 4435,
      "बढ़ने": 4436,
      "श्रीमती": 4437,
      "बच्चा": 4438,
      "भौगोलिक": 4439,
      "पुरुषों": 4440,
      "वायरल": 4441,
      "विनोद": 4442,
      "अखि": 4443,
      "आये": 4444,
      "उतार": 4445,
      "गह": 4446,
      "रवाना": 4447,
      "ताला": 4448,
      "संभ": 4449,
      "मुना": 4450,
      "सिखा": 4451,
      "हिता": 4452,
      "मानते": 4453,
      "वंत": 4454,
      "ब्लै": 4455,
      "आईएस": 4456,
      "ट्रक": 4457,
      "समाजवा": 4458,
      "घोटा": 4459,
      "अस्पतालों": 4460,
      "लाखों": 4461,
      "फ्रें": 4462,
      "निकालने": 4463,
      "आयुर्": 4464,
      "महोत्सव": 4465,
      "फिक": 4466,
      "बधा": 4467,
      "ूप": 4468,
      "क्लो": 4469,
      "निकाली": 4470,
      "दिनेश": 4471,
      "पुष्": 4472,
      "मुखी": 4473,
      "बिंद": 4474,
      "इंजन": 4475,
      "आरंभ": 4476,
      "सौंप": 4477,
      "तनाव": 4478,
      "उल्लंघन": 4479,
      "गरीय": 4480,
      "दिमाग": 4481,
      "स्कॉ": 4482,
      "विंग": 4483,
      "जात": 4484,
      "जिद": 4485,
      "पीसी": 4486,
      "ग्वालि": 4487,
      "१९९८": 4488,
      "१९८९": 4489,
      "वृत्त": 4490,
      "सुझाव": 4491,
      "समाजवादी": 4492,
      "आत्मा": 4493,
      "लता": 4494,
      "३२": 4495,
      "वियत": 4496,
      "न्दर": 4497,
      "हिरासत": 4498,
      "शिक्षण": 4499,
      "कृष्ट": 4500,
      "बोले": 4501,
      "चलता": 4502,
      "न्यूयॉर्क": 4503,
      "१९८०": 4504,
      "विश्ले": 4505,
      "उर्फ": 4506,
      "जायेगा": 4507,
      "समझौता": 4508,
      "टेलीविजन": 4509,
      "शहीद": 4510,
      "ब्राह्मण": 4511,
      "ग्वालियर": 4512,
      "घि": 4513,
      "हस्त": 4514,
      "ुमान": 4515,
      "क्वा": 4516,
      "पाठी": 4517,
      "मारपीट": 4518,
      "डिजा": 4519,
      "एनएस": 4520,
      "१८९": 4521,
      "अमृत": 4522,
      "बंदू": 4523,
      "फ्रांस": 4524,
      "सैनिकों": 4525,
      "ऊंगा": 4526,
      "एका": 4527,
      "जंगल": 4528,
      "ध्व": 4529,
      "ॉल": 4530,
      "सेट": 4531,
      "लियो": 4532,
      "दाखिल": 4533,
      "शिमला": 4534,
      "टेलि": 4535,
      "ष्कार": 4536,
      "बुरी": 4537,
      "चेक": 4538,
      "मनुष": 4539,
      "खुले": 4540,
      "गठित": 4541,
      "ज्यादातर": 4542,
      "पदाधिकारियों": 4543,
      "जर्मन": 4544,
      "ब्यूरो": 4545,
      "ग्राहकों": 4546,
      "ईरानी": 4547,
      "भट्ट": 4548,
      "सराह": 4549,
      "प्रॉ": 4550,
      "प्रयुक्त": 4551,
      "संसाधन": 4552,
      "पावर": 4553,
      "रेड": 4554,
      "फ़्ट": 4555,
      "बुक": 4556,
      "विभागों": 4557,
      "लड़के": 4558,
      "स्टाफ": 4559,
      "व्हा": 4560,
      "किरदार": 4561,
      "घ्र": 4562,
      "मय": 4563,
      "वत्ता": 4564,
      "ोनेशिया": 4565,
      "विरा": 4566,
      "सास": 4567,
      "हुसैन": 4568,
      "तरफ़": 4569,
      "तकर्": 4570,
      "गिरी": 4571,
      "फेसबुक": 4572,
      "करवाने": 4573,
      "निरीक्षक": 4574,
      "मुकाबला": 4575,
      "अखिलेश": 4576,
      "मनुष्य": 4577,
      "एप": 4578,
      "कीजिए": 4579,
      "कोटा": 4580,
      "थाई": 4581,
      "पापा": 4582,
      "ल्टर": 4583,
      "वर्गी": 4584,
      "निकलने": 4585,
      "जेट": 4586,
      "ष्णा": 4587,
      "जानवर": 4588,
      "भागलपुर": 4589,
      "जिलाध्यक्ष": 4590,
      "व्याव": 4591,
      "बंदर": 4592,
      "१९९०": 4593,
      "१९८४": 4594,
      "१९८६": 4595,
      "जिनका": 4596,
      "अर्था": 4597,
      "नेटवर्क": 4598,
      "एशियाई": 4599,
      "तकनीक": 4600,
      "अड्डे": 4601,
      "तुर्की": 4602,
      "पादक": 4603,
      "उधर": 4604,
      "ठो": 4605,
      "कांड": 4606,
      "नां": 4607,
      "परवाही": 4608,
      "राजकुमार": 4609,
      "कार्यरत": 4610,
      "सूक्ष्": 4611,
      "उपस्थिति": 4612,
      "पेट्रोल": 4613,
      "जुर्": 4614,
      "योजक": 4615,
      "सेवाओं": 4616,
      "रणनीति": 4617,
      "पुराना": 4618,
      "पॉलि": 4619,
      "माँग": 4620,
      "धोखा": 4621,
      "स्टूडेंट": 4622,
      "ंसि": 4623,
      "वापसी": 4624,
      "लागत": 4625,
      "नीतीश": 4626,
      "सीमित": 4627,
      "ल्मी": 4628,
      "सम्रा": 4629,
      "चुरा": 4630,
      "दुश्": 4631,
      "लगाना": 4632,
      "आईआर": 4633,
      "गिरि": 4634,
      "बढ़े": 4635,
      "मांगी": 4636,
      "बच्चन": 4637,
      "अलीगढ़": 4638,
      "घूम": 4639,
      "ओलंपिक": 4640,
      "यक़ीन": 4641,
      "मुजफ्फर": 4642,
      "अक्ष": 4643,
      "आओ": 4644,
      "इत्या": 4645,
      "खन्ना": 4646,
      "झील": 4647,
      "ेंगी": 4648,
      "तिर": 4649,
      "मुकेश": 4650,
      "पायल": 4651,
      "पूछा": 4652,
      "समस्त": 4653,
      "खेती": 4654,
      "प्रतिनिधियों": 4655,
      "अरुणा": 4656,
      "आश्वासन": 4657,
      "शुभारंभ": 4658,
      "अट": 4659,
      "आपात": 4660,
      "कंड": 4661,
      "चम": 4662,
      "ण्ट": 4663,
      "मस": 4664,
      "शरण": 4665,
      "र्त": 4666,
      "लापरवाही": 4667,
      "चाहूँ": 4668,
      "सुनो": 4669,
      "जनजाति": 4670,
      "ढ़े": 4671,
      "ज्वाला": 4672,
      "गोरी": 4673,
      "महात्मा": 4674,
      "सदन": 4675,
      "गिरा": 4676,
      "कमब": 4677,
      "सैकड़ों": 4678,
      "व्याख्या": 4679,
      "परिवारों": 4680,
      "त्रिपाठी": 4681,
      "शिवराज": 4682,
      "ट्वि": 4683,
      "शब्दों": 4684,
      "प्रसारित": 4685,
      "निम्नलिखित": 4686,
      "अरविंद": 4687,
      "लाइसेंस": 4688,
      "उल": 4689,
      "उद्य": 4690,
      "एह": 4691,
      "कच": 4692,
      "जं": 4693,
      "पवित्र": 4694,
      "सख्त": 4695,
      "बाबू": 4696,
      "ल्ल": 4697,
      "टीन": 4698,
      "बैक": 4699,
      "रतलब": 4700,
      "आदिवासी": 4701,
      "स्थिर": 4702,
      "मांगों": 4703,
      "ब्रांड": 4704,
      "शक्तिशाली": 4705,
      "गुजरा": 4706,
      "छूट": 4707,
      "जॉर्ज": 4708,
      "ईश्वर": 4709,
      "नरेन्द्र": 4710,
      "६५": 4711,
      "किट": 4712,
      "कारियों": 4713,
      "देह": 4714,
      "देगी": 4715,
      "दीवार": 4716,
      "मिलेंगे": 4717,
      "सबू": 4718,
      "रामपुर": 4719,
      "महत्या": 4720,
      "अभ्यास": 4721,
      "बदले": 4722,
      "पकड़ा": 4723,
      "व्यापारी": 4724,
      "धूम": 4725,
      "पाठ्यक्रम": 4726,
      "आत्महत्या": 4727,
      "चंडीगढ़": 4728,
      "चं": 4729,
      "टकों": 4730,
      "पक्का": 4731,
      "मछ": 4732,
      "िए": 4733,
      "ेय": 4734,
      "काशी": 4735,
      "विज": 4736,
      "साहि": 4737,
      "गाने": 4738,
      "राज्यसभा": 4739,
      "पोर्": 4740,
      "शीघ्र": 4741,
      "निर्देशन": 4742,
      "डॉक्टरों": 4743,
      "गुणवत्ता": 4744,
      "बधाई": 4745,
      "एट": 4746,
      "भरी": 4747,
      "हज़ार": 4748,
      "नाइट": 4749,
      "प्रदू": 4750,
      "विवि": 4751,
      "गायक": 4752,
      "युग": 4753,
      "दूध": 4754,
      "प्रतिदिन": 4755,
      "चीफ": 4756,
      "कृष्णा": 4757,
      "एमसी": 4758,
      "बढ़ती": 4759,
      "मार्क": 4760,
      "गांवों": 4761,
      "जलवायु": 4762,
      "मृत": 4763,
      "ग़ल": 4764,
      "पहुंचाने": 4765,
      "सर्वेक्षण": 4766,
      "विषाणु": 4767,
      "मेहनत": 4768,
      "सूक्ष्म": 4769,
      "इत्यादि": 4770,
      "मज़े": 4771,
      "रत्": 4772,
      "३३": 4773,
      "गान": 4774,
      "मुद्रा": 4775,
      "चाल": 4776,
      "अधीन": 4777,
      "लोर": 4778,
      "पोषण": 4779,
      "यूनाइटेड": 4780,
      "बुद्ध": 4781,
      "ध्याय": 4782,
      "बैंकों": 4783,
      "ग्रीन": 4784,
      "बचपन": 4785,
      "सम्बन्धित": 4786,
      "गौरव": 4787,
      "सर्वाधिक": 4788,
      "अज": 4789,
      "आर्ट": 4790,
      "एम्": 4791,
      "गॉ": 4792,
      "शृंखला": 4793,
      "ौज": 4794,
      "्यो": 4795,
      "प्रच": 4796,
      "साझा": 4797,
      "संपन्न": 4798,
      "मेट": 4799,
      "कुश": 4800,
      "रोज़": 4801,
      "देखे": 4802,
      "प्रतिष्ठा": 4803,
      "सोना": 4804,
      "लियां": 4805,
      "चेहरे": 4806,
      "फायदा": 4807,
      "श्रीनगर": 4808,
      "न्यूजी": 4809,
      "भोज": 4810,
      "तृतीय": 4811,
      "गौरतलब": 4812,
      "फार्म": 4813,
      "जताई": 4814,
      "गुस्सा": 4815,
      "मंत्रिमंडल": 4816,
      "मद्दे": 4817,
      "व्यंजन": 4818,
      "खगोल": 4819,
      "बला": 4820,
      "ष्य": 4821,
      "प्रश्न": 4822,
      "रेन": 4823,
      "वेत": 4824,
      "चिंग": 4825,
      "प्राण": 4826,
      "जाएं": 4827,
      "१९९६": 4828,
      "बदलने": 4829,
      "कैंप": 4830,
      "इंजीनियर": 4831,
      "कठिन": 4832,
      "जागरूकता": 4833,
      "जस्टिस": 4834,
      "अवि": 4835,
      "बतौर": 4836,
      "भरे": 4837,
      "हैलो": 4838,
      "क्ताओं": 4839,
      "मुक्ति": 4840,
      "पेन": 4841,
      "पेशे": 4842,
      "न्यूज": 4843,
      "क्षणिक": 4844,
      "घटनाओं": 4845,
      "अगली": 4846,
      "गणेश": 4847,
      "प्रस्तावित": 4848,
      "हिंदु": 4849,
      "कथित": 4850,
      "नज": 4851,
      "िज": 4852,
      "यानि": 4853,
      "सेस": 4854,
      "लिटी": 4855,
      "दिव्या": 4856,
      "मिंग": 4857,
      "दाम": 4858,
      "राजेन्द्र": 4859,
      "इंस्टी": 4860,
      "अधिकतम": 4861,
      "ख़ुश": 4862,
      "कंट्रोल": 4863,
      "फ़ेयर": 4864,
      "माहौल": 4865,
      "आतंकवादी": 4866,
      "आसानी": 4867,
      "उच्": 4868,
      "खतरा": 4869,
      "गर्म": 4870,
      "पटा": 4871,
      "पणी": 4872,
      "क्लि": 4873,
      "वाणि": 4874,
      "मेले": 4875,
      "चालू": 4876,
      "बिलास": 4877,
      "उत्कृष्ट": 4878,
      "निकले": 4879,
      "व्यस्त": 4880,
      "पेय": 4881,
      "जुड़ा": 4882,
      "खेलने": 4883,
      "उठाने": 4884,
      "शंका": 4885,
      "साहब": 4886,
      "्युनि": 4887,
      "ट्यूट": 4888,
      "मनीष": 4889,
      "हादसे": 4890,
      "इस्तीफा": 4891,
      "टिप्पणी": 4892,
      "अखिल": 4893,
      "जमान": 4894,
      "पचारिक": 4895,
      "बलों": 4896,
      "मरे": 4897,
      "क्सि": 4898,
      "राशन": 4899,
      "साफ़": 4900,
      "स्टोर": 4901,
      "पूजन": 4902,
      "गेम": 4903,
      "बनाते": 4904,
      "जुट": 4905,
      "ख़्त": 4906,
      "एंटी": 4907,
      "भेजे": 4908,
      "१९९२": 4909,
      "शिवसेना": 4910,
      "संस्थानों": 4911,
      "व्यापारियों": 4912,
      "मलया": 4913,
      "फॉर": 4914,
      "इस्लाम": 4915,
      "विज्ञानी": 4916,
      "बल्लेबाज": 4917,
      "कब्जा": 4918,
      "दिलचस्पी": 4919,
      "आलोचना": 4920,
      "न्यूजीलैंड": 4921,
      "कन्": 4922,
      "दश": 4923,
      "रघु": 4924,
      "सत्या": 4925,
      "िंग": 4926,
      "ेक्षा": 4927,
      "६४": 4928,
      "ताकत": 4929,
      "किशन": 4930,
      "लिखे": 4931,
      "बाड़ी": 4932,
      "गाड़": 4933,
      "बिन": 4934,
      "जोध": 4935,
      "गुजर": 4936,
      "हेंगे": 4937,
      "लगते": 4938,
      "सोनिया": 4939,
      "कामया": 4940,
      "महल": 4941,
      "चौरा": 4942,
      "फैला": 4943,
      "१९९१": 4944,
      "बूथ": 4945,
      "मृतक": 4946,
      "खींच": 4947,
      "प्लान": 4948,
      "प्राथमिकता": 4949,
      "चढ़ा": 4950,
      "सौंपा": 4951,
      "अन्तर्राष्ट्रीय": 4952,
      "वाणिज्य": 4953,
      "बिलासपुर": 4954,
      "जर्स": 4955,
      "सरा": 4956,
      "करूंगा": 4957,
      "पुणे": 4958,
      "बिस्तर": 4959,
      "छापे": 4960,
      "बढ़ते": 4961,
      "गैंग": 4962,
      "१९७१": 4963,
      "स्ट्रेशन": 4964,
      "फ्रेंड": 4965,
      "पाठक": 4966,
      "सेवक": 4967,
      "लॉन्च": 4968,
      "गवर्नर": 4969,
      "शासकीय": 4970,
      "विराट": 4971,
      "तकर्ता": 4972,
      "एग्": 4973,
      "एजेंट": 4974,
      "कण": 4975,
      "फरी": 4976,
      "न्ति": 4977,
      "त्रु": 4978,
      "शासित": 4979,
      "दर्जा": 4980,
      "आपदा": 4981,
      "पारा": 4982,
      "पारित": 4983,
      "सूर": 4984,
      "हेल्": 4985,
      "सीटें": 4986,
      "मैचों": 4987,
      "ग्रेगोरी": 4988,
      "ढूँढ़": 4989,
      "विज्ञापन": 4990,
      "हफ्ते": 4991,
      "कैलंडर": 4992,
      "गहरा": 4993,
      "टें": 4994,
      "रम": 4995,
      "हवीं": 4996,
      "५५": 4997,
      "स्ति": 4998,
      "र्निया": 4999,
      "प्रवासी": 5000,
      "नीत": 5001,
      "सीनियर": 5002,
      "भाषण": 5003,
      "शाही": 5004,
      "राजपू": 5005,
      "समन्व": 5006,
      "वर्षा": 5007,
      "मुखर्जी": 5008,
      "क्षेत्रफल": 5009,
      "मैक": 5010,
      "फाइल": 5011,
      "धीर": 5012,
      "पिताजी": 5013,
      "चीज़ों": 5014,
      "स्वच्छता": 5015,
      "वातावरण": 5016,
      "ब्लैक": 5017,
      "एलि": 5018,
      "ओपन": 5019,
      "द्री": 5020,
      "मकान": 5021,
      "यज्ञ": 5022,
      "सृ": 5023,
      "सफर": 5024,
      "हद": 5025,
      "क्के": 5026,
      "सामु": 5027,
      "हालय": 5028,
      "बाढ़": 5029,
      "मुह": 5030,
      "बिग": 5031,
      "कार्यकारी": 5032,
      "गोल्ड": 5033,
      "कुलपति": 5034,
      "लेखन": 5035,
      "बर्ग": 5036,
      "आएगा": 5037,
      "प्लांट": 5038,
      "प्रेरणा": 5039,
      "स्मारक": 5040,
      "अवार्ड": 5041,
      "आमंत्र": 5042,
      "खें": 5043,
      "नें": 5044,
      "बृह": 5045,
      "प्रजाति": 5046,
      "विधे": 5047,
      "लेशन": 5048,
      "बांध": 5049,
      "स्ट्रा": 5050,
      "बार्": 5051,
      "रुक": 5052,
      "इंदिरा": 5053,
      "बोला": 5054,
      "बोलने": 5055,
      "जूनियर": 5056,
      "एचसी": 5057,
      "शैक्षणिक": 5058,
      "श्रद्धांजलि": 5059,
      "फूल": 5060,
      "आन्दो": 5061,
      "खूबसूरत": 5062,
      "जोधपुर": 5063,
      "कौर": 5064,
      "ममता": 5065,
      "षिक": 5066,
      "३७": 5067,
      "करूँगी": 5068,
      "विक्रम": 5069,
      "न्दु": 5070,
      "संजीव": 5071,
      "चाइ": 5072,
      "क्री": 5073,
      "मान्य": 5074,
      "लगाते": 5075,
      "भागों": 5076,
      "कूल": 5077,
      "फ़िल्मफ़ेयर": 5078,
      "१८८": 5079,
      "मंदिरों": 5080,
      "जिनकी": 5081,
      "१९६२": 5082,
      "संस्थाओं": 5083,
      "ख़ास": 5084,
      "सुनाई": 5085,
      "बराबर": 5086,
      "दुष्कर्म": 5087,
      "खड़ी": 5088,
      "रचित": 5089,
      "६२": 5090,
      "कीर्": 5091,
      "विपरी": 5092,
      "संवेदन": 5093,
      "वेन": 5094,
      "शनल": 5095,
      "उत्साह": 5096,
      "दुकानों": 5097,
      "अनुरोध": 5098,
      "जानना": 5099,
      "हेड": 5100,
      "बढ़ो": 5101,
      "अवस्था": 5102,
      "प्रीमि": 5103,
      "प्रशांत": 5104,
      "पहाड़": 5105,
      "दोषी": 5106,
      "मद्देनजर": 5107,
      "सहार": 5108,
      "विभा": 5109,
      "निशान": 5110,
      "साक्षा": 5111,
      "तेज़": 5112,
      "ंगन": 5113,
      "प्पा": 5114,
      "युगल": 5115,
      "गुर": 5116,
      "कैप्ट": 5117,
      "एमएस": 5118,
      "ंत्रिकी": 5119,
      "जगहों": 5120,
      "साहित्यिक": 5121,
      "अर्चना": 5122,
      "महीनों": 5123,
      "न्यायिक": 5124,
      "सलाहकार": 5125,
      "इलेक्ट्रॉ": 5126,
      "बेडकर": 5127,
      "समर्पित": 5128,
      "संग्रहालय": 5129,
      "डिजाइन": 5130,
      "विपरीत": 5131,
      "जद": 5132,
      "दपुर": 5133,
      "नष्ट": 5134,
      "ौरा": 5135,
      "कित": 5136,
      "प्रधा": 5137,
      "प्रकृति": 5138,
      "निरं": 5139,
      "ज़ु": 5140,
      "समक्ष": 5141,
      "जनगणना": 5142,
      "गुरू": 5143,
      "ख़्": 5144,
      "धीन": 5145,
      "फरार": 5146,
      "फ़्तार": 5147,
      "उर्दू": 5148,
      "आवाज": 5149,
      "जहाज़": 5150,
      "पुस्तकें": 5151,
      "सहमति": 5152,
      "चेयरमैन": 5153,
      "ट्विटर": 5154,
      "आमत": 5155,
      "ऑल": 5156,
      "जना": 5157,
      "३००": 5158,
      "ारण": 5159,
      "कोय": 5160,
      "कार्या": 5161,
      "संकल्प": 5162,
      "तेलु": 5163,
      "स्टल": 5164,
      "श्नर": 5165,
      "गीता": 5166,
      "जोखि": 5167,
      "अंजाम": 5168,
      "इंस्टा": 5169,
      "शेखर": 5170,
      "आरटी": 5171,
      "अभियं": 5172,
      "लड़ने": 5173,
      "गलती": 5174,
      "आएगी": 5175,
      "तीसरा": 5176,
      "स्ट्रेट": 5177,
      "रिश्ता": 5178,
      "स्मार्टफोन": 5179,
      "समझौते": 5180,
      "प्रतीक": 5181,
      "आरपीएफ": 5182,
      "रिलीज": 5183,
      "आमतौर": 5184,
      "अकाउंट": 5185,
      "जबर": 5186,
      "भद्र": 5187,
      "लस": 5188,
      "लक्षण": 5189,
      "ौती": 5190,
      "क्ली": 5191,
      "कोश": 5192,
      "रांची": 5193,
      "मातृ": 5194,
      "पीडिया": 5195,
      "टाउन": 5196,
      "दुबे": 5197,
      "पेड़": 5198,
      "कॉप्टर": 5199,
      "शेर": 5200,
      "फोर्स": 5201,
      "हॉकी": 5202,
      "यौन": 5203,
      "ट्रैक्टर": 5204,
      "आतंकवाद": 5205,
      "सपना": 5206,
      "चैंपियनशिप": 5207,
      "प्रयागराज": 5208,
      "इश": 5209,
      "डन": 5210,
      "फंड": 5211,
      "३८": 5212,
      "४४": 5213,
      "तालि": 5214,
      "निए": 5215,
      "सीता": 5216,
      "मील": 5217,
      "िक्र": 5218,
      "सोने": 5219,
      "बुलेंस": 5220,
      "कैलि": 5221,
      "ग्रि": 5222,
      "ट्रस्ट": 5223,
      "कंपनियां": 5224,
      "नौसेना": 5225,
      "१५०": 5226,
      "हिस्सों": 5227,
      "मुद्दा": 5228,
      "मेरठ": 5229,
      "कमिश्नर": 5230,
      "प्रदूषण": 5231,
      "अख": 5232,
      "मपुर": 5233,
      "सश": 5234,
      "३९": 5235,
      "राधा": 5236,
      "नीला": 5237,
      "जिंग": 5238,
      "मीटिंग": 5239,
      "सुल्": 5240,
      "सोन": 5241,
      "कराना": 5242,
      "सचिन": 5243,
      "पड़ेगी": 5244,
      "पत्रिकाएँ": 5245,
      "काउंटी": 5246,
      "आन्ध्र": 5247,
      "सॉफ्टवेयर": 5248,
      "सर्विस": 5249,
      "जोखिम": 5250,
      "ँकि": 5251,
      "आशंका": 5252,
      "इजा": 5253,
      "कलन": 5254,
      "मचा": 5255,
      "हृ": 5256,
      "कायम": 5257,
      "स्तो": 5258,
      "निश": 5259,
      "तित": 5260,
      "राजेंद्र": 5261,
      "ढ़ा": 5262,
      "डिप": 5263,
      "आरक्षण": 5264,
      "पहुंचकर": 5265,
      "१९९४": 5266,
      "१९७२": 5267,
      "अतिक्रमण": 5268,
      "उपायुक्त": 5269,
      "स्पेन": 5270,
      "प्लास्टिक": 5271,
      "पौध": 5272,
      "ड्रि": 5273,
      "झूठ": 5274,
      "स्पर्धा": 5275,
      "आन्दोलन": 5276,
      "अह": 5277,
      "अत्या": 5278,
      "कड": 5279,
      "हर्ष": 5280,
      "४६": 5281,
      "काले": 5282,
      "किन्तु": 5283,
      "वाय": 5284,
      "बां": 5285,
      "दिलाने": 5286,
      "मुहैया": 5287,
      "चालन": 5288,
      "रोह": 5289,
      "पीएस": 5290,
      "बेन": 5291,
      "बेकार": 5292,
      "प्स": 5293,
      "जेएन": 5294,
      "बताने": 5295,
      "कैरियर": 5296,
      "वनडे": 5297,
      "ख़बर": 5298,
      "फान": 5299,
      "ग्लो": 5300,
      "इंडस्ट्री": 5301,
      "ज़्यादातर": 5302,
      "धरना": 5303,
      "वर्णन": 5304,
      "मन्त्री": 5305,
      "ध्रु": 5306,
      "रामायण": 5307,
      "सम्राट": 5308,
      "पायलट": 5309,
      "गुजराती": 5310,
      "सक्": 5311,
      "ार्ट": 5312,
      "नामी": 5313,
      "कोर्स": 5314,
      "मास": 5315,
      "पाक": 5316,
      "मिट्टी": 5317,
      "हुये": 5318,
      "एकत्र": 5319,
      "जेम्स": 5320,
      "पिका": 5321,
      "बुद्धि": 5322,
      "ग्रो": 5323,
      "वन्य": 5324,
      "पंक": 5325,
      "ार्क": 5326,
      "हालाँकि": 5327,
      "सुविधाएं": 5328,
      "प्रत्यक्ष": 5329,
      "बेचने": 5330,
      "इकट": 5331,
      "ढूं": 5332,
      "फर्": 5333,
      "फ्यू": 5334,
      "भगत": 5335,
      "मले": 5336,
      "लहर": 5337,
      "वक़": 5338,
      "७६": 5339,
      "काया": 5340,
      "नाव": 5341,
      "विवा": 5342,
      "संग्राम": 5343,
      "संहिता": 5344,
      "पागल": 5345,
      "सिपा": 5346,
      "रिये": 5347,
      "सुभाष": 5348,
      "्रेट": 5349,
      "रुको": 5350,
      "ब्लू": 5351,
      "पेपर": 5352,
      "टिक्स": 5353,
      "फाइ": 5354,
      "अभिषेक": 5355,
      "बनकर": 5356,
      "सेवानि": 5357,
      "भरने": 5358,
      "पढ़ने": 5359,
      "१९७७": 5360,
      "मजबूर": 5361,
      "शुभकामना": 5362,
      "दार्श": 5363,
      "निपटने": 5364,
      "शिंगटन": 5365,
      "ंश": 5366,
      "नर्": 5367,
      "पद्ध": 5368,
      "हट": 5369,
      "सेमी": 5370,
      "नाश": 5371,
      "प्रदीप": 5372,
      "निकी": 5373,
      "पुत्री": 5374,
      "दीर्": 5375,
      "रेज": 5376,
      "स्थलों": 5377,
      "टेज": 5378,
      "उत्सव": 5379,
      "एसएसपी": 5380,
      "कॉलोनी": 5381,
      "कूट": 5382,
      "ज़िंदा": 5383,
      "न्यून": 5384,
      "टीमों": 5385,
      "इटली": 5386,
      "द्वीपसमूह": 5387,
      "अफसरों": 5388,
      "प्रभावी": 5389,
      "संचालक": 5390,
      "टैक्स": 5391,
      "महेश": 5392,
      "डायरेक्टर": 5393,
      "दिक्कत": 5394,
      "सामुदायिक": 5395,
      "इधर": 5396,
      "ऊंचा": 5397,
      "जरूर": 5398,
      "थन": 5399,
      "परम्प": 5400,
      "ड़की": 5401,
      "बालिका": 5402,
      "पाइ": 5403,
      "दादा": 5404,
      "रिसर्च": 5405,
      "कुं": 5406,
      "रोल": 5407,
      "धातु": 5408,
      "शियन": 5409,
      "गुज़र": 5410,
      "प्राचार्य": 5411,
      "कैसा": 5412,
      "चेहरा": 5413,
      "मार्केट": 5414,
      "लूट": 5415,
      "१९८५": 5416,
      "दिखाने": 5417,
      "गणराज्य": 5418,
      "उठाए": 5419,
      "सुनने": 5420,
      "पंजाबी": 5421,
      "रावट": 5422,
      "वार्षिक": 5423,
      "पेंशन": 5424,
      "फ़रवरी": 5425,
      "किस्मत": 5426,
      "महत्त्व": 5427,
      "हफ़्ते": 5428,
      "सबूत": 5429,
      "विधेयक": 5430,
      "ओडि": 5431,
      "काग": 5432,
      "नानी": 5433,
      "किम": 5434,
      "प्रपात": 5435,
      "राजनेता": 5436,
      "स्टन": 5437,
      "आपत्ति": 5438,
      "कॉर्": 5439,
      "महामंत्री": 5440,
      "ठाकरे": 5441,
      "प्रोटो": 5442,
      "छोड़ने": 5443,
      "१९७८": 5444,
      "बच्ची": 5445,
      "समुद्री": 5446,
      "खनन": 5447,
      "ऑस्ट्रेलियाई": 5448,
      "पत्रकारों": 5449,
      "पहुँचने": 5450,
      "जमानत": 5451,
      "राजपूत": 5452,
      "कैप्टन": 5453,
      "डिप्टी": 5454,
      "इकट्": 5455,
      "अमिता": 5456,
      "आलोक": 5457,
      "ईमान": 5458,
      "कता": 5459,
      "घट": 5460,
      "कांग": 5461,
      "नाई": 5462,
      "साव": 5463,
      "क्षति": 5464,
      "मुफ्": 5465,
      "मिनी": 5466,
      "मेगा": 5467,
      "रिच": 5468,
      "अपरा": 5469,
      "शिवा": 5470,
      "बनर्जी": 5471,
      "हनुमान": 5472,
      "छेड़": 5473,
      "ब्रिज": 5474,
      "छुट्टी": 5475,
      "परिस्थितियों": 5476,
      "आज़ा": 5477,
      "इंद्र": 5478,
      "उड़": 5479,
      "एटी": 5480,
      "ग्स": 5481,
      "जब्": 5482,
      "नंद": 5483,
      "नरेश": 5484,
      "फसल": 5485,
      "मच": 5486,
      "ुसार": 5487,
      "केटर": 5488,
      "प्रमो": 5489,
      "लाह": 5490,
      "थाम": 5491,
      "पाट": 5492,
      "मिका": 5493,
      "स्थानां": 5494,
      "बिर": 5495,
      "दूत": 5496,
      "जानने": 5497,
      "ख़री": 5498,
      "गिल": 5499,
      "मतदाता": 5500,
      "कूद": 5501,
      "खेले": 5502,
      "डेविड": 5503,
      "श्रीराम": 5504,
      "कहने": 5505,
      "सैम": 5506,
      "संबंधों": 5507,
      "बॉय": 5508,
      "आनन्द": 5509,
      "गंभीरता": 5510,
      "मैनेजर": 5511,
      "अल्पसं": 5512,
      "विश्लेषण": 5513,
      "दार्शनिक": 5514,
      "परम्परा": 5515,
      "आद": 5516,
      "आश्रम": 5517,
      "तहरी": 5518,
      "बरेली": 5519,
      "सका": 5520,
      "हत्य": 5521,
      "निको": 5522,
      "सामू": 5523,
      "बाह": 5524,
      "मुसी": 5525,
      "दर्शा": 5526,
      "मुखिया": 5527,
      "पारी": 5528,
      "खिताब": 5529,
      "जैव": 5530,
      "गिरावट": 5531,
      "कम्युनि": 5532,
      "गणतंत्र": 5533,
      "कोशिका": 5534,
      "दर्शकों": 5535,
      "दुर्ग": 5536,
      "चर्य": 5537,
      "कम्प्यूटर": 5538,
      "अब्दुल": 5539,
      "स्टूडेंट्स": 5540,
      "प्रचलित": 5541,
      "आमंत्रित": 5542,
      "संवेदनशील": 5543,
      "सामूहिक": 5544,
      "चतुर्": 5545,
      "नरी": 5546,
      "नये": 5547,
      "६३": 5548,
      "९९": 5549,
      "तिरु": 5550,
      "एकदम": 5551,
      "सिले": 5552,
      "दायर": 5553,
      "शियल": 5554,
      "बीए": 5555,
      "दुख": 5556,
      "सोस": 5557,
      "जाएंगी": 5558,
      "गोयल": 5559,
      "ष्क": 5560,
      "बुनिया": 5561,
      "वैदिक": 5562,
      "समापन": 5563,
      "अवगत": 5564,
      "१९८७": 5565,
      "खेलते": 5566,
      "लिखने": 5567,
      "ख़िला": 5568,
      "रजिस्ट्रेशन": 5569,
      "नारेबाजी": 5570,
      "मलयालम": 5571,
      "साक्षात्कार": 5572,
      "पंकज": 5573,
      "एव": 5574,
      "एन्": 5575,
      "चट्टा": 5576,
      "दंड": 5577,
      "नयी": 5578,
      "६८": 5579,
      "७२": 5580,
      "तिन": 5581,
      "पाण्ड": 5582,
      "मिलियन": 5583,
      "राजनैतिक": 5584,
      "चुम्ब": 5585,
      "सूरज": 5586,
      "अनुसूचित": 5587,
      "सिंगा": 5588,
      "टिफि": 5589,
      "हेली": 5590,
      "ट्रेनिंग": 5591,
      "गर्भ": 5592,
      "गूगल": 5593,
      "फ्रेंस": 5594,
      "भेजने": 5595,
      "अहमदाबाद": 5596,
      "टाइम": 5597,
      "बोलते": 5598,
      "पंजीकरण": 5599,
      "फ़ैसला": 5600,
      "ग़ानिस्तान": 5601,
      "सराहना": 5602,
      "अभियंता": 5603,
      "खतरनाक": 5604,
      "जज": 5605,
      "टार्": 5606,
      "बसा": 5607,
      "मथु": 5608,
      "सज्": 5609,
      "विख्यात": 5610,
      "लिहा": 5611,
      "मुसलमान": 5612,
      "म्बी": 5613,
      "भास्कर": 5614,
      "टेबल": 5615,
      "डालने": 5616,
      "अधिवक्ता": 5617,
      "महाभारत": 5618,
      "डेढ़": 5619,
      "१८५": 5620,
      "खोल": 5621,
      "जल्ट": 5622,
      "धरती": 5623,
      "जितनी": 5624,
      "वैज्ञानिकों": 5625,
      "ड्डा": 5626,
      "अकेला": 5627,
      "सम्बन्ध": 5628,
      "स्पिटल": 5629,
      "बदमाशों": 5630,
      "न्यूनतम": 5631,
      "मथुरा": 5632,
      "ँस": 5633,
      "उंडे": 5634,
      "नज़": 5635,
      "नाय": 5636,
      "वास्तु": 5637,
      "विद्र": 5638,
      "परंतु": 5639,
      "बाइ": 5640,
      "पादन": 5641,
      "ज़त": 5642,
      "दाश्त": 5643,
      "रिजल्ट": 5644,
      "मीना": 5645,
      "अपहरण": 5646,
      "अपेक्षा": 5647,
      "शुक्ल": 5648,
      "गुर्": 5649,
      "उपग्रह": 5650,
      "ग्रैंड": 5651,
      "जबलपुर": 5652,
      "१९८२": 5653,
      "१२वीं": 5654,
      "पिछली": 5655,
      "गर्मी": 5656,
      "मनोरंजन": 5657,
      "सुविधाओं": 5658,
      "झारखण्ड": 5659,
      "ग्राहक": 5660,
      "मैनेज": 5661,
      "पारिवार": 5662,
      "विस्फोट": 5663,
      "अखबार": 5664,
      "पद्धति": 5665,
      "उंडेशन": 5666,
      "ईस": 5667,
      "कहूँ": 5668,
      "नसी": 5669,
      "पटक": 5670,
      "शय": 5671,
      "लिस": 5672,
      "लेता": 5673,
      "सीईओ": 5674,
      "रिजर्": 5675,
      "पीजी": 5676,
      "चिह्": 5677,
      "गुड": 5678,
      "डिस्": 5679,
      "आईडी": 5680,
      "महाद्वीप": 5681,
      "हुईं": 5682,
      "ट्रल": 5683,
      "ंगाना": 5684,
      "सर्जन": 5685,
      "पट्टी": 5686,
      "ल्लाह": 5687,
      "तेलंगाना": 5688,
      "आकर्षण": 5689,
      "साधनों": 5690,
      "दयाल": 5691,
      "तालिबान": 5692,
      "वक़्त": 5693,
      "पारिवारिक": 5694,
      "उठ": 5695,
      "एडा": 5696,
      "खून": 5697,
      "तस्": 5698,
      "सत्": 5699,
      "स्कृत": 5700,
      "माफी": 5701,
      "लिश": 5702,
      "साउथ": 5703,
      "होली": 5704,
      "सिल्": 5705,
      "स्ट्रो": 5706,
      "प्रावधान": 5707,
      "पूर्वो": 5708,
      "चलती": 5709,
      "फायर": 5710,
      "चौथे": 5711,
      "क्रिकेटर": 5712,
      "मदन": 5713,
      "१९८८": 5714,
      "सकेगा": 5715,
      "ट्रेनों": 5716,
      "नागपुर": 5717,
      "मनोहर": 5718,
      "हॉल": 5719,
      "समर्थक": 5720,
      "पद्मश्री": 5721,
      "चलेगा": 5722,
      "सिद्धान्त": 5723,
      "गेंदबाज": 5724,
      "आकर्षित": 5725,
      "प्रतिबंधित": 5726,
      "विवेक": 5727,
      "मस्जिद": 5728,
      "पेशेवर": 5729,
      "इंस्टीट्यूट": 5730,
      "(,": 5731,
      "ऑफ़ि": 5732,
      "कमाल": 5733,
      "चर्स": 5734,
      "दूँगी": 5735,
      "भरत": 5736,
      "वय": 5737,
      "सतीश": 5738,
      "क्वि": 5739,
      "प्रदाय": 5740,
      "प्रखण्ड": 5741,
      "कुमा": 5742,
      "स्टै": 5743,
      "पूंजी": 5744,
      "सरपंच": 5745,
      "दूसरों": 5746,
      "धारणा": 5747,
      "खुल": 5748,
      "कारणों": 5749,
      "त्याग": 5750,
      "भेड़": 5751,
      "लुक": 5752,
      "लंबा": 5753,
      "कॉलेजों": 5754,
      "चर्च": 5755,
      "हिमालय": 5756,
      "लाइफ": 5757,
      "गायब": 5758,
      "शौचा": 5759,
      "हाइड्रो": 5760,
      "बंदूक": 5761,
      "छापेमारी": 5762,
      "अमिताभ": 5763,
      "टक्कर": 5764,
      "नर्स": 5765,
      "मजि": 5766,
      "रवी": 5767,
      "वाँ": 5768,
      "लायक": 5769,
      "परो": 5770,
      "मुंगे": 5771,
      "सुन्दर": 5772,
      "सरल": 5773,
      "दर्जन": 5774,
      "बीन": 5775,
      "बिगड़": 5776,
      "प्राप्": 5777,
      "जुटा": 5778,
      "बातों": 5779,
      "मतदाताओं": 5780,
      "बॉक्स": 5781,
      "कार्बन": 5782,
      "महाराजा": 5783,
      "१९७०": 5784,
      "१९६५": 5785,
      "उपाध्याय": 5786,
      "पार्किंग": 5787,
      "तारीख़": 5788,
      "मार्टम": 5789,
      "इमरान": 5790,
      "धमकी": 5791,
      "बंदरगाह": 5792,
      "मुसीबत": 5793,
      "औष": 5794,
      "नशे": 5795,
      "भेंट": 5796,
      "महें": 5797,
      "क्ले": 5798,
      "साहू": 5799,
      "जादू": 5800,
      "क्षिक": 5801,
      "बाधा": 5802,
      "तेरे": 5803,
      "बीआई": 5804,
      "पुरस्कृत": 5805,
      "ख़ैर": 5806,
      "णीय": 5807,
      "जवाहर": 5808,
      "फ़ायदा": 5809,
      "अपराधियों": 5810,
      "पोस्टमार्टम": 5811,
      "पदार्थों": 5812,
      "विपक्षी": 5813,
      "दस्तावेज": 5814,
      "निरंतर": 5815,
      "ंजा": 5816,
      "ऐलान": 5817,
      "जताया": 5818,
      "धव": 5819,
      "पट्ट": 5820,
      "लव": 5821,
      "वट": 5822,
      "सनी": 5823,
      "हर्": 5824,
      "केन": 5825,
      "करोगे": 5826,
      "किरण": 5827,
      "हीरो": 5828,
      "देन": 5829,
      "संपूर्ण": 5830,
      "दिलीप": 5831,
      "मिलित": 5832,
      "सीओ": 5833,
      "वेज़": 5834,
      "्याल": 5835,
      "ंद्रा": 5836,
      "बेसब": 5837,
      "डिट": 5838,
      "त्यो": 5839,
      "१९८१": 5840,
      "उच्चतम": 5841,
      "टूट": 5842,
      "बंगाली": 5843,
      "पहुंचाया": 5844,
      "ज्योतिष": 5845,
      "पड़ोसी": 5846,
      "जब्त": 5847,
      "एक्शन": 5848,
      "औपचारिक": 5849,
      "ठिका": 5850,
      "ढंग": 5851,
      "बहि": 5852,
      "मज़": 5853,
      "शार": 5854,
      "प्रजा": 5855,
      "मासिक": 5856,
      "न्नी": 5857,
      "लिय": 5858,
      "निस्त": 5859,
      "निभाई": 5860,
      "बाज़": 5861,
      "भीम": 5862,
      "तेह": 5863,
      "चाय": 5864,
      "रेख": 5865,
      "मानक": 5866,
      "डि़": 5867,
      "सोल": 5868,
      "डाटा": 5869,
      "डांस": 5870,
      "सम्मिलित": 5871,
      "नोएडा": 5872,
      "शेख": 5873,
      "कमजोर": 5874,
      "एनसी": 5875,
      "केंद्रित": 5876,
      "इंडी": 5877,
      "१९९३": 5878,
      "वृक्ष": 5879,
      "ग़लत": 5880,
      "अर्थशास्त्र": 5881,
      "विचारों": 5882,
      "जालघर": 5883,
      "हरिद्वार": 5884,
      "खरीदने": 5885,
      "विकिपीडिया": 5886,
      "आश्चर्य": 5887,
      "ओडिशा": 5888,
      "''": 5889,
      "ँग": 5890,
      "अंडर": 5891,
      "आध्या": 5892,
      "कड़ा": 5893,
      "जस": 5894,
      "पों": 5895,
      "भव्य": 5896,
      "४००": 5897,
      "विच": 5898,
      "लिग": 5899,
      "निलंबित": 5900,
      "दिखे": 5901,
      "मिट": 5902,
      "सीरिया": 5903,
      "ल्लू": 5904,
      "दावे": 5905,
      "शिखर": 5906,
      "बीस": 5907,
      "छाया": 5908,
      "कर्ताओं": 5909,
      "बसपा": 5910,
      "लड़किया": 5911,
      "पसंदी": 5912,
      "१९६९": 5913,
      "सतर्क": 5914,
      "यूनिट": 5915,
      "कैंसर": 5916,
      "पुस्तकों": 5917,
      "एक्ट्रेस": 5918,
      "सुलझा": 5919,
      "ख़िलाफ़": 5920,
      "महेंद्र": 5921,
      "गला": 5922,
      "४२": 5923,
      "र्वाद": 5924,
      "किंतु": 5925,
      "कोष": 5926,
      "न्ट": 5927,
      "निधि": 5928,
      "हिम्मत": 5929,
      "वारदा": 5930,
      "कुंभ": 5931,
      "चिन्ह": 5932,
      "परिवर्": 5933,
      "डियन": 5934,
      "डीजी": 5935,
      "डीआर": 5936,
      "बनाता": 5937,
      "सोवियत": 5938,
      "आईसीसी": 5939,
      "कैमरा": 5940,
      "पैरा": 5941,
      "क़ी": 5942,
      "ंटन": 5943,
      "हराकर": 5944,
      "स्पेस": 5945,
      "न्यायमूर्ति": 5946,
      "दिग्गज": 5947,
      "बिलकुल": 5948,
      "भक्तों": 5949,
      "गोविंद": 5950,
      "पुलिसकर्मियों": 5951,
      "साहिब": 5952,
      "मज़ेदार": 5953,
      "उद्ध": 5954,
      "ऋण": 5955,
      "एके": 5956,
      "औसत": 5957,
      "घंट": 5958,
      "चक्कर": 5959,
      "णिक": 5960,
      "यती": 5961,
      "लखी": 5962,
      "िणी": 5963,
      "विभागी": 5964,
      "निक्स": 5965,
      "देनी": 5966,
      "संपादक": 5967,
      "संयोजक": 5968,
      "त्मिक": 5969,
      "ल्हा": 5970,
      "पुरात": 5971,
      "मेयर": 5972,
      "सिफार": 5973,
      "जिश": 5974,
      "रिटा": 5975,
      "श्ती": 5976,
      "पीछा": 5977,
      "मोर": 5978,
      "बैठा": 5979,
      "बढ़कर": 5980,
      "न्नत": 5981,
      "१९९७": 5982,
      "विचारधारा": 5983,
      "उत्पादों": 5984,
      "तहसीलदार": 5985,
      "प्रारम्भ": 5986,
      "गेंदबाजी": 5987,
      "चिकित्सकों": 5988,
      "विशेषज्ञों": 5989,
      "स्टॉक": 5990,
      "घोटाले": 5991,
      "जुर्माना": 5992,
      "मुजफ्फरपुर": 5993,
      "प्रधाना": 5994,
      "प्राप्तकर्ता": 5995,
      "ख्यक": 5996,
      "ठार": 5997,
      "शत्रु": 5998,
      "४७": 5999,
      "नेपाली": 6000,
      "लेस": 6001,
      "पाना": 6002,
      "मिथ": 6003,
      "मेश्वर": 6004,
      "स्टैंड": 6005,
      "फ़र्क": 6006,
      "समृ": 6007,
      "च्छे": 6008,
      "प्रतिष्ठ": 6009,
      "महंगा": 6010,
      "स्टेबल": 6011,
      "जगदी": 6012,
      "लूम": 6013,
      "देवताओं": 6014,
      "१९६०": 6015,
      "गर्ल": 6016,
      "पंचायतों": 6017,
      "१९५७": 6018,
      "पौधे": 6019,
      "पुनः": 6020,
      "मिस्र": 6021,
      "खारिज": 6022,
      "आशीष": 6023,
      "बेवकूफ़": 6024,
      "अंधे": 6025,
      "सिद्धार": 6026,
      "अक्षय": 6027,
      "पसंदीदा": 6028,
      "विभागीय": 6029,
      "सिफारिश": 6030,
      "अगु": 6031,
      "आज़": 6032,
      "आवं": 6033,
      "उतना": 6034,
      "गगन": 6035,
      "तन्त्र": 6036,
      "दलीय": 6037,
      "शून": 6038,
      "हंस": 6039,
      "४९": 6040,
      "वाहा": 6041,
      "तिमा": 6042,
      "संगम": 6043,
      "त्तम": 6044,
      "सिड": 6045,
      "दीपा": 6046,
      "दीजिए": 6047,
      "क्रॉ": 6048,
      "्रीकी": 6049,
      "बेट": 6050,
      "प्लस": 6051,
      "वंशी": 6052,
      "ख़्याल": 6053,
      "बढ़ी": 6054,
      "परीक्ष": 6055,
      "भाजित": 6056,
      "मिलाकर": 6057,
      "आर्मी": 6058,
      "पीड़िता": 6059,
      "स्ट्रीट": 6060,
      "चक्रवर्ती": 6061,
      "ब्लाक": 6062,
      "बिंदु": 6063,
      "दुश्मन": 6064,
      "सक्सेना": 6065,
      "मैनेजमेंट": 6066,
      "रिजर्व": 6067,
      "मजिस्ट्रेट": 6068,
      "एगी": 6069,
      "ओपी": 6070,
      "सरो": 6071,
      "्न": 6072,
      "७८": 6073,
      "लाइंस": 6074,
      "निंदा": 6075,
      "जाऊँगा": 6076,
      "गाना": 6077,
      "मुर": 6078,
      "ित्व": 6079,
      "रहकर": 6080,
      "शिशु": 6081,
      "बीसीसी": 6082,
      "प्शन": 6083,
      "प्राप्ति": 6084,
      "फीस": 6085,
      "प्रेमी": 6086,
      "मध्यम": 6087,
      "१९८३": 6088,
      "अर्ध": 6089,
      "प्रयोगशाला": 6090,
      "कब्जे": 6091,
      "शूटिंग": 6092,
      "ज़िम्मेदारी": 6093,
      "उपभोक्ता": 6094,
      "ठोस": 6095,
      "तहरीर": 6096,
      "अद्": 6097,
      "इज": 6098,
      "ईस्ट": 6099,
      "टर्न": 6100,
      "नदिया": 6101,
      "बैंड": 6102,
      "ललित": 6103,
      "सना": 6104,
      "सकारात्मक": 6105,
      "विया": 6106,
      "साढ़े": 6107,
      "मिकों": 6108,
      "द्वं": 6109,
      "देशी": 6110,
      "दर्शी": 6111,
      "उपरा": 6112,
      "अनुबंध": 6113,
      "बताई": 6114,
      "पोल": 6115,
      "भूति": 6116,
      "पासवान": 6117,
      "मूल्या": 6118,
      "अभिभाव": 6119,
      "छोड़ा": 6120,
      "शुरूआत": 6121,
      "लॉग": 6122,
      "प्रोड": 6123,
      "बिहारी": 6124,
      "मौजूदगी": 6125,
      "शास्त्रीय": 6126,
      "भ्रमण": 6127,
      "वस्तुओं": 6128,
      "विद्वान": 6129,
      "मजदूरों": 6130,
      "मुहम्मद": 6131,
      "प्रतिष्ठित": 6132,
      "शून्य": 6133,
      "अक": 6134,
      "पराज": 6135,
      "फॉर्": 6136,
      "रेंज": 6137,
      "वों": 6138,
      "ूद": 6139,
      "्रु": 6140,
      "केंड": 6141,
      "र्श": 6142,
      "र्षि": 6143,
      "वाइस": 6144,
      "वानों": 6145,
      "साइल": 6146,
      "हानि": 6147,
      "सिद्धि": 6148,
      "लोत": 6149,
      "उत्साहित": 6150,
      "अंटार्": 6151,
      "पोस्टर": 6152,
      "पत्रों": 6153,
      "बैठकर": 6154,
      "निर्देशों": 6155,
      "करेंगी": 6156,
      "मरम्मत": 6157,
      "इंटरव्यू": 6158,
      "निकटतम": 6159,
      "अत्यंत": 6160,
      "आशीर्वाद": 6161,
      "तालाब": 6162,
      "पेयजल": 6163,
      "जगदीश": 6164,
      "मूल्यांकन": 6165,
      "इए": 6166,
      "कमान": 6167,
      "तव्य": 6168,
      "यश": 6169,
      "शह": 6170,
      "नागा": 6171,
      "क्यो": 6172,
      "विहार": 6173,
      "मांस": 6174,
      "जाया": 6175,
      "तीत": 6176,
      "मुर्": 6177,
      "एकता": 6178,
      "सिम": 6179,
      "दाद": 6180,
      "कुंड": 6181,
      "चुप": 6182,
      "पिल": 6183,
      "प्रतिबद्ध": 6184,
      "सोसाइ": 6185,
      "गोवा": 6186,
      "वरना": 6187,
      "व्यास": 6188,
      "फैक्ट": 6189,
      "पक्षों": 6190,
      "शुरुआती": 6191,
      "१९५६": 6192,
      "परियोजनाओं": 6193,
      "संभावित": 6194,
      "पकड़े": 6195,
      "पकड़ने": 6196,
      "पर्वतमाला": 6197,
      "कानूनों": 6198,
      "भूतपूर्व": 6199,
      "मुरादाबाद": 6200,
      "जंक्शन": 6201,
      "बृहस्पति": 6202,
      "इंस्टाग्राम": 6203,
      "बुनियादी": 6204,
      "आध्यात्मिक": 6205,
      "सोसाइटी": 6206,
      "अय": 6207,
      "गमन": 6208,
      "पला": 6209,
      "हौ": 6210,
      "ह्यू": 6211,
      "स्पोर्ट": 6212,
      "सेज़": 6213,
      "राइड": 6214,
      "जापानी": 6215,
      "ड़ि": 6216,
      "देहा": 6217,
      "बांट": 6218,
      "शायर": 6219,
      "कुशल": 6220,
      "ंडो": 6221,
      "लोन": 6222,
      "निकला": 6223,
      "उपनाम": 6224,
      "सबके": 6225,
      "चीजें": 6226,
      "पेक्ष": 6227,
      "ष्म": 6228,
      "बोध": 6229,
      "कैमरे": 6230,
      "सम्पूर्ण": 6231,
      "एनए": 6232,
      "१९९५": 6233,
      "मार्गदर्शन": 6234,
      "१९६७": 6235,
      "उपाधि": 6236,
      "सेंट्रल": 6237,
      "निकाय": 6238,
      "बचने": 6239,
      "कमांडर": 6240,
      "जोड़ने": 6241,
      "बल्लेबाजी": 6242,
      "सिक्यो": 6243,
      "व्रत": 6244,
      "सुल्तान": 6245,
      "आव": 6246,
      "उग्र": 6247,
      "एडि": 6248,
      "दबा": 6249,
      "पिया": 6250,
      "बचे": 6251,
      "िमा": 6252,
      "तिल": 6253,
      "मिनि": 6254,
      "जिब्रा": 6255,
      "जिंदगी": 6256,
      "जीते": 6257,
      "सरदार": 6258,
      "बादल": 6259,
      "निर्मा": 6260,
      "राज्यमंत्री": 6261,
      "छापा": 6262,
      "प्रदेशों": 6263,
      "पोरेशन": 6264,
      "कैलाश": 6265,
      "ख्याल": 6266,
      "आजकल": 6267,
      "खोलने": 6268,
      "लेंडर": 6269,
      "एचडी": 6270,
      "सीएमओ": 6271,
      "स्नान": 6272,
      "प्रदर्शनी": 6273,
      "दिमाग़": 6274,
      "आख़िर": 6275,
      "कुत्ते": 6276,
      "आजादी": 6277,
      "इंग": 6278,
      "चिक": 6279,
      "जौ": 6280,
      "तर्क": 6281,
      "बली": 6282,
      "बलू": 6283,
      "भड़": 6284,
      "सभ": 6285,
      "हक": 6286,
      "केयर": 6287,
      "सेवी": 6288,
      "लायंस": 6289,
      "सीजन": 6290,
      "हिल": 6291,
      "रियन": 6292,
      "रेड्डी": 6293,
      "गीर": 6294,
      "धानिक": 6295,
      "टी२०": 6296,
      "देखिए": 6297,
      "कर्स": 6298,
      "कैन": 6299,
      "आरोपों": 6300,
      "महारानी": 6301,
      "मरने": 6302,
      "नागरी": 6303,
      "अफसर": 6304,
      "ग्रेड": 6305,
      "हाईवे": 6306,
      "अफ़सोस": 6307,
      "धोनी": 6308,
      "भागीदारी": 6309,
      "हृदय": 6310,
      "पटकथा": 6311,
      "आला": 6312,
      "नहर": 6313,
      "बृ": 6314,
      "भले": 6315,
      "वस्त्र": 6316,
      "सहारा": 6317,
      "नात्मक": 6318,
      "मांगा": 6319,
      "लेटर": 6320,
      "लील": 6321,
      "मिक्स": 6322,
      "रियो": 6323,
      "राजकुमारी": 6324,
      "समस": 6325,
      "बीबीसी": 6326,
      "उत्तम": 6327,
      "पारं": 6328,
      "सोसाय": 6329,
      "अनुरूप": 6330,
      "मुख्यतः": 6331,
      "श्वरी": 6332,
      "रखती": 6333,
      "ंगाबाद": 6334,
      "लोकता": 6335,
      "बॉस": 6336,
      "अधिकारों": 6337,
      "वाहक": 6338,
      "समर्थकों": 6339,
      "बिल्डिंग": 6340,
      "प्रयासों": 6341,
      "प्रस्तुति": 6342,
      "उदयपुर": 6343,
      "हेल्थ": 6344,
      "अपराधी": 6345,
      "सिंगापुर": 6346,
      "आधा": 6347,
      "इले": 6348,
      "ईडी": 6349,
      "गित": 6350,
      "ड्रो": 6351,
      "शनी": 6352,
      "५६": 6353,
      "्रि": 6354,
      "ारो": 6355,
      "विलियम": 6356,
      "लेनी": 6357,
      "देरी": 6358,
      "संबद्ध": 6359,
      "हैंड": 6360,
      "मुठ": 6361,
      "लीन": 6362,
      "मेज": 6363,
      "जीएसटी": 6364,
      "अनंत": 6365,
      "एसई": 6366,
      "वैधानिक": 6367,
      "नगरपालिका": 6368,
      "मनमोहन": 6369,
      "नौकर": 6370,
      "सेनानी": 6371,
      "बर्फ": 6372,
      "ंकियों": 6373,
      "मीरपुर": 6374,
      "कलाकारों": 6375,
      "ह्वान": 6376,
      "गर्व": 6377,
      "क्राइम": 6378,
      "श्रेष्ठ": 6379,
      "टाइम्स": 6380,
      "डाउनलोड": 6381,
      "टॉप": 6382,
      "अम्ल": 6383,
      "सपने": 6384,
      "गहलोत": 6385,
      "हस्तक्षेप": 6386,
      "चाहूँगा": 6387,
      "ज्वालामुखी": 6388,
      "मछली": 6389,
      "ढूंढ": 6390,
      "सिपाही": 6391,
      "मुंगेर": 6392,
      "घंटों": 6393,
      "बीसीसीआई": 6394,
      "आंगन": 6395,
      "दह": 6396,
      "मलिक": 6397,
      "शतक": 6398,
      "याल": 6399,
      "र्व": 6400,
      "किस्तान": 6401,
      "कोत्तर": 6402,
      "माफिया": 6403,
      "होश": 6404,
      "बालक": 6405,
      "रियों": 6406,
      "स्टर्स": 6407,
      "फ़ॉ": 6408,
      "पुरम": 6409,
      "२०२२": 6410,
      "डीह": 6411,
      "बनाये": 6412,
      "डाइ": 6413,
      "हिन्द": 6414,
      "विश्वस": 6415,
      "क्रिसमस": 6416,
      "भेजी": 6417,
      "कृतियाँ": 6418,
      "पुराण": 6419,
      "लिखकर": 6420,
      "डोना": 6421,
      "सायिक": 6422,
      "प्रशिक्षित": 6423,
      "१९४८": 6424,
      "ट्रैफिक": 6425,
      "निशाने": 6426,
      "स्ट्रि": 6427,
      "जमशे": 6428,
      "निराश": 6429,
      "प्रोत्साहित": 6430,
      "आयुर्वेद": 6431,
      "थाईलैण्ड": 6432,
      "नजदी": 6433,
      "पूर्वोत्तर": 6434,
      "ऐप": 6435,
      "कच्": 6436,
      "पराम": 6437,
      "बस्ती": 6438,
      "रें": 6439,
      "सकी": 6440,
      "७४": 6441,
      "स्पा": 6442,
      "नाबा": 6443,
      "प्रकट": 6444,
      "विभाजित": 6445,
      "हास्य": 6446,
      "पांड": 6447,
      "ल्फ़": 6448,
      "अपमान": 6449,
      "मंत": 6450,
      "क्रमा": 6451,
      "शिष्य": 6452,
      "योद्धा": 6453,
      "प्राणी": 6454,
      "पिन": 6455,
      "हेल": 6456,
      "डेमो": 6457,
      "पंथी": 6458,
      "ब्रो": 6459,
      "अगला": 6460,
      "बढ़ाया": 6461,
      "भुत": 6462,
      "लौटने": 6463,
      "युवकों": 6464,
      "तारीख": 6465,
      "ब्रेक": 6466,
      "गायत्री": 6467,
      "मज़ाक": 6468,
      "मेहता": 6469,
      "फेंक": 6470,
      "जिब्राल्टर": 6471,
      "विश्वसनीय": 6472,
      "आस्ट्रेलिया": 6473,
      "एथ": 6474,
      "एफ़": 6475,
      "खल": 6476,
      "लड": 6477,
      "िम": 6478,
      "१०००": 6479,
      "सेकंड": 6480,
      "मिसाइल": 6481,
      "चाहेंगे": 6482,
      "बिका": 6483,
      "रुचि": 6484,
      "ंचे": 6485,
      "सूरी": 6486,
      "प्रतिद्वं": 6487,
      "द्रव्य": 6488,
      "सम्बंध": 6489,
      "ग्राउंड": 6490,
      "क्टो": 6491,
      "वोटों": 6492,
      "सुनकर": 6493,
      "रोकथाम": 6494,
      "चैन": 6495,
      "हॉस्पिटल": 6496,
      "१९५२": 6497,
      "फ्रंट": 6498,
      "आइए": 6499,
      "क्रोश": 6500,
      "वैक्सीनेशन": 6501,
      "एक्स्": 6502,
      "कम्पनी": 6503,
      "जायेगी": 6504,
      "थुन": 6505,
      "अत्यधिक": 6506,
      "आख़िरी": 6507,
      "अरुणाचल": 6508,
      "कामयाब": 6509,
      "सिक्योरिटी": 6510,
      "पारंपरिक": 6511,
      "सोसायटी": 6512,
      "कहो": 6513,
      "डें": 6514,
      "नवी": 6515,
      "वण": 6516,
      "५८": 6517,
      "७७": 6518,
      "यात": 6519,
      "प्रिया": 6520,
      "विरासत": 6521,
      "मालूम": 6522,
      "लिनी": 6523,
      "मुँ": 6524,
      "दीक्षित": 6525,
      "रूपा": 6526,
      "्याज": 6527,
      "वीण": 6528,
      "पीने": 6529,
      "मानवा": 6530,
      "जोड़ा": 6531,
      "इनकार": 6532,
      "दूंगा": 6533,
      "छाड़": 6534,
      "टिन": 6535,
      "आईजी": 6536,
      "बैग": 6537,
      "फेयर": 6538,
      "खोला": 6539,
      "१९७३": 6540,
      "१९७४": 6541,
      "पर्यटकों": 6542,
      "आंकड़ों": 6543,
      "गोलीबारी": 6544,
      "दरवाज़ा": 6545,
      "दरवाज़े": 6546,
      "इलेक्ट्रिक": 6547,
      "मायने": 6548,
      "व्यावसायिक": 6549,
      "प्रीमियर": 6550,
      "शौचालय": 6551,
      "सिद्धार्थ": 6552,
      "आग्रह": 6553,
      "आक्रमण": 6554,
      "आक्रोश": 6555,
      "इम्": 6556,
      "इकल": 6557,
      "ड्स": 6558,
      "फस": 6559,
      "ैया": 6560,
      "स्ला": 6561,
      "परन्तु": 6562,
      "लेक्सी": 6563,
      "पाते": 6564,
      "फ़ु": 6565,
      "प्रां": 6566,
      "योग्यता": 6567,
      "कर्तव्य": 6568,
      "पेरिस": 6569,
      "ख़राब": 6570,
      "रखकर": 6571,
      "खिलाफ़": 6572,
      "फाउंडेशन": 6573,
      "खेत": 6574,
      "क़ि": 6575,
      "बसों": 6576,
      "व्यक्तित्व": 6577,
      "जलप्रपात": 6578,
      "संगीतकार": 6579,
      "लौटा": 6580,
      "युवती": 6581,
      "ट्रैक": 6582,
      "कारोबारी": 6583,
      "आँखें": 6584,
      "अध्यापक": 6585,
      "आकर्षक": 6586,
      "प्रायद्वीप": 6587,
      "बेंग": 6588,
      "व्हाइट": 6589,
      "विभाजन": 6590,
      "बेसबॉल": 6591,
      "निस्तारण": 6592,
      "ंदे": 6593,
      "अण्ड": 6594,
      "खनि": 6595,
      "जरिये": 6596,
      "पैं": 6597,
      "हमीरपुर": 6598,
      "ारों": 6599,
      "वाड़ी": 6600,
      "विलय": 6601,
      "निदेशा": 6602,
      "साप्ता": 6603,
      "संधि": 6604,
      "त्तरी": 6605,
      "ंगों": 6606,
      "जियो": 6607,
      "दीपिका": 6608,
      "हियों": 6609,
      "परिचालन": 6610,
      "रुख": 6611,
      "डाक": 6612,
      "पैदल": 6613,
      "पूर्णिमा": 6614,
      "फेल": 6615,
      "देवता": 6616,
      "पड़ने": 6617,
      "तैयारियों": 6618,
      "१९७६": 6619,
      "दायित्व": 6620,
      "प्रभात": 6621,
      "रॉबर्ट": 6622,
      "अरबी": 6623,
      "सीसीटीवी": 6624,
      "ढाई": 6625,
      "पाएंगे": 6626,
      "ज़िम्मेदार": 6627,
      "आखिरकार": 6628,
      "बढ़ोतरी": 6629,
      "मुफ्त": 6630,
      "मानवाधिकार": 6631,
      "साप्ताहिक": 6632,
      "कम्": 6633,
      "चट": 6634,
      "चतु": 6635,
      "नस्": 6636,
      "राठ": 6637,
      "वाशिंगटन": 6638,
      "न्वित": 6639,
      "परम": 6640,
      "पायर": 6641,
      "सीधा": 6642,
      "रोका": 6643,
      "डीएस": 6644,
      "बोस": 6645,
      "आरसी": 6646,
      "र्थियों": 6647,
      "पैमाने": 6648,
      "फ्तार": 6649,
      "क़री": 6650,
      "लैब": 6651,
      "पड़ती": 6652,
      "आएंगे": 6653,
      "थानाध्यक्ष": 6654,
      "फ़ाइल": 6655,
      "उपाय": 6656,
      "व्यापारिक": 6657,
      "शरीफ": 6658,
      "चार्ली": 6659,
      "गड़बड़": 6660,
      "आँखों": 6661,
      "प्रत्याशियों": 6662,
      "कन्नड़": 6663,
      "अर्थात": 6664,
      "परिवर्तित": 6665,
      "--": 6666,
      "ंसीसी": 6667,
      "ओगे": 6668,
      "ओड़ि": 6669,
      "कश": 6670,
      "गली": 6671,
      "र्डिंग": 6672,
      "प्रश": 6673,
      "प्रवीण": 6674,
      "वालय": 6675,
      "लेती": 6676,
      "रिकार्ड": 6677,
      "राजू": 6678,
      "रोशन": 6679,
      "खाबाद": 6680,
      "उसको": 6681,
      "जोड़ी": 6682,
      "पहना": 6683,
      "आपराध": 6684,
      "टेशन": 6685,
      "ंचित": 6686,
      "सिंचाई": 6687,
      "जिसमे": 6688,
      "डेस्क": 6689,
      "लोकतंत्र": 6690,
      "एनजी": 6691,
      "फोर्ड": 6692,
      "करीबी": 6693,
      "लॉस": 6694,
      "दिखाना": 6695,
      "फर्रु": 6696,
      "प्यारी": 6697,
      "रॉयल": 6698,
      "भवती": 6699,
      "प्रीत": 6700,
      "१९४७": 6701,
      "व्ही": 6702,
      "संरक्षित": 6703,
      "हथियारों": 6704,
      "ड्राइवर": 6705,
      "सच्चाई": 6706,
      "हिन्दुस्तान": 6707,
      "नाराजगी": 6708,
      "वर्गीय": 6709,
      "अल्पसंख्यक": 6710,
      "उपरांत": 6711,
      "मुँह": 6712,
      "निदेशालय": 6713,
      "आपराधिक": 6714,
      "अजीत": 6715,
      "आलम": 6716,
      "आह्वान": 6717,
      "एरिया": 6718,
      "चेंज": 6719,
      "नमा": 6720,
      "बलि": 6721,
      "लूँगा": 6722,
      "६६": 6723,
      "स्त्री": 6724,
      "क्लिक": 6725,
      "वितरित": 6726,
      "साजिश": 6727,
      "बाज़ार": 6728,
      "तीव्र": 6729,
      "ंगना": 6730,
      "सिख": 6731,
      "ैंस": 6732,
      "दायक": 6733,
      "मीरी": 6734,
      "फ़ार": 6735,
      "दुबई": 6736,
      "प्रतिभाग": 6737,
      "महाप": 6738,
      "फील्ड": 6739,
      "लड़का": 6740,
      "लड़कों": 6741,
      "सदस्यता": 6742,
      "छोड़ना": 6743,
      "इतिहासकार": 6744,
      "१९७९": 6745,
      "१९६१": 6746,
      "१९६८": 6747,
      "गर्भवती": 6748,
      "एफआईआर": 6749,
      "समस्याएं": 6750,
      "चैम्": 6751,
      "१९५५": 6752,
      "रजनी": 6753,
      "ोग्राफी": 6754,
      "दवाओं": 6755,
      "कठोर": 6756,
      "काउंसिल": 6757,
      "तलवार": 6758,
      "शूट": 6759,
      "सिंधिया": 6760,
      "प्रशंसा": 6761,
      "तिब्बत": 6762,
      "वसूली": 6763,
      "त्योहार": 6764,
      "आंत": 6765,
      "उड़ी": 6766,
      "डमि": 6767,
      "दलित": 6768,
      "नफ़": 6769,
      "नर्म": 6770,
      "बों": 6771,
      "बसे": 6772,
      "बरी": 6773,
      "सज़ा": 6774,
      "हवाले": 6775,
      "प्रक्षेप": 6776,
      "लिंक": 6777,
      "साइंस": 6778,
      "जाट": 6779,
      "जानिए": 6780,
      "तिका": 6781,
      "बामा": 6782,
      "ल्ले": 6783,
      "रोमन": 6784,
      "पीपी": 6785,
      "खाड़ी": 6786,
      "वर्स": 6787,
      "चिट्": 6788,
      "डिब्": 6789,
      "निकली": 6790,
      "बनाती": 6791,
      "एसआई": 6792,
      "बहुमत": 6793,
      "हरीश": 6794,
      "जैक": 6795,
      "महानगर": 6796,
      "बैंग": 6797,
      "चलना": 6798,
      "त्वचा": 6799,
      "ब्रॉ": 6800,
      "अधिकृत": 6801,
      "क्रिप्ट": 6802,
      "फोड़": 6803,
      "घाय": 6804,
      "गिरफ़्तार": 6805,
      "सचिवालय": 6806,
      "अफ़ग़ानिस्तान": 6807,
      "दिखने": 6808,
      "दिग्विजय": 6809,
      "स्नात": 6810,
      "दिलचस्प": 6811,
      "क्सिको": 6812,
      "सहारनपुर": 6813,
      "गुर्जर": 6814,
      "ईसा": 6815,
      "टार": 6816,
      "थल": 6817,
      "रथ": 6818,
      "वनी": 6819,
      "ॉप": 6820,
      "करवाई": 6821,
      "कोवि": 6822,
      "राणिक": 6823,
      "लेखा": 6824,
      "जातीय": 6825,
      "बाज़ी": 6826,
      "म्बे": 6827,
      "राजन": 6828,
      "राजभवन": 6829,
      "सुष": 6830,
      "सुशील": 6831,
      "टीसी": 6832,
      "१९५०": 6833,
      "स्थगित": 6834,
      "मोड़": 6835,
      "डीवी": 6836,
      "पिक्स": 6837,
      "कॉमे": 6838,
      "जुटे": 6839,
      "हांत": 6840,
      "विश्वविद्यालयों": 6841,
      "डेन": 6842,
      "क्षिप्त": 6843,
      "गाँधी": 6844,
      "परीक्षाओं": 6845,
      "ट्रेड": 6846,
      "अभियांत्रिकी": 6847,
      "उपयोगी": 6848,
      "बनेगा": 6849,
      "सांसदों": 6850,
      "साइबर": 6851,
      "अलविदा": 6852,
      "एड्स": 6853,
      "पौराणिक": 6854,
      "वायुसेना": 6855,
      "मल्टी": 6856,
      "कस्बे": 6857,
      "उज्जैन": 6858,
      "टेलिवि": 6859,
      "कमबख्त": 6860,
      "ग़लती": 6861,
      "मुठभेड़": 6862,
      "परामर्श": 6863,
      "महापौर": 6864,
      "अन्न": 6865,
      "जमी": 6866,
      "ुति": 6867,
      "५३": 6868,
      "स्के": 6869,
      "लेक्स": 6870,
      "साहन": 6871,
      "बालों": 6872,
      "नीता": 6873,
      "चाँ": 6874,
      "पीढ़ी": 6875,
      "चिस्तान": 6876,
      "परिजन": 6877,
      "डीजल": 6878,
      "ग्रहों": 6879,
      "ख़ूब": 6880,
      "आजम": 6881,
      "आतंकियों": 6882,
      "स्वीकृति": 6883,
      "समीकरण": 6884,
      "डोज": 6885,
      "कटौती": 6886,
      "हॉट": 6887,
      "१९५४": 6888,
      "बिजनेस": 6889,
      "स्टाइल": 6890,
      "लाइव": 6891,
      "इंजीनियरी": 6892,
      "हिस्सेदारी": 6893,
      "सौंपी": 6894,
      "सब्जी": 6895,
      "ड्राइव": 6896,
      "कहलाता": 6897,
      "वारदात": 6898,
      "गगनचु": 6899,
      "नफ़रत": 6900,
      "आवासी": 6901,
      "इका": 6902,
      "चम्": 6903,
      "दशा": 6904,
      "धवन": 6905,
      "मरण": 6906,
      "मंगो": 6907,
      "४१": 6908,
      "काँ": 6909,
      "र्या": 6910,
      "नाना": 6911,
      "प्रण": 6912,
      "प्रथा": 6913,
      "वाकां": 6914,
      "लाकर": 6915,
      "वियों": 6916,
      "साझे": 6917,
      "बाजों": 6918,
      "संदीप": 6919,
      "गाड़ियों": 6920,
      "द्दा": 6921,
      "ज़बर": 6922,
      "सरण": 6923,
      "साथियों": 6924,
      "कहानियाँ": 6925,
      "तोमर": 6926,
      "इनको": 6927,
      "हमसे": 6928,
      "डिज़ा": 6929,
      "पेज": 6930,
      "ष्मा": 6931,
      "शेट्टी": 6932,
      "रखेंगे": 6933,
      "एंबुलेंस": 6934,
      "फ्लै": 6935,
      "क्ट्रेट": 6936,
      "शोभा": 6937,
      "अवतार": 6938,
      "विशेषता": 6939,
      "सौदा": 6940,
      "१९७५": 6941,
      "दर्शक": 6942,
      "चित्रकार": 6943,
      "खरीदी": 6944,
      "छुट्ट": 6945,
      "मुश्कि": 6946,
      "उन्हीं": 6947,
      "प्रभावशाली": 6948,
      "मुलायम": 6949,
      "ब्रह्मा": 6950,
      "अभ्यर्थियों": 6951,
      "बाँध": 6952,
      "जेएनएन": 6953,
      "दीर्घा": 6954,
      "ऊंचाई": 6955,
      "चुम्बकीय": 6956,
      "जमशेदपुर": 6957,
      "फर्रुखाबाद": 6958,
      "स्नातकोत्तर": 6959,
      "आयर": 6960,
      "उद": 6961,
      "ओह": 6962,
      "खतरे": 6963,
      "घरा": 6964,
      "नमू": 6965,
      "फं": 6966,
      "फतेह": 6967,
      "बती": 6968,
      "बहाल": 6969,
      "बघे": 6970,
      "रफ्तार": 6971,
      "शशि": 6972,
      "सल्": 6973,
      "४३": 6974,
      "प्रको": 6975,
      "माबाद": 6976,
      "द्दी": 6977,
      "सियस": 6978,
      "दाई": 6979,
      "रेगा": 6980,
      "कहां": 6981,
      "बेगू": 6982,
      "प्पी": 6983,
      "तोह": 6984,
      "चिप": 6985,
      "परिभाष": 6986,
      "प्रतिरोध": 6987,
      "फांसी": 6988,
      "अवकाश": 6989,
      "लूस": 6990,
      "तृण": 6991,
      "अलर्ट": 6992,
      "फुल": 6993,
      "चिकित्सालय": 6994,
      "स्टिंग": 6995,
      "तोड़ने": 6996,
      "आतंकवादियों": 6997,
      "निराशा": 6998,
      "गणितज्ञ": 6999,
      "क्वार्टर": 7000,
      "क्षुद्र": 7001,
      "फायरिंग": 7002,
      "प्रोत्साहन": 7003,
      "इकट्ठा": 7004,
      "लाहौर": 7005,
      "ऑफ़िस": 7006,
      "सुषमा": 7007,
      "आवासीय": 7008,
      "ंका": 7009,
      "आंक": 7010,
      "घबरा": 7011,
      "ढो": 7012,
      "दत्ता": 7013,
      "मत्": 7014,
      "रौ": 7015,
      "वला": 7016,
      "हथ": 7017,
      "ुत्": 7018,
      "९५": 7019,
      "राज़": 7020,
      "मास्टर्स": 7021,
      "बाय": 7022,
      "मुनि": 7023,
      "रोशनी": 7024,
      "क्रै": 7025,
      "बीवी": 7026,
      "दोहरा": 7027,
      "देखता": 7028,
      "डीन": 7029,
      "सून": 7030,
      "सोचना": 7031,
      "न्नति": 7032,
      "सदस्यी": 7033,
      "गढ़वाल": 7034,
      "इंडोनेशिया": 7035,
      "लैंग": 7036,
      "बैंकिंग": 7037,
      "अर्पित": 7038,
      "सहाय": 7039,
      "समूहों": 7040,
      "शैक्षिक": 7041,
      "तलाक": 7042,
      "शरद": 7043,
      "वेस्टइंडी": 7044,
      "अंदाज": 7045,
      "आइसो": 7046,
      "प्रशंसक": 7047,
      "रत्न": 7048,
      "तस्करी": 7049,
      "नाबालिग": 7050,
      "बेगूसराय": 7051,
      "परिभाषित": 7052,
      "अक्त": 7053,
      "गढ": 7054,
      "ड्रे": 7055,
      "थियों": 7056,
      "नगरीय": 7057,
      "पंद्र": 7058,
      "सभाग": 7059,
      "िस": 7060,
      "लापता": 7061,
      "मिठा": 7062,
      "सीआरपीएफ": 7063,
      "ंगु": 7064,
      "ंगार": 7065,
      "जिक्र": 7066,
      "जिकल": 7067,
      "कुरु": 7068,
      "वेशन": 7069,
      "आपसी": 7070,
      "मोती": 7071,
      "अनुकूल": 7072,
      "क्रमश": 7073,
      "वैद्य": 7074,
      "गिनी": 7075,
      "गिलग": 7076,
      "बढ़ता": 7077,
      "आरती": 7078,
      "१०वीं": 7079,
      "दूरदर्शन": 7080,
      "शर्मि": 7081,
      "किंग्स": 7082,
      "बाजारों": 7083,
      "दुकानें": 7084,
      "पत्रकारिता": 7085,
      "पंजीकृत": 7086,
      "आरोपितों": 7087,
      "जियाबाद": 7088,
      "समर्पण": 7089,
      "एहसास": 7090,
      "समन्वय": 7091,
      "कडियाँ": 7092,
      "सदस्यीय": 7093,
      "अमीर": 7094,
      "अटल": 7095,
      "आभार": 7096,
      "ईद": 7097,
      "ओबामा": 7098,
      "चलाई": 7099,
      "पवार": 7100,
      "लरी": 7101,
      "वेंट": 7102,
      "र्थी": 7103,
      "नियो": 7104,
      "जाहिर": 7105,
      "गाजियाबाद": 7106,
      "एकड़": 7107,
      "ज़मीन": 7108,
      "जीन": 7109,
      "मारकर": 7110,
      "शिल्प": 7111,
      "डिस्ट": 7112,
      "जेक्शन": 7113,
      "अंश": 7114,
      "पेट्रो": 7115,
      "जानें": 7116,
      "श्रमिक": 7117,
      "क़त": 7118,
      "१८०": 7119,
      "ध्यापक": 7120,
      "बर्ताव": 7121,
      "स्टेशनों": 7122,
      "कश्मीरी": 7123,
      "मनाने": 7124,
      "जायजा": 7125,
      "माइकल": 7126,
      "इन्हीं": 7127,
      "नागरिकता": 7128,
      "लक्ष्मण": 7129,
      "नक्सलियों": 7130,
      "रोमांच": 7131,
      "कोयला": 7132,
      "शुभकामनाएं": 7133,
      "अद्भुत": 7134,
      "स्पोर्ट्स": 7135,
      "घायलों": 7136,
      "आधे": 7137,
      "ईसाई": 7138,
      "ज्या": 7139,
      "जटिल": 7140,
      "तं": 7141,
      "नन्": 7142,
      "यमुना": 7143,
      "रैं": 7144,
      "शर्म": 7145,
      "कांव": 7146,
      "स्केट": 7147,
      "लाभार": 7148,
      "विकी": 7149,
      "माओ": 7150,
      "संसाधनों": 7151,
      "दिलाया": 7152,
      "सीए": 7153,
      "मेडल": 7154,
      "दाल": 7155,
      "यहू": 7156,
      "मानता": 7157,
      "्राम": 7158,
      "स्थाई": 7159,
      "लोगो": 7160,
      "बारह": 7161,
      "पूर्वा": 7162,
      "मोन": 7163,
      "कार्यशाला": 7164,
      "उपचुनाव": 7165,
      "उपयुक्त": 7166,
      "बताए": 7167,
      "डाक्टर": 7168,
      "भागने": 7169,
      "मैक्स": 7170,
      "कॉफ़ी": 7171,
      "हेम": 7172,
      "खेर": 7173,
      "बनता": 7174,
      "दरबार": 7175,
      "क़ई": 7176,
      "व्याकरण": 7177,
      "फैल": 7178,
      "बर्दाश्त": 7179,
      "ल्डर": 7180,
      "समझने": 7181,
      "नुसार": 7182,
      "१९६३": 7183,
      "रॉकेट": 7184,
      "लकड़ी": 7185,
      "भावनाओं": 7186,
      "दृढ़": 7187,
      "गृहमंत्री": 7188,
      "चयनित": 7189,
      "स्कोर": 7190,
      "परिक्र": 7191,
      "मेहमान": 7192,
      "गरीबों": 7193,
      "पुलिसकर्मी": 7194,
      "जेटली": 7195,
      "अजमेर": 7196,
      "मलेशिया": 7197,
      "महत्त्वपूर्ण": 7198,
      "प्रोटोकॉल": 7199,
      "छेड़छाड़": 7200,
      "ओड़िशा": 7201,
      "गिलगित": 7202,
      "एटर": 7203,
      "एम्स": 7204,
      "कपा": 7205,
      "खू": 7206,
      "जत": 7207,
      "पमेंट": 7208,
      "भजन": 7209,
      "सप्": 7210,
      "६९": 7211,
      "स्पॉ": 7212,
      "सेकेंड": 7213,
      "किले": 7214,
      "वाक़ई": 7215,
      "साधा": 7216,
      "साक्षर": 7217,
      "द्वाज": 7218,
      "चावल": 7219,
      "अपार्ट": 7220,
      "जीपुर": 7221,
      "हरु": 7222,
      "सूट": 7223,
      "जेन": 7224,
      "भागवत": 7225,
      "शीत": 7226,
      "बुन": 7227,
      "बुरे": 7228,
      "जुर्ग": 7229,
      "महानिदेशक": 7230,
      "बैनर": 7231,
      "कामका": 7232,
      "चलकर": 7233,
      "प्रेमिका": 7234,
      "फैलाने": 7235,
      "देवेंद्र": 7236,
      "ाराम": 7237,
      "नैनी": 7238,
      "इंतजाम": 7239,
      "पीड़न": 7240,
      "तैनाती": 7241,
      "भारतीयों": 7242,
      "टेक्नो": 7243,
      "प्रायः": 7244,
      "गुलाम": 7245,
      "निरस्त": 7246,
      "तत्वों": 7247,
      "कुर्सी": 7248,
      "सिखाया": 7249,
      "फैक्ट्री": 7250,
      "डीवीडी": 7251,
      "गगनचुम्बी": 7252,
      "तृणमूल": 7253,
      "सभागार": 7254,
      "ंटी": 7255,
      "आश्र": 7256,
      "गड": 7257,
      "गंध": 7258,
      "छवि": 7259,
      "जश्न": 7260,
      "दशी": 7261,
      "सप्त": 7262,
      "६७": 7263,
      "नेश्वर": 7264,
      "कालय": 7265,
      "काबू": 7266,
      "सेहत": 7267,
      "नान": 7268,
      "ताइ": 7269,
      "माई": 7270,
      "न्ड": 7271,
      "सावधान": 7272,
      "क्ष्य": 7273,
      "पाकर": 7274,
      "मिर": 7275,
      "ल्टी": 7276,
      "मेजर": 7277,
      "मेहरा": 7278,
      "सिग": 7279,
      "दीक्षा": 7280,
      "राजे": 7281,
      "राजदूत": 7282,
      "सुधीर": 7283,
      "टीमें": 7284,
      "खाता": 7285,
      "बेसिक": 7286,
      "चारी": 7287,
      "डिवी": 7288,
      "गोर": 7289,
      "शीला": 7290,
      "बुजुर्ग": 7291,
      "कॉपी": 7292,
      "जूझ": 7293,
      "चौथी": 7294,
      "श्रमिकों": 7295,
      "गिरने": 7296,
      "बूत": 7297,
      "धर्मशाला": 7298,
      "थोड़े": 7299,
      "करोड़ों": 7300,
      "म्पिक": 7301,
      "कमांड": 7302,
      "पार्टियों": 7303,
      "इस्लामी": 7304,
      "दृष्टिकोण": 7305,
      "विवेकान": 7306,
      "कन्नौज": 7307,
      "आजाद": 7308,
      "उपभोक्ताओं": 7309,
      "पुष्प": 7310,
      "अमृतसर": 7311,
      "कुमाऊँ": 7312,
      "च्छेद": 7313,
      "नदियाँ": 7314,
      "क्रमांक": 7315,
      "एक्स्प्रेस": 7316,
      "उड़ीसा": 7317,
      "नर्मदा": 7318,
      "डिज़ाइन": 7319,
      "अपार्टमेंट": 7320,
      "(;": 7321,
      "अभाव": 7322,
      "आवि": 7323,
      "आस्था": 7324,
      "खैर": 7325,
      "ग्य": 7326,
      "चमक": 7327,
      "जोग": 7328,
      "ड्रेस": 7329,
      "धमा": 7330,
      "पिक": 7331,
      "पंप": 7332,
      "मठ": 7333,
      "महम": 7334,
      "काठ": 7335,
      "सेफ": 7336,
      "नाट": 7337,
      "ताज": 7338,
      "तानी": 7339,
      "राउ": 7340,
      "राइट": 7341,
      "वाइन": 7342,
      "लानी": 7343,
      "क्षमा": 7344,
      "संवैधानिक": 7345,
      "पुण्य": 7346,
      "सियत": 7347,
      "हिनी": 7348,
      "चाप": 7349,
      "देशभर": 7350,
      "शियम": 7351,
      "शिफ्ट": 7352,
      "पीटर": 7353,
      "बीज": 7354,
      "रुद्र": 7355,
      "मोल": 7356,
      "पेशा": 7357,
      "नामों": 7358,
      "जुलूस": 7359,
      "नोडल": 7360,
      "पर्सन": 7361,
      "स्वराज": 7362,
      "चलचित्र": 7363,
      "फेड": 7364,
      "भरपूर": 7365,
      "गैलेक्सी": 7366,
      "असफल": 7367,
      "चर्चित": 7368,
      "१९४५": 7369,
      "अग्रणी": 7370,
      "पार्टमेंट": 7371,
      "काउंटर": 7372,
      "किताबें": 7373,
      "वाइरस": 7374,
      "पुस्तकालय": 7375,
      "सैंपल": 7376,
      "फायदे": 7377,
      "इण्डोनेशिया": 7378,
      "जानवरों": 7379,
      "ग्लोबल": 7380,
      "सेवानिवृत्त": 7381,
      "पराजित": 7382,
      "डोनाल्ड": 7383,
      "डेमोक्रे": 7384,
      "खनिज": 7385,
      "अतः": 7386,
      "कसा": 7387,
      "झटका": 7388,
      "बंदा": 7389,
      "मकिन": 7390,
      "वरु": 7391,
      "वचन": 7392,
      "नेहा": 7393,
      "नाते": 7394,
      "कोषा": 7395,
      "माउ": 7396,
      "होगे": 7397,
      "मुआव": 7398,
      "मुमकिन": 7399,
      "मिसेज़": 7400,
      "सिग्": 7401,
      "रिज़": 7402,
      "रिलायंस": 7403,
      "अपलोड": 7404,
      "राजनय": 7405,
      "सुने": 7406,
      "टीय": 7407,
      "पहने": 7408,
      "चुअल": 7409,
      "द्रो": 7410,
      "ष्ठी": 7411,
      "जानकार": 7412,
      "गिन": 7413,
      "रखो": 7414,
      "कराचार्य": 7415,
      "मार्क्स": 7416,
      "बनार": 7417,
      "बनती": 7418,
      "खुफिया": 7419,
      "व्यवसा": 7420,
      "घात": 7421,
      "ंटिक": 7422,
      "कार्तिक": 7423,
      "तैयारियां": 7424,
      "प्रिंट": 7425,
      "प्रिंसि": 7426,
      "१९६४": 7427,
      "पॉल": 7428,
      "मुंह": 7429,
      "१९५१": 7430,
      "शिकायतों": 7431,
      "गौरी": 7432,
      "सर्वप्रथम": 7433,
      "उपकरणों": 7434,
      "बुलंद": 7435,
      "मस्ति": 7436,
      "बीमारियों": 7437,
      "महत्वाकां": 7438,
      "कमलनाथ": 7439,
      "तिब्बती": 7440,
      "सेमीफाइनल": 7441,
      "बहिष्कार": 7442,
      "चैम्पियन": 7443,
      "अक्तूबर": 7444,
      "अँ": 7445,
      "अंचल": 7446,
      "एजु": 7447,
      "कवर": 7448,
      "गंग": 7449,
      "गड़ा": 7450,
      "गार्": 7451,
      "पठार": 7452,
      "रमन": 7453,
      "ीकरण": 7454,
      "७३": 7455,
      "हैरान": 7456,
      "तात्": 7457,
      "क्शा": 7458,
      "रां": 7459,
      "वाकई": 7460,
      "लाम": 7461,
      "निः": 7462,
      "निवासियों": 7463,
      "बाप": 7464,
      "संगत": 7465,
      "त्ती": 7466,
      "एकजुट": 7467,
      "हिं": 7468,
      "कुश्ती": 7469,
      "रहस्": 7470,
      "न्हे": 7471,
      "रोम": 7472,
      "क्रू": 7473,
      "बेस्ट": 7474,
      "बिन्दु": 7475,
      "चिल्ला": 7476,
      "चारा": 7477,
      "डीडी": 7478,
      "अनुराग": 7479,
      "बताता": 7480,
      "गोप": 7481,
      "सरकारों": 7482,
      "यूएस": 7483,
      "बैडमि": 7484,
      "हेल्प": 7485,
      "महज": 7486,
      "महर्षि": 7487,
      "नीतियों": 7488,
      "ज़ाहिर": 7489,
      "फेद": 7490,
      "संघीय": 7491,
      "चलाते": 7492,
      "ंकित": 7493,
      "ग्रीष्म": 7494,
      "गर्ग": 7495,
      "शांतिपूर्ण": 7496,
      "आवागमन": 7497,
      "प्रतीक्षा": 7498,
      "सिक्किम": 7499,
      "कटिका": 7500,
      "आपातकालीन": 7501,
      "उच्चा": 7502,
      "आख़िरकार": 7503,
      "प्रांतीय": 7504,
      "टेलिविज़न": 7505,
      "एजुकेशन": 7506,
      "बैडमिंटन": 7507,
      "अरो": 7508,
      "ऑर्डर": 7509,
      "गले": 7510,
      "टर्स": 7511,
      "भोग": 7512,
      "केला": 7513,
      "काव": 7514,
      "स्पद": 7515,
      "स्लै": 7516,
      "नाश्": 7517,
      "कोलं": 7518,
      "प्रभार": 7519,
      "विमर्": 7520,
      "औरत": 7521,
      "मुहा": 7522,
      "पाये": 7523,
      "मिथुन": 7524,
      "जीवा": 7525,
      "वेल्स": 7526,
      "सुर्": 7527,
      "मानो": 7528,
      "निर्यात": 7529,
      "रुरत": 7530,
      "उत्पीड़न": 7531,
      "गोस्वामी": 7532,
      "कर्ष": 7533,
      "पेयी": 7534,
      "एमपी": 7535,
      "कहता": 7536,
      "कहती": 7537,
      "जारा": 7538,
      "शर्त": 7539,
      "बहस": 7540,
      "उपलब्धि": 7541,
      "१९६६": 7542,
      "सुनना": 7543,
      "कांस्टेबल": 7544,
      "जीवनी": 7545,
      "प्यारे": 7546,
      "गुलशन": 7547,
      "फ्रेंच": 7548,
      "स्कॉट": 7549,
      "विद्रोह": 7550,
      "आंतरिक": 7551,
      "बघेल": 7552,
      "परिक्रमा": 7553,
      "राजनयिक": 7554,
      "अखा": 7555,
      "गहरी": 7556,
      "झो": 7557,
      "टकरा": 7558,
      "वंचित": 7559,
      "ूरी": 7560,
      "५२": 7561,
      "र्ज": 7562,
      "प्रै": 7563,
      "लालू": 7564,
      "विद": 7565,
      "विफल": 7566,
      "कारिणी": 7567,
      "तियां": 7568,
      "होत्रा": 7569,
      "बाथ": 7570,
      "संकाय": 7571,
      "दित्य": 7572,
      "मिर्जा": 7573,
      "मीरा": 7574,
      "अपडेट": 7575,
      "चारण": 7576,
      "इनसे": 7577,
      "ब्स": 7578,
      "टावर": 7579,
      "श्वत": 7580,
      "खुली": 7581,
      "सैनि": 7582,
      "कलक": 7583,
      "दूरसंचार": 7584,
      "स्वीकृत": 7585,
      "समझना": 7586,
      "उठाना": 7587,
      "दुर्भाग्य": 7588,
      "छुड़ा": 7589,
      "प्लेस": 7590,
      "बन्ध": 7591,
      "आंकड़े": 7592,
      "क्रेडिट": 7593,
      "ड्रै": 7594,
      "तूफान": 7595,
      "रोगियों": 7596,
      "रजत": 7597,
      "िनेंट": 7598,
      "किसने": 7599,
      "ट्यूब": 7600,
      "तेंदु": 7601,
      "अंदाज़ा": 7602,
      "प्लेटफॉर्म": 7603,
      "टेलीविज़न": 7604,
      "अभ्यर्थी": 7605,
      "सेल्सियस": 7606,
      "संभवत": 7607,
      "पोर्टर": 7608,
      "इलेक्ट्रॉनिक": 7609,
      "स्तोत्र": 7610,
      "स्थानांतरित": 7611,
      "तिमाही": 7612,
      "अंटार्कटिका": 7613,
      "बृहस्पतिवार": 7614,
      "आंगनबाड़ी": 7615,
      "वेस्टइंडीज": 7616,
      "मस्तिष्क": 7617,
      "आरा": 7618,
      "आकृति": 7619,
      "उतरे": 7620,
      "घंटा": 7621,
      "डों": 7622,
      "नदियों": 7623,
      "फट": 7624,
      "यड": 7625,
      "शैल": 7626,
      "६१": 7627,
      "क्चर": 7628,
      "प्रदायिक": 7629,
      "राक": 7630,
      "वाम": 7631,
      "न्ग": 7632,
      "हाथी": 7633,
      "बाधित": 7634,
      "संदेह": 7635,
      "मुंडा": 7636,
      "मुक़ा": 7637,
      "पाती": 7638,
      "म्मा": 7639,
      "भाइयों": 7640,
      "मेमो": 7641,
      "जिल": 7642,
      "तरल": 7643,
      "बेबी": 7644,
      "दोस्ती": 7645,
      "लोकार्": 7646,
      "पहचा": 7647,
      "निर्दलीय": 7648,
      "उत्पत्ति": 7649,
      "अनुदान": 7650,
      "अंकित": 7651,
      "कृत्रि": 7652,
      "कर्मा": 7653,
      "टिका": 7654,
      "कैम्": 7655,
      "क़े": 7656,
      "फेर": 7657,
      "सहकारी": 7658,
      "अंतर्": 7659,
      "थिएटर": 7660,
      "प्रदर्शनकारियों": 7661,
      "१६वीं": 7662,
      "ंतित": 7663,
      "ग्रेस": 7664,
      "क्रामक": 7665,
      "छुट": 7666,
      "निकालना": 7667,
      "अन्दर": 7668,
      "सोचते": 7669,
      "छात्रावास": 7670,
      "झेल": 7671,
      "कनेक्शन": 7672,
      "कस्बा": 7673,
      "संतुष्ट": 7674,
      "नीलामी": 7675,
      "सावधानी": 7676,
      "मुसलमानों": 7677,
      "कलकत्ता": 7678,
      "गद्य": 7679,
      "गंदगी": 7680,
      "नग": 7681,
      "नमेंट": 7682,
      "रनों": 7683,
      "लभ": 7684,
      "लैं": 7685,
      "सली": 7686,
      "सफेद": 7687,
      "ैन": 7688,
      "०१": 7689,
      "५१": 7690,
      "५४": 7691,
      "८१": 7692,
      "९८": 7693,
      "कालिक": 7694,
      "स्वर": 7695,
      "नाभि": 7696,
      "प्रवाह": 7697,
      "राई": 7698,
      "लाए": 7699,
      "न्ने": 7700,
      "साइन": 7701,
      "कारक": 7702,
      "होशि": 7703,
      "थान": 7704,
      "मेज़": 7705,
      "दाब": 7706,
      "दायी": 7707,
      "मीणा": 7708,
      "रेगि": 7709,
      "श्वेत": 7710,
      "दर्जनों": 7711,
      "कहानियों": 7712,
      "चिंतित": 7713,
      "परिचित": 7714,
      "मिलन": 7715,
      "हमलों": 7716,
      "स्तन": 7717,
      "लगंज": 7718,
      "अंसारी": 7719,
      "चीजों": 7720,
      "कर्ज": 7721,
      "महावीर": 7722,
      "वैसा": 7723,
      "बैच": 7724,
      "पासपोर्ट": 7725,
      "डेवल": 7726,
      "पैसों": 7727,
      "रतन": 7728,
      "माणिक": 7729,
      "बैठने": 7730,
      "नाराज़": 7731,
      "जातियाँ": 7732,
      "निकलना": 7733,
      "पेशकश": 7734,
      "जायसवाल": 7735,
      "मूर्ख": 7736,
      "श्यप": 7737,
      "चार्ल्स": 7738,
      "निष्ठा": 7739,
      "किशोरी": 7740,
      "जंगली": 7741,
      "नकली": 7742,
      "मल्होत्रा": 7743,
      "विद्वानों": 7744,
      "स्टूडियो": 7745,
      "कार्टून": 7746,
      "पॉलिसी": 7747,
      "पौधों": 7748,
      "पुरातत्व": 7749,
      "विमर्श": 7750,
      "कृत्रिम": 7751,
      "ंतर": 7752,
      "ऑर्": 7753,
      "नकारात्मक": 7754,
      "मसा": 7755,
      "कालोनी": 7756,
      "स्वर्ग": 7757,
      "करों": 7758,
      "किला": 7759,
      "न्तर": 7760,
      "नितिन": 7761,
      "जाऊँगी": 7762,
      "बाली": 7763,
      "संक्षिप्त": 7764,
      "पाय": 7765,
      "पाता": 7766,
      "पाटिल": 7767,
      "म्बा": 7768,
      "मिकी": 7769,
      "सीएस": 7770,
      "दादी": 7771,
      "रेफर": 7772,
      "सुधा": 7773,
      "रूट": 7774,
      "धानों": 7775,
      "टीना": 7776,
      "डिपार्टमेंट": 7777,
      "डाली": 7778,
      "शीट": 7779,
      "मतगणना": 7780,
      "हेमंत": 7781,
      "डेल": 7782,
      "छोर": 7783,
      "धनबाद": 7784,
      "फ्लो": 7785,
      "सुरेंद्र": 7786,
      "व्यवस्थित": 7787,
      "फोर्निया": 7788,
      "ंसल": 7789,
      "न्दगी": 7790,
      "गोलार्": 7791,
      "श्रेण": 7792,
      "कमीशन": 7793,
      "दिखता": 7794,
      "फ्रांसीसी": 7795,
      "खासकर": 7796,
      "आत्मनिर्भर": 7797,
      "जहाज": 7798,
      "अश्वेत": 7799,
      "मणिपुर": 7800,
      "किराए": 7801,
      "केदारनाथ": 7802,
      "तेलुगू": 7803,
      "रिचर्ड": 7804,
      "उद्धव": 7805,
      "अकबर": 7806,
      "सप्लाई": 7807,
      "कंध": 7808,
      "कश्यप": 7809,
      "घों": 7810,
      "नगरी": 7811,
      "बगैर": 7812,
      "मंग": 7813,
      "सद्": 7814,
      "सफ़र": 7815,
      "ूंगी": 7816,
      "५७": 7817,
      "६००": 7818,
      "नासा": 7819,
      "करु": 7820,
      "विनय": 7821,
      "हीरा": 7822,
      "लिता": 7823,
      "निन": 7824,
      "नियोजन": 7825,
      "औरंगाबाद": 7826,
      "नीरज": 7827,
      "लीटर": 7828,
      "मिड": 7829,
      "जीरिया": 7830,
      "भारद्वाज": 7831,
      "सुमन": 7832,
      "बीएम": 7833,
      "गेहूं": 7834,
      "अनूप": 7835,
      "लोग्राम": 7836,
      "निर्धारण": 7837,
      "देखेंगे": 7838,
      "सबका": 7839,
      "गोला": 7840,
      "कर्नल": 7841,
      "नामित": 7842,
      "यूजर्स": 7843,
      "कॉन": 7844,
      "महादेव": 7845,
      "खेड़ा": 7846,
      "खेतों": 7847,
      "कमरा": 7848,
      "श्रीकृष्ण": 7849,
      "ण्डा": 7850,
      "ब्रू": 7851,
      "अवधारणा": 7852,
      "र्डन": 7853,
      "क़्": 7854,
      "स्कूली": 7855,
      "गिरजा": 7856,
      "पक्षीय": 7857,
      "शब्दा": 7858,
      "करवाना": 7859,
      "पलट": 7860,
      "तत्वा": 7861,
      "तारीफ": 7862,
      "आंखों": 7863,
      "दरवाजे": 7864,
      "ग्रंथों": 7865,
      "पृष्ठभूमि": 7866,
      "ढेर": 7867,
      "चालकों": 7868,
      "कीर्ति": 7869,
      "ग्रोवर": 7870,
      "कम्युनिस्ट": 7871,
      "प्रधानाचार्य": 7872,
      "अगुवाई": 7873,
      "साक्षरता": 7874,
      "आविष्कार": 7875,
      "ग्यार": 7876,
      "आयी": 7877,
      "इज़्": 7878,
      "कंटे": 7879,
      "कबीर": 7880,
      "जड़": 7881,
      "डमी": 7882,
      "पकों": 7883,
      "बख्": 7884,
      "लार": 7885,
      "षी": 7886,
      "८००": 7887,
      "९६": 7888,
      "सेमे": 7889,
      "राघ": 7890,
      "वाकर": 7891,
      "लेफ्ट": 7892,
      "सांस": 7893,
      "क्षत्र": 7894,
      "गां": 7895,
      "मुक्के": 7896,
      "चालान": 7897,
      "रेस": 7898,
      "मारना": 7899,
      "राजनाथ": 7900,
      "रहित": 7901,
      "वेन्द्र": 7902,
      "सुरा": 7903,
      "रोजाना": 7904,
      "हार्ट": 7905,
      "तरों": 7906,
      "कार्यकारिणी": 7907,
      "देखती": 7908,
      "सन्न": 7909,
      "अधिग्रहण": 7910,
      "मौर्य": 7911,
      "हेनरी": 7912,
      "एंट्री": 7913,
      "स्वामित": 7914,
      "पैड": 7915,
      "पैरों": 7916,
      "शोर": 7917,
      "शोषण": 7918,
      "अवशेष": 7919,
      "टोल": 7920,
      "ज़ाम": 7921,
      "लुप्त": 7922,
      "झांसी": 7923,
      "खेलना": 7924,
      "रोकना": 7925,
      "फ़ोटो": 7926,
      "जितेंद्र": 7927,
      "१९५८": 7928,
      "ख्ती": 7929,
      "लौटे": 7930,
      "वीरेंद्र": 7931,
      "टैक्सी": 7932,
      "लाइब्रे": 7933,
      "जाओगे": 7934,
      "दुकानदारों": 7935,
      "एजेंसियों": 7936,
      "कमाई": 7937,
      "पश्चात्": 7938,
      "रहेंगी": 7939,
      "जॉनी": 7940,
      "गुलाब": 7941,
      "क्रांतिकारी": 7942,
      "सहमत": 7943,
      "कमबख़्त": 7944,
      "सशस्त्र": 7945,
      "क्षतिग्रस्त": 7946,
      "लड़कियाँ": 7947,
      "अण्डमान": 7948,
      "क़रीब": 7949,
      "लैंगिक": 7950,
      "नैनीताल": 7951,
      "प्रिंसिपल": 7952,
      "आवेद": 7953,
      "उतनी": 7954,
      "खरा": 7955,
      "पठा": 7956,
      "फर्क": 7957,
      "बटा": 7958,
      "भती": 7959,
      "रक्षक": 7960,
      "नेटर": 7961,
      "सेठ": 7962,
      "करूँ": 7963,
      "राक्ष": 7964,
      "राबाद": 7965,
      "राखी": 7966,
      "वाड़े": 7967,
      "विड़": 7968,
      "हासन": 7969,
      "बास": 7970,
      "संसार": 7971,
      "पाटी": 7972,
      "रीना": 7973,
      "जील": 7974,
      "रहमान": 7975,
      "ंडन": 7976,
      "बेशक": 7977,
      "बेल्ट": 7978,
      "जोड़े": 7979,
      "चित्रा": 7980,
      "रुस्त": 7981,
      "डिफ": 7982,
      "पिथ": 7983,
      "अनुशासन": 7984,
      "मैसेज": 7985,
      "विश्वकर्मा": 7986,
      "स्वाय": 7987,
      "पंत": 7988,
      "यारण्य": 7989,
      "अभयारण्य": 7990,
      "परीक्षाएं": 7991,
      "(),": 7992,
      "बढ़ाकर": 7993,
      "छीन": 7994,
      "चरम": 7995,
      "१९४९": 7996,
      "द्विवेदी": 7997,
      "रोगों": 7998,
      "संरक्षक": 7999,
      "इस्लामाबाद": 8000,
      "ड्यूल": 8001,
      "स्पीकर": 8002,
      "पीड़ितों": 8003,
      "ट्रॉफी": 8004,
      "साधना": 8005,
      "न्वयन": 8006,
      "तुलसी": 8007,
      "गाइडलाइन": 8008,
      "कचरा": 8009,
      "जबरदस्त": 8010,
      "मज़बूत": 8011,
      "शारदा": 8012,
      "देहात": 8013,
      "टेक्नोलॉजी": 8014,
      "महमूद": 8015,
      "वरुण": 8016,
      "अंड": 8017,
      "आल": 8018,
      "आधी": 8019,
      "एकी": 8020,
      "कस्ट": 8021,
      "कंगना": 8022,
      "खड़": 8023,
      "दफ़्": 8024,
      "नारी": 8025,
      "पने": 8026,
      "भंग": 8027,
      "वगै": 8028,
      "८४": 8029,
      "विक्रे": 8030,
      "मांगे": 8031,
      "माधव": 8032,
      "संयंत्र": 8033,
      "गाली": 8034,
      "लीस": 8035,
      "मिनल": 8036,
      "सीएचसी": 8037,
      "ंगर": 8038,
      "सुहा": 8039,
      "१९२२": 8040,
      "बेक": 8041,
      "बेश": 8042,
      "गुम": 8043,
      "दुल्": 8044,
      "मुख्यमंत्रियों": 8045,
      "आईआईटी": 8046,
      "मैग्": 8047,
      "हेलि": 8048,
      "डेल्": 8049,
      "पैनल": 8050,
      "खुलने": 8051,
      "ब्रै": 8052,
      "ग्ध": 8053,
      "बॉडी": 8054,
      "कलश": 8055,
      "जिनसे": 8056,
      "गुरुत्": 8057,
      "मूलभूत": 8058,
      "अंग्रेजों": 8059,
      "शंकराचार्य": 8060,
      "मॉड": 8061,
      "तत्त्व": 8062,
      "पर्यटक": 8063,
      "केन्द्रों": 8064,
      "तस्वीरों": 8065,
      "१९३८": 8066,
      "खबरों": 8067,
      "पार्टनर": 8068,
      "स्टोन": 8069,
      "अन्तरराष्ट्रीय": 8070,
      "कॉमर्स": 8071,
      "किराया": 8072,
      "अनुपम": 8073,
      "अर्थात्": 8074,
      "एग्जाम": 8075,
      "कीर्तन": 8076,
      "प्रजापति": 8077,
      "महंगाई": 8078,
      "बलूचिस्तान": 8079,
      "पिक्सल": 8080,
      "लोकार्पण": 8081,
      "आड": 8082,
      "ई०": 8083,
      "उमा": 8084,
      "उदार": 8085,
      "उजागर": 8086,
      "ऑक्": 8087,
      "गवाह": 8088,
      "तबाद": 8089,
      "बग": 8090,
      "मक्": 8091,
      "यरी": 8092,
      "सवालों": 8093,
      "सख्ती": 8094,
      "हज़": 8095,
      "हवाला": 8096,
      "२५०": 8097,
      "५९": 8098,
      "काटने": 8099,
      "स्का": 8100,
      "करोगी": 8101,
      "ताजा": 8102,
      "किरन": 8103,
      "विल्": 8104,
      "मामा": 8105,
      "लिं": 8106,
      "तिलक": 8107,
      "दिष्ट": 8108,
      "भाविक": 8109,
      "चांद": 8110,
      "चांदी": 8111,
      "रिश्वत": 8112,
      "रहस्य": 8113,
      "सरत": 8114,
      "स्थी": 8115,
      "गेटिव": 8116,
      "लोगे": 8117,
      "चिद": 8118,
      "फिल्मी": 8119,
      "हरकत": 8120,
      "सूच": 8121,
      "अनुच्छेद": 8122,
      "गोद": 8123,
      "डान": 8124,
      "यूनानी": 8125,
      "आईएम": 8126,
      "मैडम": 8127,
      "सम्पर्क": 8128,
      "ट्रॉन": 8129,
      "अभियुक्त": 8130,
      "पंक्ति": 8131,
      "उत्तरप्रदेश": 8132,
      "गुरुद्वारा": 8133,
      "चोरों": 8134,
      "ग़ु": 8135,
      "ब्रांच": 8136,
      "पॉली": 8137,
      "चित्रण": 8138,
      "सिलसिले": 8139,
      "बनेगी": 8140,
      "किंगडम": 8141,
      "विजेताओं": 8142,
      "श्रेय": 8143,
      "निकालकर": 8144,
      "रचनात्मक": 8145,
      "रैना": 8146,
      "मार्टिन": 8147,
      "कैंपस": 8148,
      "निवेशकों": 8149,
      "पंजीयन": 8150,
      "गार्डन": 8151,
      "अब्दुल्ला": 8152,
      "स्कीम": 8153,
      "मोटरसाइकिल": 8154,
      "एकादशी": 8155,
      "उद्यमी": 8156,
      "जदयू": 8157,
      "प्रमोद": 8158,
      "ख़रीद": 8159,
      "लोकतांत्रिक": 8160,
      "बेंगलु": 8161,
      "कामकाज": 8162,
      "नाभिकीय": 8163,
      "):": 8164,
      "अनियमित": 8165,
      "आफ": 8166,
      "इताल": 8167,
      "कतों": 8168,
      "तटीय": 8169,
      "धरो": 8170,
      "धड़ी": 8171,
      "बले": 8172,
      "भय": 8173,
      "भयान": 8174,
      "मदर": 8175,
      "सतह": 8176,
      "हसन": 8177,
      "स्नो": 8178,
      "ताना": 8179,
      "क्व": 8180,
      "किलोग्राम": 8181,
      "प्रू": 8182,
      "निबंध": 8183,
      "बास्केट": 8184,
      "पाउ": 8185,
      "मेघ": 8186,
      "मेघा": 8187,
      "हिस्ट्री": 8188,
      "चाकू": 8189,
      "शाक": 8190,
      "रेजि": 8191
    },
    "merges": [
      [
        "्",
        "र"
      ],
      [
        "ा",
        "र"
      ],
      [
        "क",
        "े"
      ],
      [
        "े",
        "ं"
      ],
      [
        "य",
        "ा"
      ],
      [
        "ह",
        "ै"
      ],
      [
        "न",
        "े"
      ],
      [
        "म",
        "ें"
      ],
      [
        "क",
        "ा"
      ],
      [
        "स",
        "्"
      ],
      [
        "र",
        "्"
      ],
      [
        "क",
        "ी"
      ],
      [
        "ो",
        "ं"
      ],
      [
        "स",
        "े"
      ],
      [
        "न",
        "ा"
      ],
      [
        "क",
        "र"
      ],
      [
        "त",
        "ा"
      ],
      [
        "क",
        "्"
      ],
      [
        "क",
        "ि"
      ],
      [
        "क",
        "ो"
      ],
      [
        "्",
        "य"
      ],
      [
        "प",
        "्र"
      ],
      [
        "र",
        "ा"
      ],
      [
        "व",
        "ा"
      ],
      [
        "ल",
        "ा"
      ],
      [
        "व",
        "ि"
      ],
      [
        "म",
        "ा"
      ],
      [
        "न",
        "्"
      ],
      [
        "प",
        "र"
      ],
      [
        "ह",
        "ी"
      ],
      [
        "ल",
        "ि"
      ],
      [
        "न",
        "ि"
      ],
      [
        "ल",
        "े"
      ],
      [
        "स",
        "ा"
      ],
      [
        "ह",
        "ा"
      ],
      [
        "ज",
        "ा"
      ],
      [
        "औ",
        "र"
      ],
      [
        "क",
        "ार"
      ],
      [
        "ड",
        "़"
      ],
      [
        "त",
        "ि"
      ],
      [
        "द",
        "े"
      ],
      [
        "त",
        "्र"
      ],
      [
        "ह",
        "ो"
      ],
      [
        "क्",
        "ष"
      ],
      [
        "ब",
        "ा"
      ],
      [
        "स",
        "ं"
      ],
      [
        "ग",
        "ा"
      ],
      [
        "न",
        "ी"
      ],
      [
        "द",
        "ि"
      ],
      [
        "है",
        "ं"
      ],
      [
        "थ",
        "ा"
      ],
      [
        "त",
        "ी"
      ],
      [
        "म",
        "ु"
      ],
      [
        "ि",
        "त"
      ],
      [
        "इ",
        "स"
      ],
      [
        "भ",
        "ी"
      ],
      [
        "प",
        "ा"
      ],
      [
        "र",
        "ी"
      ],
      [
        "म",
        "्"
      ],
      [
        "ल",
        "ी"
      ],
      [
        "ही",
        "ं"
      ],
      [
        "त",
        "े"
      ],
      [
        "त",
        "्"
      ],
      [
        "म",
        "ि"
      ],
      [
        "ह",
        "ु"
      ],
      [
        "स",
        "ी"
      ],
      [
        "ए",
        "क"
      ],
      [
        "ल",
        "्"
      ],
      [
        "न",
        "हीं"
      ],
      [
        "त",
        "ु"
      ],
      [
        "ं",
        "ग"
      ],
      [
        "द",
        "्"
      ],
      [
        "भ",
        "ा"
      ],
      [
        "प",
        "ु"
      ],
      [
        "लि",
        "ए"
      ],
      [
        "म",
        "े"
      ],
      [
        "ज",
        "़"
      ],
      [
        "स",
        "ि"
      ],
      [
        "ै",
        "ं"
      ],
      [
        "ज",
        "ि"
      ],
      [
        "द",
        "ी"
      ],
      [
        "ह",
        "ि"
      ],
      [
        "च",
        "ा"
      ],
      [
        "द",
        "ा"
      ],
      [
        "श",
        "ा"
      ],
      [
        "य",
        "ों"
      ],
      [
        "व",
        "ार"
      ],
      [
        "ो",
        "ग"
      ],
      [
        "र",
        "ि"
      ],
      [
        "कि",
        "या"
      ],
      [
        "्",
        "ट"
      ],
      [
        "म",
        "ी"
      ],
      [
        "र",
        "े"
      ],
      [
        "अ",
        "प"
      ],
      [
        "ज",
        "ी"
      ],
      [
        "म",
        "ार"
      ],
      [
        "म",
        "ैं"
      ],
      [
        "रा",
        "ज"
      ],
      [
        "क",
        "ु"
      ],
      [
        "र",
        "ह"
      ],
      [
        "भ",
        "ार"
      ],
      [
        "स्",
        "ट"
      ],
      [
        "न्",
        "ह"
      ],
      [
        "दे",
        "श"
      ],
      [
        "व",
        "े"
      ],
      [
        "फ",
        "़"
      ],
      [
        "ि",
        "या"
      ],
      [
        "श",
        "्"
      ],
      [
        "ि",
        "क"
      ],
      [
        "य",
        "ह"
      ],
      [
        "स",
        "ु"
      ],
      [
        "र",
        "ो"
      ],
      [
        "प",
        "ू"
      ],
      [
        "र",
        "ू"
      ],
      [
        "म",
        "ं"
      ],
      [
        "ग",
        "ी"
      ],
      [
        "क",
        "्र"
      ],
      [
        "्",
        "या"
      ],
      [
        "ध",
        "ा"
      ],
      [
        "श",
        "ि"
      ],
      [
        "व",
        "ी"
      ],
      [
        "ट",
        "ी"
      ],
      [
        "ं",
        "द"
      ],
      [
        "ह",
        "ार"
      ],
      [
        "तु",
        "म्"
      ],
      [
        "ग",
        "या"
      ],
      [
        "्र",
        "ी"
      ],
      [
        "प",
        "ी"
      ],
      [
        "अ",
        "ध"
      ],
      [
        "स",
        "र"
      ],
      [
        "त",
        "र"
      ],
      [
        "कर",
        "ने"
      ],
      [
        "ख",
        "ा"
      ],
      [
        "स",
        "म"
      ],
      [
        "उ",
        "न्ह"
      ],
      [
        "१",
        "९"
      ],
      [
        "द",
        "र्"
      ],
      [
        "ज",
        "न"
      ],
      [
        "मा",
        "न"
      ],
      [
        "ब",
        "ी"
      ],
      [
        "स्",
        "थ"
      ],
      [
        "ं",
        "ड"
      ],
      [
        "व",
        "र्"
      ],
      [
        "पु",
        "र"
      ],
      [
        "ग",
        "े"
      ],
      [
        "२",
        "०"
      ],
      [
        "अ",
        "न"
      ],
      [
        "उ",
        "स"
      ],
      [
        "सा",
        "थ"
      ],
      [
        "्र",
        "ा"
      ],
      [
        "स्",
        "था"
      ],
      [
        "ष",
        "्ट"
      ],
      [
        "्र",
        "े"
      ],
      [
        "बा",
        "द"
      ],
      [
        "उ",
        "न"
      ],
      [
        "श",
        "न"
      ],
      [
        "क",
        "हा"
      ],
      [
        "मु",
        "झ"
      ],
      [
        "ब",
        "े"
      ],
      [
        "ल",
        "ोग"
      ],
      [
        "द",
        "ो"
      ],
      [
        "प",
        "्"
      ],
      [
        "य",
        "े"
      ],
      [
        "च",
        "्"
      ],
      [
        "त्र",
        "ी"
      ],
      [
        "ढ",
        "़"
      ],
      [
        "मु",
        "ख"
      ],
      [
        "ब",
        "ि"
      ],
      [
        "ल",
        "ो"
      ],
      [
        "य",
        "ो"
      ],
      [
        "ओ",
        "ं"
      ],
      [
        "ज",
        "ो"
      ],
      [
        "प",
        "ह"
      ],
      [
        "मुझ",
        "े"
      ],
      [
        "त",
        "ो"
      ],
      [
        "त",
        "क"
      ],
      [
        "च",
        "ि"
      ],
      [
        "थ",
        "ी"
      ],
      [
        "ू",
        "ँ"
      ],
      [
        "क्ष",
        "े"
      ],
      [
        "आ",
        "प"
      ],
      [
        "ट",
        "े"
      ],
      [
        "पर",
        "ि"
      ],
      [
        "नि",
        "र्"
      ],
      [
        "दि",
        "या"
      ],
      [
        "न",
        "ों"
      ],
      [
        "क्ष",
        "ा"
      ],
      [
        "च",
        "ार"
      ],
      [
        "ट",
        "र"
      ],
      [
        "ब",
        "ार"
      ],
      [
        "श",
        "ु"
      ],
      [
        "इ",
        "न"
      ],
      [
        "फ",
        "ि"
      ],
      [
        "ह",
        "र"
      ],
      [
        "स",
        "क"
      ],
      [
        "य",
        "ु"
      ],
      [
        "ि",
        "यों"
      ],
      [
        "रह",
        "े"
      ],
      [
        "ग",
        "र"
      ],
      [
        "मि",
        "ल"
      ],
      [
        "भार",
        "त"
      ],
      [
        "ग",
        "ु"
      ],
      [
        "थ",
        "े"
      ],
      [
        "ों",
        "ने"
      ],
      [
        "र",
        "ु"
      ],
      [
        "पू",
        "र्"
      ],
      [
        "च",
        "ु"
      ],
      [
        "ब",
        "र"
      ],
      [
        "म",
        "ो"
      ],
      [
        "क्षे",
        "त्र"
      ],
      [
        "ं",
        "च"
      ],
      [
        "ह",
        "म"
      ],
      [
        "प्र",
        "ा"
      ],
      [
        "उ",
        "त्"
      ],
      [
        "ं",
        "ध"
      ],
      [
        "व",
        "ह"
      ],
      [
        "ज",
        "्"
      ],
      [
        "ड",
        "ि"
      ],
      [
        "व",
        "ं"
      ],
      [
        "तु",
        "म"
      ],
      [
        "अप",
        "ने"
      ],
      [
        "ब",
        "्"
      ],
      [
        "कार",
        "्य"
      ],
      [
        "ती",
        "य"
      ],
      [
        "द",
        "ू"
      ],
      [
        "ल",
        "य"
      ],
      [
        "दे",
        "ख"
      ],
      [
        "ड़",
        "ा"
      ],
      [
        "ड",
        "ी"
      ],
      [
        "ट",
        "ा"
      ],
      [
        "तुम्",
        "हार"
      ],
      [
        "प",
        "ार"
      ],
      [
        "द",
        "ु"
      ],
      [
        "स",
        "ू"
      ],
      [
        "नि",
        "क"
      ],
      [
        "ज",
        "े"
      ],
      [
        "कार",
        "ी"
      ],
      [
        "हु",
        "ए"
      ],
      [
        "उ",
        "प"
      ],
      [
        "प",
        "ि"
      ],
      [
        "प्र",
        "ति"
      ],
      [
        "उन्ह",
        "ोंने"
      ],
      [
        "मं",
        "त्री"
      ],
      [
        "स्",
        "त"
      ],
      [
        "द्",
        "वार"
      ],
      [
        "ब",
        "ना"
      ],
      [
        "ह",
        "ें"
      ],
      [
        "ड़",
        "ी"
      ],
      [
        "ल",
        "ग"
      ],
      [
        "व",
        "्य"
      ],
      [
        "ार",
        "ी"
      ],
      [
        "य",
        "र"
      ],
      [
        "य",
        "ोग"
      ],
      [
        "स",
        "ो"
      ],
      [
        "अन",
        "ु"
      ],
      [
        "स",
        "ब"
      ],
      [
        "जा",
        "ए"
      ],
      [
        "राज",
        "्य"
      ],
      [
        "ब",
        "ता"
      ],
      [
        "र",
        "हा"
      ],
      [
        "सि",
        "ं"
      ],
      [
        "द्वार",
        "ा"
      ],
      [
        "छ",
        "ा"
      ],
      [
        "्य",
        "ू"
      ],
      [
        "स",
        "न्"
      ],
      [
        "तुम्",
        "हें"
      ],
      [
        "ह",
        "ूँ"
      ],
      [
        "धा",
        "न"
      ],
      [
        "जि",
        "स"
      ],
      [
        "ग",
        "ो"
      ],
      [
        "्",
        "ड"
      ],
      [
        "अ",
        "ं"
      ],
      [
        "च",
        "ी"
      ],
      [
        "ज्",
        "ञ"
      ],
      [
        "रा",
        "ष्ट"
      ],
      [
        "ल",
        "गा"
      ],
      [
        "क",
        "ृ"
      ],
      [
        "द",
        "्र"
      ],
      [
        "स्",
        "ता"
      ],
      [
        "ख",
        "ि"
      ],
      [
        "ए",
        "स"
      ],
      [
        "क",
        "र्"
      ],
      [
        "कु",
        "छ"
      ],
      [
        "प",
        "े"
      ],
      [
        "भार",
        "तीय"
      ],
      [
        "ग",
        "ई"
      ],
      [
        "भ",
        "ि"
      ],
      [
        "सिं",
        "ह"
      ],
      [
        "क्",
        "त"
      ],
      [
        "वा",
        "ले"
      ],
      [
        "हा",
        "ँ"
      ],
      [
        "ध",
        "ि"
      ],
      [
        "र",
        "ही"
      ],
      [
        "रू",
        "प"
      ],
      [
        "सर",
        "कार"
      ],
      [
        "प्र",
        "देश"
      ],
      [
        "ब",
        "हु"
      ],
      [
        "ध",
        "ार"
      ],
      [
        "प",
        "ो"
      ],
      [
        "हो",
        "ने"
      ],
      [
        "मुख",
        "्य"
      ],
      [
        "दर्",
        "भ"
      ],
      [
        "कि",
        "न"
      ],
      [
        "ष",
        "्"
      ],
      [
        "ना",
        "म"
      ],
      [
        "्री",
        "य"
      ],
      [
        "श्",
        "व"
      ],
      [
        "ड",
        "ा"
      ],
      [
        "ए",
        "वं"
      ],
      [
        "ल्",
        "म"
      ],
      [
        "जा",
        "न"
      ],
      [
        "क",
        "ड़"
      ],
      [
        "पु",
        "लि"
      ],
      [
        "इ",
        "ं"
      ],
      [
        "ल",
        "ों"
      ],
      [
        "लि",
        "या"
      ],
      [
        "अध",
        "ि"
      ],
      [
        "सन्",
        "दर्भ"
      ],
      [
        "य",
        "ू"
      ],
      [
        "ट",
        "ि"
      ],
      [
        "भा",
        "ग"
      ],
      [
        "इस",
        "के"
      ],
      [
        "पह",
        "ले"
      ],
      [
        "ण",
        "ा"
      ],
      [
        "ह",
        "री"
      ],
      [
        "आ",
        "ई"
      ],
      [
        "स",
        "ार"
      ],
      [
        "हु",
        "आ"
      ],
      [
        "श",
        "ी"
      ],
      [
        "को",
        "ई"
      ],
      [
        "हो",
        "गा"
      ],
      [
        "क",
        "ों"
      ],
      [
        "म",
        "ौ"
      ],
      [
        "पुलि",
        "स"
      ],
      [
        "भ",
        "ू"
      ],
      [
        "कर",
        "ना"
      ],
      [
        "ब",
        "ो"
      ],
      [
        "म",
        "ै"
      ],
      [
        "ब",
        "ु"
      ],
      [
        "बहु",
        "त"
      ],
      [
        "ज",
        "ै"
      ],
      [
        "क",
        "ॉ"
      ],
      [
        "चा",
        "हि"
      ],
      [
        "ले",
        "किन"
      ],
      [
        "क",
        "ै"
      ],
      [
        "चाहि",
        "ए"
      ],
      [
        "ग",
        "्र"
      ],
      [
        "व",
        "न"
      ],
      [
        "ब",
        "ंध"
      ],
      [
        "लोग",
        "ों"
      ],
      [
        "ज्ञ",
        "ा"
      ],
      [
        "उन्ह",
        "ें"
      ],
      [
        "कर",
        "ते"
      ],
      [
        "र्",
        "ट"
      ],
      [
        "ें",
        "गे"
      ],
      [
        "स्थ",
        "ित"
      ],
      [
        "ज",
        "ु"
      ],
      [
        "द्",
        "ध"
      ],
      [
        "च",
        "े"
      ],
      [
        "स",
        "म्"
      ],
      [
        "िया",
        "ँ"
      ],
      [
        "ख",
        "़"
      ],
      [
        "ष",
        "ा"
      ],
      [
        "अप",
        "नी"
      ],
      [
        "न",
        "ो"
      ],
      [
        "क्",
        "स"
      ],
      [
        "हि",
        "न्"
      ],
      [
        "ए",
        "म"
      ],
      [
        "द",
        "ार"
      ],
      [
        "क्र",
        "म"
      ],
      [
        "स",
        "भा"
      ],
      [
        "ज",
        "ू"
      ],
      [
        "श",
        "े"
      ],
      [
        "प",
        "हु"
      ],
      [
        "व",
        "र"
      ],
      [
        "म",
        "हा"
      ],
      [
        "स",
        "द"
      ],
      [
        "य",
        "न"
      ],
      [
        "हा",
        "ं"
      ],
      [
        "व",
        "ै"
      ],
      [
        "ब",
        "ै"
      ],
      [
        "ग",
        "ि"
      ],
      [
        "द",
        "ौ"
      ],
      [
        "का",
        "म"
      ],
      [
        "त",
        "था"
      ],
      [
        "ध",
        "्य"
      ],
      [
        "जा",
        "ता"
      ],
      [
        "बा",
        "त"
      ],
      [
        "ग",
        "ए"
      ],
      [
        "प",
        "ता"
      ],
      [
        "कि",
        "सी"
      ],
      [
        "यो",
        "ज"
      ],
      [
        "पा",
        "स"
      ],
      [
        "ड़",
        "े"
      ],
      [
        "ज",
        "ब"
      ],
      [
        "क्",
        "ति"
      ],
      [
        "मैं",
        "ने"
      ],
      [
        "बा",
        "हरी"
      ],
      [
        "ंग",
        "्रे"
      ],
      [
        "स",
        "न"
      ],
      [
        "र",
        "ख"
      ],
      [
        "म",
        "त"
      ],
      [
        "ह",
        "ित"
      ],
      [
        "ह",
        "े"
      ],
      [
        "ं",
        "प"
      ],
      [
        "हु",
        "ई"
      ],
      [
        "ह",
        "मार"
      ],
      [
        "ट",
        "्र"
      ],
      [
        "बता",
        "या"
      ],
      [
        "क्",
        "यों"
      ],
      [
        "ब",
        "ढ़"
      ],
      [
        "पूर्",
        "व"
      ],
      [
        "सब",
        "से"
      ],
      [
        "प",
        "र्"
      ],
      [
        "वि",
        "श्व"
      ],
      [
        "खि",
        "ला"
      ],
      [
        "कर",
        "ा"
      ],
      [
        "स",
        "भी"
      ],
      [
        "क",
        "ू"
      ],
      [
        "्ट",
        "ी"
      ],
      [
        "अ",
        "च्"
      ],
      [
        "म",
        "ू"
      ],
      [
        "२०",
        "१"
      ],
      [
        "फ़",
        "ि"
      ],
      [
        "द्",
        "या"
      ],
      [
        "न",
        "गर"
      ],
      [
        "नि",
        "या"
      ],
      [
        "स्",
        "व"
      ],
      [
        "ले",
        "कर"
      ],
      [
        "सम",
        "य"
      ],
      [
        "च",
        "ल"
      ],
      [
        "पा",
        "ल"
      ],
      [
        "कु",
        "मार"
      ],
      [
        "रा",
        "न"
      ],
      [
        "मार",
        "्"
      ],
      [
        "कड़",
        "ियाँ"
      ],
      [
        "०",
        "०"
      ],
      [
        "जि",
        "ला"
      ],
      [
        "द",
        "्य"
      ],
      [
        "चा",
        "ह"
      ],
      [
        "फ",
        "ा"
      ],
      [
        "अ",
        "ब"
      ],
      [
        "त",
        "्य"
      ],
      [
        "ख",
        "े"
      ],
      [
        "ए",
        "ं"
      ],
      [
        "भा",
        "षा"
      ],
      [
        "ल्",
        "ली"
      ],
      [
        "उन",
        "के"
      ],
      [
        "वा",
        "ली"
      ],
      [
        "मा",
        "म"
      ],
      [
        "रा",
        "म"
      ],
      [
        "स्",
        "वा"
      ],
      [
        "म",
        "ह"
      ],
      [
        "क्",
        "या"
      ],
      [
        "त्र",
        "ा"
      ],
      [
        "राष्ट",
        "्रीय"
      ],
      [
        "न्",
        "न"
      ],
      [
        "स्था",
        "न"
      ],
      [
        "आ",
        "र"
      ],
      [
        "हिन्",
        "दी"
      ],
      [
        "ड",
        "े"
      ],
      [
        "अ",
        "भि"
      ],
      [
        "त्",
        "व"
      ],
      [
        "ज",
        "न्"
      ],
      [
        "प",
        "ं"
      ],
      [
        "क",
        "म"
      ],
      [
        "छ",
        "ो"
      ],
      [
        "वर्",
        "ष"
      ],
      [
        "ं",
        "गा"
      ],
      [
        "र्",
        "थ"
      ],
      [
        "श",
        "्री"
      ],
      [
        "्या",
        "दा"
      ],
      [
        "ज़",
        "ि"
      ],
      [
        "त",
        "ार"
      ],
      [
        "क",
        "ई"
      ],
      [
        "प",
        "ै"
      ],
      [
        "स",
        "र्"
      ],
      [
        "दि",
        "ल्ली"
      ],
      [
        "प्",
        "त"
      ],
      [
        "ग",
        "्रा"
      ],
      [
        "हो",
        "ता"
      ],
      [
        "दि",
        "न"
      ],
      [
        "वि",
        "द्या"
      ],
      [
        "तुम्हार",
        "े"
      ],
      [
        "न्ह",
        "ें"
      ],
      [
        "स",
        "मा"
      ],
      [
        "ंद",
        "्र"
      ],
      [
        "ब",
        "न"
      ],
      [
        "ठ",
        "ा"
      ],
      [
        "ध",
        "न"
      ],
      [
        "म",
        "हि"
      ],
      [
        "उ",
        "से"
      ],
      [
        "चु",
        "ना"
      ],
      [
        "मे",
        "रे"
      ],
      [
        "अध",
        "्य"
      ],
      [
        "ए",
        "ँ"
      ],
      [
        "दा",
        "न"
      ],
      [
        "लो",
        "क"
      ],
      [
        "य",
        "क"
      ],
      [
        "ग",
        "त"
      ],
      [
        "र",
        "त"
      ],
      [
        "स्",
        "कार"
      ],
      [
        "ण",
        "्ड"
      ],
      [
        "उत्",
        "तर"
      ],
      [
        "२०",
        "०"
      ],
      [
        "य",
        "म"
      ],
      [
        "अन",
        "्य"
      ],
      [
        "ं",
        "त"
      ],
      [
        "जा",
        "ने"
      ],
      [
        "ड",
        "ॉ"
      ],
      [
        "ज",
        "य"
      ],
      [
        "क",
        "ह"
      ],
      [
        "फ",
        "ी"
      ],
      [
        "स्ता",
        "न"
      ],
      [
        "महि",
        "ला"
      ],
      [
        "ने",
        "ता"
      ],
      [
        "कर",
        "ण"
      ],
      [
        "शु",
        "रू"
      ],
      [
        "दौ",
        "रान"
      ],
      [
        "प",
        "त्र"
      ],
      [
        "वा",
        "ई"
      ],
      [
        "च्",
        "च"
      ],
      [
        "न",
        "्यू"
      ],
      [
        "म",
        "न"
      ],
      [
        "ख",
        "ु"
      ],
      [
        "त",
        "रह"
      ],
      [
        "ौ",
        "र"
      ],
      [
        "सा",
        "म"
      ],
      [
        "्",
        "स"
      ],
      [
        "फ",
        "्"
      ],
      [
        "क्ष",
        "ण"
      ],
      [
        "न्",
        "या"
      ],
      [
        "ज",
        "ार"
      ],
      [
        "सु",
        "र"
      ],
      [
        "य",
        "हाँ"
      ],
      [
        "क्",
        "ट"
      ],
      [
        "ख",
        "्या"
      ],
      [
        "व",
        "ो"
      ],
      [
        "वा",
        "द"
      ],
      [
        "त",
        "ै"
      ],
      [
        "य",
        "त"
      ],
      [
        "का",
        "ंग्रे"
      ],
      [
        "मा",
        "ण"
      ],
      [
        "सक",
        "ता"
      ],
      [
        "चुना",
        "व"
      ],
      [
        "इ",
        "से"
      ],
      [
        "क्यों",
        "कि"
      ],
      [
        "च",
        "ौ"
      ],
      [
        "ं",
        "क"
      ],
      [
        "ं",
        "त्र"
      ],
      [
        "पार",
        "्टी"
      ],
      [
        "इ",
        "न्हें"
      ],
      [
        "प",
        "ति"
      ],
      [
        "उस",
        "के"
      ],
      [
        "ब",
        "्र"
      ],
      [
        "अध",
        "िक"
      ],
      [
        "विद्या",
        "लय"
      ],
      [
        "श",
        "ो"
      ],
      [
        "पुर",
        "स्कार"
      ],
      [
        "यु",
        "क्त"
      ],
      [
        "रि",
        "या"
      ],
      [
        "ार",
        "्"
      ],
      [
        "क",
        "ंप"
      ],
      [
        "कांग्रे",
        "स"
      ],
      [
        "पूर्",
        "ण"
      ],
      [
        "दू",
        "स"
      ],
      [
        "फ़ि",
        "ल्म"
      ],
      [
        "ल",
        "न"
      ],
      [
        "द",
        "र"
      ],
      [
        "ह",
        "में"
      ],
      [
        "बार",
        "े"
      ],
      [
        "च",
        "ना"
      ],
      [
        "य",
        "ार"
      ],
      [
        "फि",
        "ल्म"
      ],
      [
        "द",
        "ल"
      ],
      [
        "जाए",
        "गा"
      ],
      [
        "प्र",
        "े"
      ],
      [
        "योज",
        "ना"
      ],
      [
        "वि",
        "धा"
      ],
      [
        "ट",
        "ना"
      ],
      [
        "ग",
        "्"
      ],
      [
        "ं",
        "दी"
      ],
      [
        "ह",
        "ों"
      ],
      [
        "पहु",
        "ंच"
      ],
      [
        "अध्य",
        "क्ष"
      ],
      [
        "कार",
        "ण"
      ],
      [
        "व्य",
        "व"
      ],
      [
        "घ",
        "र"
      ],
      [
        "ए",
        "न"
      ],
      [
        "र्",
        "म"
      ],
      [
        "का",
        "ल"
      ],
      [
        "वि",
        "भाग"
      ],
      [
        "अ",
        "व"
      ],
      [
        "जि",
        "ले"
      ],
      [
        "शा",
        "मिल"
      ],
      [
        "वि",
        "धान"
      ],
      [
        "श",
        "हर"
      ],
      [
        "अ",
        "मे"
      ],
      [
        "आ",
        "ज"
      ],
      [
        "श",
        "्र"
      ],
      [
        "स्ट",
        "े"
      ],
      [
        "क्र",
        "ि"
      ],
      [
        "प्र",
        "मुख"
      ],
      [
        "वा",
        "ला"
      ],
      [
        "नी",
        "ति"
      ],
      [
        "अप",
        "ना"
      ],
      [
        "देख",
        "ें"
      ],
      [
        "पर",
        "ी"
      ],
      [
        "हो",
        "गी"
      ],
      [
        "भ",
        "ग"
      ],
      [
        "र्",
        "ड"
      ],
      [
        "ज",
        "ग"
      ],
      [
        "क्",
        "टर"
      ],
      [
        "ह",
        "न"
      ],
      [
        "फि",
        "र"
      ],
      [
        "ध",
        "ी"
      ],
      [
        "कर",
        "ो"
      ],
      [
        "सा",
        "ल"
      ],
      [
        "टी",
        "म"
      ],
      [
        "फ",
        "ो"
      ],
      [
        "का",
        "न"
      ],
      [
        "वि",
        "का"
      ],
      [
        "प",
        "द"
      ],
      [
        "ण",
        "ी"
      ],
      [
        "र्",
        "स"
      ],
      [
        "बी",
        "च"
      ],
      [
        "ल",
        "ू"
      ],
      [
        "ठ",
        "ी"
      ],
      [
        "ती",
        "न"
      ],
      [
        "त्",
        "या"
      ],
      [
        "ं",
        "व"
      ],
      [
        "घ",
        "ा"
      ],
      [
        "स",
        "ै"
      ],
      [
        "कर",
        "ता"
      ],
      [
        "क",
        "़"
      ],
      [
        "अमे",
        "रि"
      ],
      [
        "शि",
        "क्षा"
      ],
      [
        "सक",
        "ते"
      ],
      [
        "ं",
        "स"
      ],
      [
        "त",
        "ह"
      ],
      [
        "उन",
        "की"
      ],
      [
        "आ",
        "दि"
      ],
      [
        "राष्ट",
        "्र"
      ],
      [
        "सं",
        "बंध"
      ],
      [
        "पो",
        "र्ट"
      ],
      [
        "इस",
        "का"
      ],
      [
        "न्",
        "द्र"
      ],
      [
        "य",
        "ी"
      ],
      [
        "व",
        "्या"
      ],
      [
        "वा",
        "न"
      ],
      [
        "क",
        "ला"
      ],
      [
        "कु",
        "ल"
      ],
      [
        "प्र",
        "धान"
      ],
      [
        "दि",
        "र"
      ],
      [
        "बै",
        "ठ"
      ],
      [
        "आ",
        "रो"
      ],
      [
        "कर",
        "ी"
      ],
      [
        "१",
        "८"
      ],
      [
        "जान",
        "कारी"
      ],
      [
        "भा",
        "व"
      ],
      [
        "च",
        "ित"
      ],
      [
        "भ",
        "े"
      ],
      [
        "क्ष",
        "ि"
      ],
      [
        "दो",
        "नों"
      ],
      [
        "मुख्य",
        "मंत्री"
      ],
      [
        "ज्ञा",
        "न"
      ],
      [
        "पा",
        "कि"
      ],
      [
        "स्था",
        "प"
      ],
      [
        "ट",
        "ो"
      ],
      [
        "वा",
        "स"
      ],
      [
        "तुम्हार",
        "ी"
      ],
      [
        "निर्",
        "देश"
      ],
      [
        "व",
        "ल"
      ],
      [
        "म",
        "द"
      ],
      [
        "ज",
        "ारी"
      ],
      [
        "हमार",
        "े"
      ],
      [
        "के",
        "ट"
      ],
      [
        "न",
        "र"
      ],
      [
        "त्",
        "म"
      ],
      [
        "विका",
        "स"
      ],
      [
        "स्",
        "कू"
      ],
      [
        "ल",
        "ॉ"
      ],
      [
        "हो",
        "ती"
      ],
      [
        "कार्य",
        "क्रम"
      ],
      [
        "सद",
        "स्"
      ],
      [
        "य",
        "हां"
      ],
      [
        "ज़",
        "ा"
      ],
      [
        "ज",
        "र"
      ],
      [
        "दर्",
        "शन"
      ],
      [
        "मे",
        "री"
      ],
      [
        "ब",
        "नी"
      ],
      [
        "प्र",
        "ो"
      ],
      [
        "कि",
        "ए"
      ],
      [
        "के",
        "ंद्र"
      ],
      [
        "क",
        "भी"
      ],
      [
        "ंग",
        "े"
      ],
      [
        "परि",
        "वार"
      ],
      [
        "ब",
        "ॉ"
      ],
      [
        "खिला",
        "फ"
      ],
      [
        "शे",
        "ष"
      ],
      [
        "इ",
        "स्"
      ],
      [
        "ग",
        "ठ"
      ],
      [
        "फ",
        "े"
      ],
      [
        "प",
        "श्"
      ],
      [
        "कृ",
        "ति"
      ],
      [
        "दे",
        "ने"
      ],
      [
        "ैं",
        "ड"
      ],
      [
        "स्थ",
        "ि"
      ],
      [
        "ब",
        "स"
      ],
      [
        "अच्",
        "छा"
      ],
      [
        "ग",
        "ढ़"
      ],
      [
        "से",
        "वा"
      ],
      [
        "जन्",
        "म"
      ],
      [
        "फ",
        "ै"
      ],
      [
        "अ",
        "स्"
      ],
      [
        "आप",
        "को"
      ],
      [
        "अधि",
        "कार"
      ],
      [
        "इस",
        "में"
      ],
      [
        "सं",
        "ख्या"
      ],
      [
        "अ",
        "भ"
      ],
      [
        "१",
        "०"
      ],
      [
        "न",
        "ौ"
      ],
      [
        "सा",
        "ं"
      ],
      [
        "क्र",
        "िया"
      ],
      [
        "माम",
        "ले"
      ],
      [
        "ष",
        "ण"
      ],
      [
        "अनु",
        "सार"
      ],
      [
        "ख",
        "ंड"
      ],
      [
        "द",
        "क्षि"
      ],
      [
        "वि",
        "त"
      ],
      [
        "या",
        "द"
      ],
      [
        "रो",
        "ना"
      ],
      [
        "ल",
        "ु"
[...]
